#version: 0.2 - Trained by `huggingface/tokenizers`
Ġ Ġ
e r
i n
Ġ t
o r
o n
a t
e s
Ġ a
h e
r e
l e
Ġ s
ĠĠ ĠĠ
e n
Ġ c
i s
Ġt he
i t
i on
r o
a n
in g
Ġ f
e d
c t
a l
ĠĠ Ġ
Ġ w
Ġt o
a v
d e
a r
Ġ b
Ġ p
c e
Ġ in
u n
a s
l i
i l
e t
p p
l o
u t
Ġ m
en t
u l
Ġ n
av a
s t
Ġ o
a m
j ava
t er
Ġa n
o m
s e
- -
Ġ d
Ġ re
c h
at ion
Ġ or
ĠĠĠĠ ĠĠĠĠ
u r
Ġ I
Ġ T
e c
es s
h o
Ġ S
at e
e w
a d
Ġt h
i d
a g
Ġ is
o t
Ġan d
p t
es t
Ġor g
c k
č Ċ
u s
Ġ h
Ġ 1
e x
0 0
e ct
Ġf or
v er
i m
a b
u m
or k
Ġo f
Ġ 2
i c
Ġ (
Ġ A
o de
Ġb e
v e
is t
Ġp ro
Ġ on
Ġc on
p l
Ġ C
i g
o l
e m
Ġs t
an d
l y
Ġ {
Ġ at
v i
it h
Ġ "
ag e
Ġ de
Ġ r
or t
u p
i le
li p
o d
lip se
Ġ R
c ess
i f
a in
or e
Ġc om
0 1
a p
ul t
o w
er s
q u
-- --
ul d
k e
Ġn ot
o s
a c
Ġ l
e l
a ct
Ġ -
Ġ '
Ġ g
t t
ec lipse
Ġ it
ab le
il d
r i
E x
at or
Ġw ith
he n
Ġ [
li c
e p
Ġ P
a y
Ġ ex
Ġs ho
Ġth at
Ġ 0
p r
u ild
tt p
m ent
a ck
o ur
j ect
Ġ us
ĠĠĠĠ Ġ
r am
C on
Ġa l
ct ion
av e
I n
/ /
s er
a pp
ar t
o c
Ġ D
an i
c pp
Ġ M
ro m
Ġ 3
pt ion
u le
as s
ani um
it anium
Ġa s
1 0
Ġ lo
u e
S t
p ro
o b
ew ork
ram ework
d d
o p
g et
. .
u g
Ġ *
ter n
r un
re ate
n d
am e
Ġ W
en d
p le
Ġsho uld
1 1
u d
in d
c ode
u re
) ;
an g
l er
p er
ĠĠĠĠĠĠĠĠ ĠĠĠĠĠĠĠĠ
f or
f a
Ġ v
Ġ e
Ġf rom
r or
un d
tern al
Ġ F
i z
P ro
v ent
pr ing
al l
as e
ac he
il l
st r
c om
b o
1 2
at a
Ġth is
Ġw e
Ġ =
ex t
c on
ho d
et hod
for m
u b
or y
Ġa pp
l ass
i o
at ed
n t
: //
in t
t h
ĠS t
U I
im e
f ig
1 3
1 4
R e
lo w
2 2
ro id
c ore
A pp
Ġ E
er e
i r
i re
i ve
in ternal
Ġw h
il ter
a il
Ġ N
s pring
Ġa re
: :
r y
vi ce
f ramework
Ġh ttp
ec ut
Ġcon t
Ġ /
it y
5 0
Ġd o
g r
Ġr es
Ġ up
D e
1 7
in e
le ct
u se
f er
Ġt est
ess age
li b
lic ation
ind ow
u pp
ĠT h
1 8
I m
ar d
ĠT he
Ġs c
Con t
od ule
---- ----
Ġs e
p ort
Ġ L
s ion
fa ult
i v
i al
upp ort
re ad
ce ption
0 4
y p
lo y
e ed
Ġ im
Ġc an
Ġw ill
Ġ le
Ġ O
Ġb y
1 6
5 5
er ror
n ect
o g
Ġ J
Ġ :
Ġf ile
1 9
at ch
h t
= "
our ce
Ġ 4
Ġw hen
ud io
V i
0 9
C h
c cess
a ce
en er
re nt
Ġ j
Ġn ew
as ter
Vi ew
Ġ <
a un
spring framework
vi ew
or g
0 6
Ġb ut
b le
s o
o k
Ġa dd
2 3
R O
Ġin st
str act
u i
Ġ B
F ilter
b stract
Ġ if
Ġc h
aun ch
( )
i es
t o
Ġ --
j s
ap ache
Ġh ave
ĠT i
Ġn eed
2 6
Ġpro ject
it ion
0 8
id get
p h
W ork
A bstract
Ġ H
1 5
E R
m l
Ġ U
' ,
Ġr un
Ġ |
Ġ error
4 4
3 9
c es
= =
l ave
2 8
I N
as k
E vent
2 7
t ic
re am
Ġ java
M ethod
Ġs et
ur rent
ĠTh is
ul es
le t
at h
Ġb uild
o ke
om e
yp e
" ,
pl ay
00 00
2 4
il es
an s
) :
d u
2 9
o uld
Ġ }
d b
u al
t ime
is play
2 5
ser v
ĠĠĠĠĠĠĠĠ Ġ
Ġlo g
Ġw ork
Ġ y
Ġ čĊ
T h
um ent
qu est
at ing
Im pl
Ġ use
ĠT itanium
3 8
u st
O S
ar y
Ġ un
ce pt
Ex ception
p o
Ġ2 01
Ġs er
Ġ i
s w
App lication
Ġ G
c reate
5 6
e b
y st
ĠI n
Ġa ut
ain er
ver sion
c ri
S er
g ist
c l
m o
an ag
Ġ #
4 7
t est
Ġus er
o ver
d ate
ow n
per t
en ce
Ġcon fig
5 8
it e
v oke
* *
ve l
0 7
Ġt r
9 9
he ck
y s
T est
} }
o ut
5 7
un ction
lo c
R un
m and
Ġal l
Ġdo es
hen tic
ro w
Ġp l
H and
0 2
3 4
p ect
) .
D K
P I
r es
on e
' t
t r
Ġre p
nect ion
l l
Ġm aster
" :
ce ler
a pt
g ro
it or
lic a
m in
he d
f f
or d
ig ht
M essage
in voke
celer ator
i p
od ules
Ġv al
p on
yst em
Ġs p
en ch
an n
Ġ{ {
S T
Ġf ol
i ch
Ġ en
b ench
o u
Ġde p
sw t
ur ation
F O
Ġc ode
3 6
p en
Work bench
B uild
at ive
' s
lo g
Ġv ar
ĠSt udio
an t
Ġg et
4 6
h ttp
Ġ li
nd roid
c c
Ġ Ex
re d
Ġ X
lo ad
in k
d o
RO R
ĠĠ ĉ
pro cess
4 8
n ing
y n
re f
2 0
5 9
p ut
anag er
i x
a le
a ke
- >
es os
Ġs upport
oc ument
Ġh as
7 9
ĠR es
Ġo ut
ĠR e
Ġus ing
as t
a ch
li ck
Ġm odule
ig n
T i
b er
app celerator
Ġhttp s
f o
D E
f in
Ġwh ich
Ġle vel
Ġch ang
U s
e gr
Ġ version
an ce
x d
w idget
L ist
b ut
Ġ +
C om
ĠS DK
.. /
5 3
R es
ad d
b uild
our ces
Ġs lave
ple ment
ug in
Ġs o
x ml
Ġf unction
Ġy ou
v al
Ġpro cess
Ġat t
ar ch
n ame
ire ct
2 01
d er
li ent
t itanium
m s
an a
U n
ecut or
w ork
ĠĠ čĊ
Ġd ata
Ġaut hentic
t on
ĠP ro
Ġres ult
ER ROR
n s
Ġf ail
Ġn ame
ter cept
widget s
Us ers
ph p
6 4
Ġis s
ul l
pect ed
po int
if ic
p m
el d
c lipse
Ġon e
r ror
i eld
Ġ ho
Ġsho w
b ject
gist ry
is p
Ġ >
ale nd
Ġn o
Ġp os
le d
Ġon ly
Ġre t
ess ion
ad er
Ġl ist
8 6
Ġc lass
de x
W indow
Ġli ke
3 2
Hand ler
en s
ri but
Ġ qu
ĠĠĠĠĠĠĠĠĠĠĠĠĠĠĠĠ ĠĠĠĠĠĠĠĠĠĠĠĠĠĠĠĠ
ep s
r on
at es
De fault
Ġw ould
M anager
3 7
ĠR ep
A dd
egr ation
A ccess
T itanium
3 0
l ang
ĠC on
t ing
ut il
Th read
ers ist
Ġde fault
i b
e an
am ple
f ter
IN FO
ann el
Ġpro pert
isp atch
Ġc reate
Ġin to
x y
Ġl ine
E clipse
Ġc ol
.. .
b ug
Ġ1 8
Ġst art
ct ual
M L
Ġc re
fer ence
Ġc all
du ce
ck et
th er
Ġ 5
3 1
low ing
A S
Ġre c
Ġrep lica
ĠW e
ĠRes ult
fa ce
Ġs ome
A ction
ag es
Ġlevel db
Ġa r
( '
d k
r ing
Ġst at
-------- --------
p y
h and
3 5
act ory
E S
ĠĠĠĠ ĠĠĠ
iz e
T he
h pp
n o
le g
Ġth ere
ial og
Pro cess
a k
Ġs u
7 6
Ġre qu
s p
Ġ V
at form
s s
ot e
7 4
and roid
N ative
u x
ro l
ob ile
Ġb ack
Ġa ction
Ġm e
g er
Access or
as h
Ġo ption
Ġf iles
Ġw as
Ġd is
L o
con t
m on
Ġm ore
run time
Ġ he
Ġ !
== ==
Ġc heck
aunch er
Ġ @
ic al
le ase
Ġc urrent
Ġt ype
p os
at ab
ĠA ndroid
A C
4 9
apt ana
Ġt ask
A R
Ġan y
5 1
u es
u de
Ġe vent
k n
C lass
em pt
Ġj ob
Ġ $
Method Accessor
em pl
s i
Ġt i
ve lo
m odules
un t
ment s
../ ../
e e
o ol
Ġs im
( {
Ġm essage
s ing
ation s
Ġp ar
B ean
or re
ref lect
ĠI t
Ġtest s
tercept or
_ _
8 8
Ġp re
Ġt ime
D isplay
if y
Ġser ver
Ch ain
Ġa bo
0 3
List ener
MethodAccessor Impl
f t
e ar
Ġs ame
Ġ view
Ġd irect
ce iv
Ser vice
Ġ1 6
Ġre quest
Ġsp ec
Ġ} );
s c
Ġ1 0
Ġfol lowing
Ġ1 5
yn c
w w
e at
Ġg ener
Ġus ed
f ul
Ġse lect
Ġp er
ul ator
ur n
v id
it le
00 0
Ġthe n
Ġ ke
en c
Ġin cl
A PI
Ġinst all
us er
pon ent
er y
B U
a re
i an
o st
Ġw in
ro up
o x
Ġiss ue
ecut e
ot h
Ġlo c
2 1
it ory
Ġdep loy
Ġal so
cri pt
u ct
M ain
ack age
ĠĠĠĠ ĠĠ
Ġ ed
W idget
m esos
s et
In v
ceiv ed
b ack
ile d
o und
Ex ecutor
Ġex ist
A s
O N
Cont ext
a f
r c
Ġval ue
um ber
Ġo ver
BU G
P l
Ġs un
al se
Ġw r
orre ct
5 4
L E
Ġ ro
a w
Ġd es
n ot
Ġim plement
Ġcom mand
8 4
q l
lo ver
our se
b e
Ġ //
Ġ lib
Ġup d
n ode
6 6
al ys
Ġstat us
3 3
int egration
Ġrequ ire
Ġt ab
bo o
ct iv
Ġa v
Ġ end
loc al
Ġre port
d ata
0 5
Ġconfig uration
lass ian
m it
atab ase
Ġf ramework
Ġa fter
Ġ1 9
oc ation
V al
gro up
Ġn ode
) ,
lo b
( *
Ġse e
s st
am boo
ug h
Ġf ield
ic es
Ġo ther
at lassian
Ġ2 3
alys is
Ġd ocument
a iled
Ġst ream
DE BUG
indow s
Ġa g
empl ate
ĠEx pected
F actory
Ġo pen
Ġre mo
Ġd isplay
r ary
ang e
E N
gro und
if i
g is
Ġm ethod
M odule
Ġde t
Ġsc re
(* ):
ĠP ersist
Ġpos ition
U p
De leg
d ir
Ġthe m
ode l
Ġcon nection
Ġg o
Ġp art
< /
a x
m ule
o v
Ġ 7
at al
iz ard
Cont ainer
act ion
6 7
t alend
C reate
a use
fin ition
ĠJ S
Ġi OS
T ask
re gistry
kn own
Con fig
ache d
he m
Ġp ath
ĠR un
C ol
Ġ Q
St ream
ĠĠĉ ĉ
Con nection
5 2
Ġs ub
K e
gis ter
ĠA pp
Ġabo ut
L I
Ġcont ent
Ġbut ton
a us
al led
Ġin t
t il
Ġp age
ĠA ctual
Ġup date
Filter Chain
ĠA PI
ab el
ir st
Ġm ake
w eb
re e
form at
T P
q serv
ex ecute
g e
p ar
( );
l es
hand le
Ġ 8
ĠI f
ep loy
e qu
Ġ 6
Ġ0 8
ad ata
R ep
4 5
ate g
ecut ion
lo ck
Pro xy
s end
es e
Ġp ort
Ġand roid
Ġl aunch
w it
Ġc ould
Ġs h
et adata
ĠA dd
op en
Ġ UI
ĠS AS
um n
os itory
ĠSAS L
E rror
o ve
d min
Ġex ception
In terceptor
ĠSt eps
as ed
ad ing
Ġd if
Ġh and
Ġcont ainer
Ġre pro
em s
4 3
T R
Ch annel
F ile
f ile
O T
b in
w e
D ispatch
ĠC reate
Ġtr ans
t en
it ial
ult i
bo ard
n g
ser ver
Ġs ystem
ble m
Ġcont ain
Ġas s
und le
le an
A M
n able
Ġin ter
Ġthe y
Ġn am
Ġo bject
iz er
m ain
ple t
8 9
** **
ro ll
le ction
ail able
H ttp
is h
Ġa ble
hed ul
Ġpropert y
Ġm ay
Ġn pm
Ġdirect ory
Ġ201 4
Eclipse App
A T
Process or
Ġchang e
ar get
ect ion
in ox
ep er
Ġapp ear
Ġrec over
p art
ver y
Ġc lick
Ġt ext
I d
j face
o unt
Ġt able
equ inox
ĠD e
f ore
st all
Ġal low
ĠS er
Ġret urn
am et
f s
Ġlo ok
W hen
Ġn umber
S A
ar k
Ġde vice
ust om
a de
Ġ id
form ation
e ad
n et
ctiv ity
ck er
D ata
s h
Ġ ent
Ġ _
ĠA l
Ġ vi
th on
Ġim age
T able
ith ub
Ser v
i er
Ġser vice
P ar
Ġc ase
r ess
il ity
Th is
Inv ocation
S c
i ce
ag ing
do Filter
A U
v ed
ĠH T
gist r
I D
": "
Ġdep end
Ġav ailable
ifi ed
Ġb et
ĠRep lica
Re quest
n pm
Ġc orrect
no format
8 7
Ġb ec
Deleg ating
c ur
lo ud
0 22
Ġpl ugin
y m
Ġex ample
Ġ .
Ġrun ning
t es
Ġw ay
Ġwh ere
4 0
S C
am pl
Ġapp lication
so le
cri ption
r d
Ġm odules
Ġcom ponent
Ġres ources
in ce
Ġf irst
Ġrepro duce
el l
A ndroid
al ly
i de
ec on
eat ure
â Ģ
sp ace
pr ession
de p
l d
Application FilterChain
Ġj ust
Ġm y
ar n
Ġcre ated
g ing
con fig
Ġ und
ampl es
I t
s upport
Ġ em
ĠX ML
vi ron
j ar
and ard
Ġho w
hedul er
J ob
he ll
velo p
er t
ĠE rror
Ġd own
Ġcon s
\ \
Ġwh ile
E d
st art
ap ter
N ame
Ġw indow
A nd
on g
let e
Ġfail s
Ġs ource
ho t
ĠW hen
ccess ful
ĠS ource
n er
c urrent
Ġp o
Ġre f
ic s
E T
m p
ver t
Ġsc ri
l ack
Ġscri pt
Com mand
Ġatt ached
Ġ" /
o o
iz ed
ific ation
U til
m is
Ġin formation
Ġcom p
T r
v en
Ġdif fer
Ġt ry
Ġf ix
ĠT est
en u
A ut
Ġp ass
l sst
ht ml
in a
S e
ar ning
Ġneed s
Native MethodAccessorImpl
vid er
Ġdoes n
Ġ2 2
Ġt w
7 7
g ithub
Ġim port
Build er
k i
og le
viron ment
I T
ĠI m
Serv let
A d
Ġto ok
ier arch
Ġn ow
od le
6 9
Ġm an
Ġth ese
ĠO pen
Ġund er
L auncher
ĠĠĠĠĠĠĠĠ ĠĠĠĠĠ
ĠF or
L ib
P ool
Ġpropert ies
c s
w ord
ro p
ribut ion
npm js
P ath
Ġbe en
hem a
l ing
Ġ0 3
Ġw ant
Ġan alysis
Ġd ialog
Ġval id
ĠX D
6 2
j ob
ic on
app er
as ic
ur ing
ĠI N
Re f
s rc
Ġth an
", "
Ġdiffer ent
h ome
vi de
e ver
ĠN o
pon se
: '
ad apt
R L
D eploy
c atal
Ġcol umn
adapt or
W e
ho ut
re c
ĠCon t
b amboo
g i
Ġchang es
ar ter
0000 00
c ourse
en ces
S S
d ic
Ġ 01
ĠF ile
Ġbe ing
ĠS ee
im pl
Ġm em
" >
C lient
Ġ 9
Ġf alse
12 7
fin ed
ur es
Un known
R E
m at
Ġa ccess
Ġ* *
Config uration
catal ina
in fo
Ġl ink
part y
f c
op y
bo und
Ġinst ead
A P
Ġe ach
ut ure
Cont ent
Ġke y
Ġincl ud
D es
P age
o us
am el
St arter
read y
du c
ing le
Ġf l
View er
O n
om et
uct ure
6 8
il er
Ġtr ue
F or
Ġ2 0
l ine
ĠM ethod
val id
Ġtw o
Lo ader
Col or
ĠPro ject
AR N
h ing
cl ude
T emplate
av en
ho st
st ream
v is
Ġm ulti
Ġcon nect
act or
Res ource
Ġo ur
pl ugin
Ġby tes
G E
on y
ĠA ut
Ġbe fore
e vent
rd party
A l
it hout
id th
pro ject
4 2
l auncher
Ġr est
ĠD M
6 5
in ux
==== ====
Ġbec ause
iz ation
D ocument
Ġo per
Ġd ist
Ġpro blem
ail s
Up date
Ġwh at
Ġt ho
Cont rol
urrent ly
D ialog
ĠC LI
F ramework
Ġc o
us r
ers ion
oc s
Ġth ro
Ġ 00
W eb
et c
Ġst ill
Ġre ceived
ap s
Ġo cc
ur l
Ġ1 7
fer ences
Ġfol der
Ġen able
Ġed itor
com mon
o ogle
dep loy
W ith
P art
a a
Ġst r
ccessful ly
8 1
Ġre ad
Ġg roup
Ġ ]
Ġre l
ay s
IN G
M ES
Ġinst alled
Ġa ux
ent ial
empt ing
enc y
B undle
N ot
p ath
pro ve
Pro ject
t y
ser t
Eclipse Starter
si ble
a it
i OS
Ġst udio
Ġresult s
Ġm enu
Ġst ate
Ġset ting
Q L
X P
St r
' );
( "
Ġpar amet
L oc
W r
Ġm is
9 7
de bug
ĠU p
S im
t mp
Ġexist ing
Lib rary
a red
t itle
Ġw ithout
Ġde bug
ical ly
H el
x f
Ġ K
up date
ac es
Ġal ready
i ble
as es
Ġscre en
ateg y
EclipseApp Launcher
d ispatch
in ter
ad min
Ġh ere
ir a
send Event
o cket
Ġp ackage
Ad apter
O bject
U N
ĠO n
loc ator
) [
Ġd b
ĠC om
Ġcont ext
Ġadd ed
Ġcurrent ly
Ġag ain
T o
t i
N ode
S ST
Ġthro ugh
in c
Ġf ailed
Ġcom plet
in dex
Ġto p
lo se
Ġpl atform
Thread Pool
: \
Ġa c
Ġnam es
+ +
Ġw ell
Ġauthentic ation
Ġqu ery
Ġback ground
ut ton
Ġd on
op ens
T ype
Ġ k
Ġor der
Ġwr ite
f ilter
t ext
ro und
ser vice
v ices
Ġre gistr
pl ace
Ġout put
ĠĠĠĠĠĠĠĠĠĠĠĠĠĠĠĠĠĠĠĠĠĠĠĠĠĠĠĠĠĠĠĠ ĠĠĠĠĠĠĠĠĠĠĠĠĠĠĠĠĠĠĠĠĠĠĠĠĠĠĠĠĠĠĠĠ
Delegating MethodAccessorImpl
8 3
o op
ess ages
Ġbe h
velo per
Ġb oth
Ġm od
/ .
Ġt itle
Ġincl ude
A n
Ġ icon
Ġm ain
Ġsu ch
serv let
w h
Ġus ers
E n
G A
Ġf ound
http s
ww w
s un
Ġc lient
Ġin v
Ġvi a
ĠIN FO
Ġc r
Ġd atabase
Ġof f
" .
c lass
ad oop
ap i
ro duce
ĠS c
Ġr ight
Ġit s
Ġb ased
R I
dir t
a rent
c all
Default Action
si de
P re
os gi
Window s
Ġocc ur
m ob
Ġ x
Ġto ol
av i
pl y
Ġ' /
test s
ac cess
Ġwe b
Ġupd ated
Ġremo ve
iles dk
m odule
Ġth row
f l
t op
Ġg r
Ġend point
econ d
ThreadPool Executor
A ctivity
Ġa dmin
Ġsp ace
Ġdocument ation
mob ilesdk
G roup
S upport
ec over
um er
Ġl at
con current
s ub
Ġin dex
Work er
Ġwork s
SA GE
ĠB uild
: /
Ġ &
St udio
B utton
o ot
Ġtest ing
Ġ< /
Event Listener
Ġauthentic ate
Ġf ilter
ph one
ĠRe ceived
in clude
Ġs ection
ĠJ ava
ay out
str ing
â Ķ
Ġh ierarch
et ch
Ġiss ues
MES SAGE
L og
ĠW indows
ph ony
Ġpo int
ed i
Ġst ring
db c
v ar
Ġ ...
at tern
ĠĠĉĉ ĉ
ĠA n
Ġdet ect
ym phony
It em
opens ymphony
DefaultAction Invocation
2 00
Ġw arning
ĠA tt
A r
le ment
Ġinst ance
ash board
i ent
Ġp r
ĠM obile
ens hot
wit ter
9 8
Ġg iv
Ġs ince
Ġ1 3
ig ger
ĠPersist ing
mis sion
m odel
---------------- ----------------
J ava
ho w
Ġlo ad
St ring
ĠPersist ed
Ġmulti ple
m aster
w are
row ser
ĠS upport
TR Y
c ol
m od
Ġimplement ation
Ġ Y
ub l
EN TRY
bo x
we en
o id
Ġp ack
' .
S et
c le
s on
Ġ z
or s
Ġf ind
ĠTh ere
Abstract Message
B ase
Ġs end
01 14
h one
ed itor
p us
Ġc ustom
Ġin dic
T ab
d own
w r
Ġh app
re n
RO P
ĠHT TP
In fo
ĠN ode
G ener
J S
Ġs ingle
Ġst or
ag s
Ġ2 1
Im age
Ed itor
Ġevent s
a ut
b d
Ġ201 2
Ġ etc
gr id
tr ue
b it
c lick
Ġd uring
Ġme as
Ġrequire d
Ġbet ween
g ument
in it
Ġm atch
Ġ2 7
re t
Ġcon st
r aw
al ity
S ystem
p ng
w in
ord in
Ke eper
1 00
n ew
Ġs ure
Ġc lean
is e
Ġm ust
em ove
99 99
Ġper form
D ec
ed is
Ġp op
// //
Run ner
tr ans
c m
6 0
c lover
Ġf eature
un it
Ġd one
ĠC h
Ġ xd
Ġt yp
Ġ201 5
Ġconfig ure
T ext
b ase
g ram
ĠS lave
Ġst ack
AU XP
AUXP ROP
E ST
Re ference
Run time
Ġvar i
Ġdis c
Ġupd ates
Val ue
Util s
E nd
av es
ĠĠĠĠĠĠĠĠ ĠĠ
Ex ecution
Ġerror s
Ġpos sible
Ġar t
Ġappear s
c ed
ys ql
Pl atform
H T
c amel
Ġs econd
Ġcon vert
ip al
Ġhe l
be ans
L O
c xf
Ġin itial
Ġm etadata
ĠT o
Ġval ues
S end
Ġw izard
ĠC lick
gr ess
ĠH ow
j ira
y le
al m
os x
ĠRep roduce
oth er
u f
Ġy our
ov y
b ed
Ġbeh avi
Ġc l
Ġfor mat
Ġsc hed
ord er
v m
In dex
ĠG ET
Ġ row
Ġs omet
ĠS e
ri ver
cont ainer
Ġloc ation
inc ipal
y thon
ess aging
022 4
S ocket
d at
Ġb ug
js on
pert ies
Ġti cket
Ġmis sing
D M
8 0
h or
Ġpro vid
T I
Ġoption s
Ġspec ific
c heck
x work
Ġthe ir
ĠN ot
d is
ĠO S
Hand le
ĠAut hentic
t ype
Ġre lease
Ġloc al
ol ut
Ġe ven
val u
Ġauthentic ator
Ġselect ed
Ġpro vide
add EventListener
f low
Ġa b
Ġn on
Ġo b
Ġus es
Ġt arget
Ġin fo
.. ..
9 6
de fault
Ġde velop
50 7
ĠL o
201 4
ribut e
Lo op
S ub
in es
Dispatch er
i li
n i
Ġt er
am p
app ing
Ġa ctual
to ol
Ġen vironment
Ġt im
et ty
ĠA s
Ġ3 0
create Window
Ġrel ated
9 2
d isplay
f iles
in stall
re ak
loc ation
ec ess
Ġst ep
Ch ild
Ġclass es
ubl ish
et r
Ġcorrect ly
Ġauthenticate e
y cle
re g
De finition
Ġti app
ten sion
u ery
Ġ ../../
Ġcon sole
em p
Ġed it
aus ed
Tr ans
A L
S H
l f
Ke y
S ource
ĠĠĠĠ čĊ
st out
Ġre gister
Ġe very
AC S
i ki
Ġst d
Ġv is
ĠJ ob
) @
Ġn ull
St ate
Ġrep ository
V ER
c d
ol ator
oc us
Bean Factory
ith er
ĠSer vice
L aunch
u ch
ĠP lease
lib process
red ential
Par ser
1 10
al loy
Ġb lock
Ġch ar
34 3
ĠQ serv
Ġm in
ul ar
Ġ1 4
em ent
Ġcan not
ual ly
c o
qu e
C urrently
I f
p ace
s ystem
Ġro ot
j c
in al
Ġt e
Ġc ourse
gr ade
Run nable
Ġgener ated
Rep ository
Ġa cc
con nect
w indow
er a
ĠN ote
Ġdis k
user grid
Ġfield s
c group
l aves
et s
ĠĠĠĠĠĠĠĠĠĠĠĠĠĠĠĠ Ġ
ann ot
af e
Sim ple
( $
f alse
Ġm esos
ke y
ĠU RL
Ġscre enshot
arn ed
O ut
ec ur
Pro vider
res ent
9 3
S h
r ay
Ġs ize
Ġcr ash
D B
m pt
av ing
ĠD ata
Ġdes ign
L abel
M D
py thon
Ġdisplay ed
Ġem ulator
C S
ecur ity
F uture
O pen
Ġpro t
19 5
lob al
Hel per
7 8
ĠS u
Ġ1 2
Ġde fined
od er
ĠU n
local host
7 3
S QL
on t
pt ana
Ġpro per
ol ve
St andard
End point
D o
c lient
s dk
et work
Ġ2 6
Ġit ems
pro p
ĠE R
Ġse ems
res h
ar g
as ync
yn ch
Ġit em
str uct
Ġrun time
ĠV ersion
8 5
Ġl abel
empt y
**** ****
ep ar
In put
Ġaut om
Loc al
ordin ator
G et
P o
o oke
Ġex p
Ġmethod s
ecess ary
at us
et a
Ġl ast
Ġproject s
pert y
9 4
Ġ- >
Ġse arch
ath er
K it
b ar
ing s
al y
Ġm essages
Ġan other
Ġde let
el f
Ġtho se
S E
m ap
Ġf low
st ack
ang es
th is
ooke eper
7 0
9 0
c a
ion s
Ġw ere
il ar
ig ate
ĠL SST
Ġhierarch ical
ynch ron
i phone
m e
Ġm obile
02 06
C T
f actory
id d
cont ext
wit ch
9 5
Ġm ode
In t
con s
ĠN ew
Ġadd ition
project s
Q ue
R ow
d ocs
m obile
pl or
St eps
Ġsc heduler
g oogle
t he
ff ect
Ġcre ating
Ġdeploy ment
> (
it er
Ġregistr ar
Ġgiv en
ĠHow ever
er ry
ĠM odule
Ġ* **
Ġstart ed
O M
S cript
s ed
s ource
Ġth read
ab ly
7 5
A I
T H
er se
Ġt itanium
en se
Ġwith in
ass word
ug g
Im plement
Ġsomet hing
C all
f ine
it ies
Ġre g
Ġpro mpt
Ġde lete
app lication
19 0
Ġinter face
Ġe as
De bug
Ġwork ing
yn am
Str ategy
6 3
D L
N ew
om ain
Ġde finition
if act
Ġex ecutor
ir es
p i
w ays
Ġa d
it s
al ler
ĠS T
mo odle
Ġparamet er
Ġdetect ed
) \
Ġc opy
de v
up lic
pr int
Ġshow s
. <
b asic
Ġ qserv
Ġb reak
ĠP l
St ore
row se
Res ources
ĠCon fig
Ġaux prop
k top
il y
ĠS pring
plor er
um e
Ġro ut
F ield
se lf
ĠC heck
enc ies
Ġs epar
Ġs elf
nd er
Ġcont rol
Pl ugin
Ġenable d
erse y
un k
N S
ĠW h
ire d
Ġres ource
serv ices
Val ve
R AM
st ore
Ġres ponse
Ġ4 7
38 6
Build Manager
Ġshow n
B erry
g or
s ql
Ġp i
ĠĠĠĠĠĠĠĠ ĠĠĠ
Ġex pected
Cont ribution
Class Loader
Ġcontain s
lack Berry
P hone
ĠD o
o odle
ĠC re
ĠSt art
ĠU ser
gor ith
Ġin put
10 24
Ġle arned
ak es
eat ures
As ync
Ġremo ved
ĠSu ccessfully
C ache
O R
in terceptor
Ġs ample
am era
ub le
Ser ver
Ġfunction ality
ugg est
] ,
p re
Ġc over
Ġb ro
ui de
ark er
2 10
ro ot
Ġin side
gr ad
17 4
I R
b lob
f unction
st d
ch annel
ĠW eb
ĠER ROR
e g
s lave
} );
as on
vi ous
Ġim prove
D F
j dbc
s cri
Ġc aus
ĠC lover
12 2
po se
Ġth ink
anag ement
Ġsupport ed
Res ult
Ġtask s
olut ion
ct ive
Ġm s
Ġcon f
c p
un ter
pl atform
event s
j unit
o ft
ap h
ay load
Re gistry
Ġhel p
P er
j ersey
y nt
li g
Ġ2 4
Ġl ong
4 000000
S lave
Z oo
Ġ empty
Ġin c
ig r
ri e
Ġal ways
Ġneed ed
res ources
Ġhand le
edi a
4000000 04
M ap
P E
Ġbehavi or
o pt
u id
in s
ing Message
Ġle ft
A N
Ġ el
Ġre ference
âĶ Ģ
Zoo Keeper
R emove
t om
Ġ kn
Ġgener ate
ĠP re
ip e
M O
R ule
f iler
Ġc ases
se e
Ġl sst
hand ler
Ġsim ple
Child ren
' d
i ber
re en
Ġ= =
lect ive
Ġlat est
I DE
Ġ ver
Ġc pus
se lect
id er
In ternal
ĠL og
Contribution Item
ar ies
Ġbe low
ĠJS ON
Ġass ign
s cript
an is
In st
com mand
Re ply
O per
S DK
c at
Ġ `
on itor
Ġb r
Ġset up
back ground
Ġkn ow
W ARN
w indows
ĠAl loy
l ist
Ġ very
Ġp ost
Ġm ight
Ch ange
Ġprocess ing
Un it
Ġcomponent s
4 1
g it
app c
ind ing
red is
r ag
r est
ĠF ailed
ĠIm plement
Ref lective
ĠAtt empting
ynam ic
ynt ax
Ġb ase
Ġpro du
up er
ĠE S
Ġdeploy ed
or ter
Ġw idth
LE D
k en
Ġc lo
Ġd oc
ch anis
Ġ3 04
Ġe ither
Pro duc
load er
Que ue
s ys
re pos
Ġho st
idd en
, "
W izard
f b
ec ycle
um m
nt ity
Re alm
Ġhe ight
7 2
M od
f d
Ġc ho
Ġc ore
ĠS et
ĠR ecover
ator s
Ġme chanis
Ġter min
B ar
Ġa m
ig h
Event Table
ĠPro cess
Ġwr it
Ġdepend ency
etr ics
O r
Ġs ink
Ġd id
16 8
Ġret ur
Ġrequ ires
Ġsim ulator
j etty
t ual
Ġe lement
ĠH SC
process or
Ġint egration
Deploy er
N AP
Ġt ri
Ġc or
Ġcomplet e
: *
a z
k it
Ġf ocus
ĠM esos
ub lic
Ġport s
And Run
SH OT
E E
Ġs ession
av as
us ed
ĠC aused
Ġadd ing
Ġun it
Ġser vices
Ġabo ve
NAP SHOT
8 2
F iles
F ix
l aunch
Ġc group
Ġf re
Ġsu ccess
H P
M essaging
Ġ Exception
at ically
Ġs pring
Ġc alled
et ry
Ġo ld
pr incipal
com p
create AndRun
AC K
Ġdown load
Ġtyp es
redential s
avas cript
b rowse
f ire
s d
v es
ch ar
01 26
Ġex tension
ĠIn stall
Ġar gument
EclipseApp Handle
Se lect
Ġrest art
Ġac cept
9 1
P S
d y
Ġ __
or m
ar ge
Ġdes cription
ĠHT ML
Ġs laves
Ġn ecessary
ch o
Ġ" --
ap e
Wr apper
Ġsepar ate
/ >
F ound
d irect
m essage
v ing
Ġs ave
ce ed
Ġex port
ust er
}} .
Platform UI
O O
ab bit
Ġex ecut
Ġ= >
19 2
Ġversion s
Dec oder
Ġdisc us
createAndRun Workbench
ĠT r
Ġst ore
Ġst eps
ĠM ule
op e
Ġsim ilar
ĠAl so
R edis
b ably
d es
Ġf ine
Ġbuild ing
serv able
Application Context
Future Task
5 25
Ġ0 4
Ti API
Ġjob s
' m
n ate
w iki
Ġf ull
al ib
ab les
gr ession
201 5
U T
ĠD es
St art
ĠĠĠĠĠĠĠĠĠĠĠĠĠĠĠĠ ĠĠĠĠĠ
cur ator
' ve
I ON
U ser
Ġb rowser
Ġm ap
ĠS im
ĠW ork
ĠW ARN
Ġadd ress
Ġch annel
Stream Decoder
Ġbet ter
Control ler
W T
Ġt emplate
Ġs ide
al locator
lic it
Ġatt empting
Ġchar act
Ġ xml
Ġ' *
ĠM aster
S afe
m anager
p ec
in tercept
Ġ2 76
ĠB ut
Ġtr igger
Ġproper ly
5 00
S NAPSHOT
m y
p s
Ġsc hema
Ġim ages
Ġchang ed
iber nate
Ġs dk
Ġre m
ap ro
qu ote
AI LED
Q uery
se cur
Ġnot ice
end point
Ġpl ace
Ġfail ure
Ġke ys
Ġbackground Color
C heck
T ime
m ules
Ġst andard
ĠE n
Ġlog s
secur ity
E D
F I
Ġ1 1
od y
th ing
d fs
g reg
j o
} ,
Â ł
Ġle ast
Ġmeas ure
6 1
t ask
is hed
ĠI D
ĠC o
ĠP ackage
app le
oc o
Ġspec ify
Ġman y
Ġsetting s
" );
I s
O f
S pring
c hed
w ard
an e
Ġp resent
Ġd rop
em arker
Ġ201 3
56 8
ron g
ib ility
Ġcall s
unt u
Ġspec ified
par se
Ġtry ing
Deploy ment
fl u
ĠY ou
M etadata
l ess
Ġ 58
re port
Ġb atch
Ġ1 50
ĠA ptana
ang u
Ġfol low
T ree
d iv
Ġ )
Ġt ake
an k
ĠT I
ĠT ype
ĠP er
= /
U RL
c f
i os
er ies
an ch
Ġto o
Ġh ard
ist ent
ble ms
Reflective Method
U S
ro ss
Ġn ative
Ġ0 5
ĠUp d
ĠAuthentic ation
C o
C ore
de veloper
Ex pression
09 17
Ġ201 0
Ġpass word
u il
Ġc ert
Ġm ost
Ġm odel
bo ok
09 09
Rep ort
Ġdepend encies
ĠES B
M ake
Ġn ext
st and
Ġre le
um ns
Ġpro pos
17 2
AU TH
Ġconnect or
ĠSe lect
flu ence
b a
de fined
im age
Ġal ert
alend ar
HT TP
F Y
d ist
r a
t end
Ġ View
Ġb o
Ġd ue
ĠI nt
ĠR EST
ac cept
pro perties
32 000
Ġqu e
31 000
empl ates
Des ktop
c or
c ache
Ġ2 00
Ġex ecution
08 28
dat apro
dy lib
datapro filer
" />
g ed
z ookeeper
ri x
Ġ3 15
13 5
ĠL aunch
ok en
Ġfunction s
Ġcol or
Ġsu ccessfully
wr ite
B lob
N ull
h y
Ġ \
Ġb ox
Ġin valid
pon d
Ġdis able
Ġlib rary
======== ========
uplic ate
w n
Ġre gistry
ĠA r
10 28
14 9
val ue
âĢ Ĥ
ingMessage Handler
0 507
6 79
Ġ 57
le vel
Ġp attern
ce l
Ġex ternal
ĠD eploy
Pro c
09 29
ĠU sing
Ġinclud ed
Ġaddition al
Ġcaus es
repos itory
S L
X ML
01 24
0000 0000
ĠSer ver
Document s
raw able
" )
le ments
Ġre ason
Ġpro bably
od es
if est
Ġ0 7
Ġexist s
Ġab ility
oco a
uil t
E ntity
n io
s how
Ġre gression
ĠD eb
ug ht
ĠE d
06 26
27 2
cont ent
Ġfl ag
valu ate
Ġ url
Ġc lose
Ġre fer
07 14
ak ing
Channel Adapter
b c
Ġc ount
Ġon ce
Content s
Po inter
ReflectiveMethod Invocation
U D
m ethod
t s
Ġs hell
pp ing
01 23
Abstract Reply
Ġauthentic ated
Ġplugin s
C AT
T Y
X D
pp ed
ĠT alend
ĠS o
ab ility
ist ics
up le
Ġg it
th read
ĠL ist
ersist ence
AC E
Ġactual ly
Ġautom atically
ed it
Ġm ove
Ġsc roll
Ġdet ails
Ġpart ic
000000 01
mules oft
. ,
Ġ est
Ġt ag
Ġb ar
ĠA P
44 3
Ġcre ation
Ġpre vious
Ġscript s
Ġmem ory
Ġprovid ed
ili ary
Produc ingMessageHandler
H SC
f r
Ġw ho
str ument
(*): [
Table View
Ġdist ribution
Pointer Exception
AbstractReply ProducingMessageHandler
1 50
h adoop
Ġc ache
est igate
ff f
ST ACK
ast ing
Ġaux iliary
on ger
ent er
Ġh igh
1 01
L ine
N o
R econ
e f
t able
Ġs ign
Ġm ysql
up s
ok ing
28 79
Bean Definition
Ġid ent
plugin s
' ;
? ?
re gister
Ġs witch
ES B
ateg ory
Ġobject s
Input Stream
ĠDeb ug
Z ID
b l
~ ~
Ġn etwork
Ġ1 39
01 22
pr es
ption s
hed ule
Ġgo od
handle Message
ucture d
vis it
Ġhapp en
Ġvari able
Ġ../../ ../../
Ġretur ns
AUTH ZID
A D
Ġs m
Ġp ri
ex ception
Ġl onger
ĠF AILED
Re ader
so cket
pect ive
Ġret rie
pos ite
sc hema
loud s
ĠCont ent
grad le
Ġ 79
li f
Ġd at
St ack
Pro gram
Ġapp ro
13 8
Ġ/ >
16 84
Ġlog ging
Com ponent
M ule
f ind
h er
m ine
Ġf eatures
Ġw indows
Ġw ait
ut down
Ġh aving
23 4
Ġbuild s
Ġinstall ation
1684 2879
] :
t arget
le ar
ro ovy
Ġf in
Ġd ate
us h
ĠSt ring
Ġpl an
ĠUp date
Ġcl uster
V ersion
Ġre view
ĠĠĠĠĠĠĠĠ ĠĠĠĠĠĠ
ex pression
Ġl arge
con nection
Ġse ver
ĠO bject
ĠResult s
alib r
Recon c
F rom
P M
S ession
b y
f ed
h ibernate
es b
Ġs yntax
Ġp ublic
Ġm ule
ĠA ll
Ġex pression
10 29
17 9
tic s
Ġ} ,
Ġqu eries
Ġhe ader
vis ion
Ġperform ance
R ecover
\ "
or age
Ġ1 00
ass ign
end ing
06 10
Ġun til
Ġli mit
Ġnam ed
Ġoper ation
ient ation
angu age
Z OO
o se
en g
Ġm ach
ate ly
Ġcommand s
Val id
Ġhapp ens
3 06
B us
O b
S ee
x x
Ġ âĢ
02 18
job s
M odel
a op
c od
Ġ 50
ĠA fter
ĠD ur
10 30
ĠF ail
og n
Com p
201 2
Builder Impl
T ool
w idth
ĠM y
Ed it
Ġparamet ers
//// ////
jc louds
umm ary
R ec
Ġs uggest
se c
Ġor ig
Ġup load
-------- ----
Ġcol umns
AR T
atal og
Ġtrans form
Ġinclud es
ĠJava Script
Ġbr anch
' )
d q
l inux
Ġb in
Ġp ut
Ġre place
im ation
Ġ2 44
act ed
ĠD Q
10 7
gro ovy
Ġget ting
ĠEx plorer
Ġoccur red
trans port
ĠConfig uration
Ġin ternal
ur s
Pro perty
56 6
ribut ed
Ġtrans port
Null PointerException
7 00
C ode
d atabase
ho uld
qu ery
Ġ3 22
12 8
50 6
09 03
08 25
c hen
Ġc redentials
um b
ĠA dmin
Ġcom mon
ref ix
fo o
Ġatt ribute
Str uctured
Inst ance
X X
l ink
Ġd ashboard
ac le
ĠD B
Ġcont in
18 7
Ġass ist
022 2
tool s
m d
an ces
Ġf ew
Ġp ers
Ġm ov
ĠĠĠĠĠĠĠĠ ĠĠĠĠ
Ġfor m
Ġ2 18
ĠC ore
Ġus age
view s
08 04
Ġuse ful
Ġi Phone
Ġag ent
Deleg ate
Ġagain st
hy de
S U
d atab
i ated
s ure
Ġ ,
ot tom
est ed
Ġpro xy
ol ver
Ġst op
Con s
19 6
ss ue
Ġreturn ed
Ġacc ount
Ġsever al
M S
m an
Ġ --------------------------------
Ġp arent
Ġg re
oc ol
end er
ĠRe quest
Ġatt empt
Ġallow s
ĠRecover ing
P assword
f e
l at
Ġw rong
ce b
Ġo wn
ĠI P
Ġr ather
pro xy
do cker
Ġent er
ĠCom mand
] .
l a
s hell
in st
Ġa ctivity
Ġc ause
an el
Ġp ersist
Ġ1 57
11 17
mo ve
Ġtab les
Ġcons ider
rop ri
On ce
etch er
d a
f ield
t e
he ight
ĠĠĠĠĠĠĠĠ ĠĠĠĠĠĠĠ
ĠA nd
ĠC urrently
ram e
Ġal gorith
Ġ3 12
Re place
Event s
Ġaut o
work space
Ġ5 47
Ġlook s
/ #
D et
n ers
r u
Ġb order
Ġm ark
Ġn av
ch ange
Ġ( /
12 5
Work space
}} ,
Ġsh ort
Ġfix ed
ĠCont ainer
Structured Viewer
A W
E C
he ther
Ġc lover
st ate
ic asting
able BeanFactory
Ġex tr
Ġlo ading
ĠW indow
11 13
Ġtime out
Not ification
ĠCre ating
background Color
S WT
n ull
t im
es h
he l
Ġex amples
ĠD et
ĠIn st
ĠX code
Un ified
Ġreport s
Bundle Loader
AbstractMessage Channel
Safe Runner
Ġ58 47
' :
L inux
L ayout
T yp
b b
con fluence
09 25
Ġwork space
ber ry
Ġdes cri
ĠRun time
lack berry
Ġvalid ation
An alysis
Ġrem ote
' ll
8 08
L if
b atch
o f
Ġd est
est amp
Ġ3 06
Ġapp ropri
Ġdevelop ment
lig ht
Ġmechanis m
6 76
E nable
p age
t al
ĠL oc
TR ACE
Al low
Ġoper ations
= '
A B
D Q
R UN
S ynchron
s f
Ġc ap
de finition
il ing
pt im
um p
Ġ2 62
Ġcom ment
view ers
Ġdep rec
Com mon
Ġstat ic
leg al
EN T
Do Filter
Ġque ue
z ip
or ies
Ġh ad
ĠA ss
ol der
ST UD
Ġdirect ly
Ġimplement ed
action s
Ġman ually
Ġstr ucture
wh ite
En vironment
aly tics
Oper ation
Files ystem
Ġdiscus sion
A round
C H
D irect
d ocument
Ġs pl
ed u
ĠC annot
em ory
ob uf
=" /
() .
Ġun able
ting s
Ġstor age
Ġdelet ed
Recover y
Around Interceptor
c ocoa
i e
m ail
w ith
Ġst ory
Ġde fine
run With
iz ing
read And
res pond
Se arch
Ġcgroup s
readAnd Dispatch
I ter
c li
l der
p ersistence
ĉ ĉ
Ġf uture
Ġde ter
Ġg lobal
ob ject
11 24
internal DoFilter
create Button
Un icasting
Ġav oid
Pre ference
col or
Launch Configuration
Ġel se
IDE Application
Ġpartic ular
Unicasting Dispatcher
r ight
ar i
ul ate
Ġnot e
Ġlog in
out e
Ġrequest s
Ġ7 568
Al loy
MO B
Ġcor respond
C RAM
D rawable
M aster
b lock
e a
m q
t ain
Ġp ython
st udio
Ġpro vider
ĠC opy
18 5
RO OT
Ġatt ach
Ġcontain ers
Aut o
ĠST ART
Ġfre emarker
Lif ecycle
' ]
A fter
E L
H e
M esos
Ġj vm
ms g
ĠApp celerator
common s
Ġregistr ation
struct or
Drawable Reference
B amboo
L SST
N D
R est
i que
r aries
s u
Ġ 56
Ġt emplates
Ġto tal
Ġb l
Ġb asic
io us
Ch anges
Action ContributionItem
Ġme et
ng th
Ġtho ugh
mission s
Ġinc orrect
) );
U se
f eature
n ative
z ar
Ġm ade
Ġm igr
ur i
Ġde cl
act iv
In ter
con sole
fer red
ĠO ut
ok ke
not ation
Ġent ry
Ġte am
cp u
* ,
B lackBerry
S hell
X F
Ġa round
Ġs olution
Ġw hether
Ġb it
Ġth ings
Ġ1 33
im ate
Ġpro blems
Event Loop
Ġtr ace
Res ponse
Ġlook up
duc ed
hor ization
" ;
S uper
Ġ ign
ar af
Ġn ever
Ġre main
ĠT ry
ex ecution
Ġdo ing
ĠO K
ĠRe gister
ten ance
Des cription
Ġpack aging
Mod al
pres ent
7 1
A V
C E
D atabase
L e
W h
k ins
s es
at ic
Ġ2 8
Ġde veloper
ĠM essage
ĠM ake
ĠF ire
12 6
work s
ĠV al
Ġref actor
Ġconfigure d
Ġexp licit
= $
I G
c ustom
d f
m un
Ġ ^
Ġ âĶ
Ġs ecurity
Ġc lear
am es
Ġde c
Ġr ange
Ġcom ments
In dic
10 3
18 8
Im prove
ĠU nable
ip ant
Executor s
Ġendpoint s
DB C
Ġcover age
3 22
d hyde
r ules
s ers
w ay
Ġm uch
Ġm akes
el ine
ction s
50 8
Ġim p
Ġj ar
Ġ-- >
tr ace
Ġpar sing
Out put
Unified Builder
C cd
h ary
l legal
ro y
Ġ2 10
ol ume
Ġl ayout
Ġal lowing
ĠW S
ud hary
ĠPro blem
Ġrequire ments
9999 9999
Ġrout e
Time out
: >
> ::
T witter
v c
Ġa ffect
Ġs ent
al one
Ġit self
ri es
Ex p
In itial
ĠM oodle
run ners
ĠF ramework
ĠSt ream
so ap
ĠTi Application
OS T
Ġget s
Ġke ep
amet er
ĠIm age
Ġicon s
Ġoff ers
Ġtim es
Ġpropos al
' re
2 06
3 32
C A
P ol
d ition
o ck
t ab
w izard
er r
Ġc apt
lo k
ĠR UN
13 7
Ġup grade
ord ing
Ġlike ly
Ġqu ot
Ġme ans
Ġass oc
ĠDe vice
Ġco ordinator
Ġac ross
Ġcrash es
Recovery Test
* )
F l
c cept
Ġ ~
en v
Ġm ax
rom etry
run EventLoop
Ġe lements
08 13
ĠU se
quest ion
out put
Message Processor
ific ations
Ġar ch
__ __
Ġinclud ing
cho udhary
ĠCo ordinator
esh choudhary
Ġappropri ate
3 02
> </
C re
in itial
lo t
Se lection
Ġdebug ging
Is olator
M obile
c ry
g ener
er ge
re quest
Ġn ice
Ġre ading
Ġpro gress
01 8
ler t
ĠF rom
Ġse lection
Ġ4 55
Ġch ild
Ġun defined
ĠG o
Workbench Page
ach es
aw t
Ġcontainer izer
âĶĢ âĶĢ
lok eshchoudhary
C ap
C LI
M atch
S F
Ġs ite
en ar
Ġp ublish
ot ype
ĠP ython
Ġrec ent
ĠSTART ING
A dmin
I O
M P
P arent
X ml
w s
or ld
en kins
ic ro
ĠC ould
Ex pected
Ġex it
ang ed
ub y
ĠL e
yst rix
Ġthem e
ĠRun ning
plet e
Ġtool s
Found ation
b ay
s im
at t
at er
Ġd ocs
Ġ( )
ĠR E
oc able
mit t
Sc hedule
uf fer
emp or
2 13
A op
R ight
i ed
m ort
v n
y per
Ġb uilt
ver se
ĠC SS
ol d
Ġst yle
10 8
op er
Pro t
ĠRes ources
Ġpre ferences
Children Cache
mort bay
2 11
2 55
F unction
a ult
p ack
Ġa ctive
al c
ĠC lient
ĠP HP
ir tual
so ft
Ġtab Group
wh ich
OM E
> <
C F
D is
E lement
L L
M y
b ased
f ly
l ong
in ation
Ġt witter
ce ive
se cs
Ġis n
Ġbe an
pr ess
ĠM ap
pro t
eed back
ix el
velop ment
Ġkey board
ĠCh ange
Ġbro ken
scri b
ĠAP P
6 64
C ase
Ġ Z
Ġp h
Ġd river
ĠS QL
ist r
ol ved
ow ire
Ġex pect
ĠN umber
ĠTh at
28 7
59 7
Ġpre ference
ifi er
Ġcons umer
Ġref resh
Ġvis ible
co unter
Ġmeasure ment
task s
Ġmach ine
Indic ator
C lick
G r
U PS
b ec
d omain
t n
Ġ2 55
ain s
Ġex ecute
Con nect
con st
Ġag greg
Module Deployer
Path ChildrenCache
dispatch er
ĠPre ferences
Synchron izer
e valuate
f w
g in
i ro
l ers
er v
as tr
li ed
ĠS AM
Ġal loc
Ġapp ly
App Data
ĠO r
ĠG r
util s
rc p
Ġint egr
Ġcorrespond ing
. "
Ġs ort
ac y
13 3
Test s
Build Path
53 0
LE CT
ĠDe fault
Ġlink s
Ġpr int
Ġsend ing
Messaging Template
S ize
i ck
li ke
ec ure
ap id
ep end
ĠF iles
23 5
test ing
02 11
ES S
)[ :
Ġthrow n
me as
root d
fr astr
SU B
Schedule d
F F
V irtual
f rom
f ont
g en
m x
z er
al le
Ġm aven
Ġre ally
Ġ2 74
Ġr ule
ac s
ac ed
29 6
build er
Ġstart up
ĠApp lication
/ _
J son
P attern
d oc
d river
m t
Ġc atalog
an ced
Ġm anagement
Ġre al
Ġ2 57
Ġpro gram
Ġal loy
St atus
Ġv oid
14 0
17 1
Ġrun s
Ġi de
Ġtr ack
Ġar ray
Col umn
Ġrecover y
Ġ../../../../ ../../
ĠFail ure
frastr ucture
5 01
D O
M apper
P ackage
] ;
b r
n av
v ant
Ġf ree
ĠS h
Ġex tend
str ain
mon itor
Container izer
Ġhand ling
Modal Context
$ {
B ack
U R
c lose
Ġ ZooKeeper
Ġre dis
im um
ĠC I
Ġit er
12 9
Ġse em
09 05
ĠB lackBerry
24 1
ĠSDK s
.... ....
Ġorig inal
SUB ENTRY
B y
C C
C loud
G RO
M edia
R oot
i ver
m ac
m ark
o in
Ġb ottom
li ver
Ġre po
ĠS ki
ic ipant
Ġpro file
Ġnot ification
os s
Ġapp s
ĠE clipse
Abstract Aut
Ġbuild er
Ġstart ing
Ġnames pace
Ġvari ables
Ġrow s
Tree Viewer
Cap ableBeanFactory
owire CapableBeanFactory
AbstractAut owireCapableBeanFactory
. _
B lock
e k
t x
as l
us ing
Ġal location
ĠN OT
26 79
Th ere
ff ff
Ġprocess or
As sert
handle Event
D oc
S ync
j ax
m ysql
er n
Ġn odes
Ġas k
St yle
Ġe ffect
Re ad
Re gistr
23 7
Ġinst ances
Abstract BeanFactory
Ġcomp at
IR A
) )
a ir
i ence
Ġt ap
en ers
Ġp refix
li mit
ĠD E
11 7
13 0
RO M
res ult
Ġshow ing
Ġcol lection
Lo ck
sc heduler
Ġsh ared
Ġpack ages
ĠCore Foundation
Ġassoc iated
icro soft
A ctual
D ynamic
Ġs rc
Ġb ad
ĠR em
ri de
Ġe qu
22 7
ĠL inux
ribut es
Ġpre vent
Http Client
Ġpass ed
Loc ator
: ]
I S
K roll
N eed
b untu
p ackage
z e
Ġ ep
Ġs ay
Ġc amera
se arch
ĠT able
ho p
Ġlo t
ob servable
11 1
:: _
Ġsc ope
Ġ-- ->
Ġstr ategy
Ġindic ator
Gener ic
Image View
Ġart ifact
ĠAuthentic ating
DF S
cor p
Ġdeprec ated
A ware
M ulti
N ext
c b
c ut
m ake
p are
t ifact
u ce
y ml
de o
ent ion
ĠI DE
ag ed
el li
Ġg ot
ay er
11 20
con c
View Proxy
Com posite
work sp
Module Container
Ġcons istent
Ġimport ant
Servlet Filter
Servlet Handler
Ġpr incipal
blob store
Ġcharact ers
datab inding
runWith Default
H ome
H ost
y g
Ġs ources
en able
de lete
ur ther
and om
Ġcom put
Pro gress
12 3
ĠTh ese
() ,
26 8
ĠH ere
Ġen sure
AS E
Ġpar ser
ĠAPI s
Ġclick ing
lsst sw
Ġoccur s
empor ary
at ter
Ġa fw
re move
Ġm oodle
lic y
In tercept
iz en
UI D
Ġres olve
44 9
mo unt
34 0
invoke Framework
Ti ViewProxy
88 8
Ġhand ler
aa aa
Cons umer
. )
M aven
M onitor
S ection
d ed
i a
m aven
p ayload
Ġt run
re nder
ĠA ccept
Ġnot hing
ĠD is
form ed
ir m
ĠG oogle
Ġho ok
Ġlist ed
Ġrec ord
Ġoption al
basic Run
Ġdisable d
Ġsm all
Ġpers pective
Typ ed
tx t
2 08
4 10
D IR
E X
I llegal
M Bean
M etrics
P ort
R C
d ur
f ull
k roll
l abel
s ite
Ġp ayload
se qu
Ġd ur
Ġh adoop
ĠC RAM
Ġst ud
Ġ- [
ĠD ocument
ĠM ES
run Application
Ġcre ates
cont rol
Ġint ro
config ure
Gener ator
ni pp
Ġver ify
Ġassign ment
ModuleContainer Filter
ServletFilter ModuleContainerFilter
3 04
A g
D own
M Q
Ġt akes
Ġa ctiv
Ġb undle
Ġp ull
ĠR emove
Ġcom mit
ĠM ac
Ġare a
ĠB amboo
Ġch unk
Ġrep os
ng ine
cur s
Ġunder stand
Ġclo sed
Ġcapt ure
" }
A tt
F ail
M essages
R et
n aps
v in
er ify
at ure
Ġa li
Ġs amples
it ude
Ġf oo
al vi
ĠĠĠ čĊ
de vice
st rometry
Ġor ientation
ad ers
ĠC ode
Ġg uide
In stall
ĠM DL
ĠB e
Event Queue
time out
Ġy et
Res olver
Ġrec ogn
05 27
EN D
Ġthrow s
Ġbreak point
525 76
ĠSim ulator
ĠDur a
Ġ218 09
Ġ28 56
alvi k
I P
a round
d p
m edi
o ugh
u c
is s
av ed
de velopment
Ġp ress
Ġm apping
ig ation
18 6
200 8
ĠLo oking
******** ********
alibr ate
1 55
3 14
5 11
8 01
B e
Ġ ?
Ġb oot
Ġm anager
Ġn ested
ĠS hould
ex ecutor
Ġsc enar
aun ched
15 3
24 0
Ġsim ply
ĠQ uery
Ġref used
ĠOn e
Ġdeter mine
Ġmeet ing
. -
T arget
j avascript
s ize
or a
Ġs w
Ġs ql
Ġre present
ĠR edis
Ġl anguage
ĠD atabase
ĠM odules
ob jc
run UI
ple x
16 1
Ġjava x
ss l
Ġro le
Ref actor
ĠĠĠĠĠĠĠĠĠĠĠĠĠĠĠĠĠĠĠĠĠĠĠĠĠĠĠĠĠĠĠĠĠĠĠĠĠĠĠĠĠĠĠĠĠĠĠĠĠĠĠĠĠĠĠĠĠĠĠĠĠĠĠĠ ĠĠĠĠĠĠĠĠĠĠĠĠĠĠĠĠĠĠĠĠĠĠĠĠĠĠĠĠĠĠĠĠĠĠĠĠĠĠĠĠĠĠĠĠĠĠĠĠĠĠĠĠĠĠĠĠĠĠĠĠĠĠĠĠ
Ar gument
Trans action
4 23
G it
i per
u ed
in bound
or ed
it em
Ġf inal
Ġm ean
Ġ2 9
ĠA ND
Ġon es
and box
Ġde mo
ĠR ight
Ġal locator
ĠD ashboard
ĠM aven
11 2
ĠF ROM
Pro vide
bo ot
:: __
ĠJ IRA
53 443
Ġlib raries
par am
we ver
Ġlat er
Ġstring s
AbstractMessage Handler
Ġ27 64
Ġpi cker
lif y
Isolator Test
scrib able
. *
> >
C lean
C SA
O P
S ave
S ink
W S
l ay
m etadata
at istics
Ġb ound
ver ter
Ġlo ck
Ġapp end
ĠE vent
Ġ201 50
Ġho wever
Sc heduler
ierarch y
command s
Wh ile
4 04
O ff
g s
m eta
Ġc url
Ġo s
Ġth ree
Ġh ref
Ġcom mun
Ġl ines
app s
lect ed
Application Impl
ĠEx ecutor
ĠEx ample
pos ed
Inv ok
Ġgo ing
Request Filter
Android Runtime
Ġevery thing
Per RequestFilter
Once PerRequestFilter
naps hot
3 44
c ast
j dk
m ulator
t witter
Ġf ont
Ġf ired
un known
Ġm aking
Ġn et
st atus
ĠS ome
pt h
Ġex pl
str u
Ġ| |
du ction
Ġ} ;
Ġcheck ed
Ġopen ed
Ġz ip
aut hentic
Ġargument s
2 15
> ,
M B
S ER
T oken
y ote
Ġre alm
Ġre nder
Ġre ceive
ĠS ocket
Ġh it
ex pected
Ġpro mis
ol l
12 11
Ġwork er
po st
ĠRes ource
Ġcheck box
Ġem bed
Activity Thread
que ue
Ġxml ns
ĠEd itor
Ġfin ish
D N
F low
L D
c ase
d c
u uid
Ġ lic
Ġp e
Ġin frastructure
ĠT ool
ĠS ince
ĠA t
ol ves
Ġg u
Ġdo cker
Ġsp aces
aw s
Ġconnection s
ĠĠĉĉĉ ĉ
Ġregister ed
Ġte ch
sec ret
ĠMES OS
* .
A ll
\ ":
i ag
j ni
r int
um al
Ġg roovy
In bound
for um
Re lease
ĠN ow
lib rary
ĠO R
ff ic
46 2
pos ure
hem e
Ġfl ags
Part icipant
Ġgr ad
ĠDo cker
Ġtri ed
Parent Runner
Registr ar
iper umal
N ov
r tual
le ngth
Ġn orm
Ġcon version
Ġ' #
Con sole
Ġlo w
18 4
-------- --
ĠIn ter
Hand ling
Ġcheck s
Listener Container
back up
Ġpart ition
Ġlaunch ing
Ġstor ed
Ġpop up
Ġprodu ction
ĠDes cription
Ġcharact er
cod ing
5 12
: \\
C urrent
L T
M ove
[ '
h aps
Ġ util
en ame
Ġ{ "
17 0
17 3
itor ies
Ġen ough
Ġframework s
Ġent ity
Ġapplication s
bd a
Ġeas y
Ob servable
4 00
C L
] [
p assword
le ft
ĠA d
ĠC lass
ĠP SF
Ġal ong
In it
ĠĠĠĠĠĠĠĠĠĠĠĠĠĠĠĠ ĠĠĠĠĠĠĠĠĠ
com mit
Im port
ĠH DFS
27 6
tr igger
ann er
Ġvar ious
do Send
sc reen
new key
) {
2 09
7 530
9 39
V M
e as
re ference
it chen
Ġp id
Ġp lease
Ġd omain
ri ct
Ex port
ĠW ith
ĠĠĠĠĠĠĠĠĠĠĠĠĠĠĠĠ ĠĠĠĠ
for ce
com ponent
ĠN CSA
50 4
ĠB atch
34 6
red acted
Ġpos s
ĠCon nection
Ġcontent s
par ser
âĢ Ļ
Ġmain tenance
Ġdevelop ers
ĠLo ading
Ġprot otype
CAT E
Ġappro ach
urs or
Ġpersist ent
4 56
O VER
x er
Ġc zar
al i
Ġin strument
Ġo k
am ily
Ġh dfs
atch er
15 1
44 7
IN ST
Ġlog ic
38 4
46 1
30 5
not ify
dep end
TI MOB
2 16
6 00
I OS
J Unit
V is
f aces
s amples
Ġ ĉ
Ġt urn
on ly
Ġw on
ot ential
ist ory
Ġr a
Ġl aunched
ĠF Q
26 2
but ton
Ġem ail
Ġcho ose
Ġbo ard
lat est
Pol ling
ĠAPP END
Typed Listener
3 11
E ngine
I ssue
c aches
e o
Ġ ----
Ġs ync
et t
Ġre d
ĠT ab
Ġbe gin
ĠC XF
ack son
ial ly
55 566
ĠTi DrawableReference
Ġrep lic
Ġchang ing
ĠCon s
hand lers
Inv estigate
LE ASE
Ġdet ail
Ġent ire
Par ameter
Wr ite
Ġcomplet ion
Ġpoint s
Ġwarning s
ca ught
Ġprodu ct
Ġwrit ten
Ġwho le
Ġcontin ue
ĠâĶ ľ
ĠSki pping
elli j
alvik vm
4 01
M E
S ecurity
c us
v ate
{ "
Ġ %
re qu
ĠT hen
ĠS E
Ġde vices
ĠD ate
pro perty
ir d
Ġwh y
Ġtest ed
Ch anged
23 9
() );
ĠH el
ip eline
Ġfail ing
Ġdisplay s
fl ags
Int egration
ĠWh at
174 58
Ġwrit ing
Ġexecut ed
ĠTI STUD
bec la
Ġstud ent
! /
3 29
b ody
g n
Ġs k
Ġs aved
Ġd uplicate
ur able
00 5
im es
ĠA g
Ġcon dition
Pro perties
int ellij
() {
du ct
Ġi p
cl ud
mo st
ach ines
Ġserver s
Ġstream s
Par am
Ġcomp ile
Ġeas ily
Debug Connection
ĠFQ DN
= '.
C p
g o
er ved
Ġs upp
it es
an alysis
Ġd ir
ho ugh
Ġ1 38
em ulator
Ġst and
ke vin
Ġnot es
Con structor
app ed
ĠW r
ĠF in
12 1
13 1
14 6
15 6
AS H
Ġpar se
ĠAdd ed
89 5
Sc hema
arn ess
ĠK itchen
Ġ26 39
sd l
ĠUpd ates
Ġalgorith m
3 55
4 06
: "
A X
M ac
P RO
U RI
a e
re lease
Ġf it
Ġp ixel
Ġin it
Ġd rag
Ġis olator
Ġ2 5
ic a
ol ation
run Async
ĠE mulator
ĠL ite
Ġun ique
create View
Ġso cket
sp ec
Container Registrar
:' #
RE LEASE
Execution Interceptor
Ġsecond s
Ġtim ed
script ing
Âł Ġ
ĠDeploy ment
alle l
ĠâĶľ âĶĢâĶĢ
runAsync Messages
C P
p ull
Ġc orre
Ġp ush
as tic
ul k
us asl
ex p
im port
ĠC loud
Ġl ess
Ġex per
ani z
11 6
ub untu
13 6
14 7
23 1
Abstract ApplicationContext
ĠIn valid
Ġso ft
30 3
ĠCon nect
ĠV M
Ġpre view
user Password
Ġupd ating
Up grade
Ġbutton s
Ġcontain ing
AT H
RI DE
cm usasl
Select or
ĠEn ter
initial ize
secret CRAM
OVER RIDE
cmusasl secretCRAM
C ON
H ER
L ocation
M achines
R em
h as
m essaging
v oid
ul ly
am bda
ho lder
ac loud
act ive
ĠW ill
ĠĠĠĠĠĠĠĠĠĠĠĠĠĠĠĠ ĠĠĠ
port al
Ġcan cel
ĠJ DBC
Ġi os
47 7
res ource
Ġcall back
Ġview s
af w
Col lection
Ġman ifest
Ġplatform s
Java Virtual
Ġedit ing
State ment
ĠCre ated
AN D
Ġcert ific
umb ers
Ġdest roy
works hop
ĠWS DL
JavaVirtual Machines
6 55
6 58
C group
E CT
S I
T alend
m ut
Ġa pi
Ġto ken
Ġp c
Ġp ur
ĠS hell
pt ed
ect or
ĠC F
ĠC ol
os ed
ĠP ort
Ġ3 022
Ġas sert
ud o
14 3
App le
50 2
De ferred
17 8
16 00
ĠU RI
tic al
create Label
Test Case
Ġprocess es
Ġgener al
File System
AT E
Ġ. /
lsst corp
Web ApplicationImpl
pus h
Ġclean up
window Proc
------------ -
H OME
b f
d ialog
j b
m anagement
o ard
p ag
p ache
Ġf etch
Ġw iki
se m
im ps
Ġof fer
Ġpro vision
em fire
if t
app ly
Ġlo op
50 50
De lete
19 9
Ġinst aller
ĠTi App
27 3
Ġen counter
ast e
List View
AS K
Ġhe aders
Ġany thing
Ġremo ving
Ġinter faces
ĠIm port
SS L
Ġstr uct
Ġ& &
aut o
Ġprovid es
Ġpi ck
ĠStart ing
Async Processor
Ġdat as
ĠVal ue
MP TY
2 04
I FY
m ore
t le
he et
it ect
il ities
Ġre pl
ĠT ext
ex ec
app cel
Ġlo st
13 2
Ġdo uble
17 6
ĠTh read
Ġse en
ĠL SE
ĠO ver
Abstract Sub
24 9
ĠG et
Hand Path
ip es
Handler Service
ib ly
cript or
Ġpath s
Ġgr ade
aut h
ĠNot ice
direct or
AW SS
808 0
Right HandPath
RightHandPath Rule
6 22
6 06
< <
p x
s ink
t yp
u ep
Ġ es
ĠĠ âĢĤ
re enshot
Ġc ategory
Ġf eedback
al s
Ġw ord
ĠT im
ĠT RUN
ot al
ĠC C
ĠD ist
ĠM ay
run Deferred
11 5
ĠĠĠĠĠĠĠĠĠĠĠĠĠĠĠĠ ĠĠĠĠĠĠĠĠĠĠĠĠĠĠ
12 4
ĠL ive
58 4
Ġfol d
val ues
Ġclass path
Ġconfiguration s
Ġopen s
Ġ8 7
RE ST
Framework s
ĠOn ly
Ġk ind
Ġdisc over
Ġconf irm
des cription
Ġpri or
Program Data
Ġshort cut
He ader
uep rint
ĠTRUN CATE
runDeferred Events
H ASH
K E
N io
P HP
h aus
p anel
Ġ q
Ġt emporary
le x
Ġo ptim
ĠS ystem
ab ling
Ġde v
ĠN eed
29 8
Ġatt ributes
ĠRep ository
Ġstart s
Ġ16 8
Ġgo ogle
Project Wizard
Keeper Exception
Ġbehavi our
Socket Impl
Runnable Lock
Call back
Ġreg ard
lig n
az y
ĠLoc ator
'] );
msg Send
ĠFire fly
epend ency
Inbound ChannelAdapter
3 234
c ount
i ate
i Phone
s l
Ġ err
re conc
Ġp ool
as ali
Ġm onitor
-- -
ĠS SL
ac ity
th ers
ĠE MPTY
50 5
18 1
ĠThe y
IN T
ant s
76 2679
Ġvi rtual
Ġvalid ate
Ġcomplet ed
Pre ferences
Ġ30 28
gorith ms
2015 13
US ER
ĠUpd ating
Ġgre at
Common Reconc
287 762679
Invok er
287762679 6
= -
A IT
A GA
H ystrix
N AM
P resent
e arch
l ayout
s ave
w hen
Ġs nipp
Ġc alc
is on
ro ut
Ġp otential
Ġm anag
om ent
ho to
ĠS ending
pl it
ĠC r
Ġr aw
ĠR apid
ĠP ath
app ear
end ed
13 4
App celerator
gr aph
15 2
15 8
25 6
ix ed
Us ing
Ġfail ures
Ġlist ener
Ġqu ick
Titanium SDK
74 1
Ġspec ial
Ġent ries
Aut h
stream s
Wr iter
Ġmatch ing
ret urn
ĠOS G
VER IFY
Ġacc ording
Ġdelet ing
210 45
ĠTr ans
Ġcert ain
GRO UPS
Ġep ic
ĠDura Cloud
Argument Exception
scribable Channel
='. $
AbstractSub scribableChannel
AGA INST
D ashboard
H yper
P ost
v as
w ise
{ {
Ġs cons
Ġf urther
al k
de c
Ġin sert
ĠT O
ist ic
Ġde fin
ĠW arning
form er
ĠSt ore
ĠSt ack
22 4
quest ions
ĠG it
mo us
min s
ĠRe f
ance l
IT E
Ref lection
For mat
Ġconnect ed
Ġdebug ger
Ġmod al
class es
Deployment Listener
ĠDet ect
Iter ating
888 99
Ġsoft ware
HER E
1600 88899
& )
2 07
3 17
T emp
a j
b ol
r l
t hough
v anced
Ġ u
al gorithms
ĠT ime
ad cast
im ages
ĠP ar
10 2
op le
com m
55 8
Abstract Service
Ġlog ged
Ġfiles ystem
Ġover sub
Ġend ing
ym bol
rec ipes
ĠCom p
Ġload ed
tool ing
Ġscreenshot s
ĠWh ile
Blob Store
Ġextr a
Preference Dialog
ĠRegister ed
3 13
6 15
D ate
F C
F okke
H idden
N av
S ecure
g z
Ġ question
re p
Ġb ind
ul ated
Ġn umbers
Ġre ferences
ch ain
ĠA CS
Ex ternal
ĠP ublish
14 4
16 6
ĠU buntu
Ġser ial
Ġuser name
36 8
Lo ad
Ġcheck point
Ġdif f
ĠSer vices
Ġfl ak
ony mous
Ġoper ator
dat er
Ġdefinition s
Ġrele vant
Ġquot a
Ġembed ded
ett uce
D I
D T
M apping
N etwork
R etry
o ff
p ri
s ign
en us
Ġb as
Ġp res
ce iver
Ġin bound
ent ly
ch ild
ĠI s
ĠT DQ
ĠS O
ĠS ub
ĠC an
Ex ecut
10 4
St ep
18 3
Ġle t
16 9
19 7
Abstract Polling
29 2
mo ck
over age
Ġconfig urable
57 018
load Class
53 7
ĠRep ort
Ġinstall ing
we ight
Ġsystem s
ĠTest s
Ġinv olves
ĠSlave RecoveryTest
Ġtarget s
Ġvis ual
interceptor s
ĠAr ch
Ġspl ash
mac osx
ern el
Ġtrun c
pth read
xer ces
? )
A lert
C ount
C ustom
C LO
e ated
Ġ 64
or es
al ert
st yle
Ġo thers
am ing
ĠT ASK
ĠS ink
ud it
code haus
12 0
Ġle ad
55 6
ĠH adoop
47 6
Ġen g
log ging
List eners
Ġprocess Ccd
Ġstat istics
Ġgo es
ĠUI Kit
Ġcons um
Ġ9 40
Ġmod ify
ĠSc heduler
Ġindic ators
Ġinc re
Ġmechanis ms
Ġexecut ing
TY PE
Ġretrie ve
Ġwait ing
/# !/
erv ation
Aware Interceptor
6 19
Z E
b order
j enkins
o ok
r s
t k
Ġf act
li es
Ġm ult
Ġo p
Ġan aly
ag ent
10 6
get her
ĠW HERE
Ġun caught
58 0
Ġret ry
37 5
Pl an
Ġlib process
Ġsh utdown
ĠAdd ing
Error Handling
Servlet Container
Socket InputStream
cgroup s
Wizard Dialog
az on
Ġ-------------------------------- ----------------
Prot ocol
ĠHel p
NAM E
B asic
C ached
C alendar
O ptions
P ack
s laves
v ocable
Ġs ummary
is olator
an c
Ġin div
am l
ĠS p
id es
us ers
ĠA ctivity
ĠR abbit
Ex tr
Ex tension
ĠP hone
Ġshould n
ĠG ener
ĠIn c
Ġdefault s
Ġcheck ing
Ġhand led
Ġvi deo
fc asali
inter val
ĠSe arch
ĠInt egration
00000000 0000
ĠEd it
~~ ~~
fed ora
//////// ////////
ffic ient
Ġindiv id
3 00
3 23
C an
C lover
C lose
D river
H arness
R ed
i cker
p ipe
t ml
t ree
w m
en sion
Ġf ar
Ġp atch
ĠS uggest
ĠC amera
Ġde al
str ap
ĠJ ul
0000 7
57 7
res ponse
Manager Impl
Ġgener ic
ĠQ u
ĠApp le
Ġexception s
Ġallow ed
Ġgroup s
Hel lo
Ġk ill
Ġtool bar
Ġgiv es
Open Strategy
iling Strategy
pack ages
Scheduled ThreadPoolExecutor
Generic MessagingTemplate
Iterating FilterChain
AbstractPolling Endpoint
# #
. $
C GROUPS
R oute
S how
W in
b ind
l s
t a
Ġs li
Ġb ring
ch anges
Ġh ang
ĠP ack
ĠP ID
ĠP OST
ĠN av
ĠN PE
50 3
Ġup on
() )
create TableView
36 9
Ġsupport s
Ti UI
Ġdirect ories
For m
Ar ray
Ar tifact
Dec or
Key board
Result s
ape let
Entity Manager
Ġdescri bed
3 47
5 49
P ad
V GA
Z N
c ent
p arent
er min
Ġt ags
Ġf ill
Ġf ully
de mo
Ġp ages
Ġm ention
ic ed
em ber
ly ing
act s
ri ven
Ġ0 9
Ġ* /
per form
Ġe valu
Ġe ups
ĠL O
iv es
Ġim medi
23 8
Ġout side
ĠRe ading
ast ro
Handler Method
Up dater
ĠDe lete
Ġlook ing
gistr ation
Ġprot obuf
Ġeas ier
================ ================
Ġmov ing
237 51
dur acloud
Ġflak y
D ist
D ER
J O
L ive
L azy
M o
N ames
W idth
i od
j ust
m atch
r b
Ġf ire
Ġm ount
Ġm oment
ĠT ESB
ĠS H
ĠS L
ad i
us ion
ist s
Ġcon struct
10 9
pro ceed
14 1
ĠN ame
18 0
Ġsc ale
Ġse qu
ref resh
ĠRe ad
Add ress
Ġsu ccessful
sp i
Ġback up
Ġopen ing
Ġrecover ed
Ġcomp iler
Ġread y
wh ere
Tab Group
JS ON
Ġexp and
basic Build
Ġimprove ment
Ġtermin al
Ġtermin ated
ĠProcess ing
Ġbl ank
activ ity
Ġexplicit ly
Fl ux
strain t
Ġpe ople
CLO VER
3 19
B ound
H ierarchy
M icrosoft
N I
S pec
U LE
Z yg
c an
h sc
j p
t ap
he ad
re l
Ġf etcher
Ġf ault
de t
Ġm er
um es
ĠR oute
ain ers
22 9
ĠL ink
16 4
15 7
28 3
Ġlist ing
ĠV is
ote Init
enc ed
Ġreport ed
Ġ8 74
Data BuilderImpl
Ġdist ributed
ĠPl atform
Per form
ĠâĢ ľ
ĠInst ead
Ġmigr ation
oper ation
Json Output
Back ground
Zyg oteInit
L ettuce
S O
T E
\ .
x sd
Ġ ??
Ġc loud
Ġre load
ĠI de
ĠT ask
Ġg ive
com plete
Ġwe ek
ĠSt ep
13 9
55 3
Ġj son
Ġch art
Application s
56 0
ĠIn itial
Ġ# #
res olve
ann ing
Ġro t
Connection Factory
Ġport al
AT ION
Serv ices
Des criptor
Ġco unter
HT ML
Sub Locator
ĠPer formed
Ġmov ed
Twitter Search
Illegal ArgumentException
Ġfold ers
A b
F eature
K S
b undle
b lack
c lean
d af
Ġs ays
ing est
st op
Ġre ceiv
ho ld
ĠS pec
ab ilities
St orage
pro vider
pro gress
ub les
UI LD
ĠL ocation
Ġle ader
23 0
34 2
ach er
rol es
set up
66 8
Factory Bean
par ison
Ġmay be
config uration
Command ContributionItem
Ġfix es
oot print
Ġpr im
container izer
Ġvis it
Ġmin imum
arg s
ĠST S
Ġbro adcast
document ation
Aop Proxy
Ġcompat ible
ĠAccept ance
Ġrepos itories
dialog s
Ġindivid ual
SubLocator Rule
" ).
A ctiv
A ptana
L S
M an
O ver
Q serv
] ]
b us
b rowser
t p
Ġb est
Ġin stru
Ġm etrics
Ġd ynamic
ex port
ĠR est
Ġex pose
Ġle ading
Ch ar
06 12
Ġch ain
27 52
46 4
Ġout line
Ġsim p
Ġselect ing
Ġwr apper
66 1
ov ing
web service
handle Request
IT S
Ġob s
iter ia
174 01
Ġdid n
Ġdat am
Valid ation
Direct ory
99999999 9999
ĠIDE A
Ġpromis e
ITE ID
Ġeng ine
TwitterSearch ChannelAdapter
, \"
2 12
4 07
A ctive
B atch
F older
S ingle
h ere
h dfs
u ff
in put
Ġs em
is ed
Ġm ac
Ġm ock
st orage
Ġd alvikvm
ĠI ssue
ĠS UI
ĠC lean
ĠP o
Con verter
Ġv s
ĠJ DK
ĠB ase
Abstract Bundle
28 9
pert ure
ff ort
ĠRe gistry
201 506
Default ClassLoader
ak en
ĠDe let
ince ton
Command s
oo lean
An notation
Ġimprove ments
select ed
eas ure
mut ex
TitaniumSDK Updater
adi us
4 38
Ġt ell
Ġa bstract
Ġs ense
Ġc alendar
it ive
Ġp om
om es
Ġh idden
ĠA ccess
pl an
Ġde liver
Ġr abbit
up load
pr ise
11 201513
=" ${
Ġnew ly
23 3
Ġinst ant
ition al
po ol
56 447
ĠIn dex
Ġpl aces
ĠEx amples
ĠĠĉ ĠĠĠ
79 5
Ġ5 00
dk Dynamic
pos ix
Ġdeploy ing
set s
Ġtab s
Task Executor
Ġnam ing
ĠCont ext
Ġmin ut
Ġclo sing
Ġ2013 11201513
assign ment
cod ed
Ġalgorith ms
ĠLe vel
213 54
296 2752
227 2962752
curs or
ĠSE LECT
Cp EntityManager
Present ation
17401 21354
) ]
/ "
A t
G oogle
G lobal
L Y
V I
g g
k s
s al
Ġa mount
Ġs ur
Ġs low
Ġc p
Ġc ursor
ct or
al a
Ġto gether
Ġd uplic
Ġth ing
ĠC P
ort un
Ġex act
pr inceton
ĠM an
Ġlo ader
St y
lib s
Ġun known
Ser ial
47 1
58 9
Message Bus
fo x
egr ate
Ġrequest ed
67 1
Http Servlet
Sc roll
Ġimport ed
ĠBuild er
ced ure
TI ON
connect or
ĠSet tings
Ġtri es
ĠMy SQL
Det ails
Ġattach ment
Ġencounter ed
CommonReconc ilingStrategy
aj or
dkDynamic AopProxy
M X
S p
d ated
n ow
ĠĠĠĠ ĠĠčĊ
Ġb us
Ġan notation
Ġd r
id s
Ġh ome
00 3
ist ing
ĠC all
and sc
Ġcom e
Ġcom plex
ĠP art
In voke
rom pt
Ġas ync
St atistics
run Worker
ĠF ix
Pro blem
Ġres pon
39 1
29 0
47 2
Ġqu ite
Ġcall ing
Ġar m
Ġdis appear
deploy ments
XP ECT
ĠOn ce
Ġmain tain
Ġadmin istr
Ġhierarch ies
Runtime Exception
Ġcopy ing
CAT ION
find Class
Ġbin ary
Ġspl it
Inter face
Ġscenar io
Ġlic ense
SI ZE
andsc ape
A ss
F rame
J dkDynamicAopProxy
P OR
R ange
b ash
c r
c loud
m ult
y Indicator
z b
Ġs napshot
ro le
Ġf ig
al low
Ġin form
ul a
Ġre name
ag r
Ġfor ward
im al
rom e
ĠW izard
Ġe ffort
ĠE nable
19 8
Ġ4 0
ĠB oard
28 6
mo use
Ġli ve
48 0
Ġover view
Config ure
net ty
Ġrest ore
Document ation
string s
Gener ated
Ġcomplete ly
ĠType Param
Ġbo ost
Bus yIndicator
Cre ation
prot obuf
Ġalloc ate
jb oss
itect ure
000000000000 1
. </
3 08
6 74
I de
N ote
S ITEID
f ree
j ackson
o ptions
p ared
or ientation
at is
re views
Ġin cons
li min
ava il
Ġor acle
ĠS print
Ġh tml
ĠA pache
Ġr x
Ġ[ '
Ġ[ ~
Ġex plorer
Ġj s
ok s
ĠB rowser
() }}
Ġset s
let on
Ġout bound
ach ing
ribut or
Ġgener ating
Ġover ride
Ġdet ailed
Ġtrans fer
amet ers
ĠAl low
Tr ack
wr it
files ystem
Runnable Adapter
Out Of
Ġcontrol ler
scri bed
Ġ24 59
UT F
Ġcap abilities
ari able
gener ate
ĠOSG i
4 17
C O
D b
D rop
D riven
F ace
M Y
W ait
a fter
c i
e ve
f older
k ed
r al
Ġ known
er ve
in o
Ġs ec
Ġs ynchron
Ġs print
Ġc ent
Ġc op
Ġf rame
Ġto uch
de cl
il ation
pp er
se ction
ĠA S
ig ator
ort ed
ĠR FC
Ġv olume
Ġe ar
ĠSt atus
22 3
23 2
08 0
27 0
24 3
34 5
46 3
46 9
sp ag
Ġgener ation
Ġper missions
Ġper haps
Ġover r
node js
Ġgo al
roll ers
sh iro
ĠError s
ĠOpen Stack
ĠK araf
Log in
Ġpack aged
annot ation
Po int
Ġtrigger ed
ĠLaunch ing
Ġprevious ly
Le vel
worksp aces
Off ers
Ġcommun ic
Ġcertific ate
ĠIde ally
Ġbroadcast ed
Ġinstru ctions
' });
B uffer
C AL
J oin
M ess
O ption
V olume
] </
] ">
e oc
f okke
i um
m ax
s ive
Ġ ::
Ġa way
av or
de let
Ġre comm
Ġcon cept
ĠC A
Ġnot iced
ac ing
Ġex ec
11 39
Ġapp lied
13 52
Re gister
Ġres et
Ġy es
Ġun deploy
Ġaction s
Aut hentic
Not Found
Ġfilter s
ĠMobile Web
ĠPl ugin
tom cat
Redis Queue
Ġfollow s
ĠType Error
mitt ed
Connect or
939 3
fokke zb
3 20
7 44
C K
C lo
D S
F ind
U UID
c re
h a
m em
m emory
ul ation
ĠR et
ac on
ri end
com ment
ĠE C
50 9
ĠJ avascript
ĠTi UI
39 7
39 8
Ġun expected
yst ore
Message Driven
Default Lifecycle
sing le
Ġlaunch es
89 6
Ġbec omes
ĠSc reenshot
200 9
Ġz ookeeper
etr ic
Ġmobile web
Call able
pre view
scri be
Ġcaus ing
Messaging Exception
comp ile
Aop Utils
Ġintro duced
Ġbegin ning
ĠFin ished
F ire
R ender
S witch
T EST
e ger
j mx
p e
p om
Ġt ree
or ing
al es
Ġb ig
Ġb row
st mt
ch unk
ĠS U
Ġ2 64
ĠC amel
Ġr ules
ĠP R
ser ial
11 8
ĠF TP
ext ender
con vert
Ġres olved
17 5
55 5
=" #
15 9
27 5
invoke Join
add ress
no st
Ġpar allel
Ġgener ates
Ġdif ference
Ġtrans l
Ġref lect
Al locator
col ors
Ġz k
Ġinitial ization
dis k
Ġblock s
Oper ations
Ġchannel s
exception s
ĠLoc al
Direct Channel
Ġide a
ĠDE BUG
authentic ate
Ġimmedi ately
atis f
DefaultLifecycle Processor
invokeJoin point
* :
A DM
B ind
C annot
L ink
N umber
P ublish
Q u
V N
c wm
d n
f etch
i k
k g
l ambda
s cription
Ġt aken
en ger
de f
Ġn one
om cat
and ra
Ġg ithub
In valid
ĠM ulti
10 5
11 45
ĠĠĠĠĠĠĠĠĠĠĠĠĠĠĠĠ ĠĠ
04 5
19 3
19 4
29 1
Ġlog ger
Ġun n
Run ning
Ti Mess
Ġresult ing
ns ure
74 0
Ġpart s
sh ared
doFilter Internal
rec ord
Des ign
MES OS
Ġbug s
ĠStart ed
WARN ING
Ġhost name
Ġrestart ing
Ġfollow ed
Ġest imate
ĠDebug ger
Ġpri vate
Enable d
Changes et
322 38
Exp orter
Ġrecogn ized
spec ific
Ġrepl aced
Ġ------------------------------------------------ -------------
changes ets
ĠDelet ing
]"> [
DirectChannel Metrics
TiMess enger
( ['
A A
D R
F S
M igr
R o
T O
U E
g ers
m a
} "
Ġa strometry
re emarker
am ed
pt r
ver tical
Ġ{ }
ass andra
11 9
Re g
ir ing
16 7
IN F
sw er
Build Job
201 1
oth ing
Ġed ge
Ġimplement ing
Ġdet ection
par sing
Ġinter mitt
Ġbec ome
rec over
Ġx rootd
Ġpop ulate
base adaptor
Sub ject
SE LECT
Ġconf using
Ġ24 58
Slave RecoveryTest
Ġassign ed
Ġextension s
des ign
Start up
stand alone
ĠList View
Ġmark ed
hel p
Ġnorm al
ÂłĠ ÂłĠ
aniz ation
Rem ote
Ġdatam art
Sty led
agr ant
3 01
3 57
6 59
9 23
> /
F irst
L U
S u
\ /
d s
s am
x r
in ner
Ġc enter
it ical
al location
Ġw idget
un es
li very
Ġre ader
ĠT izen
Ġth ird
ag ination
ĠA V
ĠC ent
ĠC ustom
vi leg
Ġde ad
our ses
rom ium
framework s
Ġim pro
ĠJ VM
Abstract Sh
15 4
ĠG roup
test data
99 9
tr l
64 1
enc ing
user name
ateg ories
plet ion
ous ly
Ġmod ified
Ġsomet imes
Simple Message
ĠWork space
Ġhigh light
alibr ation
eng th
ĠAss ign
Preference Page
Auto BuildJob
CA G
eo location
reconc iler
% ',
A ML
M ask
P ri
P op
P ersist
P icker
S ome
d l
l ap
p op
t at
u cket
Ġs om
Ġs ys
Ġs udo
Ġm ajor
Ġo lder
Ġof ten
Ġde f
ĠP O
Ġal tern
ass ets
11 4
und les
Re ceiver
Ġcont ribute
16 5
44 0
24 2
29 3
29 9
47 5
ight ly
ĠRe ference
ĠRe lease
Ġsu c
sp el
ĠV OT
Ġper f
hem as
LI B
execute Command
Rep orter
Ġwant s
68 0
ĠAut hor
Ġstate ment
++ )
Ġsection s
Ġthread s
ĠDes ign
Ġagent s
tim estamp
Ġjar s
Ag ent
ĠTim estamp
Bound s
NotFound Exception
ĠVOT ING
3 12
7 22
D ependency
F TP
H ub
L anguage
M ode
S pace
T itle
b lackberry
c ss
c ategory
d m
g u
h n
h ip
p ol
s ample
s ync
w sdl
at rix
Ġc atch
it tle
al loc
de fine
ar win
st andard
ĠS I
Ġh ide
im plement
Ġst o
Ġr andom
Ex ecute
fa il
lib art
ĠO ct
ĠO ption
Ch unk
ĠB oot
Abstract TreeViewer
Event Dispatch
Ġwork ed
ĠG uide
Ġaut hor
58 462
57 4
Workbench Window
ĠPro vide
Ġho ver
Ġ> >
Titanium Update
xy gen
ĠV erify
Class path
Ġspec ification
Inv ocable
Ġimplement ations
Ġsub mit
Ġsub mission
Ġtrans action
Ġclick ed
Par se
vis or
Ġinv est
Ġgr aph
Ġindex ing
Log ging
trans form
Execution Template
Loop er
Ġreg ion
FI LL
Ġrele ased
Ġest im
Valid ator
Mesos Containerizer
Ġign ored
____ ____
att empt
aaaa aaaa
ĠInter face
ĠSO AP
Execut able
eoc oder
acon da
Invocable HandlerMethod
2 18
3 10
> {
B ody
F ailed
M I
S ense
j r
o ption
r ait
s pect
t ry
x rootd
er ica
Ġc aused
it ed
ing leton
ar ily
un c
li ve
ter min
Ġan alytics
ĠT emplate
ĠT omcat
ĠS ingle
id ent
Ġ1 000
Ġpro files
qu a
Ġnot ifications
ĠĠĠĠĠĠĠĠĠĠĠĠĠĠĠĠ ĠĠĠĠĠĠĠĠĠĠĠ
con f
22 2
ĠJ MX
Ġj oin
26 0
27 1
Ġun bound
ip art
Un able
37 6
54 0
Module Test
Ġ6 0
hedul ing
Ġman age
Ġindic ating
down load
Ġlabel s
Local Class
ĠTr ace
pec ially
bl ueprint
man ifest
AV A
2 02
6 01
6 38
A udit
M eta
U rl
V erify
b ers
c opy
j vm
t emplate
t gz
Ġ 59
in ess
on es
at s
it el
Ġb ody
Ġb ulk
Ġin voke
Ġre direct
Ġfor ce
ic ense
ĠA b
ĠC H
and id
Ġ" -
Ġr an
Ġ' -
Ex posure
Ġex t
ĠM ore
ĠM etadata
for ge
Ġe v
14 10
ere gister
ĠO ther
so li
26 4
26 9
44 005
28 4
Ġi Pad
36 6
59 1
53 5
Ġfunction al
Ġprocess ed
Ġho ld
Ġlist s
ĠAndroid Runtime
88 4
Ġper iod
ON E
FilterChain Proxy
web kit
ide a
support ed
velop e
ki a
actor ing
Framework Servlet
Not es
Log Message
Text Field
Ġsched ule
dis cus
map v
ca e
moodle lib
direct ory
Co add
iro Filter
BuildPath Manager
iag nost
Ġlow er
Ġ?? ?
Ġfig ure
Ġbrow sers
Styled Text
AbstractSh iroFilter
EventDispatch Thread
( _
3 24
8 57
> :
C am
I F
L ength
U P
V E
b ean
c en
d uration
p df
r act
r abbit
t oken
} <
on a
Ġs it
en rol
de vel
Ġb amboo
li ct
Ġm erge
ch romium
ĠT AC
ex ample
ic ult
Ġ" "
Ġde leg
qu al
ĠF ound
ext ension
Ġare n
55 423
ĠJ MS
Ġj dbc
Ġj avascript
Ġadd s
24 99
25 4
Ġwork around
38 895
Process Base
Ġdocument ed
67 8
ET A
Ġcomp are
Ġaccess ible
En h
Ġindic ate
Ġformat ting
Ġprompt ed
Select ed
ĠSim ple
ward s
Ġpropos ed
Ġ(/ )
Ġrefactor ing
ater mark
ĠRem oving
Kroll Runtime
Ġartifact s
Ġali as
msgSend Super
Ġdefin ing
558 50
Ġtrunc ate
Cached Chain
Ġsequ ence
Ġminut es
Ro aming
Ġsom ew
cen qua
. '
3 30
E valu
S ign
c orrect
d ent
g uide
h r
h idden
m edia
z z
} /
Ġ eclipse
Ġ ingest
er o
ct ure
Ġin line
li eve
lo kia
Ġn ear
ch a
Ġth us
ĠA bstract
pl ain
Ġ" <
ĠR ES
Ġcom bin
Ġl ittle
ri b
ĠP M
ĠP ass
pro c
com e
com erica
ĠL ib
Ġle ak
ĠO b
26 97
Exception To
ĠIn v
Ti DrawableReference
Res earch
ron t
hand led
ful ly
Pl ace
Ġtw ice
Bundle Manager
ĠAtt empt
Trans port
SQL Exception
Standard Context
Ġbreak s
ĠConfig ure
oft ware
ĠEn vironment
ĠConfiguration s
Ġ547 1
AB LE
Ġimp licit
worksp cae
control ler
Ġposs ibly
456 13
ĠOver view
Ġerr no
Hystrix Command
Ġdiff icult
ĠNav igate
2 14
3 34
D H
M erge
[ "
f ill
i ke
k araf
w arn
re m
ro pped
an alytics
Ġp ol
Ġin her
li x
st ep
ĠI ter
ĠT ap
ex amples
um ing
Ġcon vent
ol lowing
od ing
qu ire
Ġg uid
Ġ[ ----------
ject ed
ĠD I
ug e
ĠF low
core persistence
ĠN U
De v
ĠTi Studio
27 01
25 8
48 8
Ġso on
Default List
mon g
Ġany more
Service Impl
local lib
Ġposition s
net work
Ġdepend ing
âĢ Ķ
Ġimport ing
ubl ished
Ġsend s
new Instance
Ġlocal host
Ġprot ocol
Standard Host
Ġreg ular
Ġ47 37
Ġhelp ful
Ġretur ning
Of fer
Co yote
Ġrele ases
inst ance
Iter ator
ĠTable View
Intercept ing
EX T
Ġdur admin
iss ues
Ġgu ess
Ġutil ity
notify Listeners
477 87
sign ed
ĠVis ual
MessagingException ExecutionInterceptor
itel ist
ExceptionTo MessagingExceptionExecutionInterceptor
Ġ[---------- ]
5 22
D arwin
M ore
T im
b ot
c redentials
g test
h h
m cat
s k
s ession
t uple
t dq
w o
Ġ ;
Ġ ut
Ġt ESB
al ize
Ġto mcat
Ġb lackberry
Ġb tn
Ġp ipe
am q
Ġan imation
ot a
Ġh istory
00 1
Ġfor um
ab ili
Ġ( !
Ġbe lieve
ĠC Make
Ġde mon
ĠP DF
ĠF eb
ĠF unction
spring source
Ġup grad
De f
26 5
26 04
44 2
44 4
Ġ201 1
ĠG lobal
56 7
Ġen cry
20 3
Chain Lifecycle
Ġsee ing
Ġsub sequ
Ġtrans ition
Http Connection
ni k
co yote
connect ed
idd le
pi cker
Ġhard ware
HTTP Client
Delegate AsyncProcessor
ĠRegister ing
Ġaffect ed
Ġarch ive
314 2697
Ġgrad le
556 18
RedisQueue MessageDriven
ADM E
Coyote Adapter
Intercepting ChainLifecycle
Darwin X
3142697 795
RedisQueueMessageDriven Endpoint
InterceptingChainLifecycle Wrapper
5 10
8 25
B ased
D AT
F etch
J DBC
O UT
R adius
] "
g uid
m es
m ar
n ical
s y
t ed
in sert
re gistration
Ġc ard
ar ray
Ġb en
Ġb inding
Ġp ast
as sert
ĠT e
est roy
ĠA ctive
ĠA lert
Ġl andscape
Con vert
ĠF ield
ĠF irst
14 2
22 0
22 5
19 1
06 9
26 7
26 65
ph a
ĠU T
ĠG A
Ġaut horization
row en
36 5
48 3
Ti App
but ler
35 2
AR G
Ġselect or
Ġdocument s
Ġsub system
part ition
Ġpass ing
dispatch Event
Ġinv oking
ĠSc hema
Pre pared
Gener ate
ingMessage Processor
comp are
ĠTI MOB
Ġdecl ared
ĠVal id
monitor ing
WS DL
sem ble
Ġprovision ing
ĠDetect ing
ĠTiUI ImageView
Ġsuc ceed
Ġdemon str
1 000
G L
N OT
P lease
S up
c ard
f old
m vc
s olut
s andbox
v ailable
w ait
Ġa cs
re a
Ġs aving
Ġb lack
Ġm o
Ġan no
Ġis olation
ĠC urrent
---- --
ĠĠĠĠĠ čĊ
ser ve
ob i
ĠĠĠĠĠĠĠĠĠĠĠĠĠĠĠĠ ĠĠĠĠĠĠĠĠĠĠĠĠĠ
22 8
Ġwh itelist
18 9
Ġsc heme
16 77
ok up
44 5
Method Invoker
25 2
34 1
ĠPro perties
point ing
Ġret code
Ġlist View
ĠRep lic
Ġcol lect
The me
user id
Ġrequire ment
group s
Ġstream ing
Ġdisplay ing
Up load
Delegating Plugin
Aut horization
Ġco ordin
Ġdb connection
Ġinv estigate
sub mission
Ġmatch es
Ġinitial ized
Ġticket s
Standard Wrapper
Standard Engine
ĠAss ist
Ġexit ed
typ es
Ġdiscover ed
dec am
Serial izer
Ġincons istent
spag obi
Classpath Manager
Place holder
StandardContext Valve
solut e
StandardWrapper Valve
, '
4 25
= <
A ST
B l
C amel
C amera
D ur
F amily
M is
M easure
T L
] )
d rop
f aster
f eatures
f ortun
m enus
p aces
p ublish
t emp
t heme
he ader
Ġs uper
ĠĠĠĠ ĉ
Ġc ut
Ġc ourses
it ch
ar ger
Ġp ic
lo op
Ġn e
Ġre build
ex e
Ġfor ced
im ent
ist ency
ig gers
if f
Ġ[ --
ĠM od
Ġ3 2
low orld
De fine
17 7
Ġle g
ĠO per
16 0
=" "
Ġ4 04
ok ed
Abstract Http
44 1
36 2
48 4
DE F
ĠCon sole
Ġsome one
49 8
Class es
execute With
ĠCont rol
Client Impl
AP E
On e
omet hing
Ġrel ative
En cry
Pre pare
col lection
Index OutOf
Ġob tain
ĠJob s
ĠWh ich
list ener
Produc er
BeanDefinition Reader
Ġident ify
Ġexpression s
Ġpers on
ĠCopy ing
Ġremain s
Ġremain ing
Ġaggreg ate
Ġiter ator
CC ESS
Be fore
ĠKitchen Sink
ĠGet ting
Ġsnipp et
ĠPack aging
pom ona
Ġunn ecessary
Bounds Exception
StandardHost Valve
IndexOutOf BoundsException
/ -
3 09
B I
F oo
J an
L ight
P L
S ql
c is
e v
k ill
m ode
m apping
r t
r ime
s vn
Ġ ../
ar ing
Ġp ublished
Ġn or
st atic
Ġd q
Ġd ispatch
Ġre duce
Ġre vocable
ĠS ave
ĠS ync
ĠS how
Ġ( "
Ġpro ceed
Ġcom parison
Ġl arger
tt y
In strument
ĠD own
Ġ3 7
ob s
14 5
ĠE XPECT
Ġwh ite
gr ading
09 4
24 38
serv ed
ĠG C
47 9
Run Loop
tr ack
Ġen um
ĠĠĉ ĠĠ
Handler Proxy
ĠV ariable
84 3
Ġlib system
Container Listener
Create BuilderImpl
Error Report
plet ed
Configuration Builder
Framework Method
Web View
aps ed
Not ify
ait s
filter s
Ġinv olve
ĠSc roll
Support ed
ĠCh rome
Repository Factory
Que ued
aller y
Ġcover s
jo hn
URL Connection
ra ft
Reconc ile
Edit Part
su ccess
MessageProcessor ExecutionTemplate
Ġsay ing
Ġali ases
iss ue
Ġexpl ain
Hyper Sup
Ġoversub scribed
Extr act
Decor ator
free zer
avail able
Ġsubsequ ent
StandardEngine Valve
faster xml
ErrorReport Valve
HyperSup rime
! !
7 03
B it
C OS
F alse
M emory
P ython
P sf
P ATH
R out
R anges
R ename
S ingleton
U LT
f ix
g pr
h ystrix
j ms
p w
p rompt
v agrant
y les
Ġa perture
Ġc cd
Ġc redential
ter s
Ġan not
Ġd er
Ġd isp
Ġd atab
ec ause
ĠS ample
ate ver
Ġpro duce
Ġcon structor
ĠC lose
Ġg emfire
ri p
Ex ample
ĠD ec
ĠD em
ĠM onitor
com ing
13 34
ĠE E
Ġle ngth
ĠO f
16 97
08 06
29 5
Ġun less
Ġi phone
create Tab
47 3
Test Class
Ġpl ans
Ġli f
load ed
do Dispatch
48 7
20 5
37 4
Ġpar am
Pl ayer
web work
open api
SC APE
Tr igger
"> </
Hel p
Ar gs
col umn
Set up
Send Event
2014 09
Ġad apter
NS Application
Ġ47 36
ĠLog in
comp at
Ġappro x
datab ind
Ġattempt s
Ġnav igate
Rest Template
Dis k
Ġph ase
strain ts
Ġcompat ibility
render er
Ġ---- -
Ġstand alone
Ġcorre ction
Ġmention ed
ala xy
Prepared Statement
) "
2 17
4 29
A rea
C R
J Face
L ast
O ptim
P ress
P agination
S ummary
V ENT
c lo
c xx
d ay
g mock
h ase
i ation
q s
t cp
y y
Ġs atisf
Ġc ycle
Ġc andid
li er
java x
ĠS amples
Ġpro cedure
Ġ" #
Ġl ayer
art ifact
ĠM V
end or
Re view
gr ails
ĠL I
Abstract Twitter
ĠH ome
Ġ| --
39 461
Method Filter
Ġwork flow
eb ula
ĠIn verse
tr aits
46 0
Us age
201 21
37 8
leg acy
AR CH
Ġevent ually
Service Request
Ġper mission
Ġloc ated
af ari
Pl ain
Ġass ume
Ġdepend s
âĢ Ŀ
Ġpo licy
Aut om
ĠIm prove
valid ate
valid ator
Ġco uple
Project s
inter face
call back
Log ger
Set DataBuilderImpl
Ġsecond ary
Trans former
Ġautom ated
Ġad vanced
ĠPl an
Ġconf lict
jo in
Âł Âł
Ġsign al
register ed
handleMessage Internal
Ġfin ished
Rec ord
ĠAdmin istr
Ġextr act
Filesystem IsolatorTest
Ġign ore
limit ed
Kroll Proxy
MBean Exporter
346 09
clud ing
Validation Interceptor
ĠCP U
nik ov
DelegatingPlugin Filter
Ġdatab ases
AbstractTwitter InboundChannelAdapter
3 26
4 11
5 18
= [
C XF
C ESS
F ault
F reemarker
N U
N one
T unes
f ocus
k er
k dir
m etrics
n ames
p attern
r is
s a
s bin
x n
re w
re place
le ep
Ġf s
Ġw atch
Ġp air
Ġp oll
Ġd raw
ĠS witch
ab i
Ġ2 56
Ġpro pose
Ġr uble
Ġex posed
ob j
get Value
per f
bo se
14 57
ĠN PM
16 2
26 40
39 9
28 0
28 2
24 7
Ġun used
36 0
log y
46 79
59 8
88 3
Up d
Ġ8 0
Ġsh all
Ġhierarch y
Ġz ero
Ġter m
ĠData Sense
cons umer
function s
eg g
ĠPre view
500 43
find LocalClass
2012 04
Rec ipe
Ġorig in
ĠFire fox
Ġes pecially
anc er
Names pace
Ġsimp lify
sal nikov
Ġcp u
Ġduplic ated
Ġcop ied
Ġimpro ved
ĠAuthor izing
iagnost ic
' },
. ]
2 44
D U
D el
D omain
D uplicate
I I
J NI
N PM
a id
b log
c over
c alendar
c enter
g c
h avi
j am
p id
s heet
w ar
Ġs ymbol
Ġc at
Ġc alibration
ing Filter
ar s
ent Volume
ur ns
ho ose
ol umes
os er
ĠP ress
14 8
ive ly
De veloper
read sheet
Ġle ave
Ġby te
ĠJ AR
View s
Ġbut ler
ĠB undle
ĠB PM
39 0
27 4
Exception s
ĠG eocoder
over flow
07 5
out bound
02 0
Ġen rol
Ġen coding
Workbench Keyboard
log in
46 6
ref actoring
ast rom
ĠPro blems
ĠWe ek
Ġthere fore
pos sible
Ġ$ {
sc hedule
Ġloc ating
Ġloc ations
Context Module
Connection Utils
Sc ope
Ġpo inter
Ġmem bers
omet ry
Ġk ernel
ĠBuild ing
ĠAn alysis
trans action
Index ing
ĠLo ad
Ġreg ex
Ġcontrol s
IDE A
Ġfre qu
Safe Runnable
Check s
Ġrefer enced
InputStream Reader
hel lo
Ġdescri b
ĠCopy right
ĠZ K
Gr aph
Ġalloc ated
enable d
Ġactiv ities
ĠCons umer
Ġpotential ly
BlobStore ContextModule
Secure Preferences
border Style
Can vas
mouse Down
ĠAV D
âĢĶ âĢĶ
fortun ately
/- /
JFace Util
' ).
2 50
2 19
4 537
6 99
9 000
> .
A lign
C n
G I
G roovy
G eolocation
J ira
M er
M odules
P tr
W arning
i ct
i et
l ast
l tk
t ag
Ġ roles
er vice
er ial
on ym
Ġc li
ar b
Ġp ane
Ġm on
Ġm atter
ent ry
ad ow
ĠA CL
Ġon to
Ġst age
Ġst uff
qu ired
Ġex change
ĠD R
ĠM ove
ĠM emory
nd k
ĠF l
int ro
Ġres pond
ĠO CS
55 4
Ġfile name
Ġ4 740
Ġ< ?
() ');
28 8
25 1
38 9
ĠG ot
ĠG UI
Ġtr iggers
99 3
Ġpl ay
res hold
Ġrep eated
59 884
ast ore
add Tab
Ġ18 127
no arch
ee k
enc ast
ĠUI View
69 7
ĠOpen ed
ti app
Set tings
LO G
Send ing
TI ME
92 19
mobile web
Ġpi cture
ĠDo es
opt im
rag ment
URL ClassLoader
Ġ79 53
eng ine
Ġmach ines
Ġtrack ing
Down load
Ġscenar ios
Ġexper ience
ĠLive View
Ġop acity
jp g
Ġmac ro
Authentic ator
Migr ate
webkit browser
executeWith Checks
4537 59884
5 24
7 24
: {
< >
A nt
A IN
D ir
E nt
F in
F atal
G B
I o
J R
M ysql
c alibrate
f its
j as
o om
p or
p ret
r andom
s ome
s cons
x b
Ġ ui
er ApplicationContext
Ġt re
Ġt alk
Ġs am
Ġc amel
Ġto gg
ar u
Ġb ool
as ing
et as
Ġn um
am azon
Ġre open
ad es
im l
Ġ2 50
Ġpro pag
pl ash
ĠC ase
ol ving
Ġcom es
qu iz
ri ent
ator y
Ġex cept
ĠD ialog
11 3
Pro file
ir ror
ĠN e
lib c
ĠTh ank
18 2
ition ally
ĠH and
29 7
58 7
57 9
Ġlist en
... "
ĠV FY
Ġback end
Ġ$ .
Ġreport ing
Ġother wise
Ġsh ut
ĠDe veloper
current ly
ĠAut horization
etc hed
Ġstate ments
En coding
ĠSc reen
ĠThere fore
Ġstor ies
Ġtyp ing
Ġab ort
Ġob server
Ġob vious
Ġter ms
Sh utdown
Debug UI
rest ore
Ġexport ed
ĠâĢ ĺ
2012 12
state ments
Ġincorrect ly
Ġchild ren
ĠRE ADME
long john
Progress Monitor
Ġcommun ity
Ġnorm ally
355 45
ĠConnect or
ĠTO DO
ErrorHandling TaskExecutor
ino is
single node
soli d
ĠNU LL
Light weight
ĠDown load
erApplicationContext Executor
3 39
3 25
7 86
A GE
C ent
C SS
E ach
H adoop
N O
P ers
T EXT
W cs
b i
b tn
c y
f lix
n on
p ublic
r uble
w atch
or ial
re curs
Ġc a
av er
Ġb lob
un deploy
il led
Ġo pp
Ġre use
Ġh int
im g
Ġ( _
Ġcon c
Ġst able
Ġ" .
Ġr ad
ĠR C
ers core
ke ys
Ġ[ ];
ram md
ĠD uplicate
ĠD SL
ĠM ar
10 480
ang ing
bo ut
14 07
ĠE nd
ĠE ntity
ĠL com
iv ale
23 6
Ġ-- -
26 6
ph an
ĠH e
ER K
39 2
28 5
24 5
Ġy ear
Th row
38 391
Ġi Tunes
34 9
Ġen h
48 6
put e
Ti Application
build path
Ġprocess ors
Ġfail over
Default Mule
35 1
si an
54 2
Ġport ing
Ġport rait
ĠAdd itionally
Ġrepro duc
TR AIT
Ġtext field
net flix
AU LT
ĠTest ing
127 0
Ġeditor s
RI G
sub ject
sub aru
Ġconst ants
Ġinitial ly
reg ex
sdk s
Ġ47 39
message flow
Spring Application
ĠAr tifact
Ġscroll ing
Ġhigh er
Ġconsider ed
Analysis Executor
Ġdeter min
Ġdecl ar
Ġarch itecture
Ġintegr ated
449 50
Ġmean ing
Ġgrad es
Ġinstrument ation
Security Interceptor
KE Y
Live View
Generated MethodAccessor
Pri vileg
qual ifier
Evalu ator
ĠRES ULT
rem ote
Ġben ef
9219 896
recurs ive
% ,
% |
' ),
6 16
6 08
9 06
Q A
R K
S si
Y Y
a uge
d r
d om
f eedback
i ph
j git
m enu
n ext
s r
u ation
u ck
u ous
y on
z ed
Ġ questions
es ter
Ġa lign
Ġs ecure
is ql
it ing
an y
Ġw ar
Ġb oolean
ut orial
ĠT arget
00 04
lic ies
Ġus ually
art z
ĠD EC
pro j
pro duct
Ġe g
ĠF ITS
th row
14 80
ir c
Ġwh atever
ĠN DK
De vice
Im p
iv en
ĠB ack
ĠH ttp
ĠH ave
ĠU sers
Ġpl ug
log s
201 3
ific ant
Access Log
Action s
Process Util
Accessor Impl
ĠQ ue
Ġhand les
Ġbet a
Ġref res
Ġunder lying
cs v
rec ent
ĠCom ponent
wr ap
Value Resolver
State Exception
Int egrate
Ġrout es
Ġ47 38
pre ference
Ġprodu ces
ĠMesos Containerizer
BeanDefinition ValueResolver
Ġretrie ved
Session Impl
Ġlimit ed
Ġ-------------------------------- --------------------------------
Ġborder Width
Notification ExecutionInterceptor
ĠTry ing
AV E
Timeout Exception
MessageProcessor NotificationExecutionInterceptor
sim ple
ĠOr acle
Ġprevent s
**************** ****************
Ġtech no
Ġchecks um
Parameter ized
Constructor AccessorImpl
Ġpixel s
Ġpur pose
ĠSU CCESS
extension s
Ġleg acy
pw ang
Ġsatisf y
ARCH AR
jam mes
3 53
4 22
6 56
8 54
9 08
: ~
A G
B R
F ull
F etcher
J dbc
N ING
P ut
b ad
c al
d or
g ms
n cs
Ġ Ke
Ġ ------------
re po
Ġs sh
Ġc ron
Ġc ss
Ġf lo
Ġp anel
lo ts
Ġm eta
Ġm iddle
am d
Ġd ay
ĠI S
id ing
ag raw
us p
ĠA nt
Ġr ate
ult ane
ĠW ait
ill inois
12 02
ĠE l
Ġcont ribut
55 9
Ġ4 4
Vi deo
09 0
ace gis
po und
ĠIn ternal
58 8
}} )
57 268
res erve
ff ix
Build Participant
46 7
egr ity
Ġ18 126
Class Runner
ft p
ear n
set tings
Ġwr ap
Error Handler
Request Mapping
ierarch ical
Ġlink ed
Ġfl ux
Ġco add
ĠK S
dispatch Message
string ify
ĠĠĉĉĉ ĉĉ
Ġconst ant
cm d
LO E
Ġflow s
ĠUser grid
platform s
Unit Test
ĠSet up
Or g
Ġ276 46
greg ate
ĠAr ray
Ġest imation
Ġhappen ing
ĠDur Admin
XX X
Ġborder Color
Ġmigr ate
Ġimp act
sim ulator
Ġintegr ate
font Size
sequ ence
executor s
exp and
Ġmonitor ing
Ġmanag ed
createTableView Row
ĠLO G
Ġmer ged
ĠRest art
Track er
writ ten
Ġcommunic ation
Ġrecomm end
ĠMulti ple
ĠTrace back
Ġdeleg ate
Ġsomew here
amq p
Ġupgrad ed
RunLoop Run
Ġlif ecycle
havi or
ivale nt
ncs a
agraw al
acegis ecurity
" ]
- +
/ '
3 50
4 128
: [
> )
B E
E P
E m
P hoto
R uby
U l
[ ]
c zar
c ancel
d ashboard
l ish
r r
s en
Ġt aps
Ġt aking
Ġt Match
on s
re mo
Ġs he
Ġc ross
Ġf all
Ġm ask
Ġan im
ĠT CP
ver age
ĠR ec
ow er
os ch
Ex ists
ĠP aste
ĠM enu
pro d
Ġ* .
str ategy
form s
14 04
ĠE ach
ail ing
Cont ributor
iv a
iv ed
Ġ4 741
Ġnew er
ĠB ecause
Abstract Dispatcher
39 6
27 8
Ġ} )
56 5
Ġpl aced
Ġrep eat
ip ad
Ġ{{ /
do Intercept
ĠRe view
val ves
Window Proc
32 1
Ġcol ors
88 9
Val ues
Ġscre ens
Ġthem es
ĠApp lied
web apps
Error s
File Indexing
An y
Ġload s
AbstractMessage Sending
Ġcustom er
Ġclean ed
stack overflow
Ġcho ice
ĠProcess or
Ġaccept ance
Ġspecify ing
Ġ79 51
Ġtransform er
Ġ218 06
ĠInst aller
Typ es
Ġdescri be
page id
Auto Configuration
Ġ133 12
Le ader
CF G
Scheduled FutureTask
........ ........
Ġsw iml
Ġreplic ate
Ġproduct s
AND SCAPE
ĠPort al
Ġregard less
375 26
ĠPO JO
ĠPass ing
Tim er
Plain SocketImpl
FileIndexing Participant
AbstractMessageSending Template
4 55
< >::
B UILD
G en
H E
I C
P ush
P ipeline
R ules
S Q
e es
f etcher
l in
m all
m icrosoft
p a
w p
x a
x proj
z ing
in y
Ġs afe
Ġc d
Ġc xf
Ġc alibrate
is k
Ġf actory
Ġf etched
Ġw orld
Ġb uffer
Ġp ipeline
as c
Ġn eg
Ġre n
Ġre ly
ĠS RC
ag er
Ġ( @
Ġbe ans
ol low
ain ing
Ġg row
ĠP age
ĠP ATH
Con struct
ĠĠĠĠĠĠĠĠĠĠĠĠĠĠĠĠ ĠĠĠĠĠĠ
Ġcont act
ĠJ ira
ĠJ DT
ĠH ost
24 8
25 9
46 5
Ġho les
Ġar row
ĠV ARCHAR
Ġpre tty
Service Resource
sc re
Ġinstall s
Ġloc ator
Widget Selection
Ġdes ired
handle WidgetSelection
TR I
tes b
ong o
Ġcomp iled
Ref resh
Ġaccess ing
AP P
Sim ulator
ĠCom mon
Ġweb view
ĠAn y
Ġab solute
reg ion
Ġmin or
Simple Job
Label Provider
ĠER R
ynam ically
Map View
Ġcho sen
Ġsuggest ed
Ġborder Radius
Ġdec ide
*) +
ĠNOT E
Ġrecord s
155 83
requ ire
Ġ3022 8
--- +
347 4
Ġreceiv es
Man ifest
DefaultList ableBeanFactory
butler Utils
Ġsubsystem s
Cn xn
RequestMapping Handler
3 28
4 13
4 09
7 28
B B
H o
M ixed
O K
U buntu
h ide
n e
p ter
p ass
q tt
v let
Ġ 67
in x
Ġc y
Ġp hot
ut f
Ġn umer
Ġn ightly
Ġan swer
ĠT EST
ad get
Ġh al
ig ning
ig inal
Ġcom posed
hen ce
Ġ[ -
app ers
ĠD isplay
Ġas sets
op s
get File
ug lify
ĠF Y
iz es
UI View
14 65
Re Encry
ĠE X
ĠN etwork
ĠN othing
Ġup grading
iv ity
Ġim possible
Ġ< <
ĠB ean
Filter Proxy
Abstract Protocol
Ġ} ));
create Picker
Ġaut h
Test ing
57 0
PI D
46 283
load ing
do Get
ĠRes ponse
fin ish
widget Selected
Default Save
37 0
cont ains
Ġpart y
Ġ7 5
Processor Chain
Ġent ities
Delegating FilterProxy
It ems
start up
Aut hor
host name
Ġconnect ors
Control s
Loc ale
Ġinv oked
Ġoff set
Ġpr act
ret ry
ĠCh annel
Ġhel loworld
Dispatcher Servlet
Ġtim estamp
Parser Pool
Sh ift
Ġautom atic
Get Children
Change Operation
EE E
Ġdownload ed
Spring XD
Ġpattern s
by tes
Ġnav igation
RUN NING
ĠRE AD
Ġextend s
Ġhook s
MBean Server
Off set
Ġtech nical
SSL SocketImpl
rout e
Basic New
Ġsli der
Ġevalu ation
Perform ChangeOperation
POR TRAIT
Ide EventQueue
Allocator Test
Subject Callable
ĠReplic ate
Mysql IO
Parameterized Command
RequestMappingHandler Adapter
Mixed Content
ReEncry pter
GetChildren BuilderImpl
1 0000
4 08
7 15
7 56
8 00
> "
> }}
B S
C ocoa
C atalog
E mail
G ET
H ibernate
S plit
T ST
X code
a ff
b eta
b ottom
c ise
c redential
d ml
f jammes
r er
r ic
s li
t ss
ĉ Ġĉ
Ġt ro
at est
le arned
Ġs lot
Ġc c
it ems
ed ian
Ġw atermark
ar row
un ix
un ctor
Ġd ig
Ġre actor
ĠT ermin
ĠS uper
ĠS IG
ad apter
Ġfor k
ĠA cc
Ġpro duced
up dated
ĠR ent
Con straint
10 53
run s
per mission
Ġe lected
iz able
iz ont
com pute
io kit
13 83
Ġ4 13
27 38
25 7
Ġun learned
47 8
58 5
57 58
Ġpl ain
FO R
log ger
log data
Ġli g
59 0
59 302
Ġhas h
Ġclass ic
Ġar bit
49 0
Ġsim ultane
Ġpar ity
Ġke ystore
ON LY
Ġsh are
Id ent
Command Processor
ĠSee ked
Ġ9 0
On ly
Web work
UN D
Ġcr iteria
Ġfilter ed
Ġperform ed
LO CATION
Ġinitial ize
SH A
ĠCheck pointing
command line
Ġcor ner
Ġdiscus sed
ĠWARN ING
FI LE
Ġ150 88
Co unter
Ġident ical
Ġident ified
Ġhappen ed
Ġstop s
Ġ157 08
Ġbl ur
Xml BeanDefinitionReader
domain s
liver able
Doc Generator
Ġcollection s
Ġequ ivalent
Multi ple
MB P
Ġrender ing
ĠCons ider
406 96
ĠComp acted
Ġbas eline
Alert Dialog
ĠSH A
ĠSpec ific
Ġsto pped
Enh ancer
ĠIter ated
Ġdisp osed
ĠThank s
ĠtMatch Group
' }
/ *
3 18
6 10
6 86
7 30
8 37
B C
B ad
D q
J Io
N N
P os
P RE
S D
S yntax
T T
a h
c pus
d ans
g dans
i as
n ess
r ange
s hould
t ist
x ce
y arn
z es
¿ ½
ï ¿½
Ġ Ĉ
Ġ hence
in cluding
Ġs ens
Ġc ost
Ġf lex
Ġto ast
Ġm ess
Ġd en
ch ie
Ġor phan
ĠI gn
ĠS VN
est ure
Ġ1 74
ex us
00 2
Ġfor e
ork ed
ve y
ĠC l
if ies
Ġcom ing
01 9
Ġ[ .]
ĠP ri
app icon
ĠD on
get S
ure d
ang le
Ġe cho
bo ol
con dition
ĠSt orage
ĠN ull
Ġcont ribution
Ġ/ **
Ġsc al
ĠB y
Event Thread
29 4
db a
38 3
ĠG WT
47 20
34 8
36 7
do Execute
Ti Activity
201 110
Ġlist eners
Ġqu al
Titanium ProjectWizard
Ġcol l
Ġ! =
Ġview er
Context Handler
Ġwr iter
ĠĠĉĉ ĠĠĠ
aus sian
par sers
Ġ6 1
Ġtable View
ven ance
Content Provider
Ġcontext s
ĠAtt ached
AbstractMessage ProcessorChain
Ġstor es
Ġ2015 0114
ĠNot es
Ġte acher
Sh ard
Row s
Slave HandlerService
rie ve
select Id
orm al
ĠWork ing
Report DocGenerator
Ġreason s
bl ue
Tool s
Tool bar
Ġupload ed
EC K
He ight
vc xproj
Ġmax imum
Ġrecent ly
Ġ() (
oper ator
My SQL
ffff ff
Illegal StateException
Transaction Interceptor
Ġturn ed
AsyncProcessor Helper
Ġsnipp ets
Ġcalc ulate
Hyper link
Ġconsum ers
999999999999 9
Ġexact ly
Sp el
now led
Wait erApplicationContextExecutor
Ġear lier
ales force
Dependency WaiterApplicationContextExecutor
gu ard
ĠInv estigate
Measure ment
Authenticator Base
rient ation
Leader Selector
BasicNew TitaniumProjectWizard
JIo Endpoint
gdans k
! --
+ '
3 15
4 05
6 87
: <
A vailable
B D
B ook
D rag
F T
J MS
L IN
M V
M ETA
O D
P T
S ince
S ION
X rd
d ss
g le
h ort
h ierarchy
n ote
n umber
p kg
w xr
Ġ ..
Ġt we
at ial
le tt
Ġs andbox
Ġs ites
Ġc aching
Ġw arn
ce ll
Ġin depend
ĠI d
ĠS cript
us age
ab s
Ġpro duc
Ġst out
Ġr id
ers on
Ġl auncher
Ġl inux
el astic
act er
Ġ' ',
Ġg ather
ĠP ost
Ġex ceed
Ġ3 507
ass ess
Ġas ynchron
pro file
ĠW ould
ĠF ootprint
Ġres pect
ĠO Auth
16 3
19 289
ĠB B
ĠB UILD
26 1
Work Unit
Ġun check
ĠG roovy
** *
ip el
Ġen c
Ġen abling
36 4
46 8
ĠEx tr
59 5
201 10
ms dn
Un ique
86 7
37 2
35 4
Ġsu fficient
Ġany way
03 2738
Ġover write
Ġlib c
66 3
Ġint ent
Ġint eger
sh utdown
Ġway s
Ed ge
RE ATE
42 069
Ġdist ro
Ġread s
class ic
Ġx hr
Ġthrow ing
wr apper
cm ake
Ġconvert ed
Ġcl one
Ġprovid ing
TI STUD
ĠOS X
Trans form
Repository WorkUnit
Simple Module
Do uble
Ġdelet ion
Ġprompt s
Ġlong itude
ĠSet ting
launch Configuration
Ġexport s
ĠDes ktop
FI G
Ġ315 25
Ġwho se
BeanDefinition s
ogn ized
Comp are
Rec order
Ġsuggest ion
sec ure
Ġaccount s
hel per
Output Stream
Ġrecogn ize
Ġ2764 1
404 29
SER V
Ġposs ibility
ĠAg ent
Ġsupp osed
Mac OS
ĠLive Viewer
Post Processor
rel ated
Ġreceiv ing
Activ ator
Ġcent ral
="# [
lambda works
Ġintermitt ent
Executable Extension
ĠActive MQ
ĠMonitor ing
Freemarker Manager
Cent roid
Ġrad io
ĠDEC am
TRI BU
Ġlig ht
ï¿½ ?
lett uce
& ,
3 27
4 0000000000001
5 9999999999999
6 84
9 0000000000001
B rowser
C overage
D D
E nsure
F D
F AILED
H ow
I X
N PE
P y
S k
S o
S ame
S UI
_ .
a ed
f amily
f riend
g ment
o lokia
p et
t ar
t otal
Ġ 74
Ġt esb
at ched
Ġa ct
Ġa ck
is ion
ed ic
Ġb undles
Ġan t
Ġd ump
Ġre deploy
ch art
ĠT SS
ĠT oken
ĠT uple
ĠS oftware
Ġth reshold
est ination
Ġ1 27
im s
ic ode
ĠA m
em on
Ġst ay
ĠR ed
ĠR out
Ġnot ify
Ġl ack
Ġg cc
ri ve
ep rec
ĠP attern
Ġus ability
ĠM in
ĠM ULE
Ġ3 500
run In
for Path
Ġe valuate
ĠF uture
ill a
com pletion
Ġapp lies
UI Enhancer
22 1
22 6
ĠE ven
ĠE ither
ĠE lected
ire ction
:: ~
Ġres olution
Ġres erved
De velop
09 999999999999
Ġj r
ui ck
ĠB Y
ph inx
Method Reference
56 1
Ġconfig uring
Test Service
Hand sh
Ġ{{ <
48 1
Ġsupport ing
ĠRe place
Handler Metrics
Ġqu ality
37 7
AR Y
sc hemas
Ġlib mesos
66 0
Ġint roduce
Rep eated
ĠAdd ress
Interceptor Chain
Job Execution
Ġcomp ilation
Tr ue
Ġman ual
RE AD
Ġnames paces
Ġinv ocation
Ġoff ic
Ġoff line
Ġx code
Group Process
Ar ch
Java Script
Ġindic ates
Editor Reference
Ġperform ing
ĠSe pt
reen Ho
ĠRecover ed
Ġfre ed
ĠWork around
Ġ'* '
Ġmeasure ments
show While
00000001 98
Ġsign ificant
Ġretrie ving
Comp at
Ġ322 49
object Id
block s
Match ing
Gr ails
ĠGr ails
ĠGr aph
ĠLinux FilesystemIsolatorTest
Multi Page
yml ink
Ġconsistent ly
Ġtrun k
render ers
Fail ure
Fail over
ĠBe havior
uc y
ĠĠĠĠĠĠĠĠĠĠĠĠĠĠĠĠĠĠĠĠĠĠĠĠĠĠĠĠĠĠĠĠĠĠĠĠĠĠĠĠĠĠĠĠĠĠĠĠĠĠĠĠĠĠĠĠĠĠĠĠĠĠĠĠĠĠĠĠĠĠĠĠĠĠĠĠĠĠĠĠĠĠĠĠĠĠĠĠĠĠĠĠĠĠĠĠĠĠĠĠĠĠĠĠĠĠĠĠĠĠĠĠĠĠĠĠĠĠĠĠĠĠĠĠĠĠĠĠ ĠĠĠĠĠĠĠĠĠĠĠĠĠĠĠĠĠĠĠĠĠĠĠĠĠĠĠĠĠĠĠĠ
Ġpromis ed
depend encies
ĠCC D
ĠMay be
ĠArch ive
//////////////// ////////////////
Ġready State
Single Node
Ġadministr ator
Ġ264 01
ĠCent OS
SimpleMessage HandlerMetrics
live view
Meta Data
discus sion
Ptr Field
yon d
Ġ------------ ->
Em bed
ParserPool Factory
ĠREAD ONLY
Cocoa UIEnhancer
Ġarbit rary
201110 24
Repeated PtrField
reenHo pper
" ?
. :
4 39
4 32
A c
C I
C U
G uide
L ANDSCAPE
M em
P ass
T DQ
d pi
d ynamic
d rawable
g mail
h at
j et
l uc
m id
m ay
n l
p ic
p oll
v a
v endor
in ic
Ġs light
Ġc ame
Ġc are
Ġc ategories
Ġc irc
an onymous
an aconda
al th
Ġp hone
Ġm and
Ġn ature
st ats
Ġre connect
ch at
ĠT ABLE
ĠS W
id y
id ed
Ġ1 04
00 4
ect ed
ĠA ST
Ġcon straint
ĠC E
ĠC R
Ġr ace
lip board
od b
qu ality
ri ed
Ex amples
ĠP ax
Ġ0 6
Ġus ual
Ġal though
In Method
oc al
oc ial
ani p
ĠW cs
for d
ĠE UPS
Ġ/ *
Ġres pective
Cont ainers
ĠL abel
ace book
ble nd
ĠB asic
28 27
27 7
create ExecutableExtension
ĠIn sert
cl inic
47 4
57 8
http client
ĠEx tend
79 0
79 2
201 6
64 9
Ġed u
not ifications
ov ed
OT B
Ġinter val
Ġobject Id
Http Request
hedul ers
AT TRIBU
Sc anner
Ġfix ing
rec ognized
Ġmem ber
ĠY ARN
Ġstor ing
Ġ27 240
Text Editor
Ġstack trace
Ġprovid ers
AL L
Ġmin imal
If Supported
key board
Sh ort
Sh ared
******** ****
Po licy
application Proc
Ġrout er
Ġconf usion
Ġlsst sw
script s
Ġtermin ate
Ġdownload ing
Ġ150 86
angu ages
Ġ200 9
expression s
umb n
Ġcap ability
LaunchConfiguration Delegate
wizard s
Mobile Web
cry pt
Ġpublish ing
Ġph p
Ġcomput e
Ġchunk s
Ret urn
Ġbreakpoint s
Ġrepresent ation
Ġ20150 224
Ġsk ip
Ġdatas et
ĠDist ribution
Array IndexOutOfBoundsException
Ġsem an
Ġdeliver ed
limin ate
delet ed
option al
Ġjoin ed
Instrument ation
Exceptions InMethod
Ġreproduc ible
scre encast
tist ud
pet clinic
ATTRIBU TE
ExceptionsInMethod IfSupported
3 16
7 04
B in
C xf
H ash
R el
S W
S ources
S AM
Y ou
b ro
f iling
j un
l int
n one
s afe
v et
Ġt cp
Ġc ached
Ġf ront
as hed
lo okup
Ġd ays
Ġd ropped
Ġd ynamically
ĠI E
ĠS end
ĠS afari
ot es
ot ion
est ing
ck to
us able
Ġh aven
00 76
ver bose
Ġpro c
Ġcon ver
ĠC ar
Ġr m
ort h
el come
Ex ec
Ex pose
In formation
ĠM I
ĠM odel
ĠM ax
Ġ3 108
10 32
pro duction
run k
ĠW CS
ĠW CAG
ĠF ree
ĠSt ate
Re visit
ĠE mail
fer encing
error s
ĠB oth
to uch
Abstract New
39 74
27 883
Ġlog o
Ġun mount
Ġun signed
58 29
apt cha
cc cc
ĠX Y
48 5
59 50
ĠRes erved
... )
Ġsome how
Ġar gs
Process Manager
pos es
Ġsim pl
Ġloc ally
54 3
not ification
Ġremo val
Task s
Col lect
Ġsub tasks
ge om
Error Code
file name
Http Parser
Par ameters
Ġpo licies
68 5
Ġrest rict
Ġ17 500
To Object
En ter
fl ux
Ġpoint ing
Ġsingle node
Image Descriptor
Ġtyp ically
Ġhel per
Ġdevelop ed
AL UE
Ġblock ing
window SendEvent
ĠPl ay
Ġ47 34
sql ite
Ġver ification
Inst aller
Ġclo ses
Or der
Ġdiscus s
Ġdrop down
ĠPer form
Core Exception
Ġswitch ing
Ġsm aller
ĠDet ails
Exp and
Initial DeploymentListener
Ġproposal s
Dis able
Block JUnit
ĠRight s
ĠTool s
Console Reader
Cgroup IsolatorTest
Using Reflection
Ġquick ly
Ġaccording ly
Nav igator
Retry Loop
Ġvisual ization
Ġhang s
ĠExamples Test
invokeJoinpoint UsingReflection
alloc ated
Ġestim ator
ĠPM CS
Ġconvent ion
fold ers
Ġannot ations
ĠDem o
ĠOf fer
MethodFilter Interceptor
Del ta
Webwork SecurityInterceptor
Ġmand atory
ckto ck
) \\
* >
3 07
4 15
6 36
9 38
> ",
B ox
B eta
B lackberry
C at
D a
E W
E rr
F eb
J Notify
L ES
N ow
O B
O Auth
P R
S ample
a ight
b one
b uffer
d iff
e om
e ared
l ines
m ulti
n um
n os
p g
s g
s uch
v ector
Ġ ----------------
Ġt emp
Ġt utorial
or por
Ġs ce
Ġs ki
Ġs olve
Ġs ymlink
Ġc ur
Ġc oding
av d
de lay
Ġp lot
un defined
lo ss
Ġm edia
Ġre conc
ĠT OS
ĠS D
us es
00 7
ĠA ction
Ġbe aver
ĠC O
vi a
ĠR el
Ġcom bo
Ġl anguages
Ġ[ [
lic able
lic ated
ĠP sf
Ġsho t
Ġ0 2
ment al
Ġ3 9
10 22
tern et
ĠF ilter
ĠF eature
com posite
Ġ= ==
22 22
ĠN S
Ġcont rollers
50 51
18 112
-------- +
iv otal
16 298
ĠB utton
ĠTi HttpClient
Work flow
ĠH D
28 1
Exception Reporter
over ride
loc ity
Ġsp atial
36 13
46 86
79 26
ĠRe fer
ber nd
Ġ+ =
add r
201 303
ĠPro duction
Add ed
Ġar g
Ġdis connected
cont ainers
sc ale
54 50
Ġimplement s
33 33
ge f
par ameter
Ġass um
Ġ2014 0507
Ġtext Field
Job s
Ġcons istency
Tr ace
Ġco lo
Ġ17 505
Ġstr aight
Ġbeh ind
An imation
fl ask
Ġfilter ing
var i
Ġgiv ing
100 094
Ġclean ing
VER SION
ĠUn fortunately
Ġexecutor s
Ġms g
ĠLog s
Bar Hidden
Or Update
launch ing
Ġexecution s
00000001 8
TableView Row
Ġ139 32
Ġ79 47
runWith Event
activ ated
Super visor
Cre ating
Prot ection
Ġintegr ity
Ġcatalog s
UR AC
Ġequ al
Ġcomput er
Ġdur astore
alibrate Task
Ġboot strap
param s
\": \"
Vis itor
Ġentire ly
Integration Tests
ĠWr iter
ĠGit Hub
External ize
080 235
avor ite
cre ated
KrollRuntime Thread
Ġut ili
DAT A
ĠUT F
Ġmo use
<> ()
Ġbenef it
Ġswiml ane
ĠPax os
100094 000
" },
/ <
/ *.
0 55
4 36
5 44
5 99
5 20
6 57
7 29
7 07
7 343
9 84
B ucket
C ert
F ragment
G o
L V
L icense
M e
M in
M ark
N T
P anel
P hase
S uch
T ap
T AB
a fa
b uilt
c ap
c amp
d t
k ernel
l arge
m er
p ax
p refix
q tp
s ig
ĉ Ġ
Ġ et
at om
Ġa db
Ġa ware
is ing
it ter
ing o
ing u
Ġf tp
Ġf riend
al pha
Ġw s
Ġw ish
Ġp aste
as px
Ġm enus
ul ating
ĠI O
ĠT LS
est a
Ġ( {{
ĠA C
ĠA ug
Ġst rict
Ġ" '
ĠR uby
01 1
Ġg reen
ĠP os
Con dor
ĠD ependency
str ucture
:// /
th at
th ere
ĠN ext
ĠN one
Ġres ize
Ġsc r
04 0
04 8
og gle
ĠJ enkins
Ġ4 9
ok ie
ĠB it
08 1404
ĠU N
ĠTitanium Windows
38 5
OS GI
sw itch
cl es
cl usion
07 1202
Ġpl us
": {"
ĠEx ecution
do es
Ġlevel s
build File
der r
der by
ĠPro vider
ĠPro perty
Ġpos ix
Window Proxy
Ġrec urs
Ġsu ite
Ġsu ffix
Context Impl
be gin
66 6
equ ence
Ġhand lers
ead ers
Delegating ErrorHandling
course id
Configuration Element
Page Filter
On Close
Ġtho ught
Part Service
inc re
ĠĠĠĠĠĠĠĠĠĠĠĠĠĠĠĠĠĠĠĠĠĠĠĠĠĠĠĠĠĠĠĠĠĠĠĠĠĠĠĠĠĠĠĠĠĠĠĠĠĠĠĠĠĠĠĠĠĠĠĠĠĠĠĠ ĠĠĠĠĠĠĠĠĠĠĠĠĠĠĠĠĠĠĠĠĠĠĠĠĠĠĠĠĠĠĠĠ
class path
ĠNode JS
Ġformat ter
Socket TimeoutException
Ġ../../ ../
Ġdesign ed
Implement ation
Strategy OSGI
Ġad just
Ġrout ing
Ġ47 35
sql db
Ġcover ed
Registry StrategyOSGI
ĠLog ging
Mod ify
Ġwrit es
kit chen
Ġsession s
Messaging MethodInvoker
Ġseparate ly
Start ed
ĠWork s
Ġaddress ed
Ġ276 44
cf ht
Ġest ab
Ġident ifier
by te
xx x
link s
ru pt
Layout Constraint
nav igator
full screen
Ġpartition ing
504 131
PRO CESS
CON FIG
Ġdestroy ed
Ġassert ion
ĠGener al
Ġ874 5
Ġprim ary
Scroll View
POR T
Ġear ly
Clo sed
Su ite
Ġinvest ig
ĠOper ation
1334 0076
Mer ger
Ġtogg le
Ġnum py
DebugUI Plugin
0004 39
asc ades
edic ated
Ġjr xml
ĠSept ember
1032 504131
DelegatingErrorHandling Runnable
MessagingMethodInvoker Helper
13340076 47
) *
4 34
4 37
4 31
4 51
5 50
8 29
C opy
D estination
M T
N et
Q uick
R aw
S M
X Y
Y LE
g re
g lobal
g tk
l ation
m i
m et
r uct
s q
s lf
er al
in valid
or ity
Ġa st
Ġa chie
re view
Ġs aw
Ġs lots
en so
Ġc trl
it ut
an et
Ġf its
de cor
Ġin ner
un e
se l
Ġd iag
Ġd raft
Ġre verse
ĠI llegal
ĠS w
ĠS ite
ĠS ummary
ĠS AML
id ge
ex it
Ġ( '
Ġcon straints
Ġst yles
Ġ" $
ĠR O
Ex tend
ĠP op
ĠD irect
ĠM Bean
ĠM anagement
ĠM edia
Ġ3 506
pro to
11 48
ang ular
12 58
Ġapp licable
Ġcont ract
Ġres ervation
ĠO N
ĠO OTB
Ġwhen ever
Ġj unit
08 29
44 8
44 122
39 3
du ces
Ġaut oc
ST YLE
Build Context
ĠEx p
Ti Base
DE D
fin alize
201 210
Ġqu iz
Add ing
face book
Ġar r
Ġstat s
74 5
Ġback port
Ġhe ading
__ .
sc hed
are a
Ġdes ktop
Ġlib jvm
66 2
data quality
Ġ19 2
Ġint ended
Ġclick s
ĠDe v
ĠDe finition
SA X
ĠHT Condor
ĠDM CS
Ġoper ators
ĠUp grade
wh ile
Ġclient s
Ġinv olved
Ġdetect or
ĠHTTP S
aut hor
Ġpop s
Ġhel lo
Ġspecific ally
ili ation
Do cker
ĠUser name
Ġbro ker
ĠWeb Kit
Ġel apsed
Ġver ified
Oper ator
list en
umm er
Ġaccept ed
525 4
500 88
Ġstandard s
Ġ315 21
150 843
Ġsign ature
Ġretrie val
Reconc iler
Ġenter ed
Ġ547 5
ru it
mq tt
ĠOut put
Ġrefactor ed
mun ity
ĠâĶ Ĥ
Fl ags
Cre ated
Ġactive mq
prot ocol
ĠZ ookeeper
Ġask ed
Monitor ing
Ġpull ing
Target s
Clean up
Ġbound s
stru ction
Ġhit ting
512 19
ĠClass ic
276 25
Ġra ised
ĠCF RunLoopRun
ĠCol lection
sem b
Ġconfirm ation
Ġregard ing
rout ing
Ġmanag ing
Ġuncaught Exception
ĠSp EL
~~~~ ~~~~
Results Summary
212 146
Active MQ
ci id
serial ize
ones im
Ġcombin ation
ĠVisual izer
Ġanno un
1677 7343
Mis sing
cis m
sa ucy
201204 18
amazon aws
201212 071202
ĠEnd point
Privileg ed
izont al
Ġslight ly
loss ary
itter cism
201212071202 02
' "
* "
4 03
5 34
6 11
7 13
8 03
= {
A strometry
C OM
E l
E qu
E lements
F ollowing
J AX
M M
P UT
T uple
V ALUE
W ind
W CAG
\ ",
_ |
` .
b aa
f n
g es
m kdir
o int
o graph
t ags
u ing
| |
Ġ Key
Ġs l
Ġs vn
en e
Ġc ar
is ation
Ġf ac
Ġf aster
ar m
Ġp ing
Ġp aused
Ġp df
li ant
Ġm vn
Ġm anip
Ġan onymous
se par
Ġd i
Ġd ot
Ġd uration
Ġd edicated
Ġre ply
ur ning
ĠS econd
Ġh is
ex ists
ab et
ic ate
ĠA MI
ig in
em an
Ġde lay
Ġr uby
od ed
ĠR ule
ap k
el low
Ġ' \
able View
app end
ĠM atch
Ġ3 5
get BuildPath
nd o
ĠĠĠĠĠĠĠĠĠĠĠĠĠĠĠĠ ĠĠĠĠĠĠĠ
Ġv olumes
ĠF ull
ĠF urther
ry pt
18 45
Im ages
Ġsc hedulers
16 5829
ĠJ AVA
ĠTi cket
ph ere
ph abet
27 5950
0000 000000
38 7
Ġun install
ĠIn fo
test Get
Run After
Ġpl anning
34 86
Message Channel
Ġsp eed
cc c
48 9
59 6
ĠRe act
ast rometry
Ġ+ ----------------
Com press
Ġatt emp
Ġ> =
Bean Serializer
Listener List
sc roll
ost ream
Ġover all
Ġover lay
Ġover lap
Ġover written
Ġwr apped
66 9
Ġend s
ifi ers
Module Deployment
ĠQ A
Connection Handler
ĠApp ly
Ġsh ape
open Editor
Http URLConnection
Ġ2014 0909
Ġaccess ed
Web Resource
Ġ17 501
Part Stack
Bundle ContextImpl
Object s
Ġ13 305
ren ch
aut oc
base Hierarchy
ĠClick ing
Ġcl ar
Ġob served
Ġacc ur
Get DataBuilderImpl
source forge
Async BlobStore
Ġbase Hierarchy
Or acle
comp iler
Ġplace holder
FI X
ĠUpd ated
Ġ315 19
Blob ToObject
272 16
Valid ate
Comp iler
ĠCommand s
Ġ157 07
object s
output renderers
Xml ApplicationContext
Ġaggreg ated
epend encies
zer o
yg on
Att ribute
Ġrender ed
Ġred und
ĠTab Group
ĠWr ite
Ġword s
Ġprior ity
ĠRef actor
Custom er
Ġincre ase
## ##
Ġabstract ion
Ġbus iness
Reg ion
recover y
Ġinvest igation
aaaaaaaa aaaaaaaa
ĠLib rary
DH AVE
More Executors
compat ible
ĠInverse Offer
Fin ish
Throw able
ĠAm azon
ĠSW IG
Examples Test
AbstractNew ProjectWizard
Workflow Interceptor
275950 2016
Ġattemp ing
/ ]
0 58
3 37
4 21
6 20
8 07
8 2679
> &
B O
B tn
C ategory
G R
J etty
J AVA
M K
M ult
M enu
N on
N ested
O wn
P RI
S y
S rc
T ermin
\ *
d alvikvm
g reen
k l
p ex
u ate
v E
w d
Ġ 66
Ġ Keeper
Ġ ubuntu
er ing
in ct
at ur
it al
ro ugh
Ġf e
Ġf am
Ġw orth
av y
Ġb and
Ġb rowse
Ġin tercept
Ġin complete
as ervice
Ġm arker
st s
Ġan alys
Ġd iv
ch anged
ĠT R
ĠS ecurity
ck s
Ġh yper
Ġ1 352
Ġ( __
ve locity
Ġcon sequence
em ail
ĠR ename
if orm
Ġ' '
Ġ' --
ram mar
In View
ĠD uring
ĠM is
ob server
get Bean
ind ic
code c
for ward
ĠF oo
int ent
ĠSt r
13 76
ĠE st
ĠE nsure
ĠN ative
ĠN OP
ĠTh us
Ġle aving
RO ID
RO DS
ER M
Ġuse less
38 0
38 1
create Part
99 7
Ġen v
36 57
arch ive
ĠPro t
64 0
ring e
Ġstat istic
ak s
Ġgener ator
vid ers
84 0
Ġsub missions
Ke ys
Rep ro
send Message
Ġ2014 0626
Data Source
Invocation Handler
ym ap
"> <
Ġkey word
omet imes
ti cket
Ġtop ic
Ġorder ing
Ġmod es
ĠAn other
JS Parser
100 3
2014 0829
Ġregister ing
ĠURL s
Out bound
ĠUn known
Ġexp ir
Kit chen
Int ent
application s
Field Editor
eg in
Ġassign ments
Ġ` /
Mod es
Ġmodel s
ĠREST ful
Ġreason able
method s
lif ecycle
Ġtransport s
Ġgre ater
ĠIP AC
Ġ157 09
SWT Exception
tim j
Ġdest ination
Ġdiscussion s
Bamboo FreemarkerManager
Le ft
Ġaffect s
Ġsort ed
By tes
ĠSki pped
Assert ion
jax ws
Ġask ing
Ġeffect s
result s
medi ate
Scheduler Failover
Ġexpl an
SER T
329 07
gn l
ĠEnter prise
Ġ3022 9
Ġmult ipart
Options Metadata
Mo use
Background Color
bus y
Ġtransl ations
ĠAb orted
mong odb
Ġ(! )
Camel Context
Bit map
Rout er
ĠDR P
jas mine
Ġack nowled
eprec ate
0000000198 56
ingu ish
sel ves
onesim ulator
\", \"
1845 21
ĠKeeper ErrorCode
InView Filter
20140829 184521
" ],
% ;
( /
) '
) ');
- )
/ ,
3 58
4 16
5 000
6 13
6 04
6 88
7 12
8 17
= (
B inding
C al
C aps
C acher
E Q
F eatures
I U
M ENT
N s
O s
R ES
R eregister
S ite
T ry
W atcher
a ul
b oth
c ron
c ached
c rammd
f irst
l r
p ersist
q li
s plit
t ake
t we
z illa
Ġ ess
in str
Ġa p
Ġs us
Ġs qu
is su
Ġf actor
Ġf air
Ġw p
de b
Ġb abili
Ġb ias
Ġp ref
Ġin ject
ul ler
ĠT yp
ho c
ĠS alesforce
ad s
us hing
Ġh ist
ex ternal
ex isting
ab e
ĠA U
Ġpro x
Ġcon ven
ĠC LO
Ġst amp
Ġst uck
ile nt
ap ns
Ġ' <
Ġg alaxy
ild card
Ġal phabet
In ject
In clude
ĠD uration
St ub
pro cs
get Connection
ĠW in
ĠW idget
ĠĠĠĠĠĠĠĠĠĠĠĠĠĠĠĠ ĠĠĠĠĠĠĠĠ
ĠF I
12 22
Ġ= ================================
con verter
ĠSt atistics
14 35
ail ability
ĠN exus
upp et
18 12
ĠL DM
ĠL icense
Ġle arn
55 1
55 44
ĠJ K
Ġj ump
Ġ< !--
org anization
06 4
Ġch at
Abstract Resource
ĠU DI
', '
44 6
39 5
Event Operation
27 9
du it
38 8
Ġser ve
Ġser vlet
create ImageView
create TextField
Ġpl ane
tr ac
Message Dialog
ench mark
ĠEx port
48 22
Com part
Com plete
add ing
201 0
work bench
Default MBeanServer
Ġhe ap
Ġ@ @
ool s
__ _
sc orm
sc heduling
Ġke eps
Ġdeploy ments
back bone
Ġav d
Ġag o
67 0
hem eral
Ġsub set
lock s
ĠAdd itional
Ġass umes
Http Method
cur ial
SC ore
viron ments
Ġcomp ared
Resource IT
Ġdist ort
Part ListenerList
Bundle Cacher
Hel vet
Ġdb Name
En velope
call Super
Ġgr ay
ĠCh ild
Execution ManagerImpl
Sub mit
Ġ30 234
display Caps
Repository View
ĠUn handled
SQL ite
ĠPl ace
ĠUser CgroupIsolatorTest
Ġrestart ed
Ġdescription s
ĠBut ler
Ġpresent ed
Deployment IntegrationTests
cf g
ĠInt egrity
thread s
BeanDefinition Parser
Session InViewFilter
Comp ile
Rec ogn
ributed String
inst alled
Ġ262 12
Ġattach ments
ĠOut line
Ġ210 53
ĠImage View
Ġquot es
press ed
ĠMap Kit
Ġide al
Ġfree ze
ĠSh utdown
Ġextend ed
ĠDocument ation
Ġ2764 2
Ġ2764 5
Ġra ise
clud es
406 6
Ġcorre ctions
Ġexper iment
Ġcertific ates
pag o
reconc ile
Ġ3028 5
ĠCr iteria
External Resource
Load ed
pri vate
Ġpres ence
Pack aging
bind ings
Dist ro
JO B
ĠInitial izing
Ġrot ate
Ġinstant iate
Login Filter
Ġintermitt ently
SimpleMessage ListenerContainer
Persist entVolume
Ġaltern ative
define Class
TitaniumUpdate Page
________ ________
Ġsit uation
Ġinher it
Ġencry pted
Ġcoordin ate
Ġcandid ate
Ġfrequ ency
Ġmon th
etas erv
Ġrefres hed
SpringXD Exception
ĠCl uster
20110 210
launchConfiguration s
Wind o
Compart ment
DefaultMBeanServer Interceptor
Helvet ica
4 28
6 12
6 23
7 55
7 47
8 11
8 09
9 04
A cc
A ccept
B al
B uf
C D
C l
C ar
D A
F ITS
G ant
J ST
K ill
L ane
M ax
R abbit
U J
V l
a D
c overage
d i
g cc
g lossary
h es
i pped
k agrawal
m ime
m irror
p lot
s ur
s napshot
w db
x c
y ing
} .
Ġ \\
in ning
es c
Ġa do
re duce
Ġs olver
Ġs leep
Ġc CXF
Ġw sdl
Ġin verse
Ġm ut
Ġm ill
Ġm edian
ho oks
ĠS ame
Ġ1 40
ab c
Ġ2 29
Ġ( $
ĠA UR
ĠA strometry
Ġbe yond
Ġcon current
pl ist
ĠC lo
ĠC OM
ĠC Model
ĠC trl
Ġst ates
up lication
ĠR ob
ĠR SS
Ġcom posite
act uate
Ġ' +
Ġg ain
Ġg one
ri ch
ĠP UT
Ġex er
Ġal ter
Ġal most
ĠD ispatch
ĠM aps
ĠM ock
rom ise
St op
nd ic
ĠW orld
Ġe fficient
und erscore
iz ers
Ġwe ight
Ġapp c
ĠSt andard
14 88
14 003
Re ceived
Re jected
Re quired
ĠN O
Ġsc atter
ĠO ptions
ĠJ an
Ġ4 2
Ġ4 01
() :
Ġbuild bot
ĠG S
ĠG NU
56 4
ĠIn it
07 3
07 5544
Message Receiver
ip ment
do Build
do Privileged
48 2
79 1
ĠRe ason
53 1
Ġdata Id
Ġho pe
led ge
Default Singleton
Default CamelContext
Native ConstructorAccessorImpl
ash es
cont rollers
Bean Registry
ĠIt em
Ġpre pare
Ġspec s
LE TE
Ġro ll
67 2
hem era
Ġsub mitted
Ġ2014 0929
AT CH
ĠDe velop
sh are
SC RI
dep s
IT H
Ġaccess ibility
68 3
ĠAut o
Al ready
Ġ] ,
Sim p
ĠCom plete
++ .
++ ++
Ġquery ing
Ġk araf
Ġoutput s
Ġtool ing
Ġweb site
Ġgr ace
sub process
cle ar
ĠHTTP Client
Ġ27 242
Ġ2015 0124
Ġwizard s
Ġformat s
dis able
olut ions
ĠLo ok
ecess arily
Ġedit s
Int ro
NS LayoutConstraint
ĠWh ere
OR DER
MO DE
fd c
Ġexecut able
ĠSim ilar
ps f
ĠPer haps
ĠInt egrate
ĠDeploy er
fr m
150 65
socket Read
target s
ĠFail ures
Ġbranch es
lat itude
AW AIT
Ġcomment ed
edu ce
Alloy Template
Master Details
Ġmeet ings
Ġign ores
Ġ~ /
br ains
Ġiter ate
Ġeffect ively
depend ency
ĠFin ish
PRO DU
active mq
Ġ3022 7
ĠDist ribute
Ġserial ization
Ġconstruct ors
ubles ho
Ass ist
authenticate e
inner Run
Ġev olution
Bl ueprint
Autom atically
Upd ates
Ġca ught
Ġenh ance
Fetcher Cache
ĠIgn oring
ĠGraph ics
jet brains
umbn ail
atom ic
kitchen sink
TiBase Activity
Compress ingFilter
Ġexplan ation
pago BI
Compartment Lane
ĠAUR A
DefaultSingleton BeanRegistry
MasterDetails Page
% )
- [
. \
. ).
/ @
3 35
6 24
6 03
7 17
7 87
8 86
9 27
9 36
9 89
? "
A Y
B ut
B oss
B egin
C r
C ancel
F E
F ocus
G eom
I W
J SS
M qtt
P AR
S V
S OME
S andbox
] $
b ig
c ing
h i
j j
m igr
p ing
p ump
t M
t ip
u a
u u
v I
v ance
Ġ â
in v
Ġa mong
re le
ro x
ro te
an imation
Ġf our
Ġw atcher
Ġp ure
un th
Ġm apped
ul led
st age
java c
se lection
Ġd hyde
Ġre visit
Ġre design
ur ator
ad b
est r
Ġh or
00 9
ver ify
im ize
ab stract
ic ol
Ġpro of
vi ct
ĠR oot
qu iet
Ġl s
Ġl ay
Ġl iter
ĠD rop
ĠM ark
ĠĠĠĠĠĠĠĠĠĠĠĠĠĠĠĠ ĠĠĠĠĠĠĠĠĠĠĠĠĠĠĠ
for Each
ĠF orked
con d
con struct
13 33
Ġup stream
lib event
Ġsc isql
ĠL et
ĠO ptim
55 55
Ġj etty
ĠTi SDK
Abstract Nio
ĠH it
ĠU S
ĠU nder
44 44
39 4
Event Run
ome z
Ġlog on
38 2
Ġun res
Ġ201 508
create TabGroup
yst ream
ĠIn clude
cri be
Message Producer
Ġsp readsheet
36 3
log ies
process Next
yn onym
Ġso und
86 6
37 993
ĠRep ro
Access Controller
Titanium Studio
Ġ18 130
76 5
Ġrequ iring
ĠV er
Ġback wards
Ġcheck out
Ġover l
Ġlib dispatch
talend forge
45 384
Ġrepro duced
Channel Exception
file Merger
Ġtrans formation
Http s
ish apelet
Ġ2014 0828
Ġdepend ent
Ġscript ing
ĠNo Node
Ġ9 1
AP Ns
ĠProject s
======== ==
Project Builder
ĠUp load
Sim ilar
sub scribe
ĠAn aly
200 1
ĠY UI
Ġz oom
100 8
Ġpop ulated
ĠLo oks
Ġchar set
If x
mpt y
Ġ*** *
pre ferences
channel s
eg acy
Ġknow ledge
list View
Reflective Callable
Ġsession Id
fire Event
User Notification
Query Action
mules ource
ĠID s
less on
report s
ĠPer mission
lif ied
vision ing
Ob server
Ġput ting
Ġgre p
Ġ547 4
Operation Helper
LaunchConfiguration TabGroup
Mesos Test
Rest art
Ġ133 09
Ġdec ided
Ġ210 55
Ġ210 59
Initial izer
gener ated
Function s
Ġactiv ated
Git OperationHelper
ĠEvent s
1211 906
Vis ual
requ ency
<< <<
Ġlead s
ĠRabbit MQ
TiUI ImageView
ZN St
hold ers
ĠPo int
mult ishapelet
limin ary
MY D
MY I
Ġoverr idden
ik unth
jr uby
Fetch Connection
Authorization Test
20121 018
Ġdescrib ing
arb age
ĠNe ue
ProgressMonitor Dialog
Lightweight Decorator
AccessLog Filter
ĠQue ue
Ġcontribut ing
Gen Key
Ġren amed
Ġhal f
Protection Domain
ĠDirect ory
RunAfter s
Ġredund ant
Own ed
Ġfair ly
Ġdistort ion
Rejected APNs
ĠGS EventRun
ublesho ot
ĠGraphics Services
RejectedAPNs Listener
) /
4 59
5 13
5 47
5 36
6 17
6 89
7 50
7 34
8 44
9 17
9 77
B oot
B oard
C ursor
D ump
E VENT
J C
L earn
M ay
M ULE
O RI
P ipe
P OST
S hould
T idy
U AL
W D
W N
W P
a jax
b g
c ert
d estroy
e y
g ather
g emfire
m ber
n om
n ormal
s an
t is
t ig
y our
} ;
Ġ 88
er ver
in strument
Ġt alend
Ġt dq
at ives
Ġa mp
Ġa ptana
he ap
re name
le nd
Ġc le
Ġc ms
is ter
an imate
ing er
Ġf ast
Ġw or
Ġw ent
Ġw ide
av is
ce f
Ġm aps
ul ations
Ġo dd
om as
Ġre li
ch ris
ĠT UJ
Ġ1 18
im ension
Ġpro venance
ĠC lear
ĠC ascades
Ġst ub
Ġ" [
Ġr isk
ore ograph
01 0
01 5
ri ce
ĠP AS
ĠP AR
ĠM B
ĠM o
ĠM er
ĠM DM
Ġ3 3
Ġ3 4
Ġ3 00
ass ist
Ġas pect
pro gram
op ic
ĠW inter
ĠE very
Cont acts
ĠL D
ĠL ike
04 59
Ġj ms
Ġj enkins
ĠH yper
IN S
Ġun available
58 99
99 1
02 04
": [
Ġli fe
ĠEx isting
ĠĠĉ Ġ
59 4
ign ore
Com pound
53 3
ĠPro gram
ific ate
ens ure
ĠĠĠĠĠĠĠĠĠĠĠĠĠĠĠĠĠĠĠĠĠĠĠĠĠĠĠĠĠĠĠĠ ĠĠĠ
30 29
lang u
Ġar ri
(' #
76 0
Ġback ed
Ġback log
pos ing
49 4
AR D
set BackgroundColor
54 5
66 7
66 66
Ġthem selves
Stream DeploymentIntegrationTests
aus ing
format ter
Ġ6 5
Ġcontain ed
main tenance
Ġ2014 0714
Ġtable view
ĠDe fine
Ġid s
cur ren
Ġwhere as
mis sing
ven v
Ġdiffer ences
ĠIm ages
Ġunder ne
ĠFor mat
Ġdialog ue
Ġvalid ator
Ġvalid ated
Client Cnxn
Ġ9 5
fc a
Content Type
For ced
Ġrest ored
Ġproblem atic
deploy ed
ential ly
Ġcomplet es
Ġac com
text Align
Ġlat itude
Set ting
Ġ27 241
State ments
Local File
ĠDo uble
ĠDo xygen
eg omez
slave Id
Ġcho oser
ĠTr ue
Ġ150 89
Ġmost ly
Ġque ued
Ġbox es
enter prise
Ġnetwork ing
Ġgre y
Ġenter ing
Ġdest ruct
Ġcap acity
Ġbl ue
ock s
IO Exception
ĠRE PRODU
Gr ad
Block ing
Intercept ingMessageProcessor
Ġcapture d
Ġlock ed
Ġ20150 206
Ġlic ens
Ġip ad
clud ed
go ing
Ġexper i
Ġpur poses
Ġrepl acing
ĠText Field
ĠCC B
graph ics
Ġinsert ed
ĠDetect ed
Ġbring s
cent os
Ġexpand ed
Spec ific
Storage Provider
export s
Invoke Method
Ġrespon ses
Ġdisappear s
Ġ2459 0
Ġ2459 3
Ġrecomm ended
CK ER
ĠRet urn
chunk s
ĠAssign ees
termin al
ĠOther wise
track er
Ġpair s
cover y
Ġyear s
Ġtechno logy
Ġden ied
Sk y
Ġseman tics
Collect or
vari able
Ġestab lish
Closed ChannelException
Ġdiag ram
Ġfe el
Ġfam ili
Ġanalys es
Ġsus pect
Ġ================================= ================================
RepositoryView Service
ORI Z
oreograph er
Ġunderne ath
0 57
3 38
3 56
3 79
5 38
6 29
7 25
7 0122
A F
A udio
B uilt
C hoose
D uring
H i
H ierarchical
I p
L OST
M CE
M AX
M etric
N amed
O k
P ayload
Q S
Q VGA
S equence
U nt
U bi
V ar
W M
] =
b cc
b anner
d de
d nd
d isp
d sl
e cho
e ups
f rame
h ash
h istory
i ating
k a
m Z
m ing
m ch
p ite
t emplates
w orld
w atcher
x v
y de
y query
z k
Ġ ----------
er ber
at as
re me
re vocable
Ġs olutions
Ġc ast
Ġc lang
Ġf ootprint
Ġf illed
ar ant
Ġp ipel
Ġin spect
Ġm essaging
Ġm atrix
st rict
am ine
Ġan aconda
Ġre ve
Ġre ject
Ġre ach
Ġre lying
ĠT otal
ad ha
00 18
im it
ab or
um ably
ĠC overage
ĠC hoose
ĠC REATE
Ġ" +
qu ity
qu ick
os name
ep Source
ĠP etr
Ġex posure
pr ere
Con script
Con duit
In correct
ĠD O
ĠD oc
ĠD rag
Ġ3 6
10 52
pro duce
run ner
ĠW atch
for ced
ĠF etch
com pleted
12 19
ext r
Ġapp celerator
UI Job
Re ading
ir cle
gr es
read Message
read Bytes
Ġim pl
ĠO ur
55 7
ĠJ ust
ĠJ RE
Ch oreographer
ace gi
Ġj mx
ĠB l
08 3
Abstract Collection
Abstract Queued
Abstract PlainSocketImpl
ĠH SQL
39 38
Event Matching
38 501
po le
Ġser ies
ĠG MT
eb yquery
Ġconfig s
Ġtr act
57 5
tr ust
46 87
46 40
process ing
79 6
Res olve
build ers
201 507
86 8
86 9
ĠĠĠĠĠĠĠĠĠĠĠĠĠĠĠĠĠĠĠĠĠĠĠĠĠĠĠĠĠĠĠĠ Ġ
Titanium NPM
ĠCon fluence
Eclipse Lazy
Ġoption ally
AC SCore
Ġany where
Ġpre fer
Service FactoryBean
Ġke pt
Ġloc ate
Ġ7 0
Ġ7 8
ĠJS CA
Config Parser
Stream DeploymentListener
execute RepositoryWorkUnit
Proxy RepositoryFactory
Ġport ion
wit hout
Ġsh aring
File Manager
File NotFoundException
Ġtrans parent
Data Mapper
cur l
âĢ ¦
Ġem it
Ġcomp liant
impl Read
Ġ9 4
RE Q
duc ing
Ġconnect ing
Ġdist inguish
Part ition
Ġstr ange
Ġread able
UN T
++ /
Ġmod ification
Ġcr ashed
avi ck
econd s
ĠAn alytics
Java Recogn
Base Pack
Ġ27 238
ret e
Ġpop over
trans former
Text Viewer
Execution Instance
ĠNot ification
annot ations
ĠSu ccess
Ġad apt
Ġad vant
pre pare
function al
Ġ24 584
Ġhost s
Ġtermin ating
sd ss
Redis Client
Redis Template
Ġfull screen
Ġ276 38
Ġplace holders
Spring Xml
Ġ150 87
Report Run
Ġ315 23
Ġ315 24
Ġ315 20
Ġcount s
ĠList ener
00000001 00
Ġlimit s
ĠâĢ ¢
Model Presentation
Edit ing
ĠJavaScript Core
Ġreplace ment
transport s
field s
ru pted
Ġdecl are
Ġ210 57
tab Group
MessageProcessor Chain
Ġsort ing
font Family
Ġ274 36
ModalContext Thread
By Name
Sync TaskExecutor
Composite Expression
EX EC
ĠDura Store
Release Notes
Ġboard s
Ġreplic ated
Ġdir ty
Talend Job
Ġ87 46
Nio Client
Ġq dis
Ġ3028 8
Reflection Dispatch
Secure Action
Ġbind Id
Ġanaly zed
ĠActivity Manager
ĠSuggest ed
Ġdeal ing
Artifact Wrapper
Ġmer ging
Char Buf
Ġdr ill
Ġdr wxr
Ide a
Ġoverr ides
delet ebyquery
ÂłĠÂłĠ ÂłĠÂłĠ
Pop over
Ġsys log
fail ure
ĠCH ECK
.' &
Ġpol ling
sk ip
ĠTe ch
Ġne ither
DEF AULT
Ġsymbol s
ĠFl ags
ĠHand ling
RIG HT
Ġalign ed
UnitTest Impl
Exists Exception
SQ LE
DefaultSave OrUpdate
Ġsimultane ously
Dq RepositoryViewService
PRE FIX
Ġindepend ent
Ġenc aps
Ġoffic ial
Ġrecurs ive
Equ als
Jetty HTTP
Sy nd
Kill Task
AlloyTemplate Installer
FetcherCache Test
JSS ymbol
MessageProducer Support
========== ]
Ubi quity
mch adha
AbstractQueued Synchronizer
EventMatching Mask
TitaniumNPM Release
EclipseLazy Starter
ACSCore Plugin
JavaRecogn izer
BasePack FetchConnection
DefaultSaveOrUpdate EventListener
' }},
( [
( \*
. |
5 17
5 46
6 07
7 23
9 37
9 49
= #
? ).
A pi
B AM
C aptcha
D ATE
E valuate
F ore
F inal
G allery
H int
H over
I L
M C
M ON
M ongo
N B
O F
O ur
O ss
Q d
T op
U ri
W VGA
b s
b uf
e lements
f avorite
g mt
h ino
h dpi
k one
m os
m vel
m erge
n ebula
o auth
r alc
s op
u fs
v s
w eek
y aml
z one
Ġ ....
Ġ Keyboard
er mine
Ġt REST
at io
re ed
le n
ro pping
ed ora
Ġb enchmark
Ġin s
Ġin dent
un a
Ġm ag
Ġm dl
ul ative
Ġo w
ĠI AM
ho se
ho Sim
ĠS C
ĠS ynchron
ĠS yntax
ot yp
us c
Ġ1 461
ex istent
um ulative
ĠA ctiv
Ġpro filer
ĠC ancel
ĠC alibrateTask
vi al
01 4
qu is
Ġnot ified
ac ade
el se
ri ever
Ex plorer
Ġ[ "
ĠP RO
ĠP ausing
Ġex clude
oc er
ĠD ynamic
ĠM ain
ĠM easure
op ed
11 73
ĠF ind
ĠF ollowing
fig ure
ĠE VENT
Ġres ume
18 01
Ġsc ience
ĠL ine
ĠL ast
04 3
ĠJ im
23 4822
ĠB ug
ĠB abili
Ġch apter
() "
28 74
create Contents
create HTTPClient
56 9
99 8
57 3
57 6
ff dd
ip ate
Build ing
red icate
Ti HttpClient
Com pleted
work er
Ġresult ed
Ġdes cript
67 7
Stream s
par k
par ing
Ġinter act
Ġinter action
Ġ2014 1028
ĠSer ial
sh ip
87 0
ell ing
Ġcons ume
IT OR
Ġdialog s
Ġdifferent ly
Ġ17 504
deploy ment
Ġstr ateg
Ġgroup ing
Ġcr itical
Ġgr ab
Ġgr ading
Ġlat ter
98 0
Ġtyp ed
Ġcl ause
Ġedit ed
Ġevery where
Ġvis ibility
Launch Activity
co ord
ĠUn it
gorith m
Cache Listener
vious ly
Slave Test
Inst ant
repos itories
Ġfocus ed
Ġdownload s
Ġfull name
Ġrem ember
Ġhard coded
dist rib
content s
Ġpartic ipant
Comp ilation
Ġ244 73
126 4640
Ġdec ision
Initial ization
Ġkeep ing
Ġexpect s
Ġapply ing
Ġiter ation
ĠRem ote
Ġequ ipment
Ġep hemeral
atter y
ĠDis cus
ĠDocument s
Ret rieve
Ġexpl ore
311 90
Ġstudent s
ites pace
Ġ2639 6
Ġ2639 8
aniz ations
Cgroup s
ĠCol umn
Ġprovision er
Ġ87 44
Ġdiscover y
Ġshortcut s
Ġ168 1264640
Ġoversub scribable
Step Execution
Live Viewer
319 3029
can Edit
Ġchart s
Ġsem icol
Bind er
Ġconvent ions
ĠtESB Consumer
guid es
ĠEXPECT ED
Press ed
Press ure
Imp act
Photo Gallery
Ġanim ated
prod info
iny MCE
Ġcy cles
Ġpract ice
sli ce
Pos ition
Xrd Ssi
Ġuncheck ed
liveview er
may be
Ġcolo ur
Supervisor CacheListener
Phase InterceptorChain
ĠPos sible
Ġachie ve
twe ets
Ġexer cise
tig ress
curren cy
erber os
(\* ):
Fore ground
ralc ocer
3193029 443
% "
. /
/ {
4 19
4 99
4 30
6 30
6 35
7 18
7 08
7 02
8 06
9 03
: -
: </
A LI
B reak
B ulk
C pp
C ho
C ould
D P
E F
E st
F DF
G V
H ave
H ook
I con
M ail
M sg
N IOS
T ID
X d
` ,
b io
b inding
c n
c amera
d ot
d raw
d rag
e ven
f x
f ers
f uture
g t
h FDF
m ask
m essages
m vn
o ct
p c
p ages
q r
s ay
s With
s udo
t m
t hen
u IW
v esta
x rd
} )
Ġ er
Ġ ................
in ue
Ġt uple
Ġt GenKey
on Create
en h
Ġc odes
Ġc md
Ġc JMS
is es
Ġf resh
de l
de crypt
ar gument
Ġp ause
Ġp ending
as ion
et y
ut ting
Ġd uplication
Ġre vert
Ġre vis
ch or
ch dl
ation al
ec ode
ĠS pace
ĠS nipp
ĠS phinx
us ive
Ġ1 36
00 6
Ġpro filing
pl es
ol er
Ġde mand
Ġde cor
Ġr apid
ĠR ack
ĠR ubles
if fer
Ġg al
Ġg adget
Ġg rammar
Ġ[ ==========]
ĠP assword
ĠP aul
Con version
In fer
In sets
ani el
ĠM e
ĠM arch
Ġ3 1
Ġ3 8
Ġ3 502
pro vision
pro viders
.. "
Ġ* ****
run ning
ud son
ure ment
ĠĠĠĠĠĠĠĠĠĠĠĠĠĠĠĠ ĠĠĠĠĠĠĠĠĠĠ
fa iled
12 34
con n
Ġapp eared
14 1812
Ġare as
De livery
17 13
upp er
ĠL ion
Ġim g
Ġle verage
og ram
=" .$
Ġ4 5
Ġj line
so lete
ĠB r
ĠB rowse
ĠB lackberry
Filter ed
Abstract Document
Abstract Expression
15 67
IN DO
IN PUT
27 268
Method Invok
Ġset Timeout
Ġun zip
Ġ201 6
create Control
create ListView
create AlertDialog
56 5899
47 00
Ġtr im
ys ical
Test Suite
Message Flow
36 60
Build ResultsSummary
do Call
59 2
ĠRe g
List Section
Com parison
build s
Un handled
ĠPro xy
Ġho urs
Ġshow ed
86 5
Handler Wrapper
ens ity
Ġqu it
ates ter
Ġ18 131
31 503
AS US
sp readsheet
ss ues
Ġ! !!
Class Rule
Ġpar sed
Ġro und
33 3
Task Thread
ĠĠĉĉ ĠĠĉ
Ġsub tr
par ation
Ġ6 3
Ġport ed
Ġsh apelet
AM P
AT US
Ġappear ing
Ġtable Name
ĠAl tern
Ġvi ol
Table Generator
Request Response
Job DeploymentListener
Ġcomp licated
IT AN
69 4
69 6
69 8
Resource Classes
Resource ClassRule
GE D
Web app
Web Component
Ġocc ured
With Retry
Ġcontext ual
Type Infer
ĠSc ope
arent ly
Activity Manager
sub scription
Ġfind ing
Ġcustom ers
ĠSlave Info
Socket Processor
Ġob solete
Trans ition
ĠJob Server
Ġblock ed
ĠData Mapper
Standard TestService
SE D
pi ke
Field s
Ġel astic
MO D
Ġcho os
ĠInstall ing
ĠTr igger
Redis MessageBus
User Cgroup
Ġmap view
jo lokia
Ġ57 95
content assist
Line Task
bl ur
Ġfin ally
Ġ50 9
Tool Bar
Ġsuggest s
Ġsuggest ions
Ġ244 85
Cons ider
Ġ157 03
ru ary
ĠDet ail
ea e
Rest ore
su ccessful
Ġ133 11
Ġexpect ing
Ġaggreg ator
ĠGr ade
FF aD
GRO UND
Root Activity
Root Filesystem
Root ResourceClasses
jax rs
Ġcommit s
Ret riever
ĠMDL QA
Ġpress ing
>> >>
Ġos gi
Ġfinish es
ĠConnection s
IOS Configuration
Ġreplic ator
requ ired
ĠAg ile
px Vl
Ġ168 2874
ĠRef resh
Format ter
Ġbas is
Mo jo
det ection
ĠPlatform s
Lettuce Connection
Ab s
201506 141812
ĠMan y
ĠMan age
Scroll able
ĠEnable d
Creation Exception
writ ing
Ġ264 00
Ġhighlight ing
LogMessage Fatal
discus s
Def WindowProc
dispatchEvent Impl
Queued ThreadPool
Ġder ived
217 91
Ġcandid ates
Ġdescrib es
pret ed
Ġlisten ing
Pers pective
ERK NS
iph onesimulator
ĠKe ep
ĠIS R
Ġshe ar
889 280
Ġneg ative
Ġphot ometry
Ġnumer ic
Measurement Task
SingleNode StreamDeploymentIntegrationTests
va ikunth
ĠExtend er
bro ad
Err no
1148 889280
Ġarr ays
BeanSerializer Base
ĠTR ACE
Kitchen Sink
IU M
Ġprox ies
ĠCLO V
Simp lify
CompartmentLane EditPart
vI xv
1333 565899
LaunchConfigurationTabGroup Viewer
ubleshoot ing
ĠLD AP
0459 56
ĠREPRODU CE
Qd vIxv
NIOS erver
hFDF FFaD
uIW id
AbstractExpression Evaluator
MethodInvok ingMessageProcessor
MessageFlow Editor
ITAN IUM
TypeInfer rer
RootResourceClasses Rule
Ġ1682874 368
201506141812 35
hFDFFFaD pxVl
! "
! )
! ');
) -
/ **
0 502
2 181
3 36
4 12
4 24
6 39
6 28
7 16
7 53
8 34
8 05
8 463
9 13
9 50
9 09
9 35
B r
C md
C BC
E e
E XPECT
H IG
I M
J Line
J mx
L ong
L SE
M ET
M edi
N G
N SA
O rientation
P ER
P ersistence
P refix
S dk
S amples
S plash
S pagoBI
U L
W ER
W ITH
W INDO
Y PE
c alib
d x
e ff
e lement
f Event
f usc
g a
g if
h ns
i Pad
l and
l ator
m ath
t z
t ent
t izen
u k
u pt
{ }
Ġ 99
Ġ 76
Ġ 84
Ġ Video
in ject
or acle
on om
on figure
at ures
Ġc he
Ġc oded
is olation
it able
it ives
an im
Ġf d
al formed
Ġto day
Ġb rie
Ġp ersistence
Ġp ower
et ime
lo on
lo at
Ġm ar
Ġm et
Ġm ix
Ġo pt
Ġd ark
Ġre vision
Ġre jected
ĠĠĠĠĠĠĠĠ čĊ
ĠT od
00 8
00 01
em f
em it
01 2
qu ant
Ġ' ,
Ġ[ ]
ĠP arent
ĠP hoSim
In ner
In sert
In Foreground
ĠD H
ĠD ocs
ĠD OM
ĠD iagnostic
ĠD enso
ani ze
ĠM D
ĠM Q
ĠM S
ĠM on
ĠM ETA
ob ufs
11 26
Ġv ector
iz ations
Ġapp icon
Re build
Re ason
ĠN on
Ġcont r
Ġdo xygen
gr ace
Ġsc an
Ġcan vas
16 18
19 1052
Ġj ira
23 1435
ĠB reak
Filter s
26 3
ER T
ĠU sed
ĠU UID
25 3
Ġwork ers
Ġun read
Ġun recognized
Application Window
ĠG ithub
ĠG aussian
ĠG reenHopper
create Page
ĠIn formation
ĠIn strument
47 19
99 4
PI C
": ["
Message Handling
ann ed
Ġ{{ --
ST R
Ġen s
Ġen vironments
ou ch
Build ExceptionReporter
46 25
load BeanDefinitions
do Start
do Invoke
79 7
79 8
ast dev
ber g
Ġ+ +
Ġso ap
Ġqu ote
Access Exception
xy z
Ġrec order
Process Builder
Ġback ups
Ġwas n
49 5
49 188
88 1
Ġselect s
Ġselect able
ost ype
set Active
Ġwr appers
not long
Stream Reading
Ġsub st
web view
ount ain
Request ed
Ġref ers
Ġref lected
ized Dispatch
69 61
ĠIN F
ĠMethod s
vis ible
Ġmis match
97 32
Object To
An alytics
top ic
200 5
Java Framework
col umns
mod al
Ġcustom ized
Tab les
Ġ27 236
trans parent
ĠCh anging
Ġdisc ard
96 1
Key Event
Ġacc ident
Ġprot obufs
Ġdelet es
map reduce
Ġreg ions
Ġbreak ing
Ġthink ing
Ġinc orpor
Ġbr and
ĠImplement ation
Or igin
Start Level
Ġ276 39
endpoint s
Ġ150 90
Ġque ues
bc i
edit part
Ġtag ged
Ġdistribution s
hadoop Distro
No Node
No Such
Ġ139 33
Ġcontin ues
Ġcontin uous
Ġmov es
Ġparent hes
te ch
Ġ312 15
Ġ547 6
ĠInst ance
bb b
808 1
Search Bar
IG HT
ĠâĶ Ķ
ĠFramework Info
enar io
ater ial
Ġaggreg ation
Virtual FilterChain
Ġfree zes
Need ed
Ġactiv ate
ĠBe fore
801 9
Be ans
Ġsw ipe
Ġgu arant
Ġinstrument ed
ĠVM s
rep orter
Ġanaly ze
Red irect
ĠQu artz
ls x
Form Content
Ġevalu ated
Ġprim itives
perture Flux
Ġrespon sible
findClass Internal
Ġcop ies
Render er
Render ing
record s
DR F
TO DO
Reg ex
try Optim
ĠOb serve
ĠFeb ruary
ĠUT C
Dur a
publish er
Upd ating
onym ized
ĠACL s
Ġdeclar ation
Ġflo at
usp end
doGet Bean
Ġorphan ed
pkg info
ĠExtr a
Unique Verify
gment ation
"? >
Ac celer
Customer Service
Features ServiceImpl
Inject or
Tidy Validator
Ġcle ared
Ġcms d
ĠPetr avick
prere lease
Ġadvant age
Ġqdis c
MON ITOR
Ġstrateg ies
Webapp ClassLoader
8463 38
hns on
MessageHandling Exception
StreamReading Task
tryOptim izedDispatch
MONITOR ING
' ],
4 50
4 02
4 20
4 54
7 10
7 46
7 20
7 74
7 51
7 05
8 15
8 39
8 74
8 000
9 20
; }
< ?
B G
B M
C li
C aller
D on
E B
E very
E PS
F ill
G esture
H dfs
H DFS
J s
K w
M anagement
Q P
R educe
S oftware
T emplates
T runk
T ERM
V O
W W
a ho
b or
b undles
c assandra
e ce
e ach
f z
g p
g lib
j ps
j dt
l n
n eed
n odes
p rec
p ixel
r im
s ax
s orter
s Shell
u rop
w ik
x code
y es
z h
} ]
ě [
Ġ ug
Ġ ĉĉ
in ferencing
Ġt urns
on Child
re ement
le ader
Ġs wit
Ġs ym
en a
en ant
en velope
it ate
an al
Ġf lick
Ġf atal
Ġf ires
Ġf iber
Ġf ocal
ed a
Ġp ay
Ġp ulled
Ġin d
un signed
as ically
et ing
Ġm etric
Ġm atched
st at
-- +
Ġd iagnostic
ĠT H
ĠT ree
ĠS dss
Ġh dp
Ġ1 10
Ġ1 23
Ġ1 56
ver s
ĠA R
ĠA JAX
Ġon line
ĠC ON
Ġst derr
Ġ{ },
Ġr adius
ĠR CP
ap is
ac ct
Ġ' .
Ġ' _
tt ing
ĠP hoto
Ġex pen
Ġex its
ction ary
Ġlo se
St ud
run t
run Task
ĠW ithout
for es
Ġe ver
ext ract
ub ble
13 291
22 543
ĠE TL
ĠE FD
:: :
Ġres erv
De liverable
18 5051
Ġle arning
ĠO RIG
55 2
Ġ4 00
Ġj dk
Ġnew install
View Controller
ĠB ased
Filter AutoConfiguration
ĠTi app
ĠTi Blob
08 6
Abstract Page
Abstract HandlerMethod
Abstract TextEditor
Abstract ConnectionHandler
ĠH ook
ĠU s
Method And
24 6
Th ese
ĠTitanium Kit
po licy
Ġi RODS
ĠG B
ĠIn voke
Run Be
row s
02 14
res et
res ume
Ġrep lication
ff ee
ST S
Ġen coded
36 15
Workbench PreferenceDialog
log buf
http Stream
ĠEx tension
do Work
ĠRe vert
ach ine
fin ite
Res ervation
xml soap
201 311
201 502
ĠPro bably
64 5
86 0
86 1
Default Maven
Thread ing
Ġrec ycle
Ġrec ipe
Action Bar
Action Co
Ġhe alth
ĠAndroid Manifest
49 31
Class ic
Class NotFoundException
Ġti ed
ations hip
Ġpre ced
Ġview ing
Ġ16 8019
Main tenance
Ġlib objc
group Id
ĠPersist entVolume
67 00
ĠQ o
Connection Impl
Ġsub scrib
web ui
Ġ08 08
Ġsh ift
ove mber
TR A
File Store
Http InboundChannelAdapter
Ġ2014 0502
Ġtext Align
ĠSer ena
Ġlook ed
sh al
ĠAl though
Sc ience
87 00
Delegating Subject
tes ter
Ġmy job
Job Repository
\\ .
start ed
IT ION
Servlet InvocableHandlerMethod
ĠFor eman
vide o
Content Store
Resource Statistics
Ġdist ribute
Ġocc asion
Part Rendering
ĠK ill
Node JS
ĠY AML
Ġindic ation
Gener al
JS FileIndexingParticipant
System Button
Ġperform s
Ġ2015 0126
Index Contributor
dat am
DM atrix
Ġdevelop ing
etty HttpInboundChannelAdapter
Ġroot fs
key ring
Sh ape
Get ting
me abi
ĠModule Deployer
Ġinput s
SDK BuildPath
rest art
fd s
Ġsink s
cho ice
Ġaddress es
Is ol
Metadata ConnectionUtils
HTTP Conduit
write Object
TableView Proxy
table view
Ġbin aries
Ġ244 78
Ġform er
ĠIP v
ĠContainer izer
tim er
Ġ306 17
Ġ306 09
Ġ306 15
Ġappropri ately
Ġmigr ated
Ġ133 07
Pol l
Ġarch itect
Ġexit OnClose
att ached
Element LabelProvider
Ġdriver s
ĠOr g
BuildPath IndexContributor
Ġide as
Column MasterDetailsPage
ĠSh ared
Ġeffect ive
Registr ation
ĠDE LETE
Ġbad ge
Composite Change
Ag greg
Ġunderstand ing
Ġfoo ter
Argument s
Git Repository
Ġ20150 222
authentic ator
Ġutil ities
Vis ible
Write UniqueVerify
Ġcondition s
Ġ138 1
Ġfit ting
CON T
Ġdatas ets
Ġkind s
Nio Endpoint
iPhone Packaging
Ġerr one
Hystrix Context
Ġcalc ulated
Ġcalc ulation
ĠPar ameters
Ġserial ized
ĠSub mit
Ġmodify ing
Ġincre ment
Ġanaly zer
Plan ExecutionManagerImpl
ĠGener ate
Form Editor
Lazy BuildParticipant
Ġ874 9
Lettuce ConnectionFactory
HTML TidyValidator
Char acter
Commands Helper
Drop Adapter
Drop Target
Face book
Ġsynchron ous
Ġcent roid
Ġ:: :::
Ġundeploy ed
ĠPlugin s
Qu a
Qu ota
Ġ{} ;
itical model
ĠCent ral
ĠAssign ment
lap se
Ġaltern ate
jr xml
Ġext ens
ĠTableView Row
partition ed
------ +
1677 2
collection s
Reconcile KillTask
Ġparam s
Args Caller
Ġadapter s
Disk Index
SecurePreferences Root
âĢĶâĢĶ âĢĶâĢĶ
Ġplay ing
DefaultMule Message
RK St
Ġsecure d
require ments
createPicker Row
assess ment
Ġasynchron ously
friend s
Handsh ake
MultiPage MessageFlowEditor
Bin ary
jun o
Ġreconc iliation
ĠSD SS
Ġautoc om
getBuildPath s
autoc onfigure
Termin al
ĠAU TH
sur vey
pump Events
ContentType Filter
Grad ient
ORIZ ATION
Metric FilterAutoConfiguration
yde MBP
gres ql
NioClient Boss
SQLE rror
favorite Action
ĠEVENT S
Pressure MesosTest
oler ance
Abs ListView
JLine Shell
quant al
ĠDH ydeMBP
NoNode Exception
Ġswit ched
anal iticalmodel
Ġreserv ations
AbstractPage Part
AbstractHandlerMethod Adapter
MethodAnd ArgsCaller
RunBe fores
logbuf secs
ActionCo ordinator
Ġ168019 1488
ĠPersistentVolume Test
PartRendering Engine
SDKBuildPath Contributor
# //
0 26
5 15
5 48
6 44
6 46
8 28
8 36
8 79
9 55
9 25
: _
; )
A J
C enter
C assandra
D em
D isp
E M
F it
F eed
F ruit
G C
H R
H eaders
I FI
I LD
I VE
L java
L DM
M u
M AL
N ONE
O ther
P C
P ub
R SA
S m
S mall
S pike
T ag
T ESB
U C
U nder
V ariable
[ [
\ -
] {
b ine
c he
c ar
c atch
e cept
p al
q atester
s id
s ummary
s omething
s leep
s ocial
t ure
t ecode
Ġ Â
Ġ upper
er ce
er ving
in ym
Ġt mp
or n
on load
Ġs orter
Ġs ilent
en vironment
Ġc ell
Ġf eed
Ġf avor
Ġf unc
de ed
ar r
Ġb es
Ġb und
Ġb ash
Ġb its
Ġp in
Ġin terceptor
Ġin compatible
un g
il ler
et ings
Ġm ail
Ġm apper
Ġm anner
Ġm dm
Ġm etaserv
st eps
se ctions
Ġd s
Ġre lies
ch apter
ĠI T
ĠI SO
ĠS am
ĠS plit
ew ay
Ġis r
Ġorg anization
Ġh on
Ġh sqldb
Ġfor ked
im ex
im ately
ĠA pr
ĠA CT
Ġbe long
Ġcon fluence
ig ar
ol at
and alone
Ġr ul
up grade
if it
ke ystore
Ġnot ed
ac c
Ġl ang
el esc
Ġg e
tt e
ĠP C
ĠP OM
ĠP ush
ĠP icker
ĠP rompt
ram es
In c
art h
ĠD ependencies
ĠM anager
ĠM ost
ĠM igr
10 23
10 94
Ġlo ts
ob er
get Current
per iod
per iment
Ġe liminate
ĠF ollow
ĠF unctor
Pro duct
Pro visioning
str ate
12 12
12 18
UI Alert
13 79
13 86
22 31
App Compat
ĠE urop
ir able
De limited
port s
16 01
ĠJ ason
ĠJ OB
19 11
19 23
View Medi
Ġ< =
06 8
ĠB ad
Ġneed ing
Abstract Reconciler
15 42
ĠU SER
27 64
Ġset Hidden
ath on
ust ers
ĠG iven
create Bean
Ġ# *
Ġtr ailing
99 5
Test Runner
ord ers
Ġen force
FO RE
ĠX rd
ĠX SD
do Run
do Process
59 82
ĠRe quire
fin ished
Com bo
53 26
add itional
val JS
Ġatt ention
ĠPro duct
Ġho c
37 1
Add itional
ĠCon version
ib m
Ġrec ording
ak er
76 2
76 6
76 8
Ġhe avy
49 3
49 7
49 26
49 59
orre ction
Ġpre liminary
Ġ16 79
are as
Ġover loaded
54 090
LE FT
Ġro b
Ġdes pite
Ġav ailability
Module Descriptor
Ġsub ject
Ġsub class
aus es
TR L
File Upload
Ġtrans ient
89 0
roll ment
ĠDe liverable
ark s
Sc reenshot
Ġmy self
Ġem ails
69 1
mat ically
usr a
Ġrel ationship
ĠK its
UN DER
text editor
An aly
Ġtool tip
Ġindex es
-------------------------------- --------------------------------
Base CommandProcessor
Dec am
Ġcl usters
dat as
Handle ExceptionsInMethodIfSupported
Ġob jc
Ġob serve
Ġedit Actions
Key guard
110 4
system d
Out line
Ġprot otyp
SE GV
Int eger
New Project
Ġqserv Result
ĠCheck ing
OR K
see k
Ġver tical
Ġtri ck
EE EE
ĠInstall ation
Check out
Spring Source
XD Controller
Ġ139 41
Version s
xx xx
Tool ing
Ġupload ing
MS Build
Det ector
Ġnav BarHidden
Notification Manager
Analysis Action
Ġdeprec ation
Master AuthorizationTest
block lib
185 134
He ading
Inter preted
ĠMessage Bus
custom er
*) (
Isolator Process
Ġ255 98
ĠOr iginal
ESS ION
Package Manager
129 54090
Media Module
Port al
full Build
Ag gregate
Ġsw ig
Ġ2764 3
twitter stream
Ġcheckbox es
Ġpartition ed
Current Thread
component s
Ġsupp lied
release Children
ĠDeployment SupervisorCacheListener
Ġgrade book
Ġoptim ization
USER NAME
CommonReconc iler
Ġscons Utils
pri ce
pri ority
Ġbas ically
Ġtrunc ated
Ġconsum ed
Ġop code
Calendar s
anc y
Extr a
Ġkill ing
Dist ributed
basicBuild Loop
det ail
ĠInitial ized
Ab ort
Ġcalendar s
Ġinstant iation
Ġcomplex ity
Ġadministr ation
Frame Layout
Ġsnapshot s
Ġlive view
avail ability
417 81
CAL L
address ing
Ġperf ect
Ġsto pping
Ġrandom ly
Ġauthor ized
Ġhover ing
Parse Exception
Ġext reme
Ġschedule d
zz z
Ġcard s
ĠValid ation
Ġdemonstr ate
Ġanno ying
ev t
ĠInverse Offers
aid l
Ġmacro s
Ġshut ting
Ġdeclar ations
Ġmeaning ful
dr f
Ġtechno logies
ĠCommon JS
ĠAcc ording
ĠĈ Ĉ
ĠNull PointerException
Ġqual ified
Ġexceed s
Ġsimpl er
Ġski pped
URAC Y
Ġfriend ly
gre es
sq lex
BO ARD
indic ators
persist ent
Ġconven ient
Ġgrace fully
UserNotification Settings
Sky Map
dde e
ĠFetch ing
ĠRack space
provision er
ĠExtender Thread
ĠâĶĶ âĶĢâĶĢ
prec ise
Ġexpen sive
ecept or
inym ce
ĠACT UAL
ViewMedi ator
Keyguard ViewMediator
12954090 59
" "
% '
) }}
* /
3 161
4 368
6 48
7 33
8 12
9 29
9 58
? ,
D C
D i
D estroy
D eprecate
E EN
E mpty
F ast
G H
G iven
J o
K BR
L atest
L seek
M EST
M arker
M vc
N ecessary
N MENT
N ettyHttpInboundChannelAdapter
O p
O gnl
P ic
P romise
S R
S li
S am
S orter
U z
W ithout
W AI
W AIT
X k
X Uz
b k
c odes
e h
f it
f red
f actor
i om
j notify
m apper
o json
p uller
r F
r proc
s n
s ince
s Util
t d
t w
u ched
w rench
Ġ 86
ĠĠ ÂłĠ
Ġt admin
Ġt izen
Ġt urning
or ient
on it
re ceive
Ġs an
Ġs um
Ġc aches
ct ool
ĠĠĠ ĉ
ar ly
Ġb ucket
Ġp sf
un ch
et d
et ype
Ġm flow
Ġm kdir
Ġm irror
Ġm ailing
Ġd ml
Ġd ates
Ġd war
Ġre used
ch estr
ur er
ur nd
ĠI OS
ĠI dent
ĠT ue
ĠT witter
ĠT emporary
ĠS ant
ĠS ize
ĠS olution
ad m
Ġh ack
Ġh sc
ab ort
ab out
ĠA bout
ĠC ourse
ĠC ert
ĠC SV
Ġst ri
vi rtual
Ġde livery
ain t
Ġcom pound
qu artz
able Helper
Ex isting
lic ense
ĠP ut
ĠP hase
Ġus able
Con n
Con straints
Ġal pha
In verse
ser ting
ĠM aking
Ġ3 02
Ġ3 501
Ġas ciid
10 77
op es
op ard
get Object
get Image
Ġ* ********************************
Ġ* ************
per missions
Ġv ary
ĠF acebook
bo lic
bo ost
Ġwe ird
ub e
UI Kit
13 27
Ġwh itespace
ĠN ovember
18 57
Ġsc hemas
ĠL a
Ġcan cell
Ġle ts
ĠJ dbc
ĠJ Unit
Ġ4 22
Ġ4 03
09 2
09 9
Ġj ax
23 44
23 2231
ĠB en
ĠB ring
ĠB inding
js pa
Abstract Deployer
Abstract Operations
15 17
ER N
ans ing
Th omas
ust ed
Exception Interceptor
ĠG UID
create ListSection
cl uster
47 96
Ġuser Cgroup
07 4
07 23
Ġtr aces
Test App
57 00
Run Rules
Workbench Part
ant ed
ant lr
ĠEx ecut
ĠEx pression
ĠEx change
do Service
ale d
ale tte
79 4
ĠRes uming
ach on
Ti Studio
Ġclass loader
Default Issue
30 589
Ġ18 132
rol led
Ġdis allow
pos s
Class Path
Ġti er
Ġpre ferred
03 13
sc an
LE GED
84 5
(* )
Module Manager
Ġpart ial
ax ies
Ġ7 2
Ġ7 3
Stream ConfigParser
Connection s
Connection FileManager
ĠAPI kit
Ġ6 44
Error Exception
Ġtrans fers
Ġinter pret
89 53
Http Put
Ġ2014 0917
Table Viewer
Table Combo
Par allel
Sc hed
Request Handler
87 7
ym otion
Ġpo or
ĠTest App
Ġpass es
77 7
77 8
Ad visor
ĠFor ward
Ġwant ed
We ight
Ġ9 8
mat ched
omet er
Ġconnect ivity
======== ====
Ġoper ating
Ġdist ributor
Ġthro tt
Web Kit
Ġrel aunch
Bundle Host
Not ice
Project Creation
97 8
ĠCom ment
Node Impl
Node PackageManager
Ġthrough put
inc orrect
Ġbeh ave
Ġbeh aves
An onymous
En v
ĠSc ience
Ġgr id
sub missions
dbc p
Java Method
Java MethodInvoker
Ġpack et
Ġz one
AbstractMessage Receiver
Ġindic ated
Editor Part
Ġ27 239
100 1
Ġtyp ical
LO W
Send er
Ġformat ted
Index BuildParticipant
Ġob serv
ni que
Ġ30 233
Trans fer
If Block
If Necessary
Ġdesign er
ĠUn deploy
Endpoint s
Int eceptor
the plugin
Ġthread ing
Ġad mission
ĠST EPS
ĠSpring XD
Ġsepar ator
Result Set
Ġ24 01
ZooKeeper Utils
background Image
Ġpost ed
fb b
Mod ified
az oo
dy ld
Found Error
Ġexecut es
Ġsimilar ly
my job
ĠCo ord
ane ous
Ġdrop s
Co ord
ĠInt ent
hy per
content objects
ĠAP STUD
Line ar
table View
Ġ139 34
Ġappro val
------------ ---+
Ġput s
Ġ244 74
Ġcommon s
Ġpersist ed
Ġ157 06
ĠAnd erson
Ġmark ing
Unified Call
808 5
Ġ306 11
Ġparticular ly
ari ables
Bamboo Container
Bamboo ValidationInterceptor
activ ate
present ations
Ġclear ly
tab s
gener ic
Match es
Dis cus
Ġph ysical
Ġ257 87
Column Iterator
nav igation
Ġask s
Aware Inteceptor
elli J
Maven Cli
ĠDis k
Ġpayload s
Ġdur aservice
Target Exception
Save ableHelper
Ġfont s
iag o
ĠOR DER
ĠAd vert
JUnit Starter
JUnit TestClass
401 700
Ġ2639 4
Ġstruct ures
Ġdatas ource
ĠDist ributed
Ġconfirm ed
Ġoptim ized
Ġgreat ly
ĠCr itical
ĠOSG I
Reflection ServiceFactoryBean
Format Exception
Nav Button
Ġcheckpoint ing
off set
ĠArch iva
ĠQu ota
ĠLO WER
rb orn
Ġconstruct ed
SO CK
clean up
VI LEGED
decl ared
Ġcommunic ate
Authentic ation
Fire fly
serial ization
Startup Runnable
Ġdead lock
Ġestim ates
ĠLib raries
Fetch Process
ĠValid ator
Ġsucceed s
Ġsucceed ed
NOT E
Dur Admin
ĠMod ify
ĠControl ler
Ġdq portal
Ġapprox imation
Pagination Info
clo sed
artifact Id
ĠMV P
20121 01
ĠAdministr ator
mouseDown Super
tiapp Editor
AccessLog Valve
Jdbc Template
ĠArray List
Ġfall back
lin ed
SimpleJob Launcher
Author ity
ĠAcc ount
ĠSpecific ally
Spel Expression
Spel NodeImpl
Double Click
ĠMin ification
READ Y
Ġcirc um
Cxf Consumer
Ġconver ting
Expand er
Da o
Ġassum ed
Ġet h
Ġ"' ")
ĠUN PRI
20120418 1911
ModuleDeployment Writer
MK MapView
Mult ipart
ĠMis sing
ĠVer ification
ĠPAS SED
langu age
mZ Kw
Ġpipel ines
extr anet
AbstractCollection Service
enh anced
iffer ent
hFDFFFaDpxVl mZKw
ObjectTo Blob
StartLevel Manager
ĠQuartz Core
FormContent Filter
201311 201513
HystrixContext Runnable
Qua RE
IFI CATION
olat ile
Ġrul er
elesc ope
areas pec
Ġrob ust
FileUpload Interceptor
MEST AMP
onit a
Ġdwar f
urnd own
Ġ************* *>
WorkbenchPart Reference
HttpPut FormContentFilter
JavaMethodInvoker Factory
ĠUNPRI VILEGED
hFDFFFaDpxVlmZKw XUz
% ]
) ?
/ __
3 31
4 53
5 28
6 47
6 34
6 32
6 21
7 01
7 31
7 76
8 23
8 49
8 020
9 18
9 56
9 76
: (
A p
A ES
A void
B et
B ACK
C TION
D ict
F light
F lex
F ootprint
F AULT
H as
J ar
J edis
L imit
M AIN
N IGHT
O U
P O
P AS
P hot
P ane
P AGE
Q E
R ect
T OS
V V
V er
W rong
Y ear
] '
a ffic
b de
b and
b ank
c ategories
d an
e er
f unc
g w
h ib
i i
k ens
m ed
m aps
n ature
n ightly
q ana
r h
s m
s atisf
t run
t ESB
v v
w ill
w ildcard
y ou
z ation
Ġ ud
Ġ ill
in ing
Ġt ill
Ġa udit
le ased
le ading
Ġs olved
Ġs izes
en ode
Ġc aller
Ġc rammd
is r
it led
Ġf c
Ġf acebook
Ġf edora
Ġto ler
Ġto wards
Ġto kens
de velop
Ġb log
Ġb ump
Ġp hoto
Ġin coming
un ting
as m
as pace
il itate
et her
Ġm ist
Ġm aterial
se cond
Ġd rive
Ġre create
ch k
ĠI BM
ĠT op
ĠT wo
ĠT inyMCE
ec ore
ho ok
ĠS P
ĠS AP
ĠS SH
ĠS ets
ĠS NAPSHOT
ĠS omething
ĠS ummer
ag greg
Ġis ol
ot ent
us hed
Ġh ides
Ġh iding
ab rice
Ġ2 000
ĠA N
ĠA LL
ĠA vailable
Ġon load
Ġcon struction
pl ore
ĠC ho
ĠC ap
ĠC ount
Ġst y
Ġst ar
Ġst rip
and s
Ġr ack
Ġr ich
os ver
os cpu
Ġl ambda
Ġg lob
Ġ[ {
ĠP ull
ĠP DT
Con f
In fileMerger
ser if
ĠD b
ĠD ue
ĠD aniel
Ġ3 503
10 50
Ġlo ss
ug hout
run Job
ĠW BS
11 83
Ġe li
ĠF older
Pro duce
Pro cedure
str onom
com munity
ub san
Ġcont acts
Ġres earch
De let
17 24
17 86
ĠL ost
sion s
ĠO rientation
ĠJ ackson
Ġ4 3
Ġ4 43
09 6
Ġ< >
23 88
ĠB E
ĠB AM
ĠB oolean
ph er
ĠU P
27 00
Ġy um
Ġun iver
sw ing
ĠG IT
cl usive
47 0
test Create
test case
over view
Ġtr ac
57 1
Message Handler
ip ation
ST AND
ĠEx posure
do Create
ign ed
fin al
Com ment
Com mit
Un iform
Window Manager
ens itive
ĠĠĠĠĠĠĠĠĠĠĠĠĠĠĠĠĠĠĠĠĠĠĠĠĠĠĠĠĠĠĠĠ ĠĠĠĠĠ
Default MessageProcessorChain
37 00
35 40
74 3
74 9
Lo st
mon go
AC L
AC CESS
49 85
Ġany one
Class Def
Ġti cktock
Bean CreationException
ĠIt ems
88 5
Ġpre p
Service Register
Ġ16 0
Ġ16 3
sc ope
sc isql
Ġper cent
Ġinstall ations
set Data
As semble
Context ual
LE ND
not es
Ġlib s
boo lean
Ġend ed
local domain
Container Impl
Ġsub scription
ĠApp s
par ameters
handle Result
Ġ8 2
Ġ6 9
Ġ08 21
ateg or
send Reply
Ġsh adow
ĠUI Application
File Action
File InputStream
bin ary
Ġass ess
Ġinter actions
Ġinter active
Http MessageReceiver
Delegating ConstructorAccessorImpl
start sWith
mis c
Ġcomp iling
lsst adm
IT Y
Des erial
Ġfl at
omet ric
For ward
line ar
Resource Change
event data
Ġdist inct
Ġ] ;
path InForeground
ti cktock
Ġbackground Image
Ġbeh at
Ġmod ifications
call WithRetry
ĠSupport ed
ordin ate
60 249
Ġ2015 0123
End Point
dat acle
ĠNot ifications
Sub scribe
Ġtim odule
Ġ30 232
Definition Repository
ĠJob Execution
co hort
Repository Node
Ġcrash ing
Ġprot ected
ĠUn ified
prop s
Ġsearch ing
AI L
application SendEvent
ĠST DER
Ġsepar ated
Ġbro ught
Ġhelp s
Ġ24 50
Ġpost s
Ġtermin ation
Ġtri vial
ĠDes cribe
Ġ276 28
Metadata Page
show Camera
Ġrefer encing
No ClassDef
pres ervation
ĠObject s
Ob served
') );
groovy c
da o
Ġ312 12
Ġ312 07
Ġcap ital
LaunchConfiguration Tab
185 117
Ġattach ing
Inter val
Response Cache
present ation
302 13
gener ator
prot otype
bec ause
Ġprint ed
FF FF
Pattern s
Ġ257 86
ĠSh utting
By Id
CC D
GRO UP
IS O
Ġcomput ed
Maven Plan
ĠDis abling
EX lsx
ĠĠĠĠĠĠĠĠĠĠĠĠĠĠĠĠĠĠĠĠĠĠĠĠĠĠĠĠĠĠĠĠĠĠĠĠĠĠĠĠĠĠĠĠĠĠĠĠĠĠĠĠĠĠĠĠĠĠĠĠĠĠĠĠĠĠĠĠĠĠĠĠĠĠĠĠĠĠĠĠĠĠĠĠĠĠĠĠĠĠĠĠĠĠĠĠĠĠĠĠĠĠĠĠĠĠĠĠĠĠĠĠĠĠĠĠĠĠĠĠĠĠĠĠĠĠĠĠ ĠĠĠĠĠĠĠĠĠĠĠĠĠĠĠĠĠĠĠĠĠĠĠĠĠĠĠĠĠĠĠĠĠĠĠĠĠĠĠĠĠĠĠĠĠĠĠĠĠĠĠĠĠĠĠĠĠĠĠĠĠĠĠĠ
Transaction al
boot strap
ĠTool ing
Integration Test
Cp u
Ġ138 0
Schema Generator
Ġ2639 7
Ġinit iated
ĠConnect ors
pted database
ĠCol or
Ġfetch ing
Ġpick ed
249 88
Ġ168 1801
ĠCr ittercism
ĠTrans port
ĠPar se
Ġpres umably
Ġ------------------------------------------------ ----
Ġpatch es
ĠJul y
match es
Ġ874 3
Ġreload ed
Ab ility
Over ride
Ġsimp lified
handleRequest Message
ĠPo licy
MessageBus Support
Ġsynchron ize
Clo ser
Allocator Process
Number FormatException
Ġ2458 5
Ġwidget s
Ġdead line
Persist ing
ĠReference Error
LIB R
ĠSingle Node
Audit Manager
ĠAb ility
ĠCH ILD
Enh ance
Sign al
Ġnear ly
Merge From
Ġguess ing
510 20
ĠAlert Dialog
DEF IN
clo sing
ĠMV EL
ĠAdministr ation
Ent ities
Ġpropag ate
sr v
:~ /
ĠEl astic
Ġcontribut ors
rer un
Ġdig est
Syntax Exception
Ġfore ground
Ġcontribution s
elastic search
Ġasynchron ous
Embed ded
Rel ated
WebworkSecurityInterceptor Proxy
parameter ized
Ġstraight forward
"}, {"
camp Fire
Ġinvestig ating
Ġast rom
ĠRO OT
Ġannoun ce
ĠFurther more
ĠEst imate
Ġacknowled g
Os gi
Ġmill is
Ġhor izontal
vict able
ĠMer curial
program s
Ġlicens es
quick ref
produce Reply
201507 0214
Ġgal axies
MOD ULE
WINDO WS
Ġaccident ally
ĠQo S
Ġsubscrib ers
datam apper
Ġextreme ly
ĠSant iago
poss ibly
NIGHT LY
sendReply Message
datacle ansing
ĠSTDER R
NoClassDef FoundError
EXlsx O
Ġ1681801 216
2015070214 0313
" }}
% .
/ )
/ ?
3 59
4 35
5 23
5 26
5 27
5 21
6 14
6 37
7 14
7 39
7 59
8 24
8 30
8 76
9 16
9 47
9 86
: ]:
= --
A Q
A tom
A bout
B ORDER
D G
E Y
E GL
E arly
F actor
F its
F sShell
H at
H ide
H OD
J olokia
M F
M ED
M ock
N DK
P H
P ull
P EN
P AD
P TION
P redicate
Q SERV
R S
R ere
R AW
R andom
S PI
S IG
S ESSION
T ED
T oggle
T ITANIUM
T olerance
W atch
W Win
W QVGA
Y TH
\ ]
\ _
\ {
_ )
b ing
b old
c am
c ix
d ates
f reemarker
f PIC
g db
h ExceptionsInMethodIfSupported
m gr
n am
n Interceptor
p ay
q a
q disp
r uby
r eregister
s ame
s ources
s item
s mall
t hed
w q
w arning
x aml
y usra
Ġ ing
Ġ ult
Ġ );
Ġ 55
Ġ utils
Ġ ........
ĠĠ ÂłÂł
in her
Ġt id
Ġt ail
re ase
Ġs heet
Ġs aid
Ġc s
ro ol
ed Image
de mand
ar es
Ġp y
Ġp an
ce gi
un used
as ke
li o
il est
lo lo
Ġm ind
Ġm ime
Ġn arrow
st ud
st atistics
st yles
am as
Ġan chor
Ġan onymized
Ġd d
Ġd alvik
Ġre act
ĠI M
ĠI ndic
ĠT AN
ĠS ep
ad t
ad vanced
ot ate
Ġ1 14
00 03
Ġfor th
ĠA CC
ĠA WS
ĠA WAIT
Ġbe g
pl unk
ĠC EST
ĠC groups
ol a
Ġst ars
Ġ" ."
Ġde grees
Ġr ank
ĠR AM
ap an
qu are
qu ota
os arch
Ġl bl
ri al
Ex pect
ep Forced
ĠP e
ĠP achon
Ġex posing
ĠĠĠĠĠ ĉ
Ġal one
ĠD er
ĠD ES
ĠM ust
Ġ3 0610
10 89
get H
get String
get Or
get AST
get Raw
run Child
ud s
ĠF ixed
com bo
13 06
13 506
14 13
14 20
14 49
Re quire
App ly
ail y
ĠN FS
Ġres olving
De vices
17 49
17 78
17 483
ard ware
ĠL earn
yp oint
Ġcan ce
Ġle aves
ĠJ eff
Ġfile picker
=" @
Ch at
Ġnew line
View Root
view page
to Address
26 96
08 4
ph ase
Abstract Instance
Abstract Analysis
Abstract HttpClient
Abstract ConfigurationBuilder
Abstract Hyperlink
Abstract InterceptingMessageProcessor
ĠH ierarchical
ER S
Ġrun nable
27 67
Method Dispatch
Ġun w
Ġun fold
po ck
Ġi e
ĠG row
create ScrollView
ĠIn put
cl one
58 3
loc ated
Run AnalysisAction
Ġsp ot
Ġsp aw
Ġsp ike
ST ATUS
Ġen umer
Ġen rich
ative ly
ĠEx pect
Ġout come
ĠRe ader
List s
List AwareInterceptor
Ġatt end
201 04
201 508
ms Language
Un deploy
ĠPro gress
Ġret ain
ĠRep eat
Titanium Windows
Ġ5 000
AS SERT
Action Controller
ss h
Ġme ant
Ġdis connect
Ġdis abling
Ġ$ $
Ġsim ulated
Bean PostProcessor
Ġpre cis
Ġpre paration
Ġview ed
Ġdirect or
Service Support
Service Invoker
Ġgener ally
Ġselect ors
set Selection
As m
Context Factory
aw ed
aw are
be fore
Ġlib event
Ġlib dyld
67 3
Task let
Config uring
Config urer
LI C
Ġ8 5
Ġ8 9
Rep roduce
Ġsh ip
43 12
Channel EndPoint
Http MethodFilter
AT AL
Data Directory
Invocation TargetException
Request Trace
SC lient
ld ap
Ġund erscore
mp otent
Command Tests
Command Consumer
Tr act
ĠTest ed
Se hExceptionsInMethodIfSupported
69 2
Ġthan ks
Ġ9 2
fc f
Content Service
68 2
For Execution
vis ual
Resource JavaMethod
Document Reader
Dialog Wrapper
Ġthro ughout
Web Mvc
Web RequestTrace
Ġread ers
Not ifications
Wr apped
97 5
ĠK EY
Object Mapper
Ġmain View
DefaultAction Proxy
Ġx rd
Ġweb serv
Ġweb work
ĠAtt o
col lect
mod ified
AbstractMessage ListenerContainer
Tab Password
Editor Manager
bd c
click ing
Ġmatch er
100 2
ĠCh unk
Ġvari ety
ĠTo lolo
order ed
TI V
Handle SehExceptionsInMethodIfSupported
State Manager
Simple Id
Ġemulator s
Open Shift
Open SSLSocketImpl
ĠUn install
ĠUn expected
Standard ize
Endpoint WebMvc
Input Buffer
Get Url
AI LU
Ġreg ener
Ġprompt ing
application Next
Debug ger
63 79
New Mobile
Ġad vert
Ġad vance
OR Y
Server Application
Ġcover ing
Ġknow s
sys log
umm ar
Ġam q
sd card
char set
Select ChannelEndPoint
Check Fatal
Ġ150 91
ReflectiveMethod Executor
stand ing
Ġ\ /
Ġ57 86
XML Schema
method ID
Ġbar s
No Title
BeanDefinition DocumentReader
Ġident ity
Ġinternal ly
Ġattempt ed
la h
ĠAnd y
Ġ312 11
Det ection
tim es
ĠInst alled
Analysis Column
definition s
Ġdeprec ate
Ġelse where
mq p
185 011
Bamboo WorkflowInterceptor
su ite
Ġ56 472
Ġ133 08
Ġign oring
CE PT
Ġdec imal
Improve ments
Exp lo
soap env
request Layout
ĠLe o
ĠLe opard
Prot otype
Element Helper
My Project
long itude
Ġtwitter search
Ġph d
const ants
Ġ274 34
UR R
close box
Progress Manager
dur aspace
Ġpress ed
155 7
Refactor ing
ĠAND ROID
ĠExecutor Info
library Folder
Ġ---- --
Integration MBeanExporter
Ġcondition al
ĠWr apper
156 88
Mac ro
resource Offers
mut able
jb osch
PHP ModelPresentation
Callback s
ĠTime out
comm erce
Hidden HttpMethodFilter
Nav igation
child Event
Execut er
Ġconsum ing
Extension Registry
ĠGener ating
Ġhang ing
Results ListAwareInterceptor
Ġscale d
JSON ValidationInterceptor
Man age
Ġengine ering
Batch Job
Ġminut e
Global s
Ġduplic ates
Statistics AwareInterceptor
Ġmaintain ed
Ġ2459 4
spag o
Option Dialog
Bind IF
Su ccessful
standard ization
ĠBoot strap
termin ate
Ġguid ance
DefaultList Operations
Iterator Block
Ġencry ption
assert Equals
ĠTe am
Upload Strategy
Ġne igh
Ġobtain ed
201409 1618
Pagination AwareInterceptor
getValue Internal
cover ed
Scope Impl
Ġrespond ing
TIME OUT
Encoding Filter
Ġobserver s
Shutdown Slave
Pers ister
Ġopp osed
Ġconc ern
Ġenh anced
RK NS
ĠQue uing
Ġrefres hing
ĠMesosContainerizer SlaveRecoveryTest
Ġ---------------------------------------------------------------- ------
Ġchecksum s
DefaultSave EventListener
ĠTermin al
Ġflex ible
Ġflex ibility
condition s
Drag Source
LIN E
Edge Impl
friend ly
runIn CurrentThread
Handsh aker
MultiPage EditorPart
luc id
Scanner Impl
Short cut
Hash Map
ĠFree zing
Navigator ContentService
Ġsymlink s
Ġscr atch
ĠExp and
ĠCFRunLoopRun Specific
semb ly
El astic
Mouse Event
Ġhist or
AbstractResource MethodDispatch
HttpMethod Rule
Accept ance
Already ExistsException
Blueprint ContainerImpl
But ler
migr ation
Ġlay ers
AbstractNio Selector
ĠGSEventRun Modal
":[ ],
Compound Expression
Ġfamili ar
Built ins
SpringXml ConfigurationBuilder
DqRepositoryViewService Test
JettyHTTP Destination
JSSymbol TypeInferrer
cn f
Ġdecor ator
BuildResultsSummary AwareInteceptor
NIOServer Cnxn
Ġche at
Js ScopeImpl
fds af
Ġarchitect ures
iPhonePackaging Component
Character EncodingFilter
ĠAUTH ORIZATION
Ġsilent ly
1923 06
sqlex plorer
ĠAdvert ising
Ġcircum st
Multipart UploadStrategy
Contextual Action
ĠUIApplication Main
Persisting Deployer
Rere gistration
Tolerance Test
YTH ON
cix ot
sitem esh
thed ocs
ĠĠÂłÂł Âł
rool s
aske ll
ĠACC URACY
epForced Source
13506 019
AbstractInstance PersistingDeployer
AbstractInterceptingMessageProcessor Base
Ġprecis ion
ServiceInvoker Interceptor
ForExecution Action
ResourceJavaMethod Dispatcher
WebRequestTrace Filter
EndpointWebMvc AutoConfiguration
GetUrl ForExecutionAction
AILU RE
applicationNext EventMatchingMask
2014091618 1713
AbstractResourceMethodDispatch Provider
" ),
& #
) +
, -
/ %
0 56
4 14
4 18
4 52
4 156
4 197
4 282
6 18
7 09
7 06
7 88
7 89
7 80
7 184
8 22
8 18
8 56
8 58
> '
A cegi
A mqp
B ro
B oolean
C or
C AM
C ell
C MD
D uration
D ocs
F a
F ont
G Y
G iles
G reenHopper
H ere
I A
I gn
L int
L AG
M A
M DM
N othing
P t
P atch
P aging
P DF
Q hh
S ur
S ET
S phere
T F
T e
T AN
T izen
T CP
T wo
U pper
V S
V m
W ill
Y mp
\ [
] "/>
a i
b fc
b rew
c u
d on
d one
d uplicate
e pl
e fs
e ither
e livery
e arth
f os
f eed
f ixed
g v
g op
g fault
j methodID
l ti
m ys
m net
n il
n line
o ctor
o logy
p b
p st
p atch
p hot
p aste
q HIG
r ug
r Task
s he
s ans
s ynchron
s First
v w
v ec
w sched
x s
x path
z ure
Ġ ec
Ġ Vi
in i
Ġa pache
he less
re connect
re vision
re lat
en ymotion
it t
ro om
Ġf ake
Ġf amily
ed bc
al t
al so
Ġw ire
Ġw cs
Ġw rote
Ġto String
av ers
av el
Ġb b
Ġb anner
Ġb unch
Ġb urndown
Ġp alette
Ġin ternet
un ique
il legal
et l
et o
ut ter
Ġm ixed
Ġn atur
st able
om a
Ġd m
Ġd rawable
Ġre ct
ch s
ĠT ake
ĠT ried
ho ff
ĠS ys
ĠS ET
ĠS now
ad am
est ion
Ġ1 99
Ġ1 37
Ġ2 397
ic z
ĠC ss
Ġst ays
Ġst aff
ĠR an
Ġcom ple
Ġcom pose
Ġcom ma
01 07
ap er
Ġ' ../
Ġg n
Ġg ant
Ġg auge
Ġg arbage
ĠP L
ĠP oss
ĠP iet
ĠP WD
pr ised
our s
In dent
ĠM P
ĠM apping
ĠM eta
ĠM EL
Ġ3 01
ass et
10 75
St at
ĠW ord
end ors
11 00
11 96
ud es
ĠF ocus
ext end
th rough
ĠSt op
14 09
ĠN a
ĠN ov
lib raries
ĠL egacy
04 2
ĠO ff
ĠO cc
16 92
55 23
og let
ĠJ NI
ĠJ Flex
Ġfile jdbc
=" _
Ġ4 8
Ġj Query
Ġj value
06 18
ok ies
ok http
ĠB osch
Ġch ance
Ġch alle
() ->
to String
to Upper
08 9
ĠU ns
ĠU ndo
28 00
27 60
Ġbuild ers
25 166
Ġun supported
Ġun usable
Ġun clear
Ġ201 506
ĠG lick
Ġtr ust
57 2
57 20
row icz
Ġpl anned
ff d
Message Sender
invoke Native
ip ient
Ġen ables
Ġen semble
Ġcode base
ĠEx ternal
48 32
fo lio
ĠPro file
ĠPro filer
php unit
point s
Ġret ries
Default Channel
Ġwould n
37 3
Titanium Project
Thread Executor
ib ilities
Ġcol lapse
... '
Ġ5 2
Process ing
Native Start
Ġdeploy type
set ting
set Input
Ġro ugh
Ġdes irable
local Storage
Ġpart ially
67 5
ĠQ SERV
Ġsub chunks
Rep o
Ġcould n
Channel Impl
Channel Registry
Channel Resolver
89 4
Http Server
ĠDe velopment
sh adow
ĠAl t
Table Info
87 8
Ġbec ame
ampl ing
Ġdown stream
Ġcons ult
Ġfix ture
Ġimport s
ĠOpen ing
catal og
gi ble
RE E
Content Merge
Ġfl avor
ĠAut om
Al so
Ġ17 2
aa a
dispatch ing
Node ACS
opens ys
Type Handler
Ġk illed
En c
class world
ĠSc an
Ġright s
sub mit
Ġworks hop
Ġsection Fruit
200 3
trans l
clover etl
Ġ2015 0122
Reference Objects
Platform s
LO Y
LO AD
dis connect
tool set
Ġedit able
Launch ing
Sh apelet
78 2
Ġ26 127
Local RepositoryFactory
Ġsearch Bar
context id
Int roduce
application DataDirectory
pi etas
Ġcopy right
Ġbro ke
std c
Ġconf used
AN G
ZooKeeper Module
ZooKeeper JobRepository
ĠPre ference
Reply To
umm y
Ġam big
Ġrestart s
Ġaccept s
Redis Exception
Start ing
ĠCo unter
Ġpresent ation
Ġ57 82
ĠDeploy ments
") );
edit ing
pres erving
Stack Frame
Mule Artifact
Ġreview ed
connection s
Ġlimit ing
Model ContentMerge
man u
Ġ-------------------------------- -------------
Ġmark ers
Ġ306 03
page Id
white board
izing Mask
EL L
Pol ler
Ġcapt ures
initial ise
Selection Event
Selection Changed
Ġprogress ive
ĠLe aving
sim ilar
133 4796
Ġ274 38
Ġide ally
icipant s
Progress UI
Ġrecord ed
Ġ-[ __
Ġverify ing
Att end
Att ributes
Fail ing
ĠBe low
Ġrepresent ing
plex us
Ġlock ing
ĠTool bar
Export Writer
ĠHel lo
gn u
Ġsk ymap
Ġisolator s
Ġcorre lation
Rem oved
Ġcancel led
Ġassert ions
typ ename
Ġ3028 4
Ġdefin es
Ġoversub scription
ĠComp ile
rep eat
ores izingMask
Pack et
Mo cker
Ġfire fly
Ġmount s
ĠSL AC
Ġfault s
det ect
Ġcounter s
ĠSpec ify
progress ive
Ġprim arily
Activ ating
Ġsur f
ortun ity
Db msLanguage
Volume From
ĠSU B
Remote Notification
LU X
ds a
Ġhighlight ed
pol ate
Failed Exception
Ġev t
ĠSimple Module
Ġsomew hat
session Id
Ġtransition s
Ġpast ed
NOT IFICATION
Ġcoordin ates
201409 1517
Ġconflict ing
Ġfrequ ently
ĠMemory PressureMesosTest
Download s
Ent ry
JR BB
jas per
scons Utils
SpringApplication Builder
Ġdetermin ed
iph er
Full screen
Ġflo ating
IC GL
Ġneg ot
ĠTEST S
ĠChannel Registry
Ġtro ubleshooting
Ġcc qserv
Ġdig its
Ġsimultane ous
Ident ify
Multiple Frameworks
ĠtMatchGroup Hadoop
ah oma
getS amples
ĠStorage Provider
MV R
MV EL
Ġdistro s
Compare ModelContentMerge
Same ThreadExecutor
Arch ive
RepeatedPtrField Base
Ġproc urement
LV L
Mark up
SAX ParseException
Ġfac ilitate
ĠStr ategy
createPart Control
Reregister sFirst
Bal loon
ĠDispatch er
Intro spect
selection Changed
Visual Studio
Boot strap
ReleaseNotes Provider
Ġmag n
Ġow ner
anizations IT
ĠBr anch
Ee K
Ġbrie f
Ġunread able
Ġug ly
ĠUs age
TRA NS
Ġbund led
Ġge ometry
ĠEurop e
Ġprototyp ing
Sli der
bk q
1857 16
Ġcancell ation
QE tester
Ġeli gible
doCreate Bean
LIBR ARY
Ġacknowledg ement
BORDER STYLE
SPI KE
201508 26
ĠWrapper Manager
Ġcircumst ances
Qhh qHIG
rug hoff
relat ime
ĠPiet rowicz
oglet ag
25166 2764
classworld s
preserving Selection
1334796 284
2014091517 5720
JRBB Ymp
CompareModelContentMerge Viewer
SameThreadExecutor Service
. (
. ",
0 59
4 286
5 29
6 26
6 25
6 53
7 27
7 37
8 50
8 47
8 99
8 33
9 00
9 19
: ${
> ]
> ';
A H
A ContextualAction
B ay
C atch
C ast
C orre
C lock
C lear
D ING
E I
E AR
E XP
E mulator
E vE
F ails
F ollow
G ithub
H D
H istory
I c
J ul
J ust
J unit
J IRA
L ambda
M N
M Service
M ost
M VN
O W
P r
P LE
P ending
R B
S ec
S qli
T S
T OP
U G
U TION
U PID
U ndo
V olumes
W ire
W eek
W AY
X AJ
Z G
Z ip
] );
a ught
b t
b at
b ml
c ake
c bc
f g
f on
f light
f ront
g b
g ot
g able
g hi
h tt
h ub
j CU
k b
l fs
m ystream
n le
o pping
p ids
r ite
r ray
r mi
s kit
s Controller
s vc
u ations
u ples
w ind
w cs
x cf
y u
y ellow
} '
} "/>
Ġ 0000
Ġ ).
er ns
in form
Ġt ar
Ġt apping
Ġt empor
on ar
on Layout
Ġa verage
re ated
re no
re ply
Ġs y
Ġs yn
Ġs ynt
Ġf und
Ġf rag
ct rl
al ready
Ġw alk
de leg
ar ation
Ġb ank
Ġp g
Ġp ex
Ġp aging
il Successful
Ġm ath
Ġn ecessarily
om in
om inal
Ġd a
Ġre configure
ch dfs
ur pose
ĠI con
ĠI SL
ĠT itle
ĠT emplates
ĠT AB
ĠS k
ĠS ign
ĠS afe
ĠS WT
ĠS FTP
ĠS plash
ĠS QuaRE
ew rite
ad le
Ġth rew
Ġth umbnail
Ġth awed
ot iv
Ġ1 22
Ġ1 09
Ġ1 28
ex ist
Ġ2 77
Ġ( [
ĠA L
ĠA M
ĠA st
ĠA SS
ĠA MQ
ĠC assandra
em bed
Ġst aging
Ġde limit
Ġde blend
Ġr am
ort ing
ĠR en
ĠR ather
01 3
01 6
01 5326
qu es
os h
os ite
ac er
Ġl d
Ġ' [
Ġ' :'
Ġg en
Ġg allery
ri ving
Ġ[ {"
ĠP S
ĠP ers
ĠP YTHON
In TOS
ser aph
art ic
ĠD NS
ĠM em
ĠM ongo
Ġ3 20
10 87
dd b
get Children
get Property
get Password
get Next
Ġ* )
11 68
ud get
ure n
ĠF eatures
ĠF etcher
ĠF ault
com press
com etd
Ġapp arently
th ese
ĠSt able
ĠSt ud
ĠSt ash
ĠSt yle
14 66
14 81
22 04
ĠE N
ĠE ngine
ere quis
Ġres pected
lib kroll
ĠTh aw
18 23
18 56
Ġse es
ĠL im
ĠL auncher
04 7
Ġle aders
16 472
ĠJ etty
Ġ: )
Ġ: -)
=" .*
Ġj b
so ck
ĠB ro
ĠB ar
ĠB lock
ĠB eta
ĠB asically
Filter To
Filter Dispatcher
26 60
08 2
Abstract BeanDefinitionReader
Abstract Jo
ĠH ive
ĠH ip
ĠH aving
ĠH DF
ĠH OME
ER XAJ
ĠU nt
Ġ| _|
44 1212
39 446
IN E
27 73
Ġjava doc
db chdfs
Ġlog file
Ġy ellow
Th ree
Ġun its
Ġun installed
Exception Handler
Exception Helper
Exception Mapping
sw ap
ĠG H
ĠG emfire
ĠG TEST
ĠG enymotion
56 3
eb e
Ser aph
cl init
Ġ# [
58 2
58 6
07 28
Ġtr affic
99 2
Test Body
}} :
tr act
Ġmaster s
min imize
ip s
Ġsp elling
36 59
Build AwareInterceptor
46 23
do In
do Inter
process Event
48 19
Ġhas n
Ti cket
Ti Composite
Com pletion
add ed
201 20
64 2
64 3
Ġho ur
ĠĠĠĠĠĠĠĠĠĠĠĠĠĠĠĠĠĠĠĠĠĠĠĠĠĠĠĠĠĠĠĠ ĠĠĠĠ
Default Artifact
Default WorkflowInterceptor
Titanium Kit
util ities
Thread Local
Ġline ar
Ġcol lected
bug s
Ġstart Integration
Ġ5 12
Process ingFilter
sp an
Ġback ing
Ġdis pose
Ġhe ld
49 12
Ġsim ulate
Ġsim ulations
Bean Proxy
Service Activator
Service Activating
Ġspec ifies
are t
Ġexist ed
Ġover head
54 1
84 2
Ġstatus es
05 13
Ġremo ves
Module OptionsMetadata
action Impl
Config Panel
ĠQ ual
Ġsub process
LI CATION
ĠActual ly
execute Query
handle Get
Ġ6 8
Proxy Filter
Proxy Delegate
send KeyEvent
Channel s
we ak
Ġass uming
AM QP
Ġinter ested
Ġinter esting
Ġinter mediate
Ġtable Header
sh ard
sh ift
Ġimage View
Par is
Par sing
Sc reen
":" -
87 2
\\ \\
And Store
Ad vice
Ad reno
Ġvalid ating
ĠIN TO
Ġchanges ets
Ġ01 03
Client Test
Client HttpRequest
Ġlink er
AP S
duc er
Ġfl ask
On Error
On Device
Al location
Al gorithm
Ġco hort
Ġ17 479
Bundle Monitor
ĠK AG
UN K
UN IX
index Of
Ġtop ics
Ġk agrawal
Ġorder ed
call Listeners
call WindowProc
Ġx xx
fl at
Activity Indicator
Group Comp
ĠAn swer
Ar t
Base LoginFilter
Tab bed
Tab Folder
JS Debug
Editor Input
Ġ27 443
ret ch
Ġclean ly
Text Canvas
uf p
Ġcl on
container izers
DM S
check point
Ġab orted
96 00
ĠAs ync
ĠAs sert
Source Viewer
Ġevery one
BeanFactory ChannelResolver
110 7
Ġmin i
Sh adow
Open SessionInViewFilter
Ġprot ection
ĠUn caught
Ġ26 126
Ġ26 132
94 1
Ġsearch bar
Debug ging
Debug Plugin
Ġqserv Test
services ource
Ġ47 20
pre ter
ĠWeb View
rie val
Ġel lip
Ġver s
Ġver bose
Wizard Page
Ġtermin ates
Ġsimulator s
Fix ed
fire Post
Ġaccept able
ceed ed
des ktop
Ġ276 34
Ġtrigger ing
Ġ150 84
HTTP S
Ġ57 89
ĠServer s
00000001 984
Line Tracker
Ġsign ed
Ġ139 35
Ġsm art
Ġappro aches
Mule Context
Mule Configuration
Ġwait s
ĠâĢ ¦
ĠâĢ Ķ
ĠDur admin
Ġ244 89
Ġ322 47
Ġ322 46
ĠDB MS
inst ant
Ġconsider ing
Ġ312 14
Det ermin
Ġ306 05
Ġ262 18
Ġ262 16
CH ECK
ĉĉ ĉ
Master Test
Bamboo Acegi
Ġ56 481
Ġmigr ating
Wh at
Wh ere
=$ {
Ġimp lies
Ġcapt uring
*) >
Fl ush
Match er
211 7
Function Mocker
Ġ255 88
ĠGr adle
apid oc
alle li
Ġ274 29
Ġ257 93
Ġprogram matically
Column Viewer
ĠDE FAULT
ĠDis able
full ly
sequ ences
control s
vin od
Install ing
Ġ? >
Ġboot ed
ĠQuery Session
Ġrepresent s
Ġ29 27
Ġlock s
Ġ20150 218
Ġpe er
---------- +
CL V
ĠAd vanced
Ġdomain s
Vis it
Security Filter
Ġsk y
Ġsupp ly
Constructor Resolver
ĠWr iting
156 23
Ġpur ch
ĠCF HT
Ġpick s
Nio Worker
ĠCr ash
ĠTrans action
ĠTrans former
ĠPar ameter
Driver Manager
TiUI MapView
Form Page
Ġimmedi ate
ĠSH ELL
Spec ify
can vas
ĠLink s
ĠVis it
139 18
Ġrot ation
Char set
Directory Test
Google Logging
Global ServiceRegister
Ġsur face
Ġrespon sive
mult ifit
CO DING
Ġsynchron ization
section Privileg
Ġoverr iding
sive ly
ĠRet urns
ĠScreenshot s
dn ey
Ġ2458 3
Remote Ip
ĠCustom er
ĠAssign ee
FTP ConnectionFileManager
ĠOct ober
TitaniumUpdate Handler
download s
Ġredirect ed
Ġhold ing
IF v
VE LO
Ġsit uations
ĠFound ation
678 46
Ġleak s
522 6
ĠFunction al
insert Audit
ĠReplic ator
ĠMod ification
AbstractHttp Filter
Ġrelative ly
ĠScroll ableView
Ġapprox imate
Optim izer
clo sure
ĠMV C
Autom ate
Ġ256 00
Ġorigin ally
Del ay
SecurePreferences Wrapper
erial ize
Ġtre at
Ġtre ated
DebugUI Tools
ĠHe ader
DefaultMule ContextFactory
AnalysisExecutor Selector
ĠBack ground
Ġmiddle ware
ĠWait ing
Org anizationsIT
remo ved
Ġ}) ();
Timer Thread
pa ho
---+ ----------------
328 84
Ġnumer ous
Ġtro uble
ĠTermin ating
ĠSIG TERM
FOR M
Ġfore ach
Shard GroupComp
Ġproduc er
ĠRout es
Ġcare t
cccc cccc
ImageDescriptor Registry
OAuth Filter
diff im
Ġski pping
ĠRel ated
License Filter
TAB LES
incre ment
itut ion
ĠSw ig
mqtt v
Ġaccur ate
aaaaaaaaaaaaaaaa aaaaaaaaaaaaaaaa
Ġkeyword s
Ġexpir y
Ġexpir ation
817 38
RES P
Ġap k
ĠChild Process
Ġado pt
Ġenhance ments
animation Type
Ifx Sqli
20121018 1724
Ġaspect s
Ġgrey ed
Ġexperi enced
ĠSuccess fullly
EXEC UTION
ĠtREST Request
Ġdescript ive
ĠSerial izable
Ġsemicol on
IOSConfiguration Helper
Br idge
NSA rray
Sdk Version
anim ated
ĠMQ TT
Ġens uring
hnson Filter
onChild Added
NodeJS CommandsHelper
Pub Sub
ĠÂ »
ĠApr il
Inc ProjectBuilder
Ġsan ity
Inverse Offers
1327 441212
ĠForward ing
Anonymous ProcessingFilter
Linear Layout
Ġglob ally
runJob InTOS
LEND AR
RAW AL
inher its
Ġcance led
AbstractAnalysis MetadataPage
NoTitle Bar
AnalysisColumn TreeViewer
Ġhistor ical
Cor r
gop ivotal
Introspect or
jCU ERXAJ
skit ch
ĠThaw ing
FilterTo BeanProxy
AbstractJo hnsonFilter
ExceptionMapping Interceptor
Seraph LoginFilter
doInter sectionPrivileg
TiComposite Layout
ServiceActivating Handler
ĠKAG RAWAL
UNIX Process
BambooAcegi ProxyFilter
RemoteIp Valve
ShardGroupComp actionImpl
doIntersectionPrivileg e
! ");
$ _
% (
) >
. {
. *,
4 140
6 27
6 02
6 504
7 36
7 48
7 32
7 84
7 52
8 46
8 48
8 51
9 15
9 44
9 28
9 02
9 33
9 05
9 42
: @
= >
A rial
B an
B OO
C orrect
C REATE
C lipboard
D r
E v
F iber
G ather
G auge
G aussian
H oc
J ax
J VM
K B
M R
M ut
M ag
M AC
M oodle
M AND
M atrix
N ET
O l
P K
P ause
Q U
R A
S un
S uggest
S Conscript
S igar
T od
T enant
V ars
Y d
_ %
b reak
b cef
c er
c ould
c ues
c fs
d C
d ac
f atal
f resh
h am
h igh
h sqldb
j t
j kl
k w
l abs
m v
m nt
n c
p ip
p ix
p ipeline
p hoto
s fs
t l
t or
t ok
t aps
t ables
u N
u eto
v T
w Sc
x is
y e
ï ¼
Ġ --------
Ġ 53
Ġ uuid
Ĩ Ĵ
in clusion
or ad
or ry
re load
re ach
le nt
Ġs up
Ġs sl
Ġc lipboard
Ġc umulative
ro ver
ro sst
an aly
Ġf eas
Ġw elcome
ar ify
Ġb box
Ġb son
Ġb ubble
Ġb udget
Ġp ushed
Ġin deed
as per
as ciid
il ine
ut es
ut opic
ent ity
ent ities
st h
Ġo d
am ent
Ġan n
om ment
Ġd af
Ġd irection
ch ains
ur ic
ĠI VI
ĠT urn
ĠT OP
ĠT BD
ec omment
ho pper
ĠS MP
ĠS SO
ĠS ometimes
ate change
pt est
ck ed
Ġh im
Ġh arness
Ġ1 15
Ġ1 29
Ġfor ces
im ator
Ġ( (
Ġ( *
Ġ( .
ĠA ng
Ġon error
Ġon Click
ĠC L
ĠC alendar
ĠC ategory
ĠC TRL
Ġst ating
Ġ" _
Ġ" {
Ġ" ");
Ġde pth
Ġr ubles
ĠR H
ĠR ow
ĠR ich
ĠR uble
ĠR ank
Ġcom m
Ġcom plain
ap ed
Ġl a
Ġl aw
Ġ' ;
Ġg mock
ri pe
Ex ited
ep ending
ĠP ay
ĠD AT
ĠD ell
ĠD river
ĠD cr
ĠD atas
ĠM Y
ĠM ean
10 47
10 20
pro files
get Service
get Resource
run Reflective
ĠW VGA
per haps
Ġv endors
und er
und red
ĠF alse
ĠF its
ĠF astdev
ĠF abrice
com pression
12 08
12 82
UI Plugin
13 32
14 19
22 47
App s
Ġhttp Client
17 47
17 03
Ġsc anning
Ġsc heduling
ĠL V
ĠL arge
iv ot
read yst
read Line
04 09
yp ed
ĠO FF
16 65
55 19
55 35
ĠJ H
19 01
Ġ4 1
Ch anging
Ġj ackson
06 0
06 1
ble nder
23 37
23 49
ĠB o
ĠB us
ĠB ill
ĠB ulk
ĠTi ExceptionHandler
26 22
26 64
08 8
Abstract RepositoryFactory
ĠH ence
ĠH ide
ĠH VGA
28 91
24 29
Ġ} ),
db Name
db dev
25 2388
Ġy arn
OS X
Ġun z
Ġun icode
Ġun changed
Ġi P
ĠG u
ĠG esture
ĠG askell
create SearchBar
gist ries
anag ed
over sub
07 7
99 6
PI PE
min ify
ff c
invoke Method
invoke Explo
Ġsp ent
ST OM
Ġen code
Ġen rollment
load Script
process Message
ref s
ĠRes ervation
Ġout er
ign y
Ti Module
DE V
Ġversion ing
Com plex
Res c
Un supported
Un reserve
Un wind
Ġ> "
Ġ> ,
Ġno ise
Ġret ina
Ġlist view
86 3
Ġclass ification
ĠCon vert
... ,
Action Support
leg uide
76 3
rol lover
cont act
AC TION
Ġpar alleli
88 7
Ġpre cise
Service Recipe
Ġdeploy er
set Property
set Timeout
Ġover flow
Pl anning
Ġdes criptor
66 5
66 30
EN CODING
Module Registry
Ġ7 7
Create View
hem y
ĠQ ST
Stream Module
Ġsub directory
ĠApp rox
Ġport folio
Ġtrans actions
Ġass igning
89 7
Http Component
ĠSer ious
SA ML
sh ort
sh apelet
sh aring
Sc ale
Sc oped
ell ar
dep rec
ld pi
config Changes
mis matched
Ġcomp any
Tr im
Tr ust
Ad apt
69 0
69 5
course cat
Ġ9 3
Ġ9 6
Ġ** /
On eway
For Result
vis e
Resource Monitor
Ġrest ri
Ġdist rib
Framework Exited
Wr apping
Ġmis leading
ĠK PI
To PhotoGallery
Ġmod ular
Pre vent
Ġx path
Ġgr ader
Ġadmin s
Ġindex ed
Ġ... "
Ġdetect s
Item Template
ĠAtt aching
ĠY es
Ġcustom ize
Ġ27 235
Execution Strategy
LO R
LO UD
LO CAL
ĠSe ems
ĠAuthentic ator
Ġob fusc
96 3
ĠLo okup
Sub process
Ġstd out
Simple ExecutionStrategy
client s
Ġ26 138
Ġ26 136
arg aret
cons istent
Call Site
moodle block
Ġrout ines
Ġcontrol led
pre p
IR T
Slave Recovery
ZooKeeper Test
Ġpost ing
Ġwrit able
Ġcor por
char acter
message Received
Ġexport ing
ĠTr avis
ApplicationContext Exception
User name
Ġ276 37
Query Template
ĠEn h
ĠEn abling
Metadata Repository
Ġcert s
ĠView s
Ġbo ok
Ġ57 88
level db
SL ACK
XML Document
Ġclose ly
ĠSo ap
edit pdf
Ġscroll View
ĠDebug ging
Ġ79 48
Ġ79 49
Ġlimit ation
Ġlimit ations
Ġtransform ers
Ġ244 75
man age
Ġ-------------------------------- ------
inst ead
Ġ157 10
Ġ312 17
Ġ312 04
Det ermine
Ġmark up
Ġnav ig
Ġnav bar
AW Q
EC DH
Ġtimeout s
hel loworld
Analysis Sql
Allow ed
Ġ262 11
Ġ262 13
ĠAss oc
LaunchConfiguration s
ari a
ĠMessage ID
output Type
âĶĢâĶĢ âĶĢâĶĢ
att ribute
oper ators
Ġtwitter stream
ĠMap Module
ĠZ IP
UPS IDE
meas ure
Ġ274 30
Ġ257 84
br id
br anch
Ġprevent ing
Ġprevent ed
remove EventListener
Ġintro duction
Ġchunk ed
Att ributedString
Ġguide lines
Ġboot str
Ġbound ary
Ġappend ed
Ġfont Size
215 345
ĠAd apter
Vis ibility
Ġwon der
Ġ% (
ĠAg gregate
go od
Ġsupp ress
Ġ138 2
:" #
URI SyntaxException
Ġdrag ging
AND ROID
workshop allocation
FileSystem ExportWriter
Ġoffer ed
typ ed
Ġes cap
ĠTim er
Ġoptim izations
ĠSystem d
Ġ168 0728
rout er
Ġcertain ly
ĠPar ser
ĠComp iling
Ġbind ings
Ġserial izable
Retry Template
ĠIs olator
ĠSub process
Ġlet ter
Ġop in
ĠSp an
ĠSp aces
ĠCamera Mapper
response Text
Array List
Ġevalu ating
Ġrot ated
ĠSpec ification
Ġmock up
ĠSUI T
201506 06
201506 0409
ĠAccess ibility
ĠCP Us
Ġmaintain ing
role id
CO LOR
Ġsprint s
Option I
Register ed
cre ating
Ġ2458 7
Ġauthor ize
Ġhover s
Sign Tool
sk ymap
ĠtESB Provider
Ġforum s
Ġupgrad es
ĠMod al
Ġproceed ing
Extract MetaData
ĠLI ST
Ġconflict s
ĠAdministr ators
focus ed
Ġdraw ing
consumer Key
ĠLoad ReferenceObjects
Groovy c
arb all
Ġtalk ing
Ġpropag ated
NO WN
undeploy job
Ġopp ortunity
Ġconc erns
YY YY
Ġwar ns
Ġrecommend ations
Ul S
SimpleJob Task
Ġpract ices
sli der
Ġ413 17
Ident ifier
Ġcoll apsed
Ġcoll abor
Ġproduc ers
Arch itecture
keyboard Hidden
Ġconver s
Ġsimpl est
Ġrestrict ed
ĠPerform ance
nos uid
ĠCO UNT
URAC LOUD
ConfigurationElement Handle
Quick Form
finalize ProjectCreation
ĠCFRunLoopRun In
Ġannoun ced
Ġdi pole
Ġ'\ '
Ġaggregated Statements
Ġhyper link
issu ecomment
ĠAstrometry Task
ĠWorld Hello
SCRI BE
Ġoverl apping
inger print
ĠMo zilla
Ġ================================================================= ============
Unt yped
0018 27
epSource Id
ĠTech nical
Instant iate
Compilation Unit
del ta
Ġsubtr action
Ġchoos ing
Ġcontr ast
Ġpreced ence
Maintenance Test
Ġerrone ous
Disp os
Delimited File
chestr ation
ĠDisk Info
Ġud i
Ġill u
Ġmillis econds
apan ese
getOr CreateView
fdsaf dsa
Pt In
adam ian
ĠDeployments PathChildrenCache
jasper reports
Cast Exception
WAY S
inform ix
ĠPers pective
Ġleaders hip
handleGet View
VELO PER
InverseOffers Filters
ueto oth
rosst alk
runReflective Call
readyst atechange
252388 362
invokeExplo sively
Ġcorpor ate
215345 1692
Ġ1680728 064
2015060409 4312
" });
$ $
' =>
, \
/ $
2 000
4 27
4 58
4 33
4 168
5 14
5 138
6 50
6 33
6 05
7 38
7 99
7 64
7 168
8 04
8 26
8 20
8 64
9 53
9 52
9 69
9 444
: +
> ;
> =
A Z
A js
A pertureFlux
B A
B LE
B PM
B attery
C N
C ourse
C Make
D id
D SL
D ND
D IS
D raft
E sc
F P
F all
F acade
F iller
F LAG
G c
G IN
G NMENT
I ssues
J RL
N L
N LS
O AS
P om
P air
P aho
R D
R MI
S Y
S omething
S ummer
S ocks
S JRBBYmp
T emporary
T ahoma
U CH
U FE
V le
V ID
W no
W mismatched
Z qs
_ *
a ac
a ired
b al
b ucket
c gi
c fc
c ible
c rest
c ru
c zh
e ux
e fficient
f el
f dd
f rag
g ent
g ard
h g
i ates
i SQL
j unction
j edis
l t
l WW
m b
m m
m n
m ix
m achine
n el
n ically
o as
o od
o LV
p in
p ub
q UFE
r S
r id
r ule
r af
s um
s uper
t ail
t py
t wo
u it
v il
v kone
w x
x Package
x EeK
y Id
y brid
} :
} ));
} -[
Ġ ve
Ġ ir
in frastructure
Ġt ear
Ġt inymce
or p
or ph
es is
es pecially
re q
re at
re alize
le fon
Ġs lack
Ġs aves
en viron
Ġc able
Ġc alib
Ġc assandra
it i
Ġf ro
Ġf use
al ive
de ter
Ġb lend
Ġb lah
Ġp thread
Ġp ushing
Ġp uppet
Ġin fer
Ġin active
Ġin finite
un iver
et ab
Ġm p
Ġm qtt
Ġm ystream
Ġn g
st rip
st derr
Ġan tic
-- >
Ġd ropping
Ġd ensity
Ġd aily
Ġre ached
ation Manager
Ġor ient
ĠT ail
ĠT SF
ĠT MP
ĠT hose
ĠT YPE
ec f
ec es
ĠS um
ĠS ession
ot o
Ġh er
Ġh its
Ġh uge
Ġ1 07
Ġ1 48
Ġ1 20
ex press
00 02
Ġfor ever
im an
Ġ2 38
ic ing
ĠA F
ĠA c
ĠA v
ĠA re
Ġpro m
Ġcon verter
Ġcon currently
Ġcon junction
ĠC ache
ĠC apt
ĠC enter
ĠC atalog
ĠC md
ĠC ellar
ol or
ol es
Ġst rong
vi v
Ġ" ,
Ġ" ../
Ġ" ${
Ġde ep
Ġde code
Ġde fer
Ġr t
Ġr w
Ġr anges
up sp
up dates
Ġcom pression
Ġcom mitted
Ġcom paring
Ġcom bine
01 413
ap es
ke ep
Ġnot ion
Ġ' ');
Ġ' ';
Ġ' {"
Ġg ave
Ġg eo
able Part
Ex periment
hen fe
ep h
ĠP h
ĠP y
ĠP ixel
Ġex press
Ġex cluded
Ġex amine
In d
app y
ĠD estroy
ĠD CR
ĠD IRT
ĠM et
ĠM ode
ĠM arker
ĠM ountain
Ġ3 85
Ġ3 505
10 70
St atic
St rip
dd d
get Element
get Singleton
get Latest
ĠW as
ĠW atermark
end s
11 32
11 35
ang er
for Name
Ġe vid
ĠF it
ĠF requency
ĠF ATAL
com ments
com plex
12 84
12 52
12 45
Ġ= ====
th ink
ĠSt ill
UI Thread
UI Pagination
13 70
14 00
14 08
14 34
14 42
14 73
Re qu
22 0122
22 1601
App XP
App xPackage
ĠE I
ĠE BS
ir y
ĠN ebula
Ġres c
Ġres olver
Ġup coming
17 26
Ġtest data
lication s
18 24
Ġsc opes
-------- -+
ĠL atest
ĠL ANG
yp ass
16 48
ĠJ QL
ĠJ AX
Ġ4 6
09 5
View Group
ĠB in
() ()
to gether
js ca
26 185
08 5
08 07
Work Processor
Work Result
Abstract Data
Abstract Endpoint
Abstract Registry
Abstract Save
Abstract TableViewer
ĠH over
ĠH igh
ĠH istory
ĠH ATE
44 22
Event Handler
Method Error
24 94
ans w
db ade
25 26
Ġlog out
Ġlog ical
38 59
38 69
Ġun declared
Exception Converter
ĠG RO
create Annotation
create WebView
version s
58 1
07 0
99 0
out line
loc ate
loc ale
Run All
02 1
res olved
celer ometer
ip edia
Ġsp orad
ST ATE
Ġen velope
36 89
Workbench Advisor
Build To
Ġget Current
ĠX RD
ĠĠĉ ĠĠĠĠ
process Request
process Ccd
process TestClass
48 79
59 55
ale x
ĠRes earch
Ġout dated
ĠRe gression
ĠRe quired
ast a
ast y
Ti Event
Ti File
Ti HTTPClient
Ti WindowProxy
Ti LaunchActivity
fo und
Ġ+ ------+
Res et
Ġslave Id
xml dom
Un cached
work ing
86 2
Default Client
Default Bound
Default BeanDefinitionDocumentReader
ĠRep o
Ġcol on
ĠWe fel
Action Context
Ġstat ically
Ġsu itable
76 9
ĠV ariables
ss d
ss i
ss ql
74 2
Lo oks
Ġhe ad
pos ures
49 6
Class Generator
Class CastException
../../ ../
Bean Wrapper
ĠIt s
Service Registry
Ġ16 1
vid ed
enc ry
Main Thread
set Lazy
set upt
Context Processor
Context Id
af c
af ka
aw ait
not ations
84 1
Ġ// ////////////////////////////////
66 01
Ġag reed
Module Type
Ġgo ogletag
Ġ7 791
Container Module
action Proc
Create Pattern
Create Plan
ĠQ E
ĠQ S
Stream Node
Connection StateManager
Ġsub title
Ġsub flow
Ġsub scribe
LI TY
web server
par allel
Ġ8 3
Rep lication
Rep air
Proxy Manager
Ġsh a
Ġsh if
Ġsh allow
Channel Name
File Utils
bin Size
we et
Dispatch Support
Ġtrans ferred
ng lish
Ġinter est
Ġ2014 1030
ĠDe epForcedSource
ĠSer vlet
sh ape
":" ","
Request Job
Delegating PreparedStatement
Android Manifest
Ġund o
Ġund ers
Ġem tpy
ert ex
Command Executor
ĠTest Flight
lsst Sim
ĠFor ced
Ġvalid ators
ĠIN T
Configuration Component
Page Set
Template Model
Resource Tree
Framework Message
Framework Removed
Ġco okie
Web WorkResult
Ġenable ment
deploy undeployjob
With Generated
Part List
Ġrel ating
Not Null
ait on
Ġmis s
Ġmis sed
ĠK erberos
Adapter MacOS
Object Store
UN CTION
ĠCom munity
inc i
text field
service Name
service backbone
place holder
wh at
api Xml
Ġweb View
fl ush
Support Helper
umer ic
ĠAn notation
Ġdetect ing
Item Editor
Ġfind s
Base Titanium
Ġ27 442
100 4
Ġclean er
Dec l
ĠCh anged
Reference Recipe
Ġvari ance
Send Processor
Ġcl ones
ĠSe gmentation
hor izontal
TI MESTAMP
Ġspecific ations
Ġab s
Ġob j
Dispatcher Utils
Dispatcher Browser
Definition s
AL WAYS
Key bindings
Source Package
Source Polling
ACS Compile
State Change
Ġrepository ContextId
BeanFactory Initialization
Launch Manager
110 8
Ġblock er
Ġmin im
Simple Flow
key Args
Open Editor
Open ItemEditor
ĠUn defined
Ġ26 100
Local Notification
Local Cached
Local Uncached
context Parameter
Row ColumnIterator
Ġprompt Needed
Ġbreak down
Ġsepar ation
Plugin Manager
Ġpi ece
Ġpi eces
ĠCre ation
pre Instantiate
Registry Support
Inst alled
Ġbr ack
Change Detection
Unit Of
Mod ular
Ġsession Timeout
Redis ConnectionUtils
des k
User Activity
Ġ276 36
Ġrem arks
Query Builder
Spring Registry
Tree Map
ĠPer missions
Ġpassword s
Ġrele asing
Ġ315 10
Ġ315 26
write Map
ĠAr gument
Ġ57 92
") )
Entity Expander
Entity Persister
Ġurl s
method Context
Ġhigh ly
table Name
register ing
Ġ139 39
Ġpri vileg
Ġ79 50
Ġreview s
Ġreview ing
ĠObject Store
From Error
Ġheader Title
assign ed
Property Accessor
Ġ322 50
Ġ322 59
Ġ322 53
Ġ322 51
Ġ322 60
Ġ322 61
man ent
man ual
Ġparent s
Password Provider
fe lix
Ġpersist s
Ġ312 10
Ġ547 7
Det ect
Ġextr acted
Ġremote ly
Ġ306 13
Ġ306 04
Synchron ous
Ġ262 10
Ġ262 17
Ġ262 08
ie ve
LaunchConfiguration View
Master AllocatorTest
Mesos Executor
Ġ56 484
activ ation
cpu acct
Ġ133 06
execution s
Database Utils
Ġ^ ~~~~
:> !
Initial ize
ĠImage Origin
tab panel
err iman
Ġquot ed
Ġ~ /.
Cre ator
Selection Page
Mobile SDK
att ach
255 01413
CF HT
CF RunLoopRun
ĠAPP X
Ġrefresh es
Ġ255 82
Connect Exception
Connect ivity
Ġintegr ating
Ġprint s
Json Esc
Ġreal istic
Ġ257 91
DO CKER
UR SE
Ġseem ed
mac adamian
Doc ElementHelper
ĠDE VELOPER
Dynamic ToolBar
Multi Tenant
Multi RowColumnIterator
full Reconcile
Ġdur acloud
Ġintro duces
Ġintro ducing
Ġchunk Id
Ġorientation Modes
uc ene
Ġrepresent ed
Transaction Helper
Git Index
Clean Up
status bar
SER VI
post Find
Ġlic ence
CL R
ĠClass Ad
ĠPSF s
IOS NodeJSCommandsHelper
Ġ138 3
PRO FILE
Ġfit ter
pull ing
Ġcancel s
Ġios lib
Collection sUtil
pag ination
ĠTim ed
Ġfold ing
Ġ87 47
panel s
Ġpool ing
Present ablePart
save WithGenerated
TitaniumSDK Commands
Dashboard View
Ġincre mental
agent o
isolator s
Extr actor
Red o
Red eploy
Red elivery
Route ContextProcessor
Show PreferencePage
Ġsli ce
ĠPack ager
Decor ations
ĠSH LVL
Lettuce ExceptionConverter
Ġweek ly
Services Enabled
Storage Metadata
FactoryBean RegistrySupport
Over flow
Single SourcePackage
Annotation Processor
Ġrabbit mq
upload user
Presentation Reconciler
ĠMan ual
Sp an
Ġrespon s
Ass et
mouse DoubleClick
OutOf Memory
Wait ing
Wait DispatchSupport
folder x
Login Information
CAL LE
Option al
Ġconcept s
MessageDriven ChannelAdapter
Fire Event
Publish ing
Invalid Rows
AA A
recover FromError
Ġ2458 1
Startup Threading
>/ <
LU MN
Su ccess
PreferencePage Provider
Persist ent
pop ulate
312 74
TitaniumUpdate Startup
heduling Runnable
jvm Task
rabbit mq
Ġpol ygon
tdq ReportRun
DAT AB
JDBC ExceptionReporter
AST ER
ĠOper ations
Before Reregistration
Ġdispatch er
Psf Determin
Singleton s
429 1168
qs master
yy yy
ĠLI KE
Logger MessageProcessor
Freemarker Result
244 59
Duplicate Action
NPM ConfigurationComponent
Ġenrol led
transaction al
Jira Manager
Jira PreferencePageProvider
Download Manager
Ent ries
Lightweight Dispatcher
Ġca ref
Ġconc rete
ERK St
KEY BOARD
Ġalign ment
ĠTarget s
Ġ---------------------------------------------------------------- ----------------
Ġflux es
ĠLOG F
ĠLOG NAME
EP NS
Photo Cal
Ruby Proc
Ul RKSt
Ġanim ations
ĠPOJO s
xa GR
Ġren aming
finish BeanFactoryInitialization
ĠSIG SEGV
Pos sible
Syntax ErrorException
Ġsens or
Ġsens ible
Ġmess y
bool E
TiActivity SupportHelper
cell aneous
Ġindepend ently
wrapper IS
DD DD
So ap
runIn UIThread
ĠCCD s
CU STOM
Ġrespective ly
Instrumentation Processor
JNotify AdapterMacOS
--------+ --------+
055 506
Bucket Metadata
incre mental
Ġinvestig ated
decor ators
exit OnClose
201210 220122
20120418 1823
Astrometry Task
mkdir p
ticket s
FieldEditor PreferencePage
Assertion Error
busy OpenEditor
Ġsqu are
issu etab
Ġalphabet ical
ĠFI PS
AbstractResource ConfigurationBuilder
Ġgray ed
BeanDefinitionParser Delegate
ĠCOM MAND
ĠInit iating
SCRI PT
Mqtt Paho
Ġâ ĨĴ
Ġ201508 04
LightweightDecorator Manager
917 00
Ġamp lif
ĠPAR AM
Ġaccom pl
Synd Transformer
Synd Feed
week ly
ĠSynchron ized
ALI GNMENT
Cho oser
oct et
xrd svc
ĠtGenKey Hadoop
Ġrevis ions
ĠSnipp et
Filtered PreferenceDialog
Ġtrim med
Jmx MBeanServer
MET HOD
createPage Controls
setActive Part
Ġparenthes es
Dura Cloud
wik ipedia
Stud y
ContentStore Impl
Isol ater
Binary Store
pumpEvents For
Dem o
Ġbes ides
ĠFunctor Keys
UIAlert Controller
FORE GROUND
UNDER STAND
Ġtrick y
Ġperfect ly
Xk Ol
orient ations
Parallel MultipartUploadStrategy
JUnitTestClass Executer
VV xaGR
tESB Consumer
Ġpercent age
MavenPlan CreatePlan
DEFIN ITION
Early StartupRunnable
FsShell Commands
Random Access
WWin PartService
wq thread
stud oc
getH ours
getRaw Children
Asm ClassGenerator
Tract Patch
URR ENT
GY JRL
Ign ore
TAN A
ĠPoss ibly
DbmsLanguage Test
ICGL GYJRL
Balloon Framework
Bay eux
ZG vw
Ġfund ament
Ġda emon
4819 98
ServiceActivator FactoryBean
OnError Throwable
FunctionMocker Base
NSArray M
JVM Info
reach able
aped String
2622 3333
Complex ity
Resc hedulingRunnable
Ġparalleli zation
ĠKPI s
AnalysisSql Executor
LaunchConfigurations Dialog
ĠCFRunLoopRunIn Mode
Fall back
Socks SocketImpl
UCH G
Vle VVxaGR
czh qUFE
lWW Xd
oLV VleVVxaGR
xEeK Zqs
yId G
realize Views
lefon ica
deter mine
ĠTMP DIR
upsp kg
henfe ather
AppXP ackage
AbstractSave EventListener
RunAll Tests
BuildTo SyndTransformer
DefaultClient Connection
ActionContext CleanUp
BeanWrapper Impl
setLazy Trigger
FrameworkRemoved BeforeReregistration
WebWorkResult Support
DispatcherBrowser Function
Keybindings Manager
SourcePolling ChannelAdapter
ACSCompile Participant
OpenItemEditor Action
LocalCached Extract
LocalUncached Extract
preInstantiate Singletons
UnitOf WorkProcessor
25501413 56
JsonEsc apedString
DynamicToolBar ContributionItem
postFind LocalClass
TitaniumSDKCommands Handler
Redelivery ErrorHandler
ShowPreferencePage Handler
OutOfMemory Error
JNotifyAdapterMacOS X
issuetab panels
MqttPaho MessageDrivenChannelAdapter
UNDERSTAND ING
XkOl xEeKZqs
ICGLGYJRL a
oLVVleVVxaGR Yd
! [
% &
( &
) _
+ ,
/ [
0 28
0 29
3 584
4 187
5 39
7 19
7 79
8 16
8 31
8 52
8 580
9 12
9 26
9 24
9 66
9 43
9 40
: #
; .
< (
= }
A E
A do
A pache
B ug
C j
C DATA
C URRENT
D at
D am
D one
D OM
D ependencies
D atas
D orp
E qual
F ringe
F requency
F REE
G eocoder
J MX
L ag
L org
L ike
L egacy
M IN
N W
N odes
O ld
O uN
P ixel
R ewrite
S ip
S VN
T ouch
U ES
U RE
W G
W ould
W sdl
X mx
Z ZN
_ <
b an
b ab
b bd
b idden
b OuN
c end
c alled
c annot
d Ar
e lect
f unctor
g l
g y
h ref
h ift
h rs
i ator
i pping
j dbchdfs
l on
m j
m ate
m etric
m bean
n ed
n eo
o ice
p ed
p erson
q os
r um
r action
r ides
r ubles
s le
s is
s The
s olver
t bi
t runk
v olume
w as
w ee
x Ti
x bf
x large
y a
Ġ vice
Ġ 000000
er un
in ese
or id
or ian
or ola
on ce
on works
on Next
es ign
Ġa jax
re nd
re build
re actor
re emon
le m
le arn
Ġs n
Ġs op
Ġs eper
Ġs ummar
en force
en berg
en esis
Ġc ool
Ġc lock
Ġc ategor
Ġc rosstalk
is ions
is enberg
ro tt
an as
Ġf q
Ġf av
Ġf ash
Ġf iring
Ġf ragment
Ġf ruit
Ġf rames
ed Resources
al py
al though
al igned
Ġto ld
Ġto uched
de os
de vices
de limited
ar meabi
Ġb al
Ġb read
Ġb og
Ġp ain
Ġp ip
Ġp kg
Ġp agination
Ġin con
as p
as mine
li d
li ance
ut e
Ġm im
Ġm time
Ġm edi
Ġm ilest
Ġm ssql
Ġn s
Ġn dk
Ġn ebula
Ġn atures
Ġo gnl
am s
Ġan g
Ġd imension
Ġre v
Ġre duced
Ġre using
Ġre usable
ch d
ch f
ch l
ch t
ch co
ur al
ĠI R
ĠI cons
ĠI CD
ĠT ag
ĠT ables
ĠT HE
ĠS m
ĠS impl
ĠS AL
ĠS epar
ĠS QS
ĠS Conscript
ad c
ot orola
Ġ1 19
Ġ1 25
Ġ1 43
ex ecut
ex posure
Ġfor get
Ġfor cing
ver ting
im a
im prove
Ġ2 13
Ġ2 09
Ġ2 20
ic ipation
Ġ( -
ĠA ctions
ĠA zure
ist ogram
Ġpro to
pl ate
ig est
Ġst ale
Ġst itch
and ber
Ġat tr
Ġde g
Ġde activated
Ġr eregister
ile n
ĠR hino
Ġl and
Ex clude
Ġ[ /
Ġ[ {{
ĠP resent
ĠP ipel
ĠP ivotal
Ġex cess
Ġex pert
Ġex cel
Ġex ha
Ġus ages
In to
ĠD id
ĠD roid
ĠD one
ĠD ropped
ĠD eprecate
ĠD epending
ani ak
ani zer
ĠM essages
ĠM ather
ĠM AN
ĠM gmt
Ġas semble
10 74
St age
get InputStream
ĠW ed
ĠW rong
11 18
11 21
11 95
ind er
code l
ure gard
per ly
Ġv et
Ġv Sphere
ĠF ri
ĠF acade
ĠF reemon
Pro files
Pro ps
com es
12 67
con currency
Ġapp le
int egrity
ĠSt aging
13 02
13 1749
14 58
14 74
Re leased
ĠE L
ĠE valu
ĠE valuate
ĠE pic
ĠE OF
ĠN ONE
Ġres ide
De activated
Ġtest WebView
lib mesos
ĠTh u
18 55
ĠThe me
Ġsc anner
Cont act
Cont ributed
Ġse gment
ĠL ess
ĠL ong
read er
read ing
04 4
Ġle aking
ĠO OM
16 86
16 88
16 33
19 19
19 29
=" *"
Ġ4 24
09 1442
Ch rome
Ġj o
06 3
06 5
23 87
23 77
23 94
RO W
() (
() }}.
ĠTi RootActivity
26 17
26 16
08 16
Abstract Shell
ĠH E
ER KS
ĠU pon
27 13
27 32
27 1747
Method Request
db ops
Ġy ui
ĠTitanium Studio
38 28
sw ers
ĠG P
ĠG al
ĠG reg
ĠG eo
ĠG allery
ĠG alaxy
ĠG auge
56 2
ĠIn terceptor
mo z
test ed
Ġuser id
Ġtr ap
Ġtr aining
99 86
Test Support
PI L
PI CKER
36 10
Build Agent
log cat
Ġget ters
cc d
ĠEx pose
ĠEx ceeded
process ors
process MouseEvent
59 3
put ing
ĠRe actor
ĠRe visit
ĠRe gistration
Ti RootActivity
201 50
201 201
ĠPro venance
Ġname ly
Ġ> >>
Ġret ro
ting Strategy
Ġ5 1
AS ES
Ġar rive
35 151
Ġback space
Lo ok
Ġcheck er
pos al
pos ition
49 2
49 13
49 410
Bean Class
88 11
88 88
Ġtime zone
03 170
Listener Task
ft l
Service Tracker
Ġ16 308
sc p
back off
Ġexist ence
Ġro om
Ġdes igning
local provider
Ġopen stack
EN CE
Ġscre encast
Up dated
Ġpart ners
ĠJS Object
ĠJS Value
ĠJS Lint
hem es
Ġsub tle
Ġsub classes
format ted
qserv Test
handle Open
Ġ8 1
Rep eat
Rep Node
open InputStream
file picker
ten ed
89 1
89 5523
Http Response
Ġ2014 1029
Data Sense
Ġent ers
Table TreeViewer
Request s
Request Header
Ġcorrect ed
87 3
Ġ. __
Android Module
Ġem its
Job Service
Ġsource Id
Command Bar
Command Line
Ġ"/ "
Util ity
77 0
77 1
77 3
ĠOpen Shift
Lib raries
ĠXD Container
Ref ine
ĠNo ok
ĠCont ainers
RE D
Ġlink ing
Content Retriever
valid ation
stream Name
Resource Set
Ġrest oring
65 4912
Ġdist ance
Ġco ord
Ġco okies
deploy AndStore
Ġread me
Project Template
ĠK ind
inter est
Adapter Assist
Object Pool
ĠCom posite
To Log
opens hift
An swer
Ġmain ly
Ġinv ok
Pre view
Ġx si
ĠAtt ribute
Ġpr inci
String IndexOutOfBoundsException
col l
mod info
ĠY arn
Ġz Index
Ġhapp y
ret ina
ret rieve
ĠCh ile
ĠCh ris
Text View
Execution Exception
LO OP
Send ToLog
Ġcl a
TI FI
check ed
flow Id
Ġab normal
Ġtarget ed
ni vers
Ġ30 231
Ġ30 290
Ġ30 294
AL SE
Ġvis ually
Ġ14 1
Simple Batch
93 12
ĠData Source
Open ing
Ġ26 123
Ġsearch View
bar code
Ġmode Every
cons ider
ffect s
iter ator
TH E
ĠPl anning
NS Object
ĠStart up
OR T
grad ed
122 130
platform Height
Per f
Per missions
Per formed
Slave Restart
ins pect
ZooKeeper Container
Ġbr aces
Ġbr idge
Ġknow ing
windows lib
Ġpost age
Ġclo ser
Ġhost ed
Ġsink As
Ġsession Pass
orm ally
192 14
Redis Connection
2015 0107
UT OR
Ġkeys pace
jo ins
}, {
Ġ150 65
ĠTI F
ĠPer fEvent
Ġhard er
US B
Co ordinate
Core Simulator
Report FileAction
HTTP Scheduler
accept ed
cor es
Ġ200 8
Ġ57 80
Ġexternal ly
show Page
Ġrefer ring
00000001 83
ef aniak
AD DED
Ġpri o
exception Pre
Ġheader View
Ob s
ĠâĢ ĵ
2012 0618
ĠMy Class
') "
Ġ244 76
Ġ244 81
0825 26
Ġassist ance
Ġ218 11
Ġ157 05
Ġ547 8
ĠDet ailed
AB C
RUN LOOP
Operation Exception
Ġavoid ing
Ġavoid ed
Master MaintenanceTest
su ffix
Ġ56 469
Database ContentRetriever
Ġdec rease
322 32
Ccd Task
Exp ired
ĠStream ing
Ġquot as
Ġmax Length
Ġarch iva
request s
Ġexit ing
ĠRE Q
CF RUNLOOP
Dis covery
prot ect
Ġexpect ations
counter s
evaluate And
evaluate Expression
ĠOr der
like ly
Ġ257 92
Ġtrack s
nav bar
ĠSh if
Ġextend ing
monitor Send
Back port
By tecode
ĠRem aining
Ġequ ation
IS R
Ġcomput ing
ĠDis course
Ġactiv ation
"} ]
"} ,"
Att o
Install ation
Ġsw ap
423 9
OP TS
Ġ20150 923
Ġos x
status Update
status Label
Ġexpl ains
MB ER
Flow Construct
ĠAt lassian
Ġpartition er
CL MVN
Ġalong side
ĠTab s
239 13
Ġsk in
Param s
Ġ138 7
Ġ2639 9
ĠCloud Hub
ECT ED
ĠText Area
Ġes c
Ġ87 48
Ġoptim al
Ġoptim istic
Ġregard s
Ġmanag es
Ġspecial ized
ĠTrans ition
ĠRef actoring
ĠArch iver
619 1
border Color
border Radius
Red Hat
ĠSuggest ions
ĠQu iz
cent roid
Ġflaky Observed
Ġfire fox
jp eg
229 22
Ġ874 2
Perform ance
SO AP
ĠTask s
Ġweek s
Ġrot ating
Ġrot ates
]] ></
201506 26223333
Ġtell s
Ġabstract ions
At Index
Ġsur round
ĠMan ifest
Problem Reporter
Frame MeasurementTask
mult ipart
orientation Modes
Track ed
CO UNT
Ġsec ret
Ġsynchron ized
Clo sure
Ġtransl ates
Ġunn ecessarily
Ġdef ect
pol y
pol ygon
ĠOption Dialog
Logging Handler
termin ating
soli date
iagnost ics
Evalu ation
correct ly
Ġinher its
amq ConnectionFactory
Ġencry pt
ĠTe lefonica
partition ing
Generate ReportFileAction
Ġdemonstr ated
Ġcoordin ation
Placeholder Configurer
Instrument er
fix es
Ġder iv
201409 131749
ĠImprove ments
callback s
Fault ToleranceTest
Ġdraw n
calendar s
Ġenrol ment
Ġpointer s
Graph ics
699 2
Ġrepeated ly
Fin ished
Ġpropag ation
Ġopp osite
bout igny
Throw Exception
DefaultMule Application
remote addr
ĠEl li
Video Player
remo val
ower Shell
Ġarrow s
Simulator LaunchConfigurationDelegate
pass ed
retry Message
EEE v
Ident ity
Ġsens itive
ĠPri ority
Ġscal ing
Ġexceed ed
assess able
ĠExtr act
Ġlight weight
ĠRout er
Ġxcode build
Grails Events
Embed Connection
Return Type
jun g
2222 22
Ġutili zing
Cert ificate
Ġstrict ly
Ġstyles heet
ĠPop over
201210 271747
ĠDev Kit
~~~~~~~~ ~~~~~~~~
Ġmanip ulation
separ ator
Ġess entially
ĠTyp es
Ġhist ogram
abe led
SQLite Database
________________ ________________
Ġinherit ance
Ġmonth s
Ġ229 22
Ġalter ed
ndic ation
Ġhope fully
ĠDevelop ers
jj j
5555 55
4444 44
Https URLConnection
ĠPAR ENT
Ġarri ves
6666 66
Ġdestruct or
forced Phot
1219 30
ĠBl ank
0000000100 39
Ġparticipant s
argument s
chdl p
1234 567
Comparison UI
ĠAltern atively
DefWindowProc W
ĠTod ay
ĠGaussian Flux
ĠInstrument ation
Acceler ate
ĠSdss Shape
arr ative
1379 49410
Ġ1679 654912
Di ctionary
Fast Dev
eh cache
ĠCert ificate
hyper ic
satisf ied
Ġassess ment
RepositoryNode Dorp
Ġ---------------------------------------------------- ---
MED IA
Ġcs v
ĠIndic ator
ĠDES C
1413 2349
Ġenumer ated
pst efaniak
synchron ized
avers al
ĠPL plot
1196 121930
2800 3660
ĠScan Sched
ĠSUB SCRIBE
PLE TED
htt ptest
Ġsy base
deleg ate
ĠASS ERT
ĠAMQ P
Ġdelimit er
ĠHip Chat
ĠAnswer ed
Ġvers us
MR iz
ĠAng ular
ĠiP od
oversub scribed
Wrapping Runnable
ĠEnh ance
Ġopin ion
Temporary DirectoryTest
VID ER
viv or
ĠDestroy ing
Ġ===== >
ĠHATE OAS
ĠGRO UP
Ġsporad ically
setupt ools
TractPatch List
bOuN dAr
wee ks
xTi bOuNdAr
Ġfash ion
Ġbog us
andber gen
ResourceSet Impl
AdapterAssist ant
ĠAttribute Error
SimpleBatch Configuration
ĠsessionPass wd
20150107 091442
HTTPScheduler SlaveRestart
201409131749 15
137949410 4625
RepositoryNodeDorp AdapterAssistant
14132349 03170
xTibOuNdAr Y
' '
( !
( :
+ -
+ .
/ (
/ ~
/ &#
0 25
0 36
3 598
4 129
6 09
7 26
7 58
7 21
8 27
8 35
8 040
9 79
9 32
9 30
9 45
9 83
9 090
= \"
A m
B oth
C lip
C ER
C ES
C ycle
C alibrateTask
D V
D eclipse
D ue
D enso
E liminate
E ERKNS
F lat
F LOW
G EN
G UID
H SM
I J
J ni
K ron
L a
L AU
M ER
M IT
M alformed
N K
O CS
O FF
P rint
P LU
R ate
S P
S ep
S ym
S econd
S napshot
S dss
S ometimes
T ake
T OM
T ester
U X
X Work
X Path
X tent
] ->
_ (
a ive
a ether
b en
b as
b ac
b fa
b eat
b son
c glib
c orrection
d ue
d ll
d cc
d ns
e valJS
f ast
g f
g log
h d
h int
h udson
i u
i est
j query
k ar
m k
n ge
o le
p f
p ad
p olation
p fx
q n
r ap
s asl
s plash
s uspend
t ids
u itive
u ously
v nd
v olution
z en
Ġ ur
Ġ Viewer
Ġ esb
Ġ ě[
Ġ illegal
ĠĠ ÂłĠÂłĠÂłĠÂłĠ
in uous
Ġt ape
Ġt XML
on error
at tr
Ġa head
Ġa ctor
Ġa stronom
he isenberg
re al
re ll
re alm
re ceiver
Ġs a
Ġs izing
Ġs doc
Ġs ingleton
Ġs ampling
en um
Ġc lic
Ġc red
Ġc rypt
is berg
an es
de liver
Ġb i
Ġb t
Ġb all
Ġb are
Ġb orders
Ġp t
Ġp lo
Ġp ub
Ġp fx
Ġin visible
as sembly
ut ures
ut oresizingMask
Ġm id
ul ner
Ġn ec
ter m
Ġd ict
Ġre write
Ġre boot
Ġre gistries
ĠI nd
ĠI ssues
ĠT hough
ĠT DI
ĠT elescope
ĠS he
ĠS ection
ew ise
ad a
ag on
ag ine
ag ios
ag gregate
us ands
Ġh i
Ġh ive
Ġh ung
Ġh undred
Ġ1 0000
Ġ1 46
Ġ1 30
Ġ1 03
Ġ1 234
00 14
im edia
im scp
ab a
Ġ2 02
ic u
ic ast
Ġ( <
Ġ( ~
ĠA SC
ĠA SF
ist ab
Ġon going
ĠC y
ĠC ron
ĠC AC
ĠC VS
ig en
em od
Ġat om
vi ction
Ġ" \
Ġ" *"
Ġ" .."
Ġde co
Ġr ub
Ġr are
Ġr sync
ort onworks
od a
ĠR atio
ĠR otate
if ference
ain View
Ġcom pressed
qu et
qu eries
Ġnot ices
ac ob
ac ls
Ġl apt
Ġ' (
Ġg zip
Ġit ter
Ex t
Ġ[ ],
ĠP r
Con current
Ġal t
In cre
In consistent
app eared
ĠD ims
ĠM O
Ġas set
10 85
St andalone
pro ved
pro bably
ob ar
op acity
get As
get Definition
get Files
get Line
get Instance
get Status
get Dynamic
get ImageDescriptor
get Contributed
.. ...
ĠW elcome
11 29
11 57
11 42
ĠĠĠĠĠĠĠĠĠĠĠĠĠĠĠĠ ĠĠĠĠĠĠĠĠĠĠĠĠ
Ġv esta
Ġe ase
Ġe ature
ĠF ig
ĠF ired
Pro to
12 05
12 83
con cept
con sc
ub scribe
nt ities
UI Application
UI PerformChangeOperation
13 24
13 98
13 75
14 38
14 377
Re loading
Re organization
22 07
22 53
22 410
App Bar
App rox
ĠE MC
ĠE nglish
ire dis
ĠN et
ĠN EW
ry o
Ġcont ributed
Ġres ized
Ġres olves
upp ose
18 48
18 52
ard s
Ġsc ans
Cont ains
Ġse gfault
ĠL ayout
ĠL ettuce
ĠL andscape
ĠL CR
ĠL abs
04 6
04 29
Ġle ver
16 80
og o
ĠJ olokia
ĠJ une
ĠJ apanese
19 365
ht ag
ht docs
09 7
09 8
Ch art
Ġj olokia
Ġnew est
Ġ< <<
org anize
06 6
RO UN
ĠB ox
ĠB lob
() +'
ĠTi API
ĠTi Map
ĠTi DownloadManager
26 86
Ġproject When
08 26
08 600
Abstract Tool
Abstract Invoker
Abstract Recipe
Abstract Pipeline
Abstract CallSite
ĠH ead
ĠH udson
ĠH AWQ
15 210
44 29
39 07
Method A
24 30
Ġ} ).
db e
25 28
Ġy ield
Ġun ion
Ġun ify
Ġun authentic
Ġser ves
Ġser ious
Ġi j
ĠG PL
56 48
56 79
cri bed
cl ES
Ġ# <
test Report
Ġuser grid
58 69
ite ly
Test ed
Test Info
Test Route
}} "
}} '
}} |
}} ).
Ġpl ugg
Hand led
02 03
res erved
min im
invoke And
invoke For
invoke Handle
invoke Delegate
Ġsp an
Ġsp inner
Ġ{{ $
Ġ{{ -
ST ART
36 27
Workbench RunnableAdapter
Build ProblemReporter
Ġvar char
http d
cc qserv
ĠX P
ĠX Path
load s
do RequestResponse
20 23
59 22
ĠRes olving
ĠRe una
ign ment
Ti TableView
List Operations
Res ume
build Files
201 306
Un resolved
Ġho t
Ġho ping
alend art
Ġqu ant
Default Executor
Default PluginManager
37 26
ĠCon f
Ġdefault Value
... </
Ġstart Animation
ĠĠĠĠĠĠĠ čĊ
no exec
Process Impl
sp ot
sp aces
ĠV S
ĠV AL
cont rib
==== =
AC T
49 89
Class Name
Ġti Base
unt il
Ġsim s
Ġsim ulation
Bean Property
Chain Init
Service Configuration
Ġper tain
API kit
oth ers
Ġdeploy s
set Attribute
set RequestHeader
back s
back trace
Ġover commit
Ġover writing
not ice
be it
Ġlib tool
33 06
Ġrequire Unresolved
05 2
Ġafter wards
Ġag ree
Ġag reement
Factory Impl
ifi able
Module ProjectWizard
Up stream
Ġgo als
Ġ7 1
atal ina
Task Status
Stream Parser
ĠĠĉĉ ĠĠĠĠĠĠĠ
Ġsub packages
Ke ep
aus ible
web app
execute Chain
execute Change
handle Internal
open PhotoGallery
Error Reporter
Ġhand y
Channel Provider
file jdbc
file ts
89 8
roll ing
Http Test
AT ED
Processor Definition
Ġappear ance
sh ake
sh ares
ĠAl locator
Ġvi able
Ġvi olation
Request Cache
ld m
ĠWhen ever
Ġcomp iles
77 2
77 5
Ad vanced
ĠFor ce
job ject
icon s
ĠNo Such
Deploy Targets
arter s
course orid
Client Proxy
Ġ9 7
127 1
RE ADME
Configuration Processor
Ġfl av
On Each
iler plate
event Feature
42 19365
Control Contribution
Dialog Action
Ġ17 483
Part ic
Part Pane
Ġread only
Ġgroup ed
Ġrel ates
Bundle Status
Bundle XmlApplicationContext
path s
Project Preferences
Project ConfigPanel
ĠK an
ĠK PM
Adapter HTTP
Object Factory
ĠCom mit
ti ck
Node TitaniumSDKCommandsHandler
Ġk ar
Ġk erberos
Ġk azoo
text canvas
Ġmod ern
class gen
ĠSc enario
Pre fer
access ibility
fl ag
top ics
Activity Result
Activity ForResult
Ġlat ency
Ġ& )
Log s
Ġ... )
98 2
ĠY our
Ġpack ets
Base Future
JS V
JS Style
Image Task
bit s
Ġ27 3
100 5
Text Area
Text mate
Execution s
Ġsched ules
Index RequestJob
Socket Connector
default unit
ni ques
Ġtim ing
ĠAs pect
Ġ30 260
Trans ient
Trans lator
Ġregister s
Ġevery time
ĠJob Repository
Launch ingMessageHandler
Ġmin imize
co okie
que ues
que ued
Simple iPhonePackagingComponent
MD L
Open Operation
Ġprot ect
ĠUn icode
73 00
Do OnEach
map view
context s
Int elliJ
pi ck
dev toolset
print ln
NS Range
Ġresponse Timeout
Server Socket
Ġfunctionality Use
grad es
eg ers
Per m
Per fEvent
resources Directory
Ġ== >
Ġver tic
select or
command er
SDK Section
Ġdoc gen
Wizard OpenOperation
Ġcor rupt
Messaging Endpoint
ĠException s
fire Part
Ġargument terminating
Ġaccept ing
Ġ__ _
Ġ__ __
Ġ276 33
Query IT
Check er
Check Session
ĠCo ffee
parse Int
Tree LineTracker
Core Plugin
Expression Language
ĠSelect ing
Ġalert s
ĠInt eger
Ġ\ |
Ġ57 97
show location
Ġurl Session
Ġrefer er
Ġcount ry
UD I
edit submission
Ġscroll s
TableView Section
Ġmysql d
?? ?)
Ġswitch es
ĠContent Type
Reconc ilingStrategy
Session InputBuffer
Ġoperation al
------------ ---
umb s
foo ter
XX XX
link ed
Ġcontin uously
sure fire
Ġ-------------------------------- ----
Ġconsider ation
te h
Ġ312 06
Det ail
Ġborder Style
ĠContainer Info
state ment
ĠDet ermine
Analysis TableTreeViewer
Ġ306 07
Ġcap able
Ġ262 04
Ġ262 09
ENT ER
ĠAss um
document s
Ġglobal s
color codes
Auto Indent
Lifecycle Manager
Rest rict
CE PTION
custom ers
Indic ators
Ġimp lications
Ġ210 9
Ġ210 58
Ġ210 52
Ġquot ing
output requirements
ĠGo al
CLI P
Xml Generator
att ributes
att Level
old ing
255 65
alc ulate
alc hemy
>< ![
ĠSQL ite
Ġ255 7
ĠGr ades
BuildPath s
Ġprint ing
ĠFiles ystem
FF F
Ġ274 33
Ġreal ized
Ġprogram s
Ġprogram ming
nav BarHidden
Containerizer Test
UR ATION
Ġiter ators
._ ,
ĠRem oved
HttpClient Connection
Composite ReconcilingStrategy
Host Config
Ġcomput ation
Progress Bar
Progress ManagerImpl
ia o
Metrics Filter
dur admin
Ġstud y
Att ach
timeout s
Ġmapping s
Ġsql ite
Git LightweightDecorator
Ġbound ing
ĠEvent ually
404 8
344 0
215 8
SER VER
Console Manager
Console Document
Import Writer
JUnit Core
ME M
Ġsk etch
ĠAg reement
Cp Rel
emulator s
Ġdrag gable
Ġsocket s
Ġmanifest s
ĠCF Bundle
ĠCol lect
ĠURI s
sem ver
Delete Action
Delete BuilderImpl
Delete ResourceChange
PHP Builtins
Ġ168 2337
sl n
save ToPhotoGallery
Ġspecial ization
Ġinsert s
Format Feature
Mapping Mongo
Ġpres erved
ĠReport s
Count s
Ġincre asing
Options Editor
ta i
Ġsli de
Ġsli des
Ġbring ing
createTableView Section
TiUI View
Decor ation
Dist ribute
ĠSL F
Hierarchy With
head room
ĠTask Status
HTML FileIndexingParticipant
Ġprim itive
Activ ated
Ġdatam apper
input Type
ĠPo jo
Converter s
plan et
Ġinstant ly
Presentation Controller
VI EW
Ġunknown file
cr m
cloud push
ci i
decl aration
ĠStatus Update
RedisQueue InboundChannelAdapter
ĠGroup s
Pop up
Pop ComparisonUI
ĠRelease See
LIB PROCESS
sample flask
implement ed
Chunk ed
ited Cpu
conf irm
Ġ'- '
Ġext ent
ĠRES P
Ġcombin ed
ĠOb viously
step henfeather
Ġprotocol s
ĠCMake Lists
JDBC ExceptionHelper
sy ndication
ĠField s
TiApp DeployTargets
TiApp SDKSection
Ġdemonstr ates
GL ES
TL R
Encry pteddatabase
Ġdispatch ing
ĠSync ing
Ġcomparison s
track ing
ĠScroll View
Ġexplain ing
Rout es
Rout ing
ĠCPU Monitoring
NU MBER
replace All
ĠSwitch ing
4679 6
4679 8
Namespace Watcher
Duplicate Registration
JNI Env
ometry Kron
Ant Runner
Ġobvious ly
Imp orter
Org anization
remo ving
Values With
Any HierarchyWith
HE AD
Push Notifications
ager Repair
Construct ors
Refresh able
Dq ReportRun
ĠPri ce
Ġscal ar
ContextHandler Collection
Ġtwe aks
ĠFootprint s
Coverage Recorder
Ġdump ed
ims enterprise
Ġlack s
Ġoffic ially
Ac quire
luc ene
poll hdfs
Ġcirc ular
ĠLabel s
crypt o
ĠMI ME
ĠXY Z
ĠOffer ing
Box Call
Ġcur ly
Ġreconc ile
Ġassum ption
Min imal
TAB GROUP
sig ar
Ġfriend s
begin StateChange
Ġheading s
author ize
Operator DoOnEach
Monitoring Service
Ġsl ash
getBuildPath Entries
HttpURLConnection Impl
Ġclar ify
#### ####
Ġband s
Assertion FailedException
Try ing
Ġinject ion
threads EvE
612 08600
Acc ording
Cl one
DA Q
Ġsleep y
ĠClo sing
ĠClo sed
ĠInit GoogleLogging
Blueprint Repository
Ġliter al
AbstractNio Worker
Ġunres pon
Ġunres erved
Ġoverl aps
ĠAnaly zer
ĠAnaly ze
Ġwor se
Ġreli able
ĠLike ly
ĠHyper ic
ĠHyper loop
ĠFormat ter
Ġestablish ment
Ġdiagram s
Named Resource
ĠHSQL DB
REQ U
Captcha Service
Mongo Template
oct o
xrd oss
ĠSnipp ets
Conversion Plugin
ĠGrade book
Ġmar shal
Ġbrand ing
NoSuch MethodError
Ġguarant ee
rim raf
extract Data
doWork In
ĠContainerizer Test
CONT ENT
Handshake Exception
Ġautocom plete
Sm art
ĠXrd Ssi
ĠRequire ments
Analy ze
datas et
?, ?,
ĠBen ford
ĠExecut ing
DefaultIssue Service
ClassPath XmlApplicationContext
Ġthrott led
navigation lib
Bet ween
BACK GROUND
Conf irm
Ġuniver s
Comment Id
Deserial izer
Ġastrom etric
=-- &
Ġbeg ins
ĠDer by
Ġunw anted
Wrapped OutputStream
TIV ITY
NewMobile ModuleProjectWizard
Refactoring WizardOpenOperation
BindIF ZN
Ġneigh bor
NavigatorContentService ContentProvider
13506019 83
earth Image
phot ometryKron
ĠSys ML
ĠMeta Serv
ĠNa N
ĠOcc ur
toUpper Case
Ġsurf aced
VolumeFrom Host
RemoteNotification Types
TRANS PORT
Sec ret
cake framework
Ġsyn ctool
ilSuccessful TestCase
ĠAL LOCATION
ĠFetcher Cache
ĠStud ent
2204 33
Ġjb osch
ebe Sandbox
ThreadLocal Filter
UNK NOWN
Art Method
JSDebug Target
ĠAssert ion
MuleConfiguration XmlGenerator
Ban anas
Unsupported OperationException
aria DB
Ġbootstr apping
ĠSpan Region
focused CommentId
RMI ConnectionImpl
orph ans
ĠCapt ured
Requ ester
AbstractData FormatFeature
DefaultBound ListOperations
Ġshif ts
Ġunders cores
BaseTitanium LaunchConfigurationTab
Ġbrack ets
Modular ize
DATAB ASES
UIAlertController View
Dam agerRepair
FREE FORM
Lag una
ĠGal Sim
PIL ER
ProjectTemplate SelectionPage
19214 23913
ĠShif ter
Ġesc ape
vivor ship
Jni Abort
XWork ModuleDescriptor
Xtent is
ĠtXML Map
Ġplo tting
emod ified
acob ian
getAs TemplateModel
getDynamic BuildPaths
getContributed Files
consc rypt
ROUN DED
Ġunauthentic ated
invokeAnd Handle
invokeFor Request
invokeHandle Method
ĠVAL UES
BeanProperty Writer
filets job
RequestCache ThreadLocalFilter
4219365 13
BundleStatus Exception
JSStyle Validator
Textmate Importer
NSRange Exception
CheckSession Filter
AutoIndent Strategy
CpRel ationManager
Ġ1682337 792
MappingMongo Converter
PopComparisonUI Action
sampleflask app
itedCpu IsolatorTest
TiAppDeployTargets Section
ĠCPUMonitoring Data
threadsEvE UlRKSt
DamagerRepair er
" +
" ])
' +
( __
) =
) ).
. ");
0 39
0 27
4 504
5 19
5 471
6 31
6 000
6 184
7 57
7 35
7 54
7 81
8 397
9 01
9 07
9 34
9 48
9 59
9 67
: )
= __
= ...)
> .<
? !
A pr
A jax
B Y
B i
B LED
B ecause
C redentials
C atcher
C push
C urator
C umulative
C alendart
C ENTER
D og
E c
F ling
F AILURE
G P
G reg
G adget
H O
H igh
H AV
H OST
H tml
H VGA
I OR
J ECT
K color
L et
M ar
M id
M ARY
M ountain
N ON
N SC
N OR
N OO
N CSA
O uc
P id
P ING
P ATCH
P NG
P LOY
Q UE
R T
R W
R ent
R ework
S an
S epar
S elf
S ynonym
S uspend
T po
T AC
T ARG
U w
U pon
V ED
W K
W alk
W EB
a M
a ec
a ic
a app
b az
b ps
c ial
c ases
c ycle
c aptcha
c ActiveMQ
c ircle
d id
d og
d ax
e js
e ating
e eb
f ork
f loat
g ib
g runt
h l
h are
j ake
j ie
k ing
l ays
m ic
m yn
m edian
n fs
q proc
r ather
s ump
s mt
t c
t st
t REST
u ity
w st
w ire
w mq
x e
x si
x def
x mi
y ers
z a
z c
ã ĥ
Ġ rollover
er d
in ed
Ġt f
Ġt x
Ġt ack
or ate
or iginal
on Any
at i
Ġa f
Ġa id
he ading
re fer
re loading
Ġs olves
Ġs Count
Ġs phinx
Ġs ocial
Ġc pp
Ġc name
Ġc Config
Ġc Processor
Ġc make
it o
it ask
it udes
ro g
an o
ing Buffer
Ġf b
Ġf o
Ġf ly
Ġf ingerprint
ed List
al og
al ways
ĠĠĠ ĉĉ
Ġw rench
Ġw ildcard
Ġw mgr
Ġto po
de ep
Ġb ot
Ġb igger
Ġb az
Ġb zip
Ġb rew
Ġb ypass
Ġp lots
Ġp adding
Ġp aired
ce c
Ġin struct
Ġin formed
Ġin ferencing
un expected
un enrol
un reserve
as pect
il ly
lo dy
Ġm d
Ġm v
Ġm it
Ġm ent
Ġm gmt
Ġm alformed
Ġm otiv
Ġn d
st ores
Ġan imate
Ġd ie
Ġre install
Ġre connection
Ġre written
ĠI F
ĠT oggle
ĠT ouch
ec k
ec lient
Ġth inning
est Activity
Ġ1 12
Ġ1 44
Ġ1 31
Ġ1 386
00 08
im ap
um ps
Ġ2 17
Ġ2 26
ic ere
ĠA PS
ĠA pertureFlux
Ġbe lon
Ġpro ced
Ġpro hib
Ġcon currency
pl us
pl ane
ĠC at
ĠC ance
ĠC XX
ĠC ursor
ĠC orpor
ĠC aught
ĠC iao
ig ee
ol v
Ġst e
Ġst ages
Ġst retch
Ġ" :"
Ġde x
Ġde com
Ġde ferred
Ġde blender
Ġr erun
ĠR DB
ĠR ecycle
01 7
01 16
ap m
qu ot
qu ires
os itories
os gib
ac count
el man
act ers
act ically
Ġ- @
Ġg l
Ġg ains
Ġg eolocation
Ġg runt
Ġg utter
Ġit unes
ri zz
Ex change
lic ing
ĠP RI
ĠP ayload
ĠP ipeline
Ġex plor
Ġal together
In str
In struction
In cludes
app store
art beat
oc ations
ĠD raw
ĠD omain
ĠD ropping
ĠM ime
ĠM erge
ĠM icrosoft
ĠM iddle
ĠM Beans
Ġ3 16
Ġ3 53
Ġ3 60
ass uming
10 84
10 92
10 63
St ripe
pro blem
pro filer
pro blems
get Index
get Typed
get Min
get remoteaddr
run Command
run Participant
ĠW AN
11 19
11 15
11 27
Ġv kone
Ġe limin
Ġe valJS
ĠF S
ĠF ont
ĠF OR
Pro blems
str ong
12 32
12 74
12 98
12 41
12 181
Ġapp h
Ġapp ender
ĠSt ory
ĠSt eve
ĠSt andalone
13 11
13 26
13 46
13 20
14 33
Re play
22 68
App les
ĠE ss
ĠE lement
ĠE SCAPE
ere ly
ĠN L
ĠN ames
ĠN arrative
:: *)(
gr ant
Ġres erve
De blend
17 50
17 23
Ġtest bed
lib ev
18 00
18 15
18 76
ard own
ĠL anguage
iv ing
read thedocs
04 02
yp es
Ġim mutable
ĠO UT
16 36
55 17
ĠJ ar
ĠJ un
ĠJ son
ĠJ CE
Ġ4 45
Ġ4 096
09 1
09 24
Ġj pl
Ġj ersey
Ġj pg
Ġ< -
Ġ< ->
Ġ< <<<<
view ed
06 7
RO N
ui ce
ĠB ee
ĠB uilt
ĠB AD
ĠB IG
ĠB SD
ĠB ATCH
Filter ing
() '
ĠTi FastDev
ition s
Abstract Filter
Abstract Job
Abstract Step
ĠH P
ĠH ortonworks
ER ATION
ĠU til
ĠU DF
39 98
== =
28 17
IN CT
Method s
Ġset ter
ans ed
29 83
29 700
db ea
25 69
25 63
25 116
serv icere
Ġlog In
Ġlog cat
38 53
Ġun set
Exception Mapper
Ġi adt
ĠG ate
ĠG uid
ĠG elman
create Children
create SQLException
create NewProject
create Navigation
56 35
eb a
eb uild
ĠIn bound
ĠIn Memory
cl r
test App
test Butler
** /
07 6
Test Stub
out er
loc ations
": -
Message ID
Message And
Message Sequence
invoke ERKSt
Ġval u
Ġ{{ .
ST INCT
FO NT
pen ates
log out
log message
Ġget ter
ĠEx amine
ĠX A
ĠX ml
ĠX SL
load Local
do ck
do uble
do xygen
do Parse
ref actor
20 59
ix ty
79 170
Ġout standing
ĠRe le
ĠRe ferences
ach ers
fo obar
DE CI
DE ntities
fin ing
Ġ+ '
53 2
add Content
add Component
build Id
Ġfunction ing
arch ives
201 30
201 304
201 301
ĠPro d
ĠPro posed
ĠPro filing
Ġiss ued
pm ml
Ġno va
dex er
ron tend
Default Servlet
30 24
ĠCon st
ib ling
Ġ18 0
Ġ18 133
Ġ5 4
Ġ5 24
Ġar tic
Ġar meabi
ak a
76 1
ĠV ary
Ġdis mis
Ġdis ables
Ġdis appeared
Lo ading
AR ED
Class Code
88 0
88 2
Ġpre pared
03 23
Ġdirect ed
Ġ16 28
sc atter
Ġincl usion
user report
BU TT
are IsolatorProcess
Ġloc ale
Ġloc ators
Ġdeploy able
Ġed ges
set Visible
Ġexist ent
Context ClassLoader
Ġwr apping
LE AN
Ġcommand line
Ġcommand Bar
node v
data S
data Id
data Loader
05 23
Module Name
Ġposition ed
Container Main
Container Job
Col Name
ĠQ SW
Stream Deployer
Stream Reader
Connection Pool
Ġsub task
ĠApp C
Ġint ention
Ġint egers
execute Internal
execute ServiceRequest
equ al
Ġ6 00
Rep lica
ese lect
open ing
Dispatch ing
Ġtrans itive
Ġinter polation
Http Cached
Ġ2014 0903
AT IVE
Ġrecover ing
Ġlook ups
SA BLED
Data Button
sh all
Ġvi deos
Sc atter
Sc enario
gistr ar
ampl er
âĢ ¨
âĢ ľ
current Activity
vert heless
ĠOpen stack
Path Builder
job Name
job Execution
Ġdifferent iate
Deploy ed
ĠCont acts
ĠCont inue
ĠFile Sink
RE MO
RE GI
mat ure
Ġaccess ors
Content Assist
For ce
For Build
Ġconnect s
Resource Exception
Resource Manager
Ġoper ate
Ġdist ribut
Ġtho usands
Framework ReregistersFirst
Web App
url Session
Ġstr uctured
Ġread ability
Not ifier
Not Executable
(" %
(" /
Wr ap
Ġmis c
97 0
ĠK rughoff
ĠK afka
To File
Ġac quire
Ġquery Key
opens sl
filter Name
text Field
ĠĠĠĠĠĠĠĠĠĠĠĠĠĠĠĠĠĠĠĠĠĠĠĠĠĠĠĠĠĠĠĠĠĠĠĠĠĠĠĠĠĠĠĠĠĠĠĠĠĠĠĠĠĠĠĠĠĠĠĠĠĠĠĠ ĠĠĠĠĠĠĠĠĠĠĠĠĠĠĠĠĠĠĠ
En umer
sun g
ĠSc rum
Ġright Button
call site
tests ources
module name
Ġgr ant
Ġ& ,
Item Service
200 4
200 7
model fit
Java DSL
mod ify
ĠY ES
cle ansed
aut om
aut owire
click ed
win bank
ĠCh anges
ĠCh inese
Ġtyp o
Ġdisc our
Value IfNecessary
Ġconvert s
Ġbehavi ors
Ġcl ash
Index Migr
Ġrow title
check Widget
dis pose
2014 5648
Ġtim ers
ĠAs ked
Ġ30 292
Ġ30 293
files et
Definition Resource
Trans acted
AL ERT
Ġstd Class
co ffee
Ġroot Win
ĠData Cat
ĠUn iform
73 227
Do RequestResponse
Ġ26 128
Ġexp ired
CT YPE
95 46
Int el
ffect ed
ĠModule Registry
source path
source Cat
Ġeas iest
print f
Store Exception
Ġrout ine
NS Invalid
sql ci
ĠDo ing
OR S
Ġthink s
Ġconf use
Slave Lost
AN CE
AN NOT
ZooKeeper Connection
ĠPre vent
ĠPre fer
ĠPre pare
handler IFv
ider Height
SDK Entity
Ġpost gresql
Change RootFilesystem
Unit Tests
git ignore
ĠImplement ed
Queue Store
fd fb
Ġcho ices
Ġtri angle
comp any
direct ories
OO D
ĠTr ac
des cribed
Ġmap View
Ġ276 29
apro j
Check box
Check pointing
Ġstandard ize
Ġmeasure d
ĠCo add
Ġpresent s
report ing
report Error
Ġ) ]
ĠPer f
ross ie
Ġbo ilerplate
ĠInt roduce
Ġ\ [
Ġ57 90
ĠDeploy ed
XML Parser
Ġrefer red
00000001 85
ĠAP TANA
101 640
table combo
register For
bl ank
bl itt
Ġ139 47
ĠString s
Version UID
Reconc iliation
Valid Rows
Tool box
Ġupload s
Ġbin ning
Ġ244 59
Ġ244 88
ĠDQ Portal
Ġ322 48
Ġ322 54
Instance AlreadyExistsException
md m
Ġform ula
SU P
SU CCESS
fe el
lat er
inst ances
Ġ157 04
Ġ312 18
Ġ547 3
Ġmark s
Ġmark et
Ġextr action
tim ob
of fer
Ġ262 15
CH AIN
Master Info
Ġ56 473
native Path
Ġdecl ine
Ġbit map
ĠStream Plugin
Fl ag
initial ized
Ġnice ly
Ġpublish er
sim s
oper ations
prot ected
Ġkeyboard Toolbar
ĠAPP LICATION
Ġ255 65
Ġ255 85
Ġ255 90
Ġ274 10
Ġ274 39
Pattern Check
Ġ257 69
UR CE
Sync Tool
jax p
117 3828
117 3627
ĠRem o
Ġep ics
Generic ObjectPool
Ġprincipal s
Ġcomput ers
Progress Indicator
Maven Pom
render Page
ĠAccept ed
ĠDocument Viewer
ĠMES SAGE
uc i
314 2429
ĠQuery ing
item id
Ġfinal ized
Scheduler Test
twitter search
authentic ators
Ġgu ava
Ġgu ard
jni lib
ĠDocker file
ĠAd apt
Ġhdfs jdbc
INST ALL
Ġĉ ĠĠĠĠĠĠĠĠĠ
button Pressed
Ġemail Dialog
Ġsync ing
Changed File
ĠAg greg
duct or
355 2
ĠDeployment Status
ĠCloud Push
CON CURRENT
has i
Talend DataSource
ĠCF Network
Ġfetch es
SSL HandshakeException
Header View
Ġq ana
Ġq proc
Ġdev kit
ĠNeed s
Ġdefin itely
ĠStack trace
317 2430
ĠPar sing
Ġfilesystem s
Date Picker
rep licated
Ġserial VersionUID
ĠIs rTask
ĠArch itecture
476 88
Ġincre ases
Plan AwareInterceptor
Options Menu
ĠActivity Indicator
ĠQu eries
ĠPack ages
perform Finish
ĠLO E
Dist ribution
Lazy Loaded
Lazy Initializer
Ġsequ ential
Background Thread
ĠInitial ly
resolve ValueIfNecessary
configuration s
Man y
Man ual
Active Part
hdfs jdbc
Ġmock ups
ĠPo C
Ġtell ing
upload ed
Ġcp lot
Ġbus y
ĠCall s
ĠCall back
ĠPart ition
ĠFix ing
Ġadministr ative
Ass oc
Ġincons ist
CO LUMN
Db Audit
ĠRFC s
Ġundeploy ing
Find Bar
ha ul
Fire fox
Ġtransl ated
ADM IN
AA AA
DR P
design er
Ġcenter ed
Mask edImage
pop over
pop MessageAnd
Ġmajor ity
Ġaltern atives
pol ated
implement ation
ĠOption al
ĠBoot Loader
Ġgraph ical
ĠInterface Impl
spect ion
ĠSingle FrameMeasurementTask
ĠCH AR
Exposure Id
ĠMore over
Ġhold s
Ġperiod s
Coadd Task
Ġdeleg ates
ProcessBase EE
correct ed
Ġingest ion
Ġcombin ations
ĠConfigure d
Ġinher ited
tdq portal
Def Test
ĠValid ate
Ġmo cha
Ġcollect ing
Bl uetooth
Mis c
drop box
Ġsuper user
Ġrebuild ing
Extract NotExecutable
Ġannot ated
Ġder by
ĠDem on
1334 1786
Trigger Reason
ĠLI B
âĢĿ ,
Record Matching
obj enesis
erial ization
Ġmatter s
optim izer
optim istic
AIN ER
Ġreopen ed
ĠHand le
Shutdown Framework
cy cles
Ġhint s
Ġreproduc ing
Ġdetermin es
Ġdetermin ing
ĠRESULT S
616 16
ĠComponent s
Ġ---------------------------------------------------------------- --------
******************************** ************
ĠKe ys
Ġcoadd ition
ĠRec om
ĠRec ord
forms lib
Ġswiml anes
wp sdk
Ġcd h
Ġgrow s
Ġphot ometric
ĠDisplay ed
ĠFY I
ĠEX CEPTION
ĠNetwork Manager
PID IT
ĠSuper Task
Ġcost s
ĠIgn ore
Ġtwe ets
Ġlongitude Delta
Compare Action
ĠPattern s
Ġsignificant ly
luc ent
Ġseman tic
touch Enabled
ĠPerform ing
Da emon
pg me
Ġ---------------- -
Ġcur r
ĠRel aunch
4686 38
201303 20145648
3333 33
Ġutili ze
Cert PathBuilder
Me eting
built ins
ĠAug ust
met aproj
decor ator
ĠUsername Token
Ġsl ashes
Ġfac ility
Ġ+---------------- ---+----------------
Ġaccur ately
Ġband width
indic ator
forward ing
ĠProt obuf
Ġess ential
Ġalphabet ically
Bal ancer
ĠRob ert
Ġefficient ly
Intro duction
psf ex
Cr ash
PAR AM
your site
Ġreli ably
Ġarri ved
Ġaccom mod
Ġlatitude Delta
Ġexperi encing
Ġfamili es
Ġ================================================================= =====
Hierarchical DRF
Ġ---------- -
Ġfootprint s
Ġinspect ion
Ġreve aled
Ġreject ion
ĠWatch Kit
trust y
Ġindent ed
Ġindent ation
ĠActiv ities
ĠMeasure ment
Ġdescript ors
ĠDiscus sions
Cgroups Cpush
Ġsemicol ons
Cho ice
Est imator
Ġ................ ........
subscription Test
STR Y
STR ING
Ġdiscard ed
Ġincorpor ate
Ġguarant eed
publisher name
rim ary
Ġind ices
ĠAR CH
ĠKill ing
CONT AINER
Ġextens ible
Under stand
Ġhon ored
ĠMigr ation
GH S
ĠIdent ify
Ġhsc Pipe
Ġasciid oc
Ġasciid octor
Ġ********************************* ********************************************
Ġvary ing
Ġjax b
2012101 3142429
PAS S
Rect angle
sm fd
Ġmaterial s
Ġsty leguide
Delet ed
\] }}
Ġult imately
styles heet
ĠCgroups AnyHierarchyWith
Require ments
visual ization
she lf
vec Lib
Ġcomple ting
ĠUns ubscribe
Ġrough ly
HttpServer Connection
ZooKeeperModule MetadataRepository
MuleArtifact Factory
Ġnegot iated
Ġmath jax
ĠRen at
SourceViewer Configuration
----------+ ----------+
Mut able
cer pt
ham crest
mv cc
tok ens
Ġbubble Parent
Ġcomm as
ĠDAT A
ĠFits Read
1332 15210
ĠApprox imate
deprec ated
ĠAuthenticator Process
ExtractMetaData Utils
ĠLIST EN
PtIn Box
DIS PATCH
cru cible
univer sal
Ġprom ote
Ġ"../ .."
getElement ById
anger ous
1370 5955
ContainerModule Redeploy
Decl ared
ĠClassAd s
Ġfundament al
Ġbread cr
Ġinvok es
exceptionPre process
ĠElli ot
PLU GIN
Sym bolic
rell a
Ġcred it
ĠCy ber
Ġlapt op
2207 36
3907 49
Ġplugg able
Partic ipate
ĠAssum ptions
Calendart estActivity
HAV IOR
Mid Point
NOR MAL
NOO Kcolor
TARG ET
sump at
smt p
Ġbelon ging
osgib undle
rizz ly
ĠPRI MARY
ĠMiddle ware
getTyped Value
runParticipant s
ĠBIG INT
dbea uregard
servicere gistry
loadLocal Provisioning
DECI MAL
DefaultServlet ModuleManager
BUTT ON
REGI STRY
autowire Constructor
IndexMigr ator
ĠUniform Interface
NSInvalid ArgumentException
sqlci pher
ANNOT ATION
described As
1173828 700
1173627 700
DbAudit Impl
popMessageAnd Send
13341786 07
Ġ+-------------------+---------------- -+
CgroupsCpush areIsolatorProcess
Ġ***************************************************************************** ***
133215210 9312
13705955 79170
ContainerModuleRedeploy er
! '
" {
" </
" /"
( ../../
* ),
* >(
+ "
. __
. ),
/ ).
/ ...
/ ${
0 23
0 53
0 31
3 366
4 000
5 462
6 51
6 54
6 52
7 11
7 83
8 14
8 19
8 38
8 53
8 567
9 11
9 22
9 57
9 64
9 87
9 81
; "
> ()
A v
A WT
B AD
C raw
C CS
C louds
C alibration
C ircle
C ipher
D p
D epend
E s
E St
F ig
F ac
F aster
F unc
F LUX
G F
G u
G z
G PS
G LIB
G alaxy
G arbage
H ive
H EN
H KEY
I CAL
I LITY
J Y
J TreeMap
L A
L w
L com
L arge
L ayer
M ix
O h
O w
O IN
P P
P NS
P ublic
P eer
R SS
R ecycle
S N
S a
S ort
S hot
S IP
S ymbol
S afari
T M
T it
T ch
T id
T ASK
T weet
U SE
V W
V y
V oid
V eg
V IDE
V ertex
W ay
W elcome
X i
X y
X aml
Y G
Z l
Z one
\ (
] #
] +
a ee
a udit
b ob
b ill
b ff
b ee
c de
c ac
c dd
c ame
c oco
c ending
c arb
c TalendJob
d est
d uring
d cd
e ec
f db
f ringe
f rontend
g est
g yp
g son
g ogo
h s
h il
h us
h ard
h row
i w
j os
j ml
j ak
k es
k rb
l v
l z
l port
l bl
l ru
m ers
m flow
m apped
m agento
m hus
n a
n y
n ery
n eg
n othing
n umeric
p n
p ause
p Info
p eg
p uppet
r m
r ate
r ac
s ch
s est
s ort
s kins
s lot
s ensitive
t ally
t ls
t iny
t amas
u ary
v an
w rong
w control
x D
x jc
y b
y tes
} </
} ">
} \{
× Ļ
Ġ 000
Ġ ki
Ġ uid
Ġ umb
Ġ 999
Ġ 554
er ro
er ting
er ender
in f
in nery
Ġt ss
Ġt amas
Ġt RecordMatching
on Message
at o
at able
at ient
es pr
Ġa a
Ġa w
Ġa pt
Ġa app
Ġa xis
he v
he ld
he ets
he aders
re v
re ens
re gression
re verse
re validator
Ġs ed
Ġs ap
Ġs ph
Ġs igning
Ġs alesforce
Ġs ynonym
Ġc m
Ġc w
Ġc am
Ġc gr
Ġc amp
Ġc alibr
is ect
it ting
it izen
ro t
ro cks
Ġf f
Ġf light
Ġf iling
Ġf acing
Ġf ringe
al f
al ar
al tern
al ong
Ġw er
Ġw it
Ġw ise
Ġw asting
Ġw control
Ġto tally
av ily
de pth
de epSourceId
Ġb attLevel
Ġb isect
Ġp k
Ġp il
Ġp red
Ġp asting
ce a
Ġin ch
Ġin vent
Ġin tr
Ġin jected
Ġin efficient
un ce
un supported
as d
as y
li as
li ers
et ext
pp rice
lo ut
lo ok
ut ex
Ġm at
Ġm ass
Ġm ys
Ġm icro
Ġm alloc
Ġm erely
ul ates
Ġn l
Ġn r
st on
st lport
Ġo mitted
am define
am yers
Ġan alog
Ġd ash
Ġre ver
Ġre nd
Ġre work
Ġre built
ur a
ĠI I
ĠI MO
ĠT er
ĠT oo
ĠT idy
ho od
ĠS un
ĠS ur
ĠS ol
ĠS ources
ĠS uch
ĠS equence
ĠS onar
ad vance
id able
id iom
est ions
Ġh ub
Ġh ip
Ġh sql
Ġ1 01
Ġ1 11
Ġ1 16
Ġ1 77
Ġ1 280
ex pr
ex clusion
00 58
Ġfor ms
Ġfor got
ver al
ab is
um Py
Ġ2 06
Ġ2 08
Ġ2 39
Ġ2 87
Ġ2 462
Ġ( ???)
ĠA D
ĠA udio
ĠA sc
ĠA Net
ĠA DG
Ġcon ference
pl ausible
ĠC he
ĠC orrect
ĠC oding
ĠC auses
ĠC erro
ig ma
em otion
Ġst m
Ġst s
Ġst ated
and as
vi e
Ġde als
Ġde activate
Ġr atio
up g
ĠR aw
ĠR econ
ĠR EC
ĠR TL
Ġcom pen
qu ate
qu arters
Ġl Al
Ġl ua
Ġl abeled
el is
Ġ' %
Ġ' |
Ġ' ***
able Editor
ri er
ri que
Ex it
Ex cept
Ex plore
ĠP K
ĠP otential
ĠP PC
ĠP HD
ĠP sfs
Ġex poses
pr act
Con cept
Con dition
Ġal arm
In Container
In Interceptor
In Maven
// /
ĠD C
ĠD i
ĠD SQL
ĠM ult
ĠM ail
ĠM PI
ĠM etrics
ĠM ASTER
ĠM ariaDB
rom ote
Ġ3 07
Ġ3 96
Ġ3 209
Ġ3 486
Ġas serting
10 38
10 64
10 86
Ġlo an
Ġlo sing
Ġlo ose
Ġlo ses
St o
St mt
St AX
pro vide
ob tain
ob fusc
dd a
get Class
get Data
get Time
get Component
get Response
get All
get Dictionary
run Children
ĠW ho
ĠW iki
end a
end l
end ir
11 99
11 59
11 53
11 30
11 62
11 97
11 78
11 90
ind ers
ang les
per test
per cent
fa e
Ġv endor
Ġe val
Ġe gg
Ġe viction
ĠF k
ĠF actory
ĠF UNCTION
Pro filer
12 39
12 56
12 30
12 49
12 77
con ds
form idable
ub ula
int cal
ĠSt opping
UI TableView
13 50
13 16
13 19
14 14
14 50
14 56
Re pl
Re gression
Re implement
low er
22 99
22 86
App Main
ĠE m
ĠE ND
ĠE mpty
ĠE igen
ĠN or
ĠN etty
ĠN agios
ĠN umPy
:: *)
ry an
Ġdo ub
De velopment
17 00
17 277
Ġtest case
lib stdc
lib backtrace
18 47
18 46
18 64
18 40
ard ing
Ġsc oped
ĠL if
ĠL ater
ĠL ik
04 1
ĠO U
ĠO rient
16 50
55 50
55 48
55 59
ĠJ ames
ĠJ OIN
ĠJ ubula
Ġ: (
Ġfile d
Ġfile names
Ġ4 21
ace ful
Ġj q
ok u
ok er
23 00
23 26
23 21
23 488
ĠB ig
ĠB ind
ĠB ear
ĠB OO
Ġch ains
ĠTi Context
26 55
26 99
26 1815
Ġproject We
08 1
Work ing
Work around
Abstract Se
Abstract Button
Abstract Theme
Abstract EditPart
Abstract SpagoBI
Abstract ProxyManager
Abstract FlowConstruct
Abstract Tracked
Abstract Refreshable
ĠH H
ĠH Z
ĠH AL
ĠH AVE
15 01
15 74
ĠU PID
ĠU nique
Ġerror When
28 10
28 16
28 26
Event To
27 27
Ġjava c
Method Value
Method SecurityInterceptor
Ġset On
let ter
ype Util
0000 0
24 502
24 561
Ġy aml
Th reshold
38 93
Ġun t
Ġun ified
Ġun register
Ġun limited
Ġun reachable
Ġun satisfied
Ġi ph
Application Deployer
ĠG eolocation
ĠG LOG
ĠG adget
create Build
create Slider
create AttributedString
eb bc
ĠIn frastructure
ĠIn fileMerger
test Is
test Db
Ġconfig urator
58 47
07 00
07 17
07 188
07 0004
Ġtr ad
Test Watcher
Ġpl ayer
02 00
tr aces
ight s
Message Publishing
pon der
Ġsp e
Ġsp are
Ġsp acing
ann ers
Ġ{{ \-
ST ENT
ST SClient
Ġdep art
Ġcode The
36 1
36 48
36 37
36 69
36 81
pen rique
Build Plan
Ġli ves
cc a
cc cb
ĠX Code
ĠX rootd
do Click
do Connect
do Fetch
process Internal
process Properties
20 52
59 76
59 449
Ġout liers
Ġmodule The
Ti Thread
Ti MapView
Ti TableViewRow
DE S
fin ement
List box
List Import
Ġ+ ++
Com bin
Res erve
Res pInfo
Res ponder
add JsonEscapedString
build And
Ġprocess File
Ġatt ack
201 302
ana x
Un ify
64 32
64 000
Ġ> &)
Ġno arch
86 27
ens ed
ens ive
ĠĠĠĠĠĠĠĠĠĠĠĠĠĠĠĠĠĠĠĠĠĠĠĠĠĠĠĠĠĠĠĠ ĠĠĠĠĠĠĠĠĠĠĠ
ates oft
Default Button
Default Lettuce
Default InterceptorChain
Default ProjectBuilder
Default Visual
Default Archive
37 77
37 83
Titanium Release
Thread Factory
... ]
... ";
Ġ18 112
ML T
ML ayout
Ġ5 17
Ġ5 450
AS C
Action Handler
Action Component
Ġar ises
Ġar che
(' /
(' ####
ak ed
android Jar
Native Stack
Ġback ward
Ġme g
Ġfiles When
cont acts
Ġhe artbeat
Ġhe avily
Ġ! ==
Ġ@ -
pos itory
AC HE
Bean Recipe
Bean Deserializer
Chain ed
Chain AwareInterceptor
Chain ExecutionManagerImpl
ear s
ear ly
ear ched
Ġview COS
Service Discovery
Ġ16 9
Ġ16 18
Ġ16 330
Ġrequest ing
sc reenshot
Ġ10 5
enc oding
Main Support
set Model
set Items
Context Builder
af b
af d
Ġover ly
Ġover scan
Ġdes cend
Ġ// $
Ġlib swt
node Id
66 31
Ġtab bed
Ġav ail
Ġnode Type
Ġ23 57
EN SE
Module Request
Module Tests
Ġpart ies
Ġpart ner
Container Base
Container EEEE
Create Command
ĠiOS Builder
registry Key
Config urable
Col umns
Connection Catalog
Ġsub chunk
ĠApp Kit
ree Walk
qserv Dev
execute Run
equ iv
Proxy Item
Ġport Type
Ġsh orter
Ġsh ipped
Ġsh apes
Ġhand s
Ġrepro duces
File Source
File OutputStream
Dispatch Message
Ġinter im
Ġobject AtIndex
Http Connector
Http Api
part s
part icipants
Ġtable t
ĠDe activated
ĠDe epSource
Ġid le
Data Set
ĠAl gorithm
87 44
Android SimulatorLaunchConfigurationDelegate
ide ally
Ġem ulation
ĠXML HttpRequest
Job Manager
Job LaunchingMessageHandler
Ġcons ist
Ġcons ists
\\ ",
And Expression
And Offer
Command Handler
oo se
Util Impl
Ġcomp act
Tr aversal
77 17
ĠFor um
ĠFor bidden
cs j
Ġvalid ations
62 17
ĠIN ST
ĠIN SERT
ĠCont act
ĠCont ains
000000 2563
Unknown Element
Configuration MuleArtifactFactory
On Timeout
For eman
For Atom
Resource Action
Resource Delta
42 02
Ġrest ful
ization Model
Document BuilderImpl
Ġdist orted
Web Application
Web Service
Web ApplicationContext
common js
deploy ing
deploy StreamModule
Ġread out
Bundle Load
Project Plugin
97 2
Library Support
ĠK roll
update Value
admin s
Ġdb serv
ĠCom pare
Ġcontext id
inc ub
index er
++ ,
++ ){
service locator
Ġinclude InContainer
GA BR
Ġinv olving
Ġinv ocations
ĠSc ala
Ġoccur ring
Ġoccur ren
Ġx args
access ible
Ġweb app
Ġweb page
Ġgr ails
sub title
Worker Context
Ġsection Veg
Ġpoint ed
ĠAn vil
200 448
ĠAtt ach
Ar tic
ĠMobile SDK
ĠMobile Usage
98 50
98 47
Ġ13 291
Java c
Java Builder
ĠY OU
[...]
