{"<s>":0,"<pad>":1,"</s>":2,"<unk>":3,"<mask>":4,"!":5,"\"":6,"#":7,"$":8,"%":9,"&":10,"'":11,"(":12,")":13,"*":14,"+":15,",":16,"-":17,".":18,"/":19,"0":20,"1":21,"2":22,"3":23,"4":24,"5":25,"6":26,"7":27,"8":28,"9":29,":":30,";":31,"<":32,"=":33,">":34,"?":35,"@":36,"A":37,"B":38,"C":39,"D":40,"E":41,"F":42,"G":43,"H":44,"I":45,"J":46,"K":47,"L":48,"M":49,"N":50,"O":51,"P":52,"Q":53,"R":54,"S":55,"T":56,"U":57,"V":58,"W":59,"X":60,"Y":61,"Z":62,"[":63,"\\":64,"]":65,"^":66,"_":67,"`":68,"a":69,"b":70,"c":71,"d":72,"e":73,"f":74,"g":75,"h":76,"i":77,"j":78,"k":79,"l":80,"m":81,"n":82,"o":83,"p":84,"q":85,"r":86,"s":87,"t":88,"u":89,"v":90,"w":91,"x":92,"y":93,"z":94,"{":95,"|":96,"}":97,"~":98,"¡":99,"¢":100,"£":101,"¤":102,"¥":103,"¦":104,"§":105,"¨":106,"©":107,"ª":108,"«":109,"¬":110,"®":111,"¯":112,"°":113,"±":114,"²":115,"³":116,"´":117,"µ":118,"¶":119,"·":120,"¸":121,"¹":122,"º":123,"»":124,"¼":125,"½":126,"¾":127,"¿":128,"À":129,"Á":130,"Â":131,"Ã":132,"Ä":133,"Å":134,"Æ":135,"Ç":136,"È":137,"É":138,"Ê":139,"Ë":140,"Ì":141,"Í":142,"Î":143,"Ï":144,"Ð":145,"Ñ":146,"Ò":147,"Ó":148,"Ô":149,"Õ":150,"Ö":151,"×":152,"Ø":153,"Ù":154,"Ú":155,"Û":156,"Ü":157,"Ý":158,"Þ":159,"ß":160,"à":161,"á":162,"â":163,"ã":164,"ä":165,"å":166,"æ":167,"ç":168,"è":169,"é":170,"ê":171,"ë":172,"ì":173,"í":174,"î":175,"ï":176,"ð":177,"ñ":178,"ò":179,"ó":180,"ô":181,"õ":182,"ö":183,"÷":184,"ø":185,"ù":186,"ú":187,"û":188,"ü":189,"ý":190,"þ":191,"ÿ":192,"Ā":193,"ā":194,"Ă":195,"ă":196,"Ą":197,"ą":198,"Ć":199,"ć":200,"Ĉ":201,"ĉ":202,"Ċ":203,"ċ":204,"Č":205,"č":206,"Ď":207,"ď":208,"Đ":209,"đ":210,"Ē":211,"ē":212,"Ĕ":213,"ĕ":214,"Ė":215,"ė":216,"Ę":217,"ę":218,"Ě":219,"ě":220,"Ĝ":221,"ĝ":222,"Ğ":223,"ğ":224,"Ġ":225,"ġ":226,"Ģ":227,"ģ":228,"Ĥ":229,"ĥ":230,"Ħ":231,"ħ":232,"Ĩ":233,"ĩ":234,"Ī":235,"ī":236,"Ĭ":237,"ĭ":238,"Į":239,"į":240,"İ":241,"ı":242,"Ĳ":243,"ĳ":244,"Ĵ":245,"ĵ":246,"Ķ":247,"ķ":248,"ĸ":249,"Ĺ":250,"ĺ":251,"Ļ":252,"ļ":253,"Ľ":254,"ľ":255,"Ŀ":256,"ŀ":257,"Ł":258,"ł":259,"Ń":260,"ĠĠ":261,"er":262,"in":263,"Ġt":264,"or":265,"on":266,"at":267,"es":268,"Ġa":269,"he":270,"re":271,"le":272,"Ġs":273,"ĠĠĠĠ":274,"en":275,"Ġc":276,"is":277,"Ġthe":278,"it":279,"ion":280,"ro":281,"an":282,"ing":283,"Ġf":284,"ed":285,"ct":286,"al":287,"ĠĠĠ":288,"Ġw":289,"Ġto":290,"av":291,"de":292,"ar":293,"Ġb":294,"Ġp":295,"ce":296,"Ġin":297,"un":298,"as":299,"li":300,"il":301,"et":302,"pp":303,"lo":304,"ut":305,"Ġm":306,"ent":307,"ul":308,"Ġn":309,"ava":310,"st":311,"Ġo":312,"am":313,"java":314,"ter":315,"Ġan":316,"om":317,"se":318,"--":319,"Ġd":320,"Ġre":321,"ch":322,"ation":323,"Ġor":324,"ĠĠĠĠĠĠĠĠ":325,"ur":326,"ĠI":327,"ĠT":328,"ec":329,"ess":330,"ho":331,"ĠS":332,"ate":333,"ew":334,"ad":335,"Ġth":336,"id":337,"ag":338,"Ġis":339,"ot":340,"Ġand":341,"pt":342,"est":343,"Ġorg":344,"ck":345,"čĊ":346,"us":347,"Ġh":348,"Ġ1":349,"ex":350,"00":351,"ect":352,"Ġfor":353,"ver":354,"im":355,"ab":356,"um":357,"ork":358,"Ġof":359,"Ġ2":360,"ic":361,"Ġ(":362,"ĠA":363,"ode":364,"Ġbe":365,"ve":366,"ist":367,"Ġpro":368,"Ġon":369,"Ġcon":370,"pl":371,"ĠC":372,"ig":373,"ol":374,"em":375,"Ġst":376,"and":377,"ly":378,"Ġ{":379,"Ġat":380,"vi":381,"ith":382,"Ġ\"":383,"age":384,"Ġde":385,"Ġr":386,"ort":387,"up":388,"ile":389,"lip":390,"od":391,"lipse":392,"ĠR":393,"cess":394,"if":395,"ain":396,"ore":397,"Ġcom":398,"01":399,"ap":400,"ult":401,"ow":402,"ers":403,"qu":404,"----":405,"uld":406,"ke":407,"Ġnot":408,"os":409,"ac":410,"Ġl":411,"el":412,"act":413,"Ġ-":414,"Ġ'":415,"Ġg":416,"tt":417,"eclipse":418,"Ġit":419,"able":420,"ild":421,"ri":422,"Ex":423,"ator":424,"Ġwith":425,"hen":426,"Ġ[":427,"lic":428,"ep":429,"ĠP":430,"ay":431,"Ġex":432,"Ġsho":433,"Ġthat":434,"Ġ0":435,"pr":436,"uild":437,"ttp":438,"ment":439,"ack":440,"our":441,"ject":442,"Ġus":443,"ĠĠĠĠĠ":444,"ram":445,"Con":446,"Ġal":447,"ction":448,"ave":449,"In":450,"//":451,"ser":452,"app":453,"art":454,"oc":455,"ĠD":456,"ani":457,"cpp":458,"ĠM":459,"rom":460,"Ġ3":461,"ption":462,"ule":463,"ass":464,"anium":465,"itanium":466,"Ġas":467,"10":468,"Ġlo":469,"ue":470,"St":471,"pro":472,"ob":473,"ework":474,"ramework":475,"dd":476,"op":477,"get":478,"..":479,"ug":480,"Ġ*":481,"tern":482,"run":483,"reate":484,"nd":485,"ame":486,"ĠW":487,"end":488,"ple":489,"Ġshould":490,"11":491,"ud":492,"ind":493,"code":494,"ure":495,");":496,"ang":497,"ler":498,"per":499,"ĠĠĠĠĠĠĠĠĠĠĠĠĠĠĠĠ":500,"for":501,"fa":502,"Ġv":503,"Ġe":504,"Ġfrom":505,"ror":506,"und":507,"ternal":508,"ĠF":509,"iz":510,"Pro":511,"vent":512,"pring":513,"all":514,"ase":515,"ache":516,"ill":517,"str":518,"com":519,"bo":520,"12":521,"ata":522,"Ġthis":523,"Ġwe":524,"Ġ=":525,"ext":526,"con":527,"hod":528,"ethod":529,"form":530,"ub":531,"ory":532,"Ġapp":533,"lass":534,"io":535,"ated":536,"nt":537,"://":538,"int":539,"th":540,"ĠSt":541,"UI":542,"ime":543,"fig":544,"13":545,"14":546,"Re":547,"low":548,"22":549,"roid":550,"core":551,"App":552,"ĠE":553,"ere":554,"ir":555,"ire":556,"ive":557,"internal":558,"Ġwh":559,"ilter":560,"ail":561,"ĠN":562,"spring":563,"Ġare":564,"::":565,"ry":566,"vice":567,"framework":568,"Ġhttp":569,"ecut":570,"Ġcont":571,"Ġ/":572,"ity":573,"50":574,"Ġdo":575,"gr":576,"Ġres":577,"Ġup":578,"De":579,"17":580,"ine":581,"lect":582,"use":583,"fer":584,"Ġtest":585,"essage":586,"lib":587,"lication":588,"indow":589,"upp":590,"ĠTh":591,"18":592,"Im":593,"ard":594,"ĠThe":595,"Ġsc":596,"Cont":597,"odule":598,"--------":599,"Ġse":600,"port":601,"ĠL":602,"sion":603,"fault":604,"iv":605,"ial":606,"upport":607,"read":608,"ception":609,"04":610,"yp":611,"loy":612,"eed":613,"Ġim":614,"Ġcan":615,"Ġwill":616,"Ġle":617,"ĠO":618,"Ġby":619,"16":620,"55":621,"error":622,"nect":623,"og":624,"ĠJ":625,"Ġ:":626,"Ġfile":627,"19":628,"atch":629,"ht":630,"=\"":631,"ource":632,"Ġ4":633,"Ġwhen":634,"udio":635,"Vi":636,"09":637,"Ch":638,"ccess":639,"ace":640,"ener":641,"rent":642,"Ġj":643,"Ġnew":644,"aster":645,"View":646,"Ġ<":647,"aun":648,"springframework":649,"view":650,"org":651,"06":652,"Ġbut":653,"ble":654,"so":655,"ok":656,"Ġadd":657,"23":658,"RO":659,"Ġinst":660,"stract":661,"ui":662,"ĠB":663,"Filter":664,"bstract":665,"Ġif":666,"Ġch":667,"aunch":668,"()":669,"ies":670,"to":671,"Ġ--":672,"js":673,"apache":674,"Ġhave":675,"ĠTi":676,"Ġneed":677,"26":678,"Ġproject":679,"ition":680,"08":681,"idget":682,"ph":683,"Work":684,"Abstract":685,"ĠH":686,"15":687,"ER":688,"ml":689,"ĠU":690,"',":691,"Ġrun":692,"Ġ|":693,"Ġerror":694,"44":695,"39":696,"ces":697,"==":698,"lave":699,"28":700,"IN":701,"ask":702,"Event":703,"27":704,"tic":705,"ream":706,"Ġjava":707,"Method":708,"Ġset":709,"urrent":710,"ĠThis":711,"ules":712,"let":713,"ath":714,"Ġbuild":715,"oke":716,"ome":717,"ype":718,"\",":719,"play":720,"0000":721,"24":722,"iles":723,"ans":724,"):":725,"du":726,"29":727,"ould":728,"Ġ}":729,"db":730,"ual":731,"time":732,"isplay":733,"25":734,"serv":735,"ĠĠĠĠĠĠĠĠĠ":736,"Ġlog":737,"Ġwork":738,"Ġy":739,"ĠčĊ":740,"Th":741,"ument":742,"quest":743,"ating":744,"Impl":745,"Ġuse":746,"ĠTitanium":747,"38":748,"ust":749,"OS":750,"ary":751,"Ġun":752,"cept":753,"Exception":754,"po":755,"Ġ201":756,"Ġser":757,"Ġi":758,"sw":759,"Application":760,"ĠG":761,"create":762,"56":763,"eb":764,"yst":765,"ĠIn":766,"Ġaut":767,"ainer":768,"version":769,"cri":770,"Ser":771,"gist":772,"cl":773,"mo":774,"anag":775,"Ġ#":776,"47":777,"test":778,"Ġuser":779,"over":780,"date":781,"own":782,"pert":783,"ence":784,"Ġconfig":785,"58":786,"ite":787,"voke":788,"**":789,"vel":790,"07":791,"Ġtr":792,"99":793,"heck":794,"ys":795,"Test":796,"}}":797,"out":798,"57":799,"unction":800,"loc":801,"Run":802,"mand":803,"Ġall":804,"Ġdoes":805,"hentic":806,"row":807,"Ġpl":808,"Hand":809,"02":810,"34":811,"pect":812,").":813,"DK":814,"PI":815,"res":816,"one":817,"'t":818,"tr":819,"Ġrep":820,"nection":821,"ll":822,"Ġmaster":823,"\":":824,"celer":825,"apt":826,"gro":827,"itor":828,"lica":829,"min":830,"hed":831,"ff":832,"ord":833,"ight":834,"Message":835,"invoke":836,"celerator":837,"ip":838,"odules":839,"Ġval":840,"pon":841,"ystem":842,"Ġsp":843,"ench":844,"ann":845,"Ġ{{":846,"ST":847,"Ġfol":848,"ich":849,"Ġen":850,"bench":851,"ou":852,"Ġdep":853,"swt":854,"uration":855,"FO":856,"Ġcode":857,"36":858,"pen":859,"Workbench":860,"Build":861,"ative":862,"'s":863,"log":864,"Ġvar":865,"ĠStudio":866,"ant":867,"Ġget":868,"46":869,"http":870,"Ġli":871,"ndroid":872,"cc":873,"ĠEx":874,"red":875,"ĠX":876,"load":877,"ink":878,"do":879,"ROR":880,"ĠĠĉ":881,"process":882,"48":883,"ning":884,"yn":885,"ref":886,"20":887,"59":888,"put":889,"anager":890,"ix":891,"ale":892,"ake":893,"->":894,"esos":895,"Ġsupport":896,"ocument":897,"Ġhas":898,"79":899,"ĠRes":900,"Ġout":901,"ĠRe":902,"Ġusing":903,"ast":904,"ach":905,"lick":906,"Ġmodule":907,"ign":908,"Ti":909,"ber":910,"appcelerator":911,"Ġhttps":912,"fo":913,"DE":914,"fin":915,"Ġwhich":916,"Ġlevel":917,"Ġchang":918,"Us":919,"egr":920,"Ġversion":921,"ance":922,"xd":923,"widget":924,"List":925,"but":926,"Ġ+":927,"Com":928,"ĠSDK":929,"../":930,"53":931,"Res":932,"add":933,"build":934,"ources":935,"Ġslave":936,"plement":937,"ugin":938,"Ġso":939,"xml":940,"Ġfunction":941,"Ġyou":942,"val":943,"Ġprocess":944,"Ġatt":945,"arch":946,"name":947,"irect":948,"201":949,"der":950,"lient":951,"titanium":952,"ms":953,"ana":954,"Un":955,"ecutor":956,"work":957,"ĠĠčĊ":958,"Ġdata":959,"Ġauthentic":960,"ton":961,"ĠPro":962,"Ġresult":963,"ERROR":964,"ns":965,"Ġfail":966,"Ġname":967,"tercept":968,"widgets":969,"Users":970,"php":971,"64":972,"Ġiss":973,"ull":974,"pected":975,"point":976,"ific":977,"pm":978,"eld":979,"clipse":980,"Ġone":981,"rror":982,"ield":983,"Ġho":984,"Ġshow":985,"bject":986,"gistry":987,"isp":988,"Ġ>":989,"alend":990,"Ġno":991,"Ġpos":992,"led":993,"Ġonly":994,"Ġret":995,"ession":996,"ader":997,"Ġlist":998,"86":999,"Ġclass":1000,"dex":1001,"Window":1002,"Ġlike":1003,"32":1004,"Handler":1005,"ens":1006,"ribut":1007,"Ġqu":1008,"ĠĠĠĠĠĠĠĠĠĠĠĠĠĠĠĠĠĠĠĠĠĠĠĠĠĠĠĠĠĠĠĠ":1009,"eps":1010,"ron":1011,"ates":1012,"Default":1013,"Ġwould":1014,"Manager":1015,"37":1016,"ĠRep":1017,"Add":1018,"egration":1019,"Access":1020,"Titanium":1021,"30":1022,"lang":1023,"ĠCon":1024,"ting":1025,"util":1026,"Thread":1027,"ersist":1028,"Ġdefault":1029,"ib":1030,"ean":1031,"ample":1032,"fter":1033,"INFO":1034,"annel":1035,"Ġpropert":1036,"ispatch":1037,"Ġcreate":1038,"Ġinto":1039,"xy":1040,"Ġline":1041,"Eclipse":1042,"Ġcol":1043,"...":1044,"bug":1045,"Ġ18":1046,"Ġstart":1047,"ctual":1048,"ML":1049,"Ġcre":1050,"ference":1051,"Ġcall":1052,"duce":1053,"cket":1054,"ther":1055,"Ġ5":1056,"31":1057,"lowing":1058,"AS":1059,"Ġrec":1060,"Ġreplica":1061,"ĠWe":1062,"ĠResult":1063,"face":1064,"Ġsome":1065,"Action":1066,"ages":1067,"Ġleveldb":1068,"Ġar":1069,"('":1070,"dk":1071,"ring":1072,"Ġstat":1073,"----------------":1074,"py":1075,"hand":1076,"35":1077,"actory":1078,"ES":1079,"ĠĠĠĠĠĠĠ":1080,"ize":1081,"The":1082,"hpp":1083,"no":1084,"leg":1085,"Ġthere":1086,"ialog":1087,"Process":1088,"ak":1089,"Ġsu":1090,"76":1091,"Ġrequ":1092,"sp":1093,"ĠV":1094,"atform":1095,"ss":1096,"ote":1097,"74":1098,"android":1099,"Native":1100,"ux":1101,"rol":1102,"obile":1103,"Ġback":1104,"Ġaction":1105,"Ġme":1106,"ger":1107,"Accessor":1108,"ash":1109,"Ġoption":1110,"Ġfiles":1111,"Ġwas":1112,"Ġdis":1113,"Lo":1114,"cont":1115,"mon":1116,"Ġmore":1117,"runtime":1118,"Ġhe":1119,"Ġ!":1120,"====":1121,"Ġcheck":1122,"auncher":1123,"Ġ@":1124,"ical":1125,"lease":1126,"Ġcurrent":1127,"Ġtype":1128,"pos":1129,"atab":1130,"ĠAndroid":1131,"AC":1132,"49":1133,"aptana":1134,"Ġtask":1135,"AR":1136,"Ġany":1137,"51":1138,"ues":1139,"ude":1140,"Ġevent":1141,"kn":1142,"Class":1143,"empt":1144,"Ġjob":1145,"Ġ$":1146,"MethodAccessor":1147,"empl":1148,"si":1149,"Ġti":1150,"velo":1151,"modules":1152,"unt":1153,"ments":1154,"../../":1155,"ee":1156,"ool":1157,"Ġsim":1158,"({":1159,"Ġmessage":1160,"sing":1161,"ations":1162,"Ġpar":1163,"Bean":1164,"orre":1165,"reflect":1166,"ĠIt":1167,"Ġtests":1168,"terceptor":1169,"__":1170,"88":1171,"Ġpre":1172,"Ġtime":1173,"Display":1174,"ify":1175,"Ġserver":1176,"Chain":1177,"Ġabo":1178,"03":1179,"Listener":1180,"MethodAccessorImpl":1181,"ft":1182,"ear":1183,"Ġsame":1184,"Ġview":1185,"Ġdirect":1186,"ceiv":1187,"Service":1188,"Ġ16":1189,"Ġrequest":1190,"Ġspec":1191,"Ġ});":1192,"sc":1193,"Ġ10":1194,"Ġfollowing":1195,"Ġ15":1196,"ync":1197,"ww":1198,"eat":1199,"Ġgener":1200,"Ġused":1201,"ful":1202,"Ġselect":1203,"Ġper":1204,"ulator":1205,"urn":1206,"vid":1207,"itle":1208,"000":1209,"Ġthen":1210,"Ġke":1211,"enc":1212,"Ġincl":1213,"API":1214,"Ġinstall":1215,"user":1216,"ponent":1217,"ery":1218,"BU":1219,"are":1220,"ian":1221,"ost":1222,"Ġwin":1223,"roup":1224,"ox":1225,"Ġissue":1226,"ecute":1227,"oth":1228,"Ġloc":1229,"21":1230,"itory":1231,"Ġdeploy":1232,"Ġalso":1233,"cript":1234,"uct":1235,"Main":1236,"ackage":1237,"ĠĠĠĠĠĠ":1238,"Ġed":1239,"Widget":1240,"mesos":1241,"set":1242,"Inv":1243,"ceived":1244,"back":1245,"iled":1246,"ound":1247,"Executor":1248,"Ġexist":1249,"As":1250,"ON":1251,"Context":1252,"af":1253,"rc":1254,"Ġvalue":1255,"umber":1256,"Ġover":1257,"BUG":1258,"Pl":1259,"Ġsun":1260,"alse":1261,"Ġwr":1262,"orrect":1263,"54":1264,"LE":1265,"Ġro":1266,"aw":1267,"Ġdes":1268,"not":1269,"Ġimplement":1270,"Ġcommand":1271,"84":1272,"ql":1273,"lover":1274,"ourse":1275,"be":1276,"Ġ//":1277,"Ġlib":1278,"Ġupd":1279,"node":1280,"66":1281,"alys":1282,"Ġstatus":1283,"33":1284,"integration":1285,"Ġrequire":1286,"Ġtab":1287,"boo":1288,"ctiv":1289,"Ġav":1290,"Ġend":1291,"local":1292,"Ġreport":1293,"data":1294,"05":1295,"Ġconfiguration":1296,"lassian":1297,"mit":1298,"atabase":1299,"Ġframework":1300,"Ġafter":1301,"Ġ19":1302,"ocation":1303,"Val":1304,"group":1305,"Ġnode":1306,"),":1307,"lob":1308,"(*":1309,"Ġsee":1310,"sst":1311,"amboo":1312,"ugh":1313,"Ġfield":1314,"ices":1315,"Ġother":1316,"atlassian":1317,"Ġ23":1318,"alysis":1319,"Ġdocument":1320,"ailed":1321,"Ġstream":1322,"DEBUG":1323,"indows":1324,"Ġag":1325,"emplate":1326,"ĠExpected":1327,"Factory":1328,"Ġopen":1329,"Ġremo":1330,"Ġdisplay":1331,"rary":1332,"ange":1333,"EN":1334,"ground":1335,"ifi":1336,"gis":1337,"Ġmethod":1338,"Module":1339,"Ġdet":1340,"Ġscre":1341,"(*):":1342,"ĠPersist":1343,"Ġposition":1344,"Up":1345,"Deleg":1346,"dir":1347,"Ġthem":1348,"odel":1349,"Ġconnection":1350,"Ġgo":1351,"Ġpart":1352,"</":1353,"ax":1354,"mule":1355,"ov":1356,"Ġ7":1357,"atal":1358,"izard":1359,"Container":1360,"action":1361,"67":1362,"talend":1363,"Create":1364,"ause":1365,"finition":1366,"ĠJS":1367,"ĠiOS":1368,"Task":1369,"registry":1370,"known":1371,"Config":1372,"ached":1373,"hem":1374,"Ġpath":1375,"ĠRun":1376,"Col":1377,"ĠQ":1378,"Stream":1379,"ĠĠĉĉ":1380,"Connection":1381,"52":1382,"Ġsub":1383,"Ke":1384,"gister":1385,"ĠApp":1386,"Ġabout":1387,"LI":1388,"Ġcontent":1389,"Ġbutton":1390,"aus":1391,"alled":1392,"Ġint":1393,"til":1394,"Ġpage":1395,"ĠActual":1396,"Ġupdate":1397,"FilterChain":1398,"ĠAPI":1399,"abel":1400,"irst":1401,"Ġmake":1402,"web":1403,"ree":1404,"format":1405,"TP":1406,"qserv":1407,"execute":1408,"ge":1409,"par":1410,"();":1411,"les":1412,"handle":1413,"Ġ8":1414,"ĠIf":1415,"eploy":1416,"equ":1417,"Ġ6":1418,"Ġ08":1419,"adata":1420,"Rep":1421,"45":1422,"ateg":1423,"ecution":1424,"lock":1425,"Proxy":1426,"send":1427,"ese":1428,"Ġport":1429,"Ġandroid":1430,"Ġlaunch":1431,"wit":1432,"Ġcould":1433,"Ġsh":1434,"etadata":1435,"ĠAdd":1436,"open":1437,"ĠUI":1438,"ĠSAS":1439,"umn":1440,"ository":1441,"ĠSASL":1442,"Error":1443,"ove":1444,"dmin":1445,"Ġexception":1446,"Interceptor":1447,"ĠSteps":1448,"ased":1449,"ading":1450,"Ġdif":1451,"Ġhand":1452,"Ġcontainer":1453,"Ġrepro":1454,"ems":1455,"43":1456,"TR":1457,"Channel":1458,"File":1459,"file":1460,"OT":1461,"bin":1462,"we":1463,"Dispatch":1464,"ĠCreate":1465,"Ġtrans":1466,"ten":1467,"itial":1468,"ulti":1469,"board":1470,"ng":1471,"server":1472,"Ġsystem":1473,"blem":1474,"Ġcontain":1475,"Ġass":1476,"undle":1477,"lean":1478,"AM":1479,"nable":1480,"Ġinter":1481,"Ġthey":1482,"Ġnam":1483,"Ġobject":1484,"izer":1485,"main":1486,"plet":1487,"89":1488,"****":1489,"roll":1490,"lection":1491,"ailable":1492,"Http":1493,"ish":1494,"Ġable":1495,"hedul":1496,"Ġproperty":1497,"Ġmay":1498,"Ġnpm":1499,"Ġdirectory":1500,"Ġ2014":1501,"EclipseApp":1502,"AT":1503,"Processor":1504,"Ġchange":1505,"arget":1506,"ection":1507,"inox":1508,"eper":1509,"Ġappear":1510,"Ġrecover":1511,"part":1512,"very":1513,"Ġclick":1514,"Ġtext":1515,"Id":1516,"jface":1517,"ount":1518,"Ġtable":1519,"equinox":1520,"ĠDe":1521,"fore":1522,"stall":1523,"Ġallow":1524,"ĠSer":1525,"Ġreturn":1526,"amet":1527,"fs":1528,"Ġlook":1529,"When":1530,"Ġnumber":1531,"SA":1532,"ark":1533,"Ġdevice":1534,"ustom":1535,"ade":1536,"Ġid":1537,"formation":1538,"ead":1539,"net":1540,"ctivity":1541,"cker":1542,"Data":1543,"sh":1544,"Ġent":1545,"Ġ_":1546,"ĠAl":1547,"Ġvi":1548,"thon":1549,"Ġimage":1550,"Table":1551,"ithub":1552,"Serv":1553,"ier":1554,"Ġservice":1555,"Par":1556,"Ġcase":1557,"ress":1558,"ility":1559,"This":1560,"Invocation":1561,"Sc":1562,"ice":1563,"aging":1564,"doFilter":1565,"AU":1566,"ved":1567,"ĠHT":1568,"gistr":1569,"ID":1570,"\":\"":1571,"Ġdepend":1572,"Ġavailable":1573,"ified":1574,"Ġbet":1575,"ĠReplica":1576,"Request":1577,"npm":1578,"Ġcorrect":1579,"noformat":1580,"87":1581,"Ġbec":1582,"Delegating":1583,"cur":1584,"loud":1585,"022":1586,"Ġplugin":1587,"ym":1588,"Ġexample":1589,"Ġ.":1590,"Ġrunning":1591,"tes":1592,"Ġway":1593,"Ġwhere":1594,"40":1595,"SC":1596,"ampl":1597,"Ġapplication":1598,"sole":1599,"cription":1600,"rd":1601,"Ġmodules":1602,"Ġcomponent":1603,"Ġresources":1604,"ince":1605,"Ġfirst":1606,"Ġreproduce":1607,"ell":1608,"Android":1609,"ally":1610,"ide":1611,"econ":1612,"eature":1613,"âĢ":1614,"space":1615,"pression":1616,"dep":1617,"ld":1618,"ApplicationFilterChain":1619,"Ġjust":1620,"Ġmy":1621,"arn":1622,"Ġcreated":1623,"ging":1624,"config":1625,"Ġund":1626,"amples":1627,"It":1628,"support":1629,"Ġem":1630,"ĠXML":1631,"viron":1632,"jar":1633,"andard":1634,"Ġhow":1635,"heduler":1636,"Job":1637,"hell":1638,"velop":1639,"ert":1640,"ĠError":1641,"Ġdown":1642,"Ġcons":1643,"\\\\":1644,"Ġwhile":1645,"Ed":1646,"start":1647,"apter":1648,"Name":1649,"Ġwindow":1650,"And":1651,"ong":1652,"lete":1653,"Ġfails":1654,"Ġsource":1655,"hot":1656,"ĠWhen":1657,"ccessful":1658,"ĠSource":1659,"ner":1660,"current":1661,"Ġpo":1662,"Ġref":1663,"ics":1664,"ET":1665,"mp":1666,"vert":1667,"Ġscri":1668,"lack":1669,"Ġscript":1670,"Command":1671,"Ġattached":1672,"Ġ\"/":1673,"oo":1674,"ized":1675,"ification":1676,"Util":1677,"mis":1678,"Ġinformation":1679,"Ġcomp":1680,"Tr":1681,"ven":1682,"Ġdiffer":1683,"Ġtry":1684,"Ġfix":1685,"ĠTest":1686,"enu":1687,"Aut":1688,"Ġpass":1689,"lsst":1690,"html":1691,"ina":1692,"Se":1693,"arning":1694,"Ġneeds":1695,"NativeMethodAccessorImpl":1696,"vider":1697,"Ġdoesn":1698,"Ġ22":1699,"Ġtw":1700,"77":1701,"github":1702,"Ġimport":1703,"Builder":1704,"ki":1705,"ogle":1706,"vironment":1707,"IT":1708,"ĠIm":1709,"Servlet":1710,"Ad":1711,"Ġtook":1712,"ierarch":1713,"Ġnow":1714,"odle":1715,"69":1716,"Ġman":1717,"Ġthese":1718,"ĠOpen":1719,"Ġunder":1720,"Launcher":1721,"ĠĠĠĠĠĠĠĠĠĠĠĠĠ":1722,"ĠFor":1723,"Lib":1724,"Pool":1725,"Ġproperties":1726,"cs":1727,"word":1728,"rop":1729,"ribution":1730,"npmjs":1731,"Path":1732,"Ġbeen":1733,"hema":1734,"ling":1735,"Ġ03":1736,"Ġwant":1737,"Ġanalysis":1738,"Ġdialog":1739,"Ġvalid":1740,"ĠXD":1741,"62":1742,"job":1743,"icon":1744,"apper":1745,"asic":1746,"uring":1747,"ĠIN":1748,"Ref":1749,"src":1750,"Ġthan":1751,"\",\"":1752,"Ġdifferent":1753,"home":1754,"vide":1755,"ever":1756,"ĠNo":1757,"ponse":1758,":'":1759,"adapt":1760,"RL":1761,"Deploy":1762,"catal":1763,"Ġcolumn":1764,"adaptor":1765,"We":1766,"hout":1767,"rec":1768,"ĠCont":1769,"bamboo":1770,"gi":1771,"Ġchanges":1772,"arter":1773,"000000":1774,"course":1775,"ences":1776,"SS":1777,"dic":1778,"Ġ01":1779,"ĠFile":1780,"Ġbeing":1781,"ĠSee":1782,"impl":1783,"Ġmem":1784,"\">":1785,"Client":1786,"Ġ9":1787,"Ġfalse":1788,"127":1789,"fined":1790,"ures":1791,"Unknown":1792,"RE":1793,"mat":1794,"Ġaccess":1795,"Ġ**":1796,"Configuration":1797,"catalina":1798,"info":1799,"Ġlink":1800,"party":1801,"fc":1802,"opy":1803,"bound":1804,"Ġinstead":1805,"AP":1806,"Ġeach":1807,"uture":1808,"Content":1809,"Ġkey":1810,"Ġinclud":1811,"Des":1812,"Page":1813,"ous":1814,"amel":1815,"Starter":1816,"ready":1817,"duc":1818,"ingle":1819,"Ġfl":1820,"Viewer":1821,"On":1822,"omet":1823,"ucture":1824,"68":1825,"iler":1826,"Ġtrue":1827,"For":1828,"Ġ20":1829,"line":1830,"ĠMethod":1831,"valid":1832,"Ġtwo":1833,"Loader":1834,"Color":1835,"ĠProject":1836,"ARN":1837,"hing":1838,"clude":1839,"Template":1840,"aven":1841,"host":1842,"stream":1843,"vis":1844,"Ġmulti":1845,"Ġconnect":1846,"actor":1847,"Resource":1848,"Ġour":1849,"plugin":1850,"Ġbytes":1851,"GE":1852,"ony":1853,"ĠAut":1854,"Ġbefore":1855,"event":1856,"rdparty":1857,"Al":1858,"ithout":1859,"idth":1860,"project":1861,"42":1862,"launcher":1863,"Ġrest":1864,"ĠDM":1865,"65":1866,"inux":1867,"========":1868,"Ġbecause":1869,"ization":1870,"Document":1871,"Ġoper":1872,"Ġdist":1873,"Ġproblem":1874,"ails":1875,"Update":1876,"Ġwhat":1877,"Ġtho":1878,"Control":1879,"urrently":1880,"Dialog":1881,"ĠCLI":1882,"Framework":1883,"Ġco":1884,"usr":1885,"ersion":1886,"ocs":1887,"Ġthro":1888,"Ġ00":1889,"Web":1890,"etc":1891,"Ġstill":1892,"Ġreceived":1893,"aps":1894,"Ġocc":1895,"url":1896,"Ġ17":1897,"ferences":1898,"Ġfolder":1899,"Ġenable":1900,"Ġeditor":1901,"common":1902,"oogle":1903,"deploy":1904,"With":1905,"Part":1906,"aa":1907,"Ġstr":1908,"ccessfully":1909,"81":1910,"Ġread":1911,"Ġgroup":1912,"Ġ]":1913,"Ġrel":1914,"ays":1915,"ING":1916,"MES":1917,"Ġinstalled":1918,"Ġaux":1919,"ential":1920,"empting":1921,"ency":1922,"Bundle":1923,"Not":1924,"path":1925,"prove":1926,"Project":1927,"ty":1928,"sert":1929,"EclipseStarter":1930,"sible":1931,"ait":1932,"iOS":1933,"Ġstudio":1934,"Ġresults":1935,"Ġmenu":1936,"Ġstate":1937,"Ġsetting":1938,"QL":1939,"XP":1940,"Str":1941,"');":1942,"(\"":1943,"Ġparamet":1944,"Loc":1945,"Wr":1946,"Ġmis":1947,"97":1948,"debug":1949,"ĠUp":1950,"Sim":1951,"tmp":1952,"Ġexisting":1953,"Library":1954,"ared":1955,"title":1956,"Ġwithout":1957,"Ġdebug":1958,"ically":1959,"Hel":1960,"xf":1961,"ĠK":1962,"update":1963,"aces":1964,"Ġalready":1965,"ible":1966,"ases":1967,"Ġscreen":1968,"ategy":1969,"EclipseAppLauncher":1970,"dispatch":1971,"inter":1972,"admin":1973,"Ġhere":1974,"ira":1975,"sendEvent":1976,"ocket":1977,"Ġpackage":1978,"Adapter":1979,"Object":1980,"UN":1981,"ĠOn":1982,"locator":1983,")[":1984,"Ġdb":1985,"ĠCom":1986,"Ġcontext":1987,"Ġadded":1988,"Ġcurrently":1989,"Ġagain":1990,"To":1991,"ti":1992,"Node":1993,"SST":1994,"Ġthrough":1995,"inc":1996,"Ġfailed":1997,"Ġcomplet":1998,"index":1999,"Ġtop":2000,"lose":2001,"Ġplatform":2002,"ThreadPool":2003,":\\":2004,"Ġac":2005,"Ġnames":2006,"++":2007,"Ġwell":2008,"Ġauthentication":2009,"Ġquery":2010,"Ġbackground":2011,"utton":2012,"Ġdon":2013,"opens":2014,"Type":2015,"Ġk":2016,"Ġorder":2017,"Ġwrite":2018,"filter":2019,"text":2020,"round":2021,"service":2022,"vices":2023,"Ġregistr":2024,"place":2025,"Ġoutput":2026,"ĠĠĠĠĠĠĠĠĠĠĠĠĠĠĠĠĠĠĠĠĠĠĠĠĠĠĠĠĠĠĠĠĠĠĠĠĠĠĠĠĠĠĠĠĠĠĠĠĠĠĠĠĠĠĠĠĠĠĠĠĠĠĠĠ":2027,"DelegatingMethodAccessorImpl":2028,"83":2029,"oop":2030,"essages":2031,"Ġbeh":2032,"veloper":2033,"Ġboth":2034,"Ġmod":2035,"/.":2036,"Ġtitle":2037,"Ġinclude":2038,"An":2039,"Ġicon":2040,"Ġmain":2041,"Ġsuch":2042,"servlet":2043,"wh":2044,"Ġusers":2045,"En":2046,"GA":2047,"Ġfound":2048,"https":2049,"www":2050,"sun":2051,"Ġclient":2052,"Ġinv":2053,"Ġvia":2054,"ĠINFO":2055,"Ġcr":2056,"Ġdatabase":2057,"Ġoff":2058,"\".":2059,"class":2060,"adoop":2061,"api":2062,"roduce":2063,"ĠSc":2064,"Ġright":2065,"Ġits":2066,"Ġbased":2067,"RI":2068,"dirt":2069,"arent":2070,"call":2071,"DefaultAction":2072,"side":2073,"Pre":2074,"osgi":2075,"Windows":2076,"Ġoccur":2077,"mob":2078,"Ġx":2079,"Ġtool":2080,"avi":2081,"ply":2082,"Ġ'/":2083,"tests":2084,"access":2085,"Ġweb":2086,"Ġupdated":2087,"Ġremove":2088,"ilesdk":2089,"module":2090,"Ġthrow":2091,"fl":2092,"top":2093,"Ġgr":2094,"Ġendpoint":2095,"econd":2096,"ThreadPoolExecutor":2097,"Activity":2098,"Ġadmin":2099,"Ġspace":2100,"Ġdocumentation":2101,"mobilesdk":2102,"Group":2103,"Support":2104,"ecover":2105,"umer":2106,"Ġlat":2107,"concurrent":2108,"sub":2109,"Ġindex":2110,"Worker":2111,"Ġworks":2112,"SAGE":2113,"ĠBuild":2114,":/":2115,"Ġ&":2116,"Studio":2117,"Button":2118,"oot":2119,"Ġtesting":2120,"Ġ</":2121,"EventListener":2122,"Ġauthenticate":2123,"Ġfilter":2124,"phone":2125,"ĠReceived":2126,"include":2127,"Ġsection":2128,"ĠJava":2129,"ayout":2130,"string":2131,"âĶ":2132,"Ġhierarch":2133,"etch":2134,"Ġissues":2135,"MESSAGE":2136,"Log":2137,"ĠWindows":2138,"phony":2139,"Ġpoint":2140,"edi":2141,"Ġstring":2142,"dbc":2143,"var":2144,"Ġ...":2145,"attern":2146,"ĠĠĉĉĉ":2147,"ĠAn":2148,"Ġdetect":2149,"ymphony":2150,"Item":2151,"opensymphony":2152,"DefaultActionInvocation":2153,"200":2154,"Ġwarning":2155,"ĠAtt":2156,"Ar":2157,"lement":2158,"Ġinstance":2159,"ashboard":2160,"ient":2161,"Ġpr":2162,"ĠMobile":2163,"enshot":2164,"witter":2165,"98":2166,"Ġgiv":2167,"Ġsince":2168,"Ġ13":2169,"igger":2170,"ĠPersisting":2171,"mission":2172,"model":2173,"--------------------------------":2174,"Java":2175,"how":2176,"Ġload":2177,"String":2178,"ĠPersisted":2179,"Ġmultiple":2180,"master":2181,"ware":2182,"rowser":2183,"ĠSupport":2184,"TRY":2185,"col":2186,"mod":2187,"Ġimplementation":2188,"ĠY":2189,"ubl":2190,"ENTRY":2191,"box":2192,"ween":2193,"oid":2194,"Ġpack":2195,"'.":2196,"Set":2197,"cle":2198,"son":2199,"Ġz":2200,"ors":2201,"Ġfind":2202,"ĠThere":2203,"AbstractMessage":2204,"Base":2205,"Ġsend":2206,"0114":2207,"hone":2208,"editor":2209,"pus":2210,"Ġcustom":2211,"Ġindic":2212,"Tab":2213,"down":2214,"wr":2215,"Ġhapp":2216,"ren":2217,"ROP":2218,"ĠHTTP":2219,"Info":2220,"ĠNode":2221,"Gener":2222,"JS":2223,"Ġsingle":2224,"Ġstor":2225,"ags":2226,"Ġ21":2227,"Image":2228,"Editor":2229,"Ġevents":2230,"aut":2231,"bd":2232,"Ġ2012":2233,"Ġetc":2234,"grid":2235,"true":2236,"bit":2237,"click":2238,"Ġduring":2239,"Ġmeas":2240,"Ġrequired":2241,"Ġbetween":2242,"gument":2243,"init":2244,"Ġmatch":2245,"Ġ27":2246,"ret":2247,"Ġconst":2248,"raw":2249,"ality":2250,"System":2251,"png":2252,"win":2253,"ordin":2254,"Keeper":2255,"100":2256,"new":2257,"Ġsure":2258,"Ġclean":2259,"ise":2260,"Ġmust":2261,"emove":2262,"9999":2263,"Ġperform":2264,"Dec":2265,"edis":2266,"Ġpop":2267,"////":2268,"Runner":2269,"trans":2270,"cm":2271,"60":2272,"clover":2273,"Ġfeature":2274,"unit":2275,"Ġdone":2276,"ĠCh":2277,"Ġxd":2278,"Ġtyp":2279,"Ġ2015":2280,"Ġconfigure":2281,"Text":2282,"base":2283,"gram":2284,"ĠSlave":2285,"Ġstack":2286,"AUXP":2287,"AUXPROP":2288,"EST":2289,"Reference":2290,"Runtime":2291,"Ġvari":2292,"Ġdisc":2293,"Ġupdates":2294,"Value":2295,"Utils":2296,"End":2297,"aves":2298,"ĠĠĠĠĠĠĠĠĠĠ":2299,"Execution":2300,"Ġerrors":2301,"Ġpossible":2302,"Ġart":2303,"Ġappears":2304,"ced":2305,"ysql":2306,"Platform":2307,"HT":2308,"camel":2309,"Ġsecond":2310,"Ġconvert":2311,"ipal":2312,"Ġhel":2313,"beans":2314,"LO":2315,"cxf":2316,"Ġinitial":2317,"Ġmetadata":2318,"ĠTo":2319,"Ġvalues":2320,"Send":2321,"Ġwizard":2322,"ĠClick":2323,"gress":2324,"ĠHow":2325,"jira":2326,"yle":2327,"alm":2328,"osx":2329,"ĠReproduce":2330,"other":2331,"uf":2332,"Ġyour":2333,"ovy":2334,"bed":2335,"Ġbehavi":2336,"Ġcl":2337,"Ġformat":2338,"Ġsched":2339,"order":2340,"vm":2341,"Index":2342,"ĠGET":2343,"Ġrow":2344,"Ġsomet":2345,"ĠSe":2346,"river":2347,"container":2348,"Ġlocation":2349,"incipal":2350,"ython":2351,"essaging":2352,"0224":2353,"Socket":2354,"dat":2355,"Ġbug":2356,"json":2357,"perties":2358,"Ġticket":2359,"Ġmissing":2360,"DM":2361,"80":2362,"hor":2363,"Ġprovid":2364,"TI":2365,"Ġoptions":2366,"Ġspecific":2367,"check":2368,"xwork":2369,"Ġtheir":2370,"ĠNot":2371,"dis":2372,"ĠOS":2373,"Handle":2374,"ĠAuthentic":2375,"type":2376,"Ġrelease":2377,"Ġlocal":2378,"olut":2379,"Ġeven":2380,"valu":2381,"Ġauthenticator":2382,"Ġselected":2383,"Ġprovide":2384,"addEventListener":2385,"flow":2386,"Ġab":2387,"Ġnon":2388,"Ġob":2389,"Ġuses":2390,"Ġtarget":2391,"Ġinfo":2392,"....":2393,"96":2394,"default":2395,"Ġdevelop":2396,"507":2397,"ĠLo":2398,"2014":2399,"ribute":2400,"Loop":2401,"Sub":2402,"ines":2403,"Dispatcher":2404,"ili":2405,"ni":2406,"Ġter":2407,"amp":2408,"apping":2409,"Ġactual":2410,"tool":2411,"Ġenvironment":2412,"Ġtim":2413,"etty":2414,"ĠAs":2415,"Ġ30":2416,"createWindow":2417,"Ġrelated":2418,"92":2419,"display":2420,"files":2421,"install":2422,"reak":2423,"location":2424,"ecess":2425,"Ġstep":2426,"Child":2427,"Ġclasses":2428,"ublish":2429,"etr":2430,"Ġcorrectly":2431,"Ġauthenticatee":2432,"ycle":2433,"reg":2434,"Definition":2435,"Ġtiapp":2436,"tension":2437,"uery":2438,"Ġ../../":2439,"Ġconsole":2440,"emp":2441,"Ġedit":2442,"aused":2443,"Trans":2444,"AL":2445,"SH":2446,"lf":2447,"Key":2448,"Source":2449,"ĠĠĠĠčĊ":2450,"stout":2451,"Ġregister":2452,"Ġevery":2453,"ACS":2454,"iki":2455,"Ġstd":2456,"Ġvis":2457,"ĠJob":2458,")@":2459,"Ġnull":2460,"State":2461,"Ġrepository":2462,"VER":2463,"cd":2464,"olator":2465,"ocus":2466,"BeanFactory":2467,"ither":2468,"ĠService":2469,"Launch":2470,"uch":2471,"ĠPlease":2472,"libprocess":2473,"redential":2474,"Parser":2475,"110":2476,"alloy":2477,"Ġblock":2478,"Ġchar":2479,"343":2480,"ĠQserv":2481,"Ġmin":2482,"ular":2483,"Ġ14":2484,"ement":2485,"Ġcannot":2486,"ually":2487,"co":2488,"que":2489,"Currently":2490,"If":2491,"pace":2492,"system":2493,"Ġroot":2494,"jc":2495,"inal":2496,"Ġte":2497,"Ġcourse":2498,"grade":2499,"Runnable":2500,"Ġgenerated":2501,"Repository":2502,"Ġacc":2503,"connect":2504,"window":2505,"era":2506,"ĠNote":2507,"Ġdisk":2508,"usergrid":2509,"Ġfields":2510,"cgroup":2511,"laves":2512,"ets":2513,"ĠĠĠĠĠĠĠĠĠĠĠĠĠĠĠĠĠ":2514,"annot":2515,"afe":2516,"Simple":2517,"($":2518,"false":2519,"Ġmesos":2520,"key":2521,"ĠURL":2522,"Ġscreenshot":2523,"arned":2524,"Out":2525,"ecur":2526,"Provider":2527,"resent":2528,"93":2529,"Sh":2530,"ray":2531,"Ġsize":2532,"Ġcrash":2533,"DB":2534,"mpt":2535,"aving":2536,"ĠData":2537,"Ġdesign":2538,"Label":2539,"MD":2540,"python":2541,"Ġdisplayed":2542,"Ġemulator":2543,"CS":2544,"ecurity":2545,"Future":2546,"Open":2547,"Ġprot":2548,"195":2549,"lobal":2550,"Helper":2551,"78":2552,"ĠSu":2553,"Ġ12":2554,"Ġdefined":2555,"oder":2556,"ĠUn":2557,"localhost":2558,"73":2559,"SQL":2560,"ont":2561,"ptana":2562,"Ġproper":2563,"olve":2564,"Standard":2565,"Endpoint":2566,"Do":2567,"client":2568,"sdk":2569,"etwork":2570,"Ġ26":2571,"Ġitems":2572,"prop":2573,"ĠER":2574,"Ġseems":2575,"resh":2576,"arg":2577,"async":2578,"ynch":2579,"Ġitem":2580,"struct":2581,"Ġruntime":2582,"ĠVersion":2583,"85":2584,"Ġlabel":2585,"empty":2586,"********":2587,"epar":2588,"Input":2589,"Ġautom":2590,"Local":2591,"ordinator":2592,"Get":2593,"Po":2594,"ooke":2595,"Ġexp":2596,"Ġmethods":2597,"ecessary":2598,"atus":2599,"eta":2600,"Ġlast":2601,"Ġprojects":2602,"perty":2603,"94":2604,"Ġ->":2605,"Ġsearch":2606,"ather":2607,"Kit":2608,"bar":2609,"ings":2610,"aly":2611,"Ġmessages":2612,"Ġanother":2613,"Ġdelet":2614,"elf":2615,"Ġthose":2616,"SE":2617,"map":2618,"Ġflow":2619,"stack":2620,"anges":2621,"this":2622,"ookeeper":2623,"70":2624,"90":2625,"ca":2626,"ions":2627,"Ġwere":2628,"ilar":2629,"igate":2630,"ĠLSST":2631,"Ġhierarchical":2632,"ynchron":2633,"iphone":2634,"me":2635,"Ġmobile":2636,"0206":2637,"CT":2638,"factory":2639,"idd":2640,"context":2641,"witch":2642,"95":2643,"Ġmode":2644,"Int":2645,"cons":2646,"ĠNew":2647,"Ġaddition":2648,"projects":2649,"Que":2650,"Row":2651,"docs":2652,"mobile":2653,"plor":2654,"Steps":2655,"Ġscheduler":2656,"google":2657,"the":2658,"ffect":2659,"Ġcreating":2660,"Ġdeployment":2661,">(":2662,"iter":2663,"Ġregistrar":2664,"Ġgiven":2665,"ĠHowever":2666,"erry":2667,"ĠModule":2668,"Ġ***":2669,"Ġstarted":2670,"OM":2671,"Script":2672,"sed":2673,"source":2674,"Ġthread":2675,"ably":2676,"75":2677,"AI":2678,"TH":2679,"erse":2680,"Ġtitanium":2681,"ense":2682,"Ġwithin":2683,"assword":2684,"ugg":2685,"Implement":2686,"Ġsomething":2687,"Call":2688,"fine":2689,"ities":2690,"Ġreg":2691,"Ġprompt":2692,"Ġdelete":2693,"application":2694,"190":2695,"Ġinterface":2696,"Ġeas":2697,"Debug":2698,"Ġworking":2699,"ynam":2700,"Strategy":2701,"63":2702,"DL":2703,"New":2704,"omain":2705,"Ġdefinition":2706,"ifact":2707,"Ġexecutor":2708,"ires":2709,"pi":2710,"ways":2711,"Ġad":2712,"its":2713,"aller":2714,"ĠST":2715,"moodle":2716,"Ġparameter":2717,"Ġdetected":2718,")\\":2719,"Ġcopy":2720,"dev":2721,"uplic":2722,"print":2723,"Ġshows":2724,".<":2725,"basic":2726,"Ġqserv":2727,"Ġbreak":2728,"ĠPl":2729,"Store":2730,"rowse":2731,"Resources":2732,"ĠConfig":2733,"Ġauxprop":2734,"ktop":2735,"ily":2736,"ĠSpring":2737,"plorer":2738,"ume":2739,"Ġrout":2740,"Field":2741,"self":2742,"ĠCheck":2743,"encies":2744,"Ġsepar":2745,"Ġself":2746,"nder":2747,"Ġcontrol":2748,"Plugin":2749,"Ġenabled":2750,"ersey":2751,"unk":2752,"NS":2753,"ĠWh":2754,"ired":2755,"Ġresource":2756,"services":2757,"Valve":2758,"RAM":2759,"store":2760,"Ġresponse":2761,"Ġ47":2762,"386":2763,"BuildManager":2764,"Ġshown":2765,"Berry":2766,"gor":2767,"sql":2768,"Ġpi":2769,"ĠĠĠĠĠĠĠĠĠĠĠ":2770,"Ġexpected":2771,"Contribution":2772,"ClassLoader":2773,"Ġcontains":2774,"lackBerry":2775,"Phone":2776,"ĠDo":2777,"oodle":2778,"ĠCre":2779,"ĠStart":2780,"ĠUser":2781,"gorith":2782,"Ġinput":2783,"1024":2784,"Ġlearned":2785,"akes":2786,"eatures":2787,"Async":2788,"Ġremoved":2789,"ĠSuccessfully":2790,"Cache":2791,"OR":2792,"interceptor":2793,"Ġsample":2794,"amera":2795,"uble":2796,"Server":2797,"Ġfunctionality":2798,"uggest":2799,"],":2800,"pre":2801,"Ġcover":2802,"Ġbro":2803,"uide":2804,"arker":2805,"210":2806,"root":2807,"Ġinside":2808,"grad":2809,"174":2810,"IR":2811,"blob":2812,"function":2813,"std":2814,"channel":2815,"ĠWeb":2816,"ĠERROR":2817,"eg":2818,"slave":2819,"});":2820,"ason":2821,"vious":2822,"Ġimprove":2823,"DF":2824,"jdbc":2825,"scri":2826,"Ġcaus":2827,"ĠClover":2828,"122":2829,"pose":2830,"Ġthink":2831,"anagement":2832,"Ġsupported":2833,"Result":2834,"Ġtasks":2835,"olution":2836,"ctive":2837,"Ġms":2838,"Ġconf":2839,"cp":2840,"unter":2841,"platform":2842,"events":2843,"junit":2844,"oft":2845,"aph":2846,"ayload":2847,"Registry":2848,"Ġhelp":2849,"Per":2850,"jersey":2851,"ynt":2852,"lig":2853,"Ġ24":2854,"Ġlong":2855,"4000000":2856,"Slave":2857,"Zoo":2858,"Ġempty":2859,"Ġinc":2860,"igr":2861,"rie":2862,"Ġalways":2863,"Ġneeded":2864,"resources":2865,"Ġhandle":2866,"edia":2867,"400000004":2868,"Map":2869,"PE":2870,"Ġbehavior":2871,"opt":2872,"uid":2873,"ins":2874,"ingMessage":2875,"Ġleft":2876,"AN":2877,"Ġel":2878,"Ġreference":2879,"âĶĢ":2880,"ZooKeeper":2881,"Remove":2882,"tom":2883,"Ġkn":2884,"Ġgenerate":2885,"ĠPre":2886,"ipe":2887,"MO":2888,"Rule":2889,"filer":2890,"Ġcases":2891,"see":2892,"Ġlsst":2893,"handler":2894,"Ġsimple":2895,"Children":2896,"'d":2897,"iber":2898,"reen":2899,"Ġ==":2900,"lective":2901,"Ġlatest":2902,"IDE":2903,"Ġver":2904,"Ġcpus":2905,"select":2906,"ider":2907,"Internal":2908,"ĠLog":2909,"ContributionItem":2910,"aries":2911,"Ġbelow":2912,"ĠJSON":2913,"Ġassign":2914,"script":2915,"anis":2916,"Inst":2917,"command":2918,"Reply":2919,"Oper":2920,"SDK":2921,"cat":2922,"Ġ`":2923,"onitor":2924,"Ġbr":2925,"Ġsetup":2926,"background":2927,"Ġknow":2928,"WARN":2929,"windows":2930,"ĠAlloy":2931,"list":2932,"Ġvery":2933,"Ġpost":2934,"Ġmight":2935,"Change":2936,"Ġprocessing":2937,"Unit":2938,"Ġcomponents":2939,"41":2940,"git":2941,"appc":2942,"inding":2943,"redis":2944,"rag":2945,"rest":2946,"ĠFailed":2947,"ĠImplement":2948,"Reflective":2949,"ĠAttempting":2950,"ynamic":2951,"yntax":2952,"Ġbase":2953,"Ġprodu":2954,"uper":2955,"ĠES":2956,"Ġdeployed":2957,"orter":2958,"Ġwidth":2959,"LED":2960,"ken":2961,"Ġclo":2962,"Ġdoc":2963,"chanis":2964,"Ġ304":2965,"Ġeither":2966,"Produc":2967,"loader":2968,"Queue":2969,"sys":2970,"repos":2971,"Ġhost":2972,"idden":2973,",\"":2974,"Wizard":2975,"fb":2976,"ecycle":2977,"umm":2978,"ntity":2979,"Realm":2980,"Ġheight":2981,"72":2982,"Mod":2983,"fd":2984,"Ġcho":2985,"Ġcore":2986,"ĠSet":2987,"ĠRecover":2988,"ators":2989,"Ġmechanis":2990,"Ġtermin":2991,"Bar":2992,"Ġam":2993,"igh":2994,"EventTable":2995,"ĠProcess":2996,"Ġwrit":2997,"Ġdependency":2998,"etrics":2999,"Or":3000,"Ġsink":3001,"Ġdid":3002,"168":3003,"Ġretur":3004,"Ġrequires":3005,"Ġsimulator":3006,"jetty":3007,"tual":3008,"Ġelement":3009,"ĠHSC":3010,"processor":3011,"Ġintegration":3012,"Deployer":3013,"NAP":3014,"Ġtri":3015,"Ġcor":3016,"Ġcomplete":3017,":*":3018,"az":3019,"kit":3020,"Ġfocus":3021,"ĠMesos":3022,"ublic":3023,"Ġports":3024,"AndRun":3025,"SHOT":3026,"EE":3027,"Ġsession":3028,"avas":3029,"used":3030,"ĠCaused":3031,"Ġadding":3032,"Ġunit":3033,"Ġservices":3034,"Ġabove":3035,"NAPSHOT":3036,"82":3037,"Files":3038,"Fix":3039,"launch":3040,"Ġcgroup":3041,"Ġfre":3042,"Ġsuccess":3043,"HP":3044,"Messaging":3045,"ĠException":3046,"atically":3047,"Ġspring":3048,"Ġcalled":3049,"etry":3050,"Ġold":3051,"principal":3052,"comp":3053,"createAndRun":3054,"ACK":3055,"Ġdownload":3056,"Ġtypes":3057,"redentials":3058,"avascript":3059,"browse":3060,"fire":3061,"sd":3062,"ves":3063,"char":3064,"0126":3065,"Ġextension":3066,"ĠInstall":3067,"Ġargument":3068,"EclipseAppHandle":3069,"Select":3070,"Ġrestart":3071,"Ġaccept":3072,"91":3073,"PS":3074,"dy":3075,"Ġ__":3076,"orm":3077,"arge":3078,"Ġdescription":3079,"ĠHTML":3080,"Ġslaves":3081,"Ġnecessary":3082,"cho":3083,"Ġ\"--":3084,"ape":3085,"Wrapper":3086,"Ġseparate":3087,"/>":3088,"Found":3089,"direct":3090,"message":3091,"ving":3092,"Ġsave":3093,"ceed":3094,"Ġexport":3095,"uster":3096,"}}.":3097,"PlatformUI":3098,"OO":3099,"abbit":3100,"Ġexecut":3101,"Ġ=>":3102,"192":3103,"Ġversions":3104,"Decoder":3105,"Ġdiscus":3106,"createAndRunWorkbench":3107,"ĠTr":3108,"Ġstore":3109,"Ġsteps":3110,"ĠMule":3111,"ope":3112,"Ġsimilar":3113,"ĠAlso":3114,"Redis":3115,"bably":3116,"des":3117,"Ġfine":3118,"Ġbuilding":3119,"servable":3120,"ApplicationContext":3121,"FutureTask":3122,"525":3123,"Ġ04":3124,"TiAPI":3125,"Ġjobs":3126,"'m":3127,"nate":3128,"wiki":3129,"Ġfull":3130,"alib":3131,"ables":3132,"gression":3133,"2015":3134,"UT":3135,"ĠDes":3136,"Start":3137,"ĠĠĠĠĠĠĠĠĠĠĠĠĠĠĠĠĠĠĠĠĠ":3138,"curator":3139,"'ve":3140,"ION":3141,"User":3142,"Ġbrowser":3143,"Ġmap":3144,"ĠSim":3145,"ĠWork":3146,"ĠWARN":3147,"Ġaddress":3148,"Ġchannel":3149,"StreamDecoder":3150,"Ġbetter":3151,"Controller":3152,"WT":3153,"Ġtemplate":3154,"Ġside":3155,"allocator":3156,"licit":3157,"Ġattempting":3158,"Ġcharact":3159,"Ġxml":3160,"Ġ'*":3161,"ĠMaster":3162,"Safe":3163,"manager":3164,"pec":3165,"intercept":3166,"Ġ276":3167,"ĠBut":3168,"Ġtrigger":3169,"Ġproperly":3170,"500":3171,"SNAPSHOT":3172,"my":3173,"ps":3174,"Ġschema":3175,"Ġimages":3176,"Ġchanged":3177,"ibernate":3178,"Ġsdk":3179,"Ġrem":3180,"apro":3181,"quote":3182,"AILED":3183,"Query":3184,"secur":3185,"Ġnotice":3186,"endpoint":3187,"Ġplace":3188,"Ġfailure":3189,"Ġkeys":3190,"ĠbackgroundColor":3191,"Check":3192,"Time":3193,"mules":3194,"Ġstandard":3195,"ĠEn":3196,"Ġlogs":3197,"security":3198,"ED":3199,"FI":3200,"Ġ11":3201,"ody":3202,"thing":3203,"dfs":3204,"greg":3205,"jo":3206,"},":3207,"Âł":3208,"Ġleast":3209,"Ġmeasure":3210,"61":3211,"task":3212,"ished":3213,"ĠID":3214,"ĠCo":3215,"ĠPackage":3216,"apple":3217,"oco":3218,"Ġspecify":3219,"Ġmany":3220,"Ġsettings":3221,"\");":3222,"Is":3223,"Of":3224,"Spring":3225,"ched":3226,"ward":3227,"ane":3228,"Ġpresent":3229,"Ġdrop":3230,"emarker":3231,"Ġ2013":3232,"568":3233,"rong":3234,"ibility":3235,"Ġcalls":3236,"untu":3237,"Ġspecified":3238,"parse":3239,"Ġtrying":3240,"Deployment":3241,"flu":3242,"ĠYou":3243,"Metadata":3244,"less":3245,"Ġ58":3246,"report":3247,"Ġbatch":3248,"Ġ150":3249,"ĠAptana":3250,"angu":3251,"Ġfollow":3252,"Tree":3253,"div":3254,"Ġ)":3255,"Ġtake":3256,"ank":3257,"ĠTI":3258,"ĠType":3259,"ĠPer":3260,"=/":3261,"URL":3262,"cf":3263,"ios":3264,"eries":3265,"anch":3266,"Ġtoo":3267,"Ġhard":3268,"istent":3269,"blems":3270,"ReflectiveMethod":3271,"US":3272,"ross":3273,"Ġnative":3274,"Ġ05":3275,"ĠUpd":3276,"ĠAuthentication":3277,"Co":3278,"Core":3279,"developer":3280,"Expression":3281,"0917":3282,"Ġ2010":3283,"Ġpassword":3284,"uil":3285,"Ġcert":3286,"Ġmost":3287,"Ġmodel":3288,"book":3289,"0909":3290,"Report":3291,"Ġdependencies":3292,"ĠESB":3293,"Make":3294,"Ġnext":3295,"stand":3296,"Ġrele":3297,"umns":3298,"Ġpropos":3299,"172":3300,"AUTH":3301,"Ġconnector":3302,"ĠSelect":3303,"fluence":3304,"ba":3305,"defined":3306,"image":3307,"Ġalert":3308,"alendar":3309,"HTTP":3310,"FY":3311,"dist":3312,"ra":3313,"tend":3314,"ĠView":3315,"Ġbo":3316,"Ġdue":3317,"ĠInt":3318,"ĠREST":3319,"accept":3320,"properties":3321,"32000":3322,"Ġque":3323,"31000":3324,"emplates":3325,"Desktop":3326,"cor":3327,"cache":3328,"Ġ200":3329,"Ġexecution":3330,"0828":3331,"datapro":3332,"dylib":3333,"dataprofiler":3334,"\"/>":3335,"ged":3336,"zookeeper":3337,"rix":3338,"Ġ315":3339,"135":3340,"ĠLaunch":3341,"oken":3342,"Ġfunctions":3343,"Ġcolor":3344,"Ġsuccessfully":3345,"write":3346,"Blob":3347,"Null":3348,"hy":3349,"Ġ\\":3350,"Ġbox":3351,"Ġinvalid":3352,"pond":3353,"Ġdisable":3354,"Ġlibrary":3355,"================":3356,"uplicate":3357,"wn":3358,"Ġregistry":3359,"ĠAr":3360,"1028":3361,"149":3362,"value":3363,"âĢĤ":3364,"ingMessageHandler":3365,"0507":3366,"679":3367,"Ġ57":3368,"level":3369,"Ġpattern":3370,"cel":3371,"Ġexternal":3372,"ĠDeploy":3373,"Proc":3374,"0929":3375,"ĠUsing":3376,"Ġincluded":3377,"Ġadditional":3378,"Ġcauses":3379,"repository":3380,"SL":3381,"XML":3382,"0124":3383,"00000000":3384,"ĠServer":3385,"Documents":3386,"rawable":3387,"\")":3388,"lements":3389,"Ġreason":3390,"Ġprobably":3391,"odes":3392,"ifest":3393,"Ġ07":3394,"Ġexists":3395,"Ġability":3396,"ocoa":3397,"uilt":3398,"Entity":3399,"nio":3400,"show":3401,"Ġregression":3402,"ĠDeb":3403,"ught":3404,"ĠEd":3405,"0626":3406,"272":3407,"content":3408,"Ġflag":3409,"valuate":3410,"Ġurl":3411,"Ġclose":3412,"Ġrefer":3413,"0714":3414,"aking":3415,"ChannelAdapter":3416,"bc":3417,"Ġcount":3418,"Ġonce":3419,"Contents":3420,"Pointer":3421,"ReflectiveMethodInvocation":3422,"UD":3423,"method":3424,"ts":3425,"Ġshell":3426,"pping":3427,"0123":3428,"AbstractReply":3429,"Ġauthenticated":3430,"Ġplugins":3431,"CAT":3432,"TY":3433,"XD":3434,"pped":3435,"ĠTalend":3436,"ĠSo":3437,"ability":3438,"istics":3439,"uple":3440,"Ġgit":3441,"thread":3442,"ĠList":3443,"ersistence":3444,"ACE":3445,"Ġactually":3446,"Ġautomatically":3447,"edit":3448,"Ġmove":3449,"Ġscroll":3450,"Ġdetails":3451,"Ġpartic":3452,"00000001":3453,"mulesoft":3454,".,":3455,"Ġest":3456,"Ġtag":3457,"Ġbar":3458,"ĠAP":3459,"443":3460,"Ġcreation":3461,"Ġprevious":3462,"Ġscripts":3463,"Ġmemory":3464,"Ġprovided":3465,"iliary":3466,"ProducingMessageHandler":3467,"HSC":3468,"fr":3469,"Ġwho":3470,"strument":3471,"(*):[":3472,"TableView":3473,"Ġdistribution":3474,"PointerException":3475,"AbstractReplyProducingMessageHandler":3476,"150":3477,"hadoop":3478,"Ġcache":3479,"estigate":3480,"fff":3481,"STACK":3482,"asting":3483,"Ġauxiliary":3484,"onger":3485,"enter":3486,"Ġhigh":3487,"101":3488,"Line":3489,"No":3490,"Recon":3491,"ef":3492,"table":3493,"Ġsign":3494,"Ġmysql":3495,"ups":3496,"oking":3497,"2879":3498,"BeanDefinition":3499,"Ġident":3500,"plugins":3501,"';":3502,"??":3503,"register":3504,"Ġswitch":3505,"ESB":3506,"ategory":3507,"Ġobjects":3508,"InputStream":3509,"ĠDebug":3510,"ZID":3511,"bl":3512,"~~":3513,"Ġnetwork":3514,"Ġ139":3515,"0122":3516,"pres":3517,"ptions":3518,"hedule":3519,"Ġgood":3520,"handleMessage":3521,"uctured":3522,"visit":3523,"Ġhappen":3524,"Ġvariable":3525,"Ġ../../../../":3526,"Ġreturns":3527,"AUTHZID":3528,"AD":3529,"Ġsm":3530,"Ġpri":3531,"exception":3532,"Ġlonger":3533,"ĠFAILED":3534,"Reader":3535,"socket":3536,"pective":3537,"Ġretrie":3538,"posite":3539,"schema":3540,"louds":3541,"ĠContent":3542,"gradle":3543,"Ġ79":3544,"lif":3545,"Ġdat":3546,"Stack":3547,"Program":3548,"Ġappro":3549,"138":3550,"Ġ/>":3551,"1684":3552,"Ġlogging":3553,"Component":3554,"Mule":3555,"find":3556,"her":3557,"mine":3558,"Ġfeatures":3559,"Ġwindows":3560,"Ġwait":3561,"utdown":3562,"Ġhaving":3563,"234":3564,"Ġbuilds":3565,"Ġinstallation":3566,"16842879":3567,"]:":3568,"target":3569,"lear":3570,"roovy":3571,"Ġfin":3572,"Ġdate":3573,"ush":3574,"ĠString":3575,"Ġplan":3576,"ĠUpdate":3577,"Ġcluster":3578,"Version":3579,"Ġreview":3580,"ĠĠĠĠĠĠĠĠĠĠĠĠĠĠ":3581,"expression":3582,"Ġlarge":3583,"connection":3584,"Ġsever":3585,"ĠObject":3586,"ĠResults":3587,"alibr":3588,"Reconc":3589,"From":3590,"PM":3591,"Session":3592,"by":3593,"fed":3594,"hibernate":3595,"esb":3596,"Ġsyntax":3597,"Ġpublic":3598,"Ġmule":3599,"ĠAll":3600,"Ġexpression":3601,"1029":3602,"179":3603,"tics":3604,"Ġ},":3605,"Ġqueries":3606,"Ġheader":3607,"vision":3608,"Ġperformance":3609,"Recover":3610,"\\\"":3611,"orage":3612,"Ġ100":3613,"assign":3614,"ending":3615,"0610":3616,"Ġuntil":3617,"Ġlimit":3618,"Ġnamed":3619,"Ġoperation":3620,"ientation":3621,"anguage":3622,"ZOO":3623,"ose":3624,"eng":3625,"Ġmach":3626,"ately":3627,"Ġcommands":3628,"Valid":3629,"Ġhappens":3630,"306":3631,"Bus":3632,"Ob":3633,"See":3634,"xx":3635,"ĠâĢ":3636,"0218":3637,"jobs":3638,"Model":3639,"aop":3640,"cod":3641,"Ġ50":3642,"ĠAfter":3643,"ĠDur":3644,"1030":3645,"ĠFail":3646,"ogn":3647,"Comp":3648,"2012":3649,"BuilderImpl":3650,"Tool":3651,"width":3652,"ĠMy":3653,"Edit":3654,"Ġparameters":3655,"////////":3656,"jclouds":3657,"ummary":3658,"Rec":3659,"Ġsuggest":3660,"sec":3661,"Ġorig":3662,"Ġupload":3663,"------------":3664,"Ġcolumns":3665,"ART":3666,"atalog":3667,"Ġtransform":3668,"Ġincludes":3669,"ĠJavaScript":3670,"Ġbranch":3671,"')":3672,"dq":3673,"linux":3674,"Ġbin":3675,"Ġput":3676,"Ġreplace":3677,"imation":3678,"Ġ244":3679,"acted":3680,"ĠDQ":3681,"107":3682,"groovy":3683,"Ġgetting":3684,"ĠExplorer":3685,"Ġoccurred":3686,"transport":3687,"ĠConfiguration":3688,"Ġinternal":3689,"urs":3690,"Property":3691,"566":3692,"ributed":3693,"Ġtransport":3694,"NullPointerException":3695,"700":3696,"Code":3697,"database":3698,"hould":3699,"query":3700,"Ġ322":3701,"128":3702,"506":3703,"0903":3704,"0825":3705,"chen":3706,"Ġcredentials":3707,"umb":3708,"ĠAdmin":3709,"Ġcommon":3710,"refix":3711,"foo":3712,"Ġattribute":3713,"Structured":3714,"Instance":3715,"XX":3716,"link":3717,"Ġdashboard":3718,"acle":3719,"ĠDB":3720,"Ġcontin":3721,"187":3722,"Ġassist":3723,"0222":3724,"tools":3725,"md":3726,"ances":3727,"Ġfew":3728,"Ġpers":3729,"Ġmov":3730,"ĠĠĠĠĠĠĠĠĠĠĠĠ":3731,"Ġform":3732,"Ġ218":3733,"ĠCore":3734,"Ġusage":3735,"views":3736,"0804":3737,"Ġuseful":3738,"ĠiPhone":3739,"Ġagent":3740,"Delegate":3741,"Ġagainst":3742,"hyde":3743,"SU":3744,"datab":3745,"iated":3746,"sure":3747,"Ġ,":3748,"ottom":3749,"ested":3750,"Ġproxy":3751,"olver":3752,"Ġstop":3753,"Cons":3754,"196":3755,"ssue":3756,"Ġreturned":3757,"Ġaccount":3758,"Ġseveral":3759,"MS":3760,"man":3761,"Ġ--------------------------------":3762,"Ġparent":3763,"Ġgre":3764,"ocol":3765,"ender":3766,"ĠRequest":3767,"Ġattempt":3768,"Ġallows":3769,"ĠRecovering":3770,"Password":3771,"fe":3772,"lat":3773,"Ġwrong":3774,"ceb":3775,"Ġown":3776,"ĠIP":3777,"Ġrather":3778,"proxy":3779,"docker":3780,"Ġenter":3781,"ĠCommand":3782,"].":3783,"la":3784,"shell":3785,"inst":3786,"Ġactivity":3787,"Ġcause":3788,"anel":3789,"Ġpersist":3790,"Ġ157":3791,"1117":3792,"move":3793,"Ġtables":3794,"Ġconsider":3795,"ropri":3796,"Once":3797,"etcher":3798,"da":3799,"field":3800,"te":3801,"height":3802,"ĠĠĠĠĠĠĠĠĠĠĠĠĠĠĠ":3803,"ĠAnd":3804,"ĠCurrently":3805,"rame":3806,"Ġalgorith":3807,"Ġ312":3808,"Replace":3809,"Events":3810,"Ġauto":3811,"workspace":3812,"Ġ547":3813,"Ġlooks":3814,"/#":3815,"Det":3816,"ners":3817,"ru":3818,"Ġborder":3819,"Ġmark":3820,"Ġnav":3821,"change":3822,"Ġ(/":3823,"125":3824,"Workspace":3825,"}},":3826,"Ġshort":3827,"Ġfixed":3828,"ĠContainer":3829,"StructuredViewer":3830,"AW":3831,"EC":3832,"hether":3833,"Ġclover":3834,"state":3835,"icasting":3836,"ableBeanFactory":3837,"Ġextr":3838,"Ġloading":3839,"ĠWindow":3840,"1113":3841,"Ġtimeout":3842,"Notification":3843,"ĠCreating":3844,"backgroundColor":3845,"SWT":3846,"null":3847,"tim":3848,"esh":3849,"hel":3850,"Ġexamples":3851,"ĠDet":3852,"ĠInst":3853,"ĠXcode":3854,"Unified":3855,"Ġreports":3856,"BundleLoader":3857,"AbstractMessageChannel":3858,"SafeRunner":3859,"Ġ5847":3860,"':":3861,"Linux":3862,"Layout":3863,"Typ":3864,"bb":3865,"confluence":3866,"0925":3867,"Ġworkspace":3868,"berry":3869,"Ġdescri":3870,"ĠRuntime":3871,"lackberry":3872,"Ġvalidation":3873,"Analysis":3874,"Ġremote":3875,"'ll":3876,"808":3877,"Lif":3878,"batch":3879,"of":3880,"Ġdest":3881,"estamp":3882,"Ġ306":3883,"Ġappropri":3884,"Ġdevelopment":3885,"light":3886,"Ġmechanism":3887,"676":3888,"Enable":3889,"page":3890,"tal":3891,"ĠLoc":3892,"TRACE":3893,"Allow":3894,"Ġoperations":3895,"='":3896,"AB":3897,"DQ":3898,"RUN":3899,"Synchron":3900,"sf":3901,"Ġcap":3902,"definition":3903,"iling":3904,"ptim":3905,"ump":3906,"Ġ262":3907,"Ġcomment":3908,"viewers":3909,"Ġdeprec":3910,"Common":3911,"Ġstatic":3912,"legal":3913,"ENT":3914,"DoFilter":3915,"Ġqueue":3916,"zip":3917,"ories":3918,"Ġhad":3919,"ĠAss":3920,"older":3921,"STUD":3922,"Ġdirectly":3923,"Ġimplemented":3924,"actions":3925,"Ġmanually":3926,"Ġstructure":3927,"white":3928,"Environment":3929,"alytics":3930,"Operation":3931,"Filesystem":3932,"Ġdiscussion":3933,"Around":3934,"CH":3935,"Direct":3936,"document":3937,"Ġspl":3938,"edu":3939,"ĠCannot":3940,"emory":3941,"obuf":3942,"=\"/":3943,"().":3944,"Ġunable":3945,"tings":3946,"Ġstorage":3947,"Ġdeleted":3948,"Recovery":3949,"AroundInterceptor":3950,"cocoa":3951,"ie":3952,"mail":3953,"with":3954,"Ġstory":3955,"Ġdefine":3956,"runWith":3957,"izing":3958,"readAnd":3959,"respond":3960,"Search":3961,"Ġcgroups":3962,"readAndDispatch":3963,"Iter":3964,"cli":3965,"lder":3966,"persistence":3967,"ĉĉ":3968,"Ġfuture":3969,"Ġdeter":3970,"Ġglobal":3971,"object":3972,"1124":3973,"internalDoFilter":3974,"createButton":3975,"Unicasting":3976,"Ġavoid":3977,"Preference":3978,"color":3979,"LaunchConfiguration":3980,"Ġelse":3981,"IDEApplication":3982,"Ġparticular":3983,"UnicastingDispatcher":3984,"right":3985,"ari":3986,"ulate":3987,"Ġnote":3988,"Ġlogin":3989,"oute":3990,"Ġrequests":3991,"Ġ7568":3992,"Alloy":3993,"MOB":3994,"Ġcorrespond":3995,"CRAM":3996,"Drawable":3997,"Master":3998,"block":3999,"ea":4000,"mq":4001,"tain":4002,"Ġpython":4003,"studio":4004,"Ġprovider":4005,"ĠCopy":4006,"185":4007,"ROOT":4008,"Ġattach":4009,"Ġcontainers":4010,"Auto":4011,"ĠSTART":4012,"Ġfreemarker":4013,"Lifecycle":4014,"']":4015,"After":4016,"EL":4017,"He":4018,"Mesos":4019,"Ġjvm":4020,"msg":4021,"ĠAppcelerator":4022,"commons":4023,"Ġregistration":4024,"structor":4025,"DrawableReference":4026,"Bamboo":4027,"LSST":4028,"ND":4029,"Rest":4030,"ique":4031,"raries":4032,"su":4033,"Ġ56":4034,"Ġtemplates":4035,"Ġtotal":4036,"Ġbl":4037,"Ġbasic":4038,"ious":4039,"Changes":4040,"ActionContributionItem":4041,"Ġmeet":4042,"ngth":4043,"Ġthough":4044,"missions":4045,"Ġincorrect":4046,"));":4047,"Use":4048,"feature":4049,"native":4050,"zar":4051,"Ġmade":4052,"Ġmigr":4053,"uri":4054,"Ġdecl":4055,"activ":4056,"Inter":4057,"console":4058,"ferred":4059,"ĠOut":4060,"okke":4061,"notation":4062,"Ġentry":4063,"Ġteam":4064,"cpu":4065,"*,":4066,"BlackBerry":4067,"Shell":4068,"XF":4069,"Ġaround":4070,"Ġsolution":4071,"Ġwhether":4072,"Ġbit":4073,"Ġthings":4074,"Ġ133":4075,"imate":4076,"Ġproblems":4077,"EventLoop":4078,"Ġtrace":4079,"Response":4080,"Ġlookup":4081,"duced":4082,"horization":4083,"\";":4084,"Super":4085,"Ġign":4086,"araf":4087,"Ġnever":4088,"Ġremain":4089,"ĠTry":4090,"execution":4091,"Ġdoing":4092,"ĠOK":4093,"ĠRegister":4094,"tenance":4095,"Description":4096,"Ġpackaging":4097,"Modal":4098,"present":4099,"71":4100,"AV":4101,"CE":4102,"Database":4103,"Le":4104,"Wh":4105,"kins":4106,"ses":4107,"atic":4108,"Ġ28":4109,"Ġdeveloper":4110,"ĠMessage":4111,"ĠMake":4112,"ĠFire":4113,"126":4114,"works":4115,"ĠVal":4116,"Ġrefactor":4117,"Ġconfigured":4118,"Ġexplicit":4119,"=$":4120,"IG":4121,"custom":4122,"df":4123,"mun":4124,"Ġ^":4125,"ĠâĶ":4126,"Ġsecurity":4127,"Ġclear":4128,"ames":4129,"Ġdec":4130,"Ġrange":4131,"Ġcomments":4132,"Indic":4133,"103":4134,"188":4135,"Improve":4136,"ĠUnable":4137,"ipant":4138,"Executors":4139,"Ġendpoints":4140,"DBC":4141,"Ġcoverage":4142,"322":4143,"dhyde":4144,"rules":4145,"sers":4146,"way":4147,"Ġmuch":4148,"Ġmakes":4149,"eline":4150,"ctions":4151,"508":4152,"Ġimp":4153,"Ġjar":4154,"Ġ-->":4155,"trace":4156,"Ġparsing":4157,"Output":4158,"UnifiedBuilder":4159,"Ccd":4160,"hary":4161,"llegal":4162,"roy":4163,"Ġ210":4164,"olume":4165,"Ġlayout":4166,"Ġallowing":4167,"ĠWS":4168,"udhary":4169,"ĠProblem":4170,"Ġrequirements":4171,"99999999":4172,"Ġroute":4173,"Timeout":4174,":>":4175,">::":4176,"Twitter":4177,"vc":4178,"Ġaffect":4179,"Ġsent":4180,"alone":4181,"Ġitself":4182,"ries":4183,"Exp":4184,"Initial":4185,"ĠMoodle":4186,"runners":4187,"ĠFramework":4188,"ĠStream":4189,"soap":4190,"ĠTiApplication":4191,"OST":4192,"Ġgets":4193,"Ġkeep":4194,"ameter":4195,"ĠImage":4196,"Ġicons":4197,"Ġoffers":4198,"Ġtimes":4199,"Ġproposal":4200,"'re":4201,"206":4202,"332":4203,"CA":4204,"Pol":4205,"dition":4206,"ock":4207,"tab":4208,"wizard":4209,"err":4210,"Ġcapt":4211,"lok":4212,"ĠRUN":4213,"137":4214,"Ġupgrade":4215,"ording":4216,"Ġlikely":4217,"Ġquot":4218,"Ġmeans":4219,"Ġassoc":4220,"ĠDevice":4221,"Ġcoordinator":4222,"Ġacross":4223,"Ġcrashes":4224,"RecoveryTest":4225,"*)":4226,"Fl":4227,"ccept":4228,"Ġ~":4229,"env":4230,"Ġmax":4231,"rometry":4232,"runEventLoop":4233,"Ġelements":4234,"0813":4235,"ĠUse":4236,"question":4237,"output":4238,"MessageProcessor":4239,"ifications":4240,"Ġarch":4241,"____":4242,"Ġincluding":4243,"choudhary":4244,"ĠCoordinator":4245,"eshchoudhary":4246,"Ġappropriate":4247,"302":4248,"></":4249,"Cre":4250,"initial":4251,"lot":4252,"Selection":4253,"Ġdebugging":4254,"Isolator":4255,"Mobile":4256,"cry":4257,"gener":4258,"erge":4259,"request":4260,"Ġnice":4261,"Ġreading":4262,"Ġprogress":4263,"018":4264,"lert":4265,"ĠFrom":4266,"Ġselection":4267,"Ġ455":4268,"Ġchild":4269,"Ġundefined":4270,"ĠGo":4271,"WorkbenchPage":4272,"aches":4273,"awt":4274,"Ġcontainerizer":4275,"âĶĢâĶĢ":4276,"lokeshchoudhary":4277,"Cap":4278,"CLI":4279,"Match":4280,"SF":4281,"Ġsite":4282,"enar":4283,"Ġpublish":4284,"otype":4285,"ĠPython":4286,"Ġrecent":4287,"ĠSTARTING":4288,"Admin":4289,"IO":4290,"MP":4291,"Parent":4292,"Xml":4293,"ws":4294,"orld":4295,"enkins":4296,"icro":4297,"ĠCould":4298,"Expected":4299,"Ġexit":4300,"anged":4301,"uby":4302,"ĠLe":4303,"ystrix":4304,"Ġtheme":4305,"ĠRunning":4306,"plete":4307,"Ġtools":4308,"Foundation":4309,"bay":4310,"sim":4311,"att":4312,"ater":4313,"Ġdocs":4314,"Ġ()":4315,"ĠRE":4316,"ocable":4317,"mitt":4318,"Schedule":4319,"uffer":4320,"empor":4321,"213":4322,"Aop":4323,"Right":4324,"ied":4325,"mort":4326,"vn":4327,"yper":4328,"Ġbuilt":4329,"verse":4330,"ĠCSS":4331,"old":4332,"Ġstyle":4333,"108":4334,"oper":4335,"Prot":4336,"ĠResources":4337,"Ġpreferences":4338,"ChildrenCache":4339,"mortbay":4340,"211":4341,"255":4342,"Function":4343,"ault":4344,"pack":4345,"Ġactive":4346,"alc":4347,"ĠClient":4348,"ĠPHP":4349,"irtual":4350,"soft":4351,"ĠtabGroup":4352,"which":4353,"OME":4354,"><":4355,"CF":4356,"Dis":4357,"Element":4358,"LL":4359,"My":4360,"based":4361,"fly":4362,"long":4363,"ination":4364,"Ġtwitter":4365,"ceive":4366,"secs":4367,"Ġisn":4368,"Ġbean":4369,"press":4370,"ĠMap":4371,"prot":4372,"eedback":4373,"ixel":4374,"velopment":4375,"Ġkeyboard":4376,"ĠChange":4377,"Ġbroken":4378,"scrib":4379,"ĠAPP":4380,"664":4381,"Case":4382,"ĠZ":4383,"Ġph":4384,"Ġdriver":4385,"ĠSQL":4386,"istr":4387,"olved":4388,"owire":4389,"Ġexpect":4390,"ĠNumber":4391,"ĠThat":4392,"287":4393,"597":4394,"Ġpreference":4395,"ifier":4396,"Ġconsumer":4397,"Ġrefresh":4398,"Ġvisible":4399,"counter":4400,"Ġmeasurement":4401,"tasks":4402,"Ġmachine":4403,"Indicator":4404,"Click":4405,"Gr":4406,"UPS":4407,"bec":4408,"domain":4409,"tn":4410,"Ġ255":4411,"ains":4412,"Ġexecute":4413,"Connect":4414,"const":4415,"Ġaggreg":4416,"ModuleDeployer":4417,"PathChildrenCache":4418,"dispatcher":4419,"ĠPreferences":4420,"Synchronizer":4421,"evaluate":4422,"fw":4423,"gin":4424,"iro":4425,"lers":4426,"erv":4427,"astr":4428,"lied":4429,"ĠSAM":4430,"Ġalloc":4431,"Ġapply":4432,"AppData":4433,"ĠOr":4434,"ĠGr":4435,"utils":4436,"rcp":4437,"Ġintegr":4438,"Ġcorresponding":4439,".\"":4440,"Ġsort":4441,"acy":4442,"133":4443,"Tests":4444,"BuildPath":4445,"530":4446,"LECT":4447,"ĠDefault":4448,"Ġlinks":4449,"Ġprint":4450,"Ġsending":4451,"MessagingTemplate":4452,"Size":4453,"ick":4454,"like":4455,"ecure":4456,"apid":4457,"epend":4458,"ĠFiles":4459,"235":4460,"testing":4461,"0211":4462,"ESS":4463,")[:":4464,"Ġthrown":4465,"meas":4466,"rootd":4467,"frastr":4468,"SUB":4469,"Scheduled":4470,"FF":4471,"Virtual":4472,"from":4473,"font":4474,"gen":4475,"mx":4476,"zer":4477,"alle":4478,"Ġmaven":4479,"Ġreally":4480,"Ġ274":4481,"Ġrule":4482,"acs":4483,"aced":4484,"296":4485,"builder":4486,"Ġstartup":4487,"ĠApplication":4488,"/_":4489,"Json":4490,"Pattern":4491,"doc":4492,"driver":4493,"mt":4494,"Ġcatalog":4495,"anced":4496,"Ġmanagement":4497,"Ġreal":4498,"Ġ257":4499,"Ġprogram":4500,"Ġalloy":4501,"Status":4502,"Ġvoid":4503,"140":4504,"171":4505,"Ġruns":4506,"Ġide":4507,"Ġtrack":4508,"Ġarray":4509,"Column":4510,"Ġrecovery":4511,"Ġ../../../../../../":4512,"ĠFailure":4513,"frastructure":4514,"501":4515,"DO":4516,"Mapper":4517,"Package":4518,"];":4519,"br":4520,"nav":4521,"vant":4522,"Ġfree":4523,"ĠSh":4524,"Ġextend":4525,"strain":4526,"monitor":4527,"Containerizer":4528,"Ġhandling":4529,"ModalContext":4530,"${":4531,"Back":4532,"UR":4533,"close":4534,"ĠZooKeeper":4535,"Ġredis":4536,"imum":4537,"ĠCI":4538,"Ġiter":4539,"129":4540,"Ġseem":4541,"0905":4542,"ĠBlackBerry":4543,"241":4544,"ĠSDKs":4545,"........":4546,"Ġoriginal":4547,"SUBENTRY":4548,"By":4549,"CC":4550,"Cloud":4551,"GRO":4552,"Media":4553,"Root":4554,"iver":4555,"mac":4556,"mark":4557,"oin":4558,"Ġbottom":4559,"liver":4560,"Ġrepo":4561,"ĠSki":4562,"icipant":4563,"Ġprofile":4564,"Ġnotification":4565,"oss":4566,"Ġapps":4567,"ĠEclipse":4568,"AbstractAut":4569,"Ġbuilder":4570,"Ġstarting":4571,"Ġnamespace":4572,"Ġvariables":4573,"Ġrows":4574,"TreeViewer":4575,"CapableBeanFactory":4576,"owireCapableBeanFactory":4577,"AbstractAutowireCapableBeanFactory":4578,"._":4579,"Block":4580,"ek":4581,"tx":4582,"asl":4583,"using":4584,"Ġallocation":4585,"ĠNOT":4586,"2679":4587,"There":4588,"ffff":4589,"Ġprocessor":4590,"Assert":4591,"handleEvent":4592,"Doc":4593,"Sync":4594,"jax":4595,"mysql":4596,"ern":4597,"Ġnodes":4598,"Ġask":4599,"Style":4600,"Ġeffect":4601,"Read":4602,"Registr":4603,"237":4604,"Ġinstances":4605,"AbstractBeanFactory":4606,"Ġcompat":4607,"IRA":4608,"))":4609,"air":4610,"ience":4611,"Ġtap":4612,"eners":4613,"Ġprefix":4614,"limit":4615,"ĠDE":4616,"117":4617,"130":4618,"ROM":4619,"result":4620,"Ġshowing":4621,"Ġcollection":4622,"Lock":4623,"scheduler":4624,"Ġshared":4625,"Ġpackages":4626,"ĠCoreFoundation":4627,"Ġassociated":4628,"icrosoft":4629,"Actual":4630,"Dynamic":4631,"Ġsrc":4632,"Ġbad":4633,"ĠRem":4634,"ride":4635,"Ġequ":4636,"227":4637,"ĠLinux":4638,"ributes":4639,"Ġprevent":4640,"HttpClient":4641,"Ġpassed":4642,"Locator":4643,":]":4644,"IS":4645,"Kroll":4646,"Need":4647,"buntu":4648,"package":4649,"ze":4650,"Ġep":4651,"Ġsay":4652,"Ġcamera":4653,"search":4654,"ĠTable":4655,"hop":4656,"Ġlot":4657,"observable":4658,"111":4659,"::_":4660,"Ġscope":4661,"Ġ--->":4662,"Ġstrategy":4663,"Ġindicator":4664,"Generic":4665,"ImageView":4666,"Ġartifact":4667,"ĠAuthenticating":4668,"DFS":4669,"corp":4670,"Ġdeprecated":4671,"Aware":4672,"Multi":4673,"Next":4674,"cb":4675,"cut":4676,"make":4677,"pare":4678,"tifact":4679,"uce":4680,"yml":4681,"deo":4682,"ention":4683,"ĠIDE":4684,"aged":4685,"elli":4686,"Ġgot":4687,"ayer":4688,"1120":4689,"conc":4690,"ViewProxy":4691,"Composite":4692,"worksp":4693,"ModuleContainer":4694,"Ġconsistent":4695,"Ġimportant":4696,"ServletFilter":4697,"ServletHandler":4698,"Ġprincipal":4699,"blobstore":4700,"Ġcharacters":4701,"databinding":4702,"runWithDefault":4703,"Home":4704,"Host":4705,"yg":4706,"Ġsources":4707,"enable":4708,"delete":4709,"urther":4710,"andom":4711,"Ġcomput":4712,"Progress":4713,"123":4714,"ĠThese":4715,"(),":4716,"268":4717,"ĠHere":4718,"Ġensure":4719,"ASE":4720,"Ġparser":4721,"ĠAPIs":4722,"Ġclicking":4723,"lsstsw":4724,"Ġoccurs":4725,"emporary":4726,"atter":4727,"Ġafw":4728,"remove":4729,"Ġmoodle":4730,"licy":4731,"Intercept":4732,"izen":4733,"UID":4734,"Ġresolve":4735,"449":4736,"mount":4737,"340":4738,"invokeFramework":4739,"TiViewProxy":4740,"888":4741,"Ġhandler":4742,"aaaa":4743,"Consumer":4744,".)":4745,"Maven":4746,"Monitor":4747,"Section":4748,"ded":4749,"ia":4750,"maven":4751,"payload":4752,"Ġtrun":4753,"render":4754,"ĠAccept":4755,"Ġnothing":4756,"ĠDis":4757,"formed":4758,"irm":4759,"ĠGoogle":4760,"Ġhook":4761,"Ġlisted":4762,"Ġrecord":4763,"Ġoptional":4764,"basicRun":4765,"Ġdisabled":4766,"Ġsmall":4767,"Ġperspective":4768,"Typed":4769,"txt":4770,"208":4771,"410":4772,"DIR":4773,"EX":4774,"Illegal":4775,"MBean":4776,"Metrics":4777,"Port":4778,"RC":4779,"dur":4780,"full":4781,"kroll":4782,"label":4783,"site":4784,"Ġpayload":4785,"sequ":4786,"Ġdur":4787,"Ġhadoop":4788,"ĠCRAM":4789,"Ġstud":4790,"Ġ-[":4791,"ĠDocument":4792,"ĠMES":4793,"runApplication":4794,"Ġcreates":4795,"control":4796,"Ġintro":4797,"configure":4798,"Generator":4799,"nipp":4800,"Ġverify":4801,"Ġassignment":4802,"ModuleContainerFilter":4803,"ServletFilterModuleContainerFilter":4804,"304":4805,"Ag":4806,"Down":4807,"MQ":4808,"Ġtakes":4809,"Ġactiv":4810,"Ġbundle":4811,"Ġpull":4812,"ĠRemove":4813,"Ġcommit":4814,"ĠMac":4815,"Ġarea":4816,"ĠBamboo":4817,"Ġchunk":4818,"Ġrepos":4819,"ngine":4820,"curs":4821,"Ġunderstand":4822,"Ġclosed":4823,"Ġcapture":4824,"\"}":4825,"Att":4826,"Fail":4827,"Messages":4828,"Ret":4829,"naps":4830,"vin":4831,"erify":4832,"ature":4833,"Ġali":4834,"Ġsamples":4835,"itude":4836,"Ġfoo":4837,"alvi":4838,"ĠĠĠčĊ":4839,"device":4840,"strometry":4841,"Ġorientation":4842,"aders":4843,"ĠCode":4844,"Ġguide":4845,"Install":4846,"ĠMDL":4847,"ĠBe":4848,"EventQueue":4849,"timeout":4850,"Ġyet":4851,"Resolver":4852,"Ġrecogn":4853,"0527":4854,"END":4855,"Ġthrows":4856,"Ġbreakpoint":4857,"52576":4858,"ĠSimulator":4859,"ĠDura":4860,"Ġ21809":4861,"Ġ2856":4862,"alvik":4863,"IP":4864,"around":4865,"dp":4866,"medi":4867,"ough":4868,"uc":4869,"iss":4870,"aved":4871,"development":4872,"Ġpress":4873,"Ġmapping":4874,"igation":4875,"186":4876,"2008":4877,"ĠLooking":4878,"****************":4879,"alibrate":4880,"155":4881,"314":4882,"511":4883,"801":4884,"Be":4885,"Ġ?":4886,"Ġboot":4887,"Ġmanager":4888,"Ġnested":4889,"ĠShould":4890,"executor":4891,"Ġscenar":4892,"aunched":4893,"153":4894,"240":4895,"Ġsimply":4896,"ĠQuery":4897,"Ġrefused":4898,"ĠOne":4899,"Ġdetermine":4900,"Ġmeeting":4901,".-":4902,"Target":4903,"javascript":4904,"size":4905,"ora":4906,"Ġsw":4907,"Ġsql":4908,"Ġrepresent":4909,"ĠRedis":4910,"Ġlanguage":4911,"ĠDatabase":4912,"ĠModules":4913,"objc":4914,"runUI":4915,"plex":4916,"161":4917,"Ġjavax":4918,"ssl":4919,"Ġrole":4920,"Refactor":4921,"ĠĠĠĠĠĠĠĠĠĠĠĠĠĠĠĠĠĠĠĠĠĠĠĠĠĠĠĠĠĠĠĠĠĠĠĠĠĠĠĠĠĠĠĠĠĠĠĠĠĠĠĠĠĠĠĠĠĠĠĠĠĠĠĠĠĠĠĠĠĠĠĠĠĠĠĠĠĠĠĠĠĠĠĠĠĠĠĠĠĠĠĠĠĠĠĠĠĠĠĠĠĠĠĠĠĠĠĠĠĠĠĠĠĠĠĠĠĠĠĠĠĠĠĠĠĠĠĠ":4922,"Argument":4923,"Transaction":4924,"423":4925,"Git":4926,"iper":4927,"ued":4928,"inbound":4929,"ored":4930,"item":4931,"Ġfinal":4932,"Ġmean":4933,"Ġ29":4934,"ĠAND":4935,"Ġones":4936,"andbox":4937,"Ġdemo":4938,"ĠRight":4939,"Ġallocator":4940,"ĠDashboard":4941,"ĠMaven":4942,"112":4943,"ĠFROM":4944,"Provide":4945,"boot":4946,"::__":4947,"ĠJIRA":4948,"53443":4949,"Ġlibraries":4950,"param":4951,"wever":4952,"Ġlater":4953,"Ġstrings":4954,"AbstractMessageHandler":4955,"Ġ2764":4956,"Ġpicker":4957,"lify":4958,"IsolatorTest":4959,"scribable":4960,".*":4961,">>":4962,"Clean":4963,"CSA":4964,"OP":4965,"Save":4966,"Sink":4967,"WS":4968,"lay":4969,"metadata":4970,"atistics":4971,"Ġbound":4972,"verter":4973,"Ġlock":4974,"Ġappend":4975,"ĠEvent":4976,"Ġ20150":4977,"Ġhowever":4978,"Scheduler":4979,"ierarchy":4980,"commands":4981,"While":4982,"404":4983,"Off":4984,"gs":4985,"meta":4986,"Ġcurl":4987,"Ġos":4988,"Ġthree":4989,"Ġhref":4990,"Ġcommun":4991,"Ġlines":4992,"apps":4993,"lected":4994,"ApplicationImpl":4995,"ĠExecutor":4996,"ĠExample":4997,"posed":4998,"Invok":4999,"Ġgoing":5000,"RequestFilter":5001,"AndroidRuntime":5002,"Ġeverything":5003,"PerRequestFilter":5004,"OncePerRequestFilter":5005,"napshot":5006,"344":5007,"cast":5008,"jdk":5009,"mulator":5010,"twitter":5011,"Ġfont":5012,"Ġfired":5013,"unknown":5014,"Ġmaking":5015,"Ġnet":5016,"status":5017,"ĠSome":5018,"pth":5019,"Ġexpl":5020,"stru":5021,"Ġ||":5022,"duction":5023,"Ġ};":5024,"Ġchecked":5025,"Ġopened":5026,"Ġzip":5027,"authentic":5028,"Ġarguments":5029,"215":5030,">,":5031,"MB":5032,"SER":5033,"Token":5034,"yote":5035,"Ġrealm":5036,"Ġrender":5037,"Ġreceive":5038,"ĠSocket":5039,"Ġhit":5040,"expected":5041,"Ġpromis":5042,"oll":5043,"1211":5044,"Ġworker":5045,"post":5046,"ĠResource":5047,"Ġcheckbox":5048,"Ġembed":5049,"ActivityThread":5050,"queue":5051,"Ġxmlns":5052,"ĠEditor":5053,"Ġfinish":5054,"DN":5055,"Flow":5056,"LD":5057,"case":5058,"dc":5059,"uuid":5060,"Ġlic":5061,"Ġpe":5062,"Ġinfrastructure":5063,"ĠTool":5064,"ĠSince":5065,"ĠAt":5066,"olves":5067,"Ġgu":5068,"Ġdocker":5069,"Ġspaces":5070,"aws":5071,"Ġconnections":5072,"ĠĠĉĉĉĉ":5073,"Ġregistered":5074,"Ġtech":5075,"secret":5076,"ĠMESOS":5077,"*.":5078,"All":5079,"\\\":":5080,"iag":5081,"jni":5082,"rint":5083,"umal":5084,"Ġgroovy":5085,"Inbound":5086,"forum":5087,"Release":5088,"ĠNow":5089,"library":5090,"ĠOR":5091,"ffic":5092,"462":5093,"posure":5094,"heme":5095,"Ġflags":5096,"Participant":5097,"Ġgrad":5098,"ĠDocker":5099,"Ġtried":5100,"ParentRunner":5101,"Registrar":5102,"iperumal":5103,"Nov":5104,"rtual":5105,"length":5106,"Ġnorm":5107,"Ġconversion":5108,"Ġ'#":5109,"Console":5110,"Ġlow":5111,"184":5112,"----------":5113,"ĠInter":5114,"Handling":5115,"Ġchecks":5116,"ListenerContainer":5117,"backup":5118,"Ġpartition":5119,"Ġlaunching":5120,"Ġstored":5121,"Ġpopup":5122,"Ġproduction":5123,"ĠDescription":5124,"Ġcharacter":5125,"coding":5126,"512":5127,":\\\\":5128,"Current":5129,"LT":5130,"Move":5131,"['":5132,"haps":5133,"Ġutil":5134,"ename":5135,"Ġ{\"":5136,"170":5137,"173":5138,"itories":5139,"Ġenough":5140,"Ġframeworks":5141,"Ġentity":5142,"Ġapplications":5143,"bda":5144,"Ġeasy":5145,"Observable":5146,"400":5147,"CL":5148,"][":5149,"password":5150,"left":5151,"ĠAd":5152,"ĠClass":5153,"ĠPSF":5154,"Ġalong":5155,"Init":5156,"ĠĠĠĠĠĠĠĠĠĠĠĠĠĠĠĠĠĠĠĠĠĠĠĠĠ":5157,"commit":5158,"Import":5159,"ĠHDFS":5160,"276":5161,"trigger":5162,"anner":5163,"Ġvarious":5164,"doSend":5165,"screen":5166,"newkey":5167,"){":5168,"209":5169,"7530":5170,"939":5171,"VM":5172,"eas":5173,"reference":5174,"itchen":5175,"Ġpid":5176,"Ġplease":5177,"Ġdomain":5178,"rict":5179,"Export":5180,"ĠWith":5181,"ĠĠĠĠĠĠĠĠĠĠĠĠĠĠĠĠĠĠĠĠ":5182,"force":5183,"component":5184,"ĠNCSA":5185,"504":5186,"ĠBatch":5187,"346":5188,"redacted":5189,"Ġposs":5190,"ĠConnection":5191,"Ġcontents":5192,"parser":5193,"âĢĻ":5194,"Ġmaintenance":5195,"Ġdevelopers":5196,"ĠLoading":5197,"Ġprototype":5198,"CATE":5199,"Ġapproach":5200,"ursor":5201,"Ġpersistent":5202,"456":5203,"OVER":5204,"xer":5205,"Ġczar":5206,"ali":5207,"Ġinstrument":5208,"Ġok":5209,"amily":5210,"Ġhdfs":5211,"atcher":5212,"151":5213,"447":5214,"INST":5215,"Ġlogic":5216,"384":5217,"461":5218,"305":5219,"notify":5220,"depend":5221,"TIMOB":5222,"216":5223,"600":5224,"IOS":5225,"JUnit":5226,"Vis":5227,"faces":5228,"samples":5229,"Ġĉ":5230,"Ġturn":5231,"only":5232,"Ġwon":5233,"otential":5234,"istory":5235,"Ġra":5236,"Ġlaunched":5237,"ĠFQ":5238,"262":5239,"button":5240,"Ġemail":5241,"Ġchoose":5242,"Ġboard":5243,"latest":5244,"Polling":5245,"ĠAPPEND":5246,"TypedListener":5247,"311":5248,"Engine":5249,"Issue":5250,"caches":5251,"eo":5252,"Ġ----":5253,"Ġsync":5254,"ett":5255,"Ġred":5256,"ĠTab":5257,"Ġbegin":5258,"ĠCXF":5259,"ackson":5260,"ially":5261,"55566":5262,"ĠTiDrawableReference":5263,"Ġreplic":5264,"Ġchanging":5265,"ĠCons":5266,"handlers":5267,"Investigate":5268,"LEASE":5269,"Ġdetail":5270,"Ġentire":5271,"Parameter":5272,"Write":5273,"Ġcompletion":5274,"Ġpoints":5275,"Ġwarnings":5276,"caught":5277,"Ġproduct":5278,"Ġwritten":5279,"Ġwhole":5280,"Ġcontinue":5281,"ĠâĶľ":5282,"ĠSkipping":5283,"ellij":5284,"alvikvm":5285,"401":5286,"ME":5287,"Security":5288,"cus":5289,"vate":5290,"{\"":5291,"Ġ%":5292,"requ":5293,"ĠThen":5294,"ĠSE":5295,"Ġdevices":5296,"ĠDate":5297,"property":5298,"ird":5299,"Ġwhy":5300,"Ġtested":5301,"Changed":5302,"239":5303,"());":5304,"ĠHel":5305,"ipeline":5306,"Ġfailing":5307,"Ġdisplays":5308,"flags":5309,"Integration":5310,"ĠWhat":5311,"17458":5312,"Ġwriting":5313,"Ġexecuted":5314,"ĠTISTUD":5315,"becla":5316,"Ġstudent":5317,"!/":5318,"329":5319,"body":5320,"gn":5321,"Ġsk":5322,"Ġsaved":5323,"Ġduplicate":5324,"urable":5325,"005":5326,"imes":5327,"ĠAg":5328,"Ġcondition":5329,"Properties":5330,"intellij":5331,"(){":5332,"duct":5333,"Ġip":5334,"clud":5335,"most":5336,"achines":5337,"Ġservers":5338,"Ġstreams":5339,"Param":5340,"Ġcompile":5341,"Ġeasily":5342,"DebugConnection":5343,"ĠFQDN":5344,"='.":5345,"Cp":5346,"go":5347,"erved":5348,"Ġsupp":5349,"ites":5350,"analysis":5351,"Ġdir":5352,"hough":5353,"Ġ138":5354,"emulator":5355,"Ġstand":5356,"kevin":5357,"Ġnotes":5358,"Constructor":5359,"apped":5360,"ĠWr":5361,"ĠFin":5362,"121":5363,"131":5364,"146":5365,"156":5366,"ASH":5367,"Ġparse":5368,"ĠAdded":5369,"895":5370,"Schema":5371,"arness":5372,"ĠKitchen":5373,"Ġ2639":5374,"sdl":5375,"ĠUpdates":5376,"Ġalgorithm":5377,"355":5378,"406":5379,":\"":5380,"AX":5381,"Mac":5382,"PRO":5383,"URI":5384,"ae":5385,"release":5386,"Ġfit":5387,"Ġpixel":5388,"Ġinit":5389,"Ġdrag":5390,"Ġisolator":5391,"Ġ25":5392,"ica":5393,"olation":5394,"runAsync":5395,"ĠEmulator":5396,"ĠLite":5397,"Ġunique":5398,"createView":5399,"Ġsocket":5400,"spec":5401,"ContainerRegistrar":5402,":'#":5403,"RELEASE":5404,"ExecutionInterceptor":5405,"Ġseconds":5406,"Ġtimed":5407,"scripting":5408,"ÂłĠ":5409,"ĠDeployment":5410,"allel":5411,"ĠâĶľâĶĢâĶĢ":5412,"runAsyncMessages":5413,"CP":5414,"pull":5415,"Ġcorre":5416,"Ġpush":5417,"astic":5418,"ulk":5419,"usasl":5420,"exp":5421,"import":5422,"ĠCloud":5423,"Ġless":5424,"Ġexper":5425,"aniz":5426,"116":5427,"ubuntu":5428,"136":5429,"147":5430,"231":5431,"AbstractApplicationContext":5432,"ĠInvalid":5433,"Ġsoft":5434,"303":5435,"ĠConnect":5436,"ĠVM":5437,"Ġpreview":5438,"userPassword":5439,"Ġupdating":5440,"Upgrade":5441,"Ġbuttons":5442,"Ġcontaining":5443,"ATH":5444,"RIDE":5445,"cmusasl":5446,"Selector":5447,"ĠEnter":5448,"initialize":5449,"secretCRAM":5450,"OVERRIDE":5451,"cmusaslsecretCRAM":5452,"CON":5453,"HER":5454,"Location":5455,"Machines":5456,"Rem":5457,"has":5458,"messaging":5459,"void":5460,"ully":5461,"ambda":5462,"holder":5463,"acloud":5464,"active":5465,"ĠWill":5466,"ĠĠĠĠĠĠĠĠĠĠĠĠĠĠĠĠĠĠĠ":5467,"portal":5468,"Ġcancel":5469,"ĠJDBC":5470,"Ġios":5471,"477":5472,"resource":5473,"Ġcallback":5474,"Ġviews":5475,"afw":5476,"Collection":5477,"Ġmanifest":5478,"Ġplatforms":5479,"JavaVirtual":5480,"Ġediting":5481,"Statement":5482,"ĠCreated":5483,"AND":5484,"Ġcertific":5485,"umbers":5486,"Ġdestroy":5487,"workshop":5488,"ĠWSDL":5489,"JavaVirtualMachines":5490,"655":5491,"658":5492,"Cgroup":5493,"ECT":5494,"SI":5495,"Talend":5496,"mut":5497,"Ġapi":5498,"Ġtoken":5499,"Ġpc":5500,"Ġpur":5501,"ĠShell":5502,"pted":5503,"ector":5504,"ĠCF":5505,"ĠCol":5506,"osed":5507,"ĠPort":5508,"Ġ3022":5509,"Ġassert":5510,"udo":5511,"143":5512,"Apple":5513,"502":5514,"Deferred":5515,"178":5516,"1600":5517,"ĠURI":5518,"tical":5519,"createLabel":5520,"TestCase":5521,"Ġprocesses":5522,"Ġgeneral":5523,"FileSystem":5524,"ATE":5525,"Ġ./":5526,"lsstcorp":5527,"WebApplicationImpl":5528,"push":5529,"Ġcleanup":5530,"windowProc":5531,"-------------":5532,"HOME":5533,"bf":5534,"dialog":5535,"jb":5536,"management":5537,"oard":5538,"pag":5539,"pache":5540,"Ġfetch":5541,"Ġwiki":5542,"sem":5543,"imps":5544,"Ġoffer":5545,"Ġprovision":5546,"emfire":5547,"ift":5548,"apply":5549,"Ġloop":5550,"5050":5551,"Delete":5552,"199":5553,"Ġinstaller":5554,"ĠTiApp":5555,"273":5556,"Ġencounter":5557,"aste":5558,"ListView":5559,"ASK":5560,"Ġheaders":5561,"Ġanything":5562,"Ġremoving":5563,"Ġinterfaces":5564,"ĠImport":5565,"SSL":5566,"Ġstruct":5567,"Ġ&&":5568,"auto":5569,"Ġprovides":5570,"Ġpick":5571,"ĠStarting":5572,"AsyncProcessor":5573,"Ġdatas":5574,"ĠValue":5575,"MPTY":5576,"204":5577,"IFY":5578,"more":5579,"tle":5580,"heet":5581,"itect":5582,"ilities":5583,"Ġrepl":5584,"ĠText":5585,"exec":5586,"appcel":5587,"Ġlost":5588,"132":5589,"Ġdouble":5590,"176":5591,"ĠThread":5592,"Ġseen":5593,"ĠLSE":5594,"ĠOver":5595,"AbstractSub":5596,"249":5597,"ĠGet":5598,"HandPath":5599,"ipes":5600,"HandlerService":5601,"ibly":5602,"criptor":5603,"Ġpaths":5604,"Ġgrade":5605,"auth":5606,"ĠNotice":5607,"director":5608,"AWSS":5609,"8080":5610,"RightHandPath":5611,"RightHandPathRule":5612,"622":5613,"606":5614,"<<":5615,"px":5616,"sink":5617,"typ":5618,"uep":5619,"Ġes":5620,"ĠĠâĢĤ":5621,"reenshot":5622,"Ġcategory":5623,"Ġfeedback":5624,"als":5625,"Ġword":5626,"ĠTim":5627,"ĠTRUN":5628,"otal":5629,"ĠCC":5630,"ĠDist":5631,"ĠMay":5632,"runDeferred":5633,"115":5634,"ĠĠĠĠĠĠĠĠĠĠĠĠĠĠĠĠĠĠĠĠĠĠĠĠĠĠĠĠĠĠ":5635,"124":5636,"ĠLive":5637,"584":5638,"Ġfold":5639,"values":5640,"Ġclasspath":5641,"Ġconfigurations":5642,"Ġopens":5643,"Ġ87":5644,"REST":5645,"Frameworks":5646,"ĠOnly":5647,"Ġkind":5648,"Ġdiscover":5649,"Ġconfirm":5650,"description":5651,"Ġprior":5652,"ProgramData":5653,"Ġshortcut":5654,"Header":5655,"ueprint":5656,"ĠTRUNCATE":5657,"runDeferredEvents":5658,"HASH":5659,"KE":5660,"Nio":5661,"PHP":5662,"haus":5663,"panel":5664,"Ġq":5665,"Ġtemporary":5666,"lex":5667,"Ġoptim":5668,"ĠSystem":5669,"abling":5670,"Ġdev":5671,"ĠNeed":5672,"298":5673,"Ġattributes":5674,"ĠRepository":5675,"Ġstarts":5676,"Ġ168":5677,"Ġgoogle":5678,"ProjectWizard":5679,"KeeperException":5680,"Ġbehaviour":5681,"SocketImpl":5682,"RunnableLock":5683,"Callback":5684,"Ġregard":5685,"lign":5686,"azy":5687,"ĠLocator":5688,"']);":5689,"msgSend":5690,"ĠFirefly":5691,"ependency":5692,"InboundChannelAdapter":5693,"3234":5694,"count":5695,"iate":5696,"iPhone":5697,"sl":5698,"Ġerr":5699,"reconc":5700,"Ġpool":5701,"asali":5702,"Ġmonitor":5703,"---":5704,"ĠSSL":5705,"acity":5706,"thers":5707,"ĠEMPTY":5708,"505":5709,"181":5710,"ĠThey":5711,"INT":5712,"ants":5713,"762679":5714,"Ġvirtual":5715,"Ġvalidate":5716,"Ġcompleted":5717,"Preferences":5718,"Ġ3028":5719,"gorithms":5720,"201513":5721,"USER":5722,"ĠUpdating":5723,"Ġgreat":5724,"CommonReconc":5725,"287762679":5726,"Invoker":5727,"2877626796":5728,"=-":5729,"AIT":5730,"AGA":5731,"Hystrix":5732,"NAM":5733,"Present":5734,"earch":5735,"layout":5736,"save":5737,"when":5738,"Ġsnipp":5739,"Ġcalc":5740,"ison":5741,"rout":5742,"Ġpotential":5743,"Ġmanag":5744,"oment":5745,"hoto":5746,"ĠSending":5747,"plit":5748,"ĠCr":5749,"Ġraw":5750,"ĠRapid":5751,"ĠPath":5752,"appear":5753,"ended":5754,"134":5755,"Appcelerator":5756,"graph":5757,"152":5758,"158":5759,"256":5760,"ixed":5761,"Using":5762,"Ġfailures":5763,"Ġlistener":5764,"Ġquick":5765,"TitaniumSDK":5766,"741":5767,"Ġspecial":5768,"Ġentries":5769,"Auth":5770,"streams":5771,"Writer":5772,"Ġmatching":5773,"return":5774,"ĠOSG":5775,"VERIFY":5776,"Ġaccording":5777,"Ġdeleting":5778,"21045":5779,"ĠTrans":5780,"Ġcertain":5781,"GROUPS":5782,"Ġepic":5783,"ĠDuraCloud":5784,"ArgumentException":5785,"scribableChannel":5786,"='.$":5787,"AbstractSubscribableChannel":5788,"AGAINST":5789,"Dashboard":5790,"Hyper":5791,"Post":5792,"vas":5793,"wise":5794,"{{":5795,"Ġscons":5796,"Ġfurther":5797,"alk":5798,"dec":5799,"Ġinsert":5800,"ĠTO":5801,"istic":5802,"Ġdefin":5803,"ĠWarning":5804,"former":5805,"ĠStore":5806,"ĠStack":5807,"224":5808,"questions":5809,"ĠGit":5810,"mous":5811,"mins":5812,"ĠRef":5813,"ancel":5814,"ITE":5815,"Reflection":5816,"Format":5817,"Ġconnected":5818,"Ġdebugger":5819,"Ġmodal":5820,"classes":5821,"DeploymentListener":5822,"ĠDetect":5823,"Iterating":5824,"88899":5825,"Ġsoftware":5826,"HERE":5827,"160088899":5828,"&)":5829,"207":5830,"317":5831,"Temp":5832,"aj":5833,"bol":5834,"rl":5835,"though":5836,"vanced":5837,"Ġu":5838,"algorithms":5839,"ĠTime":5840,"adcast":5841,"images":5842,"ĠPar":5843,"102":5844,"ople":5845,"comm":5846,"558":5847,"AbstractService":5848,"Ġlogged":5849,"Ġfilesystem":5850,"Ġoversub":5851,"Ġending":5852,"ymbol":5853,"recipes":5854,"ĠComp":5855,"Ġloaded":5856,"tooling":5857,"Ġscreenshots":5858,"ĠWhile":5859,"BlobStore":5860,"Ġextra":5861,"PreferenceDialog":5862,"ĠRegistered":5863,"313":5864,"615":5865,"Date":5866,"FC":5867,"Fokke":5868,"Hidden":5869,"Nav":5870,"Secure":5871,"gz":5872,"Ġquestion":5873,"rep":5874,"Ġbind":5875,"ulated":5876,"Ġnumbers":5877,"Ġreferences":5878,"chain":5879,"ĠACS":5880,"External":5881,"ĠPublish":5882,"144":5883,"166":5884,"ĠUbuntu":5885,"Ġserial":5886,"Ġusername":5887,"368":5888,"Load":5889,"Ġcheckpoint":5890,"Ġdiff":5891,"ĠServices":5892,"Ġflak":5893,"onymous":5894,"Ġoperator":5895,"dater":5896,"Ġdefinitions":5897,"Ġrelevant":5898,"Ġquota":5899,"Ġembedded":5900,"ettuce":5901,"DI":5902,"DT":5903,"Mapping":5904,"Network":5905,"Retry":5906,"off":5907,"pri":5908,"sign":5909,"enus":5910,"Ġbas":5911,"Ġpres":5912,"ceiver":5913,"Ġinbound":5914,"ently":5915,"child":5916,"ĠIs":5917,"ĠTDQ":5918,"ĠSO":5919,"ĠSub":5920,"ĠCan":5921,"Execut":5922,"104":5923,"Step":5924,"183":5925,"Ġlet":5926,"169":5927,"197":5928,"AbstractPolling":5929,"292":5930,"mock":5931,"overage":5932,"Ġconfigurable":5933,"57018":5934,"loadClass":5935,"537":5936,"ĠReport":5937,"Ġinstalling":5938,"weight":5939,"Ġsystems":5940,"ĠTests":5941,"Ġinvolves":5942,"ĠSlaveRecoveryTest":5943,"Ġtargets":5944,"Ġvisual":5945,"interceptors":5946,"ĠArch":5947,"Ġsplash":5948,"macosx":5949,"ernel":5950,"Ġtrunc":5951,"pthread":5952,"xerces":5953,"?)":5954,"Alert":5955,"Count":5956,"Custom":5957,"CLO":5958,"eated":5959,"Ġ64":5960,"ores":5961,"alert":5962,"style":5963,"Ġothers":5964,"aming":5965,"ĠTASK":5966,"ĠSink":5967,"udit":5968,"codehaus":5969,"120":5970,"Ġlead":5971,"556":5972,"ĠHadoop":5973,"476":5974,"Ġeng":5975,"logging":5976,"Listeners":5977,"ĠprocessCcd":5978,"Ġstatistics":5979,"Ġgoes":5980,"ĠUIKit":5981,"Ġconsum":5982,"Ġ940":5983,"Ġmodify":5984,"ĠScheduler":5985,"Ġindicators":5986,"Ġincre":5987,"Ġmechanisms":5988,"Ġexecuting":5989,"TYPE":5990,"Ġretrieve":5991,"Ġwaiting":5992,"/#!/":5993,"ervation":5994,"AwareInterceptor":5995,"619":5996,"ZE":5997,"border":5998,"jenkins":5999,"ook":6000,"rs":6001,"tk":6002,"Ġfact":6003,"lies":6004,"Ġmult":6005,"Ġop":6006,"Ġanaly":6007,"agent":6008,"106":6009,"gether":6010,"ĠWHERE":6011,"Ġuncaught":6012,"580":6013,"Ġretry":6014,"375":6015,"Plan":6016,"Ġlibprocess":6017,"Ġshutdown":6018,"ĠAdding":6019,"ErrorHandling":6020,"ServletContainer":6021,"SocketInputStream":6022,"cgroups":6023,"WizardDialog":6024,"azon":6025,"Ġ------------------------------------------------":6026,"Protocol":6027,"ĠHelp":6028,"NAME":6029,"Basic":6030,"Cached":6031,"Calendar":6032,"Options":6033,"Pack":6034,"slaves":6035,"vocable":6036,"Ġsummary":6037,"isolator":6038,"anc":6039,"Ġindiv":6040,"aml":6041,"ĠSp":6042,"ides":6043,"users":6044,"ĠActivity":6045,"ĠRabbit":6046,"Extr":6047,"Extension":6048,"ĠPhone":6049,"Ġshouldn":6050,"ĠGener":6051,"ĠInc":6052,"Ġdefaults":6053,"Ġchecking":6054,"Ġhandled":6055,"Ġvideo":6056,"fcasali":6057,"interval":6058,"ĠSearch":6059,"ĠIntegration":6060,"000000000000":6061,"ĠEdit":6062,"~~~~":6063,"fedora":6064,"////////////////":6065,"fficient":6066,"Ġindivid":6067,"300":6068,"323":6069,"Can":6070,"Clover":6071,"Close":6072,"Driver":6073,"Harness":6074,"Red":6075,"icker":6076,"pipe":6077,"tml":6078,"tree":6079,"wm":6080,"ension":6081,"Ġfar":6082,"Ġpatch":6083,"ĠSuggest":6084,"ĠCamera":6085,"Ġdeal":6086,"strap":6087,"ĠJul":6088,"00007":6089,"577":6090,"response":6091,"ManagerImpl":6092,"Ġgeneric":6093,"ĠQu":6094,"ĠApple":6095,"Ġexceptions":6096,"Ġallowed":6097,"Ġgroups":6098,"Hello":6099,"Ġkill":6100,"Ġtoolbar":6101,"Ġgives":6102,"OpenStrategy":6103,"ilingStrategy":6104,"packages":6105,"ScheduledThreadPoolExecutor":6106,"GenericMessagingTemplate":6107,"IteratingFilterChain":6108,"AbstractPollingEndpoint":6109,"##":6110,".$":6111,"CGROUPS":6112,"Route":6113,"Show":6114,"Win":6115,"bind":6116,"ls":6117,"ta":6118,"Ġsli":6119,"Ġbring":6120,"changes":6121,"Ġhang":6122,"ĠPack":6123,"ĠPID":6124,"ĠPOST":6125,"ĠNav":6126,"ĠNPE":6127,"503":6128,"Ġupon":6129,"())":6130,"createTableView":6131,"369":6132,"Ġsupports":6133,"TiUI":6134,"Ġdirectories":6135,"Form":6136,"Array":6137,"Artifact":6138,"Decor":6139,"Keyboard":6140,"Results":6141,"apelet":6142,"EntityManager":6143,"Ġdescribed":6144,"347":6145,"549":6146,"Pad":6147,"VGA":6148,"ZN":6149,"cent":6150,"parent":6151,"ermin":6152,"Ġtags":6153,"Ġfill":6154,"Ġfully":6155,"demo":6156,"Ġpages":6157,"Ġmention":6158,"iced":6159,"ember":6160,"lying":6161,"acts":6162,"riven":6163,"Ġ09":6164,"Ġ*/":6165,"perform":6166,"Ġevalu":6167,"Ġeups":6168,"ĠLO":6169,"ives":6170,"Ġimmedi":6171,"238":6172,"Ġoutside":6173,"ĠReading":6174,"astro":6175,"HandlerMethod":6176,"Updater":6177,"ĠDelete":6178,"Ġlooking":6179,"gistration":6180,"Ġprotobuf":6181,"Ġeasier":6182,"================================":6183,"Ġmoving":6184,"23751":6185,"duracloud":6186,"Ġflaky":6187,"Dist":6188,"DER":6189,"JO":6190,"Live":6191,"Lazy":6192,"Mo":6193,"Names":6194,"Width":6195,"iod":6196,"just":6197,"match":6198,"rb":6199,"Ġfire":6200,"Ġmount":6201,"Ġmoment":6202,"ĠTESB":6203,"ĠSH":6204,"ĠSL":6205,"adi":6206,"usion":6207,"ists":6208,"Ġconstruct":6209,"109":6210,"proceed":6211,"141":6212,"ĠName":6213,"180":6214,"Ġscale":6215,"Ġsequ":6216,"refresh":6217,"ĠRead":6218,"Address":6219,"Ġsuccessful":6220,"spi":6221,"Ġbackup":6222,"Ġopening":6223,"Ġrecovered":6224,"Ġcompiler":6225,"Ġready":6226,"where":6227,"TabGroup":6228,"JSON":6229,"Ġexpand":6230,"basicBuild":6231,"Ġimprovement":6232,"Ġterminal":6233,"Ġterminated":6234,"ĠProcessing":6235,"Ġblank":6236,"activity":6237,"Ġexplicitly":6238,"Flux":6239,"straint":6240,"Ġpeople":6241,"CLOVER":6242,"319":6243,"Bound":6244,"Hierarchy":6245,"Microsoft":6246,"NI":6247,"Spec":6248,"ULE":6249,"Zyg":6250,"can":6251,"hsc":6252,"jp":6253,"tap":6254,"head":6255,"rel":6256,"Ġfetcher":6257,"Ġfault":6258,"det":6259,"Ġmer":6260,"umes":6261,"ĠRoute":6262,"ainers":6263,"229":6264,"ĠLink":6265,"164":6266,"157":6267,"283":6268,"Ġlisting":6269,"ĠVis":6270,"oteInit":6271,"enced":6272,"Ġreported":6273,"Ġ874":6274,"DataBuilderImpl":6275,"Ġdistributed":6276,"ĠPlatform":6277,"Perform":6278,"ĠâĢľ":6279,"ĠInstead":6280,"Ġmigration":6281,"operation":6282,"JsonOutput":6283,"Background":6284,"ZygoteInit":6285,"Lettuce":6286,"SO":6287,"TE":6288,"\\.":6289,"xsd":6290,"Ġ??":6291,"Ġcloud":6292,"Ġreload":6293,"ĠIde":6294,"ĠTask":6295,"Ġgive":6296,"complete":6297,"Ġweek":6298,"ĠStep":6299,"139":6300,"553":6301,"Ġjson":6302,"Ġchart":6303,"Applications":6304,"560":6305,"ĠInitial":6306,"Ġ##":6307,"resolve":6308,"anning":6309,"Ġrot":6310,"ConnectionFactory":6311,"Ġportal":6312,"ATION":6313,"Services":6314,"Descriptor":6315,"Ġcounter":6316,"HTML":6317,"SubLocator":6318,"ĠPerformed":6319,"Ġmoved":6320,"TwitterSearch":6321,"IllegalArgumentException":6322,"Ġfolders":6323,"Ab":6324,"Feature":6325,"KS":6326,"bundle":6327,"black":6328,"clean":6329,"daf":6330,"Ġsays":6331,"ingest":6332,"stop":6333,"Ġreceiv":6334,"hold":6335,"ĠSpec":6336,"abilities":6337,"Storage":6338,"provider":6339,"progress":6340,"ubles":6341,"UILD":6342,"ĠLocation":6343,"Ġleader":6344,"230":6345,"342":6346,"acher":6347,"roles":6348,"setup":6349,"668":6350,"FactoryBean":6351,"parison":6352,"Ġmaybe":6353,"configuration":6354,"CommandContributionItem":6355,"Ġfixes":6356,"ootprint":6357,"Ġprim":6358,"containerizer":6359,"Ġvisit":6360,"Ġminimum":6361,"args":6362,"ĠSTS":6363,"Ġbroadcast":6364,"documentation":6365,"AopProxy":6366,"Ġcompatible":6367,"ĠAcceptance":6368,"Ġrepositories":6369,"dialogs":6370,"Ġindividual":6371,"SubLocatorRule":6372,"\").":6373,"Activ":6374,"Aptana":6375,"LS":6376,"Man":6377,"Over":6378,"Qserv":6379,"]]":6380,"bus":6381,"browser":6382,"tp":6383,"Ġbest":6384,"Ġinstru":6385,"Ġmetrics":6386,"Ġdynamic":6387,"export":6388,"ĠRest":6389,"Ġexpose":6390,"Ġleading":6391,"Char":6392,"0612":6393,"Ġchain":6394,"2752":6395,"464":6396,"Ġoutline":6397,"Ġsimp":6398,"Ġselecting":6399,"Ġwrapper":6400,"661":6401,"oving":6402,"webservice":6403,"handleRequest":6404,"ITS":6405,"Ġobs":6406,"iteria":6407,"17401":6408,"Ġdidn":6409,"Ġdatam":6410,"Validation":6411,"Directory":6412,"999999999999":6413,"ĠIDEA":6414,"Ġpromise":6415,"ITEID":6416,"Ġengine":6417,"TwitterSearchChannelAdapter":6418,",\\\"":6419,"212":6420,"407":6421,"Active":6422,"Batch":6423,"Folder":6424,"Single":6425,"here":6426,"hdfs":6427,"uff":6428,"input":6429,"Ġsem":6430,"ised":6431,"Ġmac":6432,"Ġmock":6433,"storage":6434,"Ġdalvikvm":6435,"ĠIssue":6436,"ĠSUI":6437,"ĠClean":6438,"ĠPo":6439,"Converter":6440,"Ġvs":6441,"ĠJDK":6442,"ĠBase":6443,"AbstractBundle":6444,"289":6445,"perture":6446,"ffort":6447,"ĠRegistry":6448,"201506":6449,"DefaultClassLoader":6450,"aken":6451,"ĠDelet":6452,"inceton":6453,"Commands":6454,"oolean":6455,"Annotation":6456,"Ġimprovements":6457,"selected":6458,"easure":6459,"mutex":6460,"TitaniumSDKUpdater":6461,"adius":6462,"438":6463,"Ġtell":6464,"Ġabstract":6465,"Ġsense":6466,"Ġcalendar":6467,"itive":6468,"Ġpom":6469,"omes":6470,"Ġhidden":6471,"ĠAccess":6472,"plan":6473,"Ġdeliver":6474,"Ġrabbit":6475,"upload":6476,"prise":6477,"11201513":6478,"=\"${":6479,"Ġnewly":6480,"233":6481,"Ġinstant":6482,"itional":6483,"pool":6484,"56447":6485,"ĠIndex":6486,"Ġplaces":6487,"ĠExamples":6488,"ĠĠĉĠĠĠ":6489,"795":6490,"Ġ500":6491,"dkDynamic":6492,"posix":6493,"Ġdeploying":6494,"sets":6495,"Ġtabs":6496,"TaskExecutor":6497,"Ġnaming":6498,"ĠContext":6499,"Ġminut":6500,"Ġclosing":6501,"Ġ201311201513":6502,"assignment":6503,"coded":6504,"Ġalgorithms":6505,"ĠLevel":6506,"21354":6507,"2962752":6508,"2272962752":6509,"cursor":6510,"ĠSELECT":6511,"CpEntityManager":6512,"Presentation":6513,"1740121354":6514,")]":6515,"/\"":6516,"At":6517,"Google":6518,"Global":6519,"LY":6520,"VI":6521,"gg":6522,"ks":6523,"sal":6524,"Ġamount":6525,"Ġsur":6526,"Ġslow":6527,"Ġcp":6528,"Ġcursor":6529,"ctor":6530,"ala":6531,"Ġtogether":6532,"Ġduplic":6533,"Ġthing":6534,"ĠCP":6535,"ortun":6536,"Ġexact":6537,"princeton":6538,"ĠMan":6539,"Ġloader":6540,"Sty":6541,"libs":6542,"Ġunknown":6543,"Serial":6544,"471":6545,"589":6546,"MessageBus":6547,"fox":6548,"egrate":6549,"Ġrequested":6550,"671":6551,"HttpServlet":6552,"Scroll":6553,"Ġimported":6554,"ĠBuilder":6555,"cedure":6556,"TION":6557,"connector":6558,"ĠSettings":6559,"Ġtries":6560,"ĠMySQL":6561,"Details":6562,"Ġattachment":6563,"Ġencountered":6564,"CommonReconcilingStrategy":6565,"ajor":6566,"dkDynamicAopProxy":6567,"MX":6568,"Sp":6569,"dated":6570,"now":6571,"ĠĠĠĠĠĠčĊ":6572,"Ġbus":6573,"Ġannotation":6574,"Ġdr":6575,"ids":6576,"Ġhome":6577,"003":6578,"isting":6579,"ĠCall":6580,"andsc":6581,"Ġcome":6582,"Ġcomplex":6583,"ĠPart":6584,"Invoke":6585,"rompt":6586,"Ġasync":6587,"Statistics":6588,"runWorker":6589,"ĠFix":6590,"Problem":6591,"Ġrespon":6592,"391":6593,"290":6594,"472":6595,"Ġquite":6596,"Ġcalling":6597,"Ġarm":6598,"Ġdisappear":6599,"deployments":6600,"XPECT":6601,"ĠOnce":6602,"Ġmaintain":6603,"Ġadministr":6604,"Ġhierarchies":6605,"RuntimeException":6606,"Ġcopying":6607,"CATION":6608,"findClass":6609,"Ġbinary":6610,"Ġsplit":6611,"Interface":6612,"Ġscenario":6613,"Ġlicense":6614,"SIZE":6615,"andscape":6616,"Ass":6617,"Frame":6618,"JdkDynamicAopProxy":6619,"POR":6620,"Range":6621,"bash":6622,"cr":6623,"cloud":6624,"mult":6625,"yIndicator":6626,"zb":6627,"Ġsnapshot":6628,"role":6629,"Ġfig":6630,"allow":6631,"Ġinform":6632,"ula":6633,"Ġrename":6634,"agr":6635,"Ġforward":6636,"imal":6637,"rome":6638,"ĠWizard":6639,"Ġeffort":6640,"ĠEnable":6641,"198":6642,"Ġ40":6643,"ĠBoard":6644,"286":6645,"mouse":6646,"Ġlive":6647,"480":6648,"Ġoverview":6649,"Configure":6650,"netty":6651,"Ġrestore":6652,"Documentation":6653,"strings":6654,"Generated":6655,"Ġcompletely":6656,"ĠTypeParam":6657,"Ġboost":6658,"BusyIndicator":6659,"Creation":6660,"protobuf":6661,"Ġallocate":6662,"jboss":6663,"itecture":6664,"0000000000001":6665,".</":6666,"308":6667,"674":6668,"Ide":6669,"Note":6670,"SITEID":6671,"free":6672,"jackson":6673,"options":6674,"pared":6675,"orientation":6676,"atis":6677,"reviews":6678,"Ġincons":6679,"limin":6680,"avail":6681,"Ġoracle":6682,"ĠSprint":6683,"Ġhtml":6684,"ĠApache":6685,"Ġrx":6686,"Ġ['":6687,"Ġ[~":6688,"Ġexplorer":6689,"Ġjs":6690,"oks":6691,"ĠBrowser":6692,"()}}":6693,"Ġsets":6694,"leton":6695,"Ġoutbound":6696,"aching":6697,"ributor":6698,"Ġgenerating":6699,"Ġoverride":6700,"Ġdetailed":6701,"Ġtransfer":6702,"ameters":6703,"ĠAllow":6704,"Track":6705,"writ":6706,"filesystem":6707,"RunnableAdapter":6708,"OutOf":6709,"Ġcontroller":6710,"scribed":6711,"Ġ2459":6712,"UTF":6713,"Ġcapabilities":6714,"ariable":6715,"generate":6716,"ĠOSGi":6717,"417":6718,"CO":6719,"Db":6720,"Drop":6721,"Driven":6722,"Face":6723,"MY":6724,"Wait":6725,"after":6726,"ci":6727,"eve":6728,"folder":6729,"ked":6730,"ral":6731,"Ġknown":6732,"erve":6733,"ino":6734,"Ġsec":6735,"Ġsynchron":6736,"Ġsprint":6737,"Ġcent":6738,"Ġcop":6739,"Ġframe":6740,"Ġtouch":6741,"decl":6742,"ilation":6743,"pper":6744,"section":6745,"ĠAS":6746,"igator":6747,"orted":6748,"ĠRFC":6749,"Ġvolume":6750,"Ġear":6751,"ĠStatus":6752,"223":6753,"232":6754,"080":6755,"270":6756,"243":6757,"345":6758,"463":6759,"469":6760,"spag":6761,"Ġgeneration":6762,"Ġpermissions":6763,"Ġperhaps":6764,"Ġoverr":6765,"nodejs":6766,"Ġgoal":6767,"rollers":6768,"shiro":6769,"ĠErrors":6770,"ĠOpenStack":6771,"ĠKaraf":6772,"Login":6773,"Ġpackaged":6774,"annotation":6775,"Point":6776,"Ġtriggered":6777,"ĠLaunching":6778,"Ġpreviously":6779,"Level":6780,"workspaces":6781,"Offers":6782,"Ġcommunic":6783,"Ġcertificate":6784,"ĠIdeally":6785,"Ġbroadcasted":6786,"Ġinstructions":6787,"'});":6788,"Buffer":6789,"CAL":6790,"Join":6791,"Mess":6792,"Option":6793,"Volume":6794,"]</":6795,"]\">":6796,"eoc":6797,"fokke":6798,"ium":6799,"max":6800,"sive":6801,"Ġ::":6802,"Ġaway":6803,"avor":6804,"delet":6805,"Ġrecomm":6806,"Ġconcept":6807,"ĠCA":6808,"Ġnoticed":6809,"acing":6810,"Ġexec":6811,"1139":6812,"Ġapplied":6813,"1352":6814,"Register":6815,"Ġreset":6816,"Ġyes":6817,"Ġundeploy":6818,"Ġactions":6819,"Authentic":6820,"NotFound":6821,"Ġfilters":6822,"ĠMobileWeb":6823,"ĠPlugin":6824,"tomcat":6825,"RedisQueue":6826,"Ġfollows":6827,"ĠTypeError":6828,"mitted":6829,"Connector":6830,"9393":6831,"fokkezb":6832,"320":6833,"744":6834,"CK":6835,"Clo":6836,"DS":6837,"Find":6838,"UUID":6839,"cre":6840,"ha":6841,"mem":6842,"memory":6843,"ulation":6844,"ĠRet":6845,"acon":6846,"riend":6847,"comment":6848,"ĠEC":6849,"509":6850,"ĠJavascript":6851,"ĠTiUI":6852,"397":6853,"398":6854,"Ġunexpected":6855,"ystore":6856,"MessageDriven":6857,"DefaultLifecycle":6858,"single":6859,"Ġlaunches":6860,"896":6861,"Ġbecomes":6862,"ĠScreenshot":6863,"2009":6864,"Ġzookeeper":6865,"etric":6866,"Ġmobileweb":6867,"Callable":6868,"preview":6869,"scribe":6870,"Ġcausing":6871,"MessagingException":6872,"compile":6873,"AopUtils":6874,"Ġintroduced":6875,"Ġbeginning":6876,"ĠFinished":6877,"Fire":6878,"Render":6879,"Switch":6880,"TEST":6881,"eger":6882,"jmx":6883,"pe":6884,"pom":6885,"Ġtree":6886,"oring":6887,"ales":6888,"Ġbig":6889,"Ġbrow":6890,"stmt":6891,"chunk":6892,"ĠSU":6893,"Ġ264":6894,"ĠCamel":6895,"Ġrules":6896,"ĠPR":6897,"serial":6898,"118":6899,"ĠFTP":6900,"extender":6901,"convert":6902,"Ġresolved":6903,"175":6904,"555":6905,"=\"#":6906,"159":6907,"275":6908,"invokeJoin":6909,"address":6910,"nost":6911,"Ġparallel":6912,"Ġgenerates":6913,"Ġdifference":6914,"Ġtransl":6915,"Ġreflect":6916,"Allocator":6917,"colors":6918,"Ġzk":6919,"Ġinitialization":6920,"disk":6921,"Ġblocks":6922,"Operations":6923,"Ġchannels":6924,"exceptions":6925,"ĠLocal":6926,"DirectChannel":6927,"Ġidea":6928,"ĠDEBUG":6929,"authenticate":6930,"Ġimmediately":6931,"atisf":6932,"DefaultLifecycleProcessor":6933,"invokeJoinpoint":6934,"*:":6935,"ADM":6936,"Bind":6937,"Cannot":6938,"Link":6939,"Number":6940,"Publish":6941,"Qu":6942,"VN":6943,"cwm":6944,"dn":6945,"fetch":6946,"ik":6947,"kg":6948,"lambda":6949,"scription":6950,"Ġtaken":6951,"enger":6952,"def":6953,"Ġnone":6954,"omcat":6955,"andra":6956,"Ġgithub":6957,"Invalid":6958,"ĠMulti":6959,"105":6960,"1145":6961,"ĠĠĠĠĠĠĠĠĠĠĠĠĠĠĠĠĠĠ":6962,"045":6963,"193":6964,"194":6965,"291":6966,"Ġlogger":6967,"Ġunn":6968,"Running":6969,"TiMess":6970,"Ġresulting":6971,"nsure":6972,"740":6973,"Ġparts":6974,"shared":6975,"doFilterInternal":6976,"record":6977,"Design":6978,"MESOS":6979,"Ġbugs":6980,"ĠStarted":6981,"WARNING":6982,"Ġhostname":6983,"Ġrestarting":6984,"Ġfollowed":6985,"Ġestimate":6986,"ĠDebugger":6987,"Ġprivate":6988,"Enabled":6989,"Changeset":6990,"32238":6991,"Exporter":6992,"Ġrecognized":6993,"specific":6994,"Ġreplaced":6995,"Ġ-------------------------------------------------------------":6996,"changesets":6997,"ĠDeleting":6998,"]\">[":6999,"DirectChannelMetrics":7000,"TiMessenger":7001,"(['":7002,"AA":7003,"DR":7004,"FS":7005,"Migr":7006,"Ro":7007,"TO":7008,"UE":7009,"gers":7010,"ma":7011,"}\"":7012,"Ġastrometry":7013,"reemarker":7014,"amed":7015,"ptr":7016,"vertical":7017,"Ġ{}":7018,"assandra":7019,"119":7020,"Reg":7021,"iring":7022,"167":7023,"INF":7024,"swer":7025,"BuildJob":7026,"2011":7027,"othing":7028,"Ġedge":7029,"Ġimplementing":7030,"Ġdetection":7031,"parsing":7032,"Ġintermitt":7033,"Ġbecome":7034,"recover":7035,"Ġxrootd":7036,"Ġpopulate":7037,"baseadaptor":7038,"Subject":7039,"SELECT":7040,"Ġconfusing":7041,"Ġ2458":7042,"SlaveRecoveryTest":7043,"Ġassigned":7044,"Ġextensions":7045,"design":7046,"Startup":7047,"standalone":7048,"ĠListView":7049,"Ġmarked":7050,"help":7051,"Ġnormal":7052,"ÂłĠÂłĠ":7053,"anization":7054,"Remote":7055,"Ġdatamart":7056,"Styled":7057,"agrant":7058,"301":7059,"357":7060,"659":7061,"923":7062,">/":7063,"First":7064,"LU":7065,"Su":7066,"\\/":7067,"ds":7068,"sam":7069,"xr":7070,"inner":7071,"Ġcenter":7072,"itical":7073,"allocation":7074,"Ġwidget":7075,"unes":7076,"livery":7077,"Ġreader":7078,"ĠTizen":7079,"Ġthird":7080,"agination":7081,"ĠAV":7082,"ĠCent":7083,"ĠCustom":7084,"vileg":7085,"Ġdead":7086,"ourses":7087,"romium":7088,"frameworks":7089,"Ġimpro":7090,"ĠJVM":7091,"AbstractSh":7092,"154":7093,"ĠGroup":7094,"testdata":7095,"999":7096,"trl":7097,"641":7098,"encing":7099,"username":7100,"ategories":7101,"pletion":7102,"ously":7103,"Ġmodified":7104,"Ġsometimes":7105,"SimpleMessage":7106,"ĠWorkspace":7107,"Ġhighlight":7108,"alibration":7109,"ength":7110,"ĠAssign":7111,"PreferencePage":7112,"AutoBuildJob":7113,"CAG":7114,"eolocation":7115,"reconciler":7116,"%',":7117,"AML":7118,"Mask":7119,"Pri":7120,"Pop":7121,"Persist":7122,"Picker":7123,"Some":7124,"dl":7125,"lap":7126,"pop":7127,"tat":7128,"ucket":7129,"Ġsom":7130,"Ġsys":7131,"Ġsudo":7132,"Ġmajor":7133,"Ġolder":7134,"Ġoften":7135,"Ġdef":7136,"ĠPO":7137,"Ġaltern":7138,"assets":7139,"114":7140,"undles":7141,"Receiver":7142,"Ġcontribute":7143,"165":7144,"440":7145,"242":7146,"293":7147,"299":7148,"475":7149,"ightly":7150,"ĠReference":7151,"ĠRelease":7152,"Ġsuc":7153,"spel":7154,"ĠVOT":7155,"Ġperf":7156,"hemas":7157,"LIB":7158,"executeCommand":7159,"Reporter":7160,"Ġwants":7161,"680":7162,"ĠAuthor":7163,"Ġstatement":7164,"++)":7165,"Ġsections":7166,"Ġthreads":7167,"ĠDesign":7168,"Ġagents":7169,"timestamp":7170,"Ġjars":7171,"Agent":7172,"ĠTimestamp":7173,"Bounds":7174,"NotFoundException":7175,"ĠVOTING":7176,"312":7177,"722":7178,"Dependency":7179,"FTP":7180,"Hub":7181,"Language":7182,"Mode":7183,"Space":7184,"Title":7185,"blackberry":7186,"css":7187,"category":7188,"dm":7189,"gu":7190,"hn":7191,"hip":7192,"pol":7193,"sample":7194,"sync":7195,"wsdl":7196,"atrix":7197,"Ġcatch":7198,"ittle":7199,"alloc":7200,"define":7201,"arwin":7202,"standard":7203,"ĠSI":7204,"Ġhide":7205,"implement":7206,"Ġsto":7207,"Ġrandom":7208,"Execute":7209,"fail":7210,"libart":7211,"ĠOct":7212,"ĠOption":7213,"Chunk":7214,"ĠBoot":7215,"AbstractTreeViewer":7216,"EventDispatch":7217,"Ġworked":7218,"ĠGuide":7219,"Ġauthor":7220,"58462":7221,"574":7222,"WorkbenchWindow":7223,"ĠProvide":7224,"Ġhover":7225,"Ġ>>":7226,"TitaniumUpdate":7227,"xygen":7228,"ĠVerify":7229,"Classpath":7230,"Ġspecification":7231,"Invocable":7232,"Ġimplementations":7233,"Ġsubmit":7234,"Ġsubmission":7235,"Ġtransaction":7236,"Ġclicked":7237,"Parse":7238,"visor":7239,"Ġinvest":7240,"Ġgraph":7241,"Ġindexing":7242,"Logging":7243,"transform":7244,"ExecutionTemplate":7245,"Looper":7246,"Ġregion":7247,"FILL":7248,"Ġreleased":7249,"Ġestim":7250,"Validator":7251,"MesosContainerizer":7252,"Ġignored":7253,"________":7254,"attempt":7255,"aaaaaaaa":7256,"ĠInterface":7257,"ĠSOAP":7258,"Executable":7259,"eocoder":7260,"aconda":7261,"InvocableHandlerMethod":7262,"218":7263,"310":7264,">{":7265,"Body":7266,"Failed":7267,"MI":7268,"Sense":7269,"jr":7270,"option":7271,"rait":7272,"spect":7273,"try":7274,"xrootd":7275,"erica":7276,"Ġcaused":7277,"ited":7278,"ingleton":7279,"arily":7280,"unc":7281,"live":7282,"termin":7283,"Ġanalytics":7284,"ĠTemplate":7285,"ĠTomcat":7286,"ĠSingle":7287,"ident":7288,"Ġ1000":7289,"Ġprofiles":7290,"qua":7291,"Ġnotifications":7292,"ĠĠĠĠĠĠĠĠĠĠĠĠĠĠĠĠĠĠĠĠĠĠĠĠĠĠĠ":7293,"conf":7294,"222":7295,"ĠJMX":7296,"Ġjoin":7297,"260":7298,"271":7299,"Ġunbound":7300,"ipart":7301,"Unable":7302,"376":7303,"540":7304,"ModuleTest":7305,"Ġ60":7306,"heduling":7307,"Ġmanage":7308,"Ġindicating":7309,"download":7310,"Ġlabels":7311,"LocalClass":7312,"ĠTrace":7313,"pecially":7314,"blueprint":7315,"manifest":7316,"AVA":7317,"202":7318,"601":7319,"638":7320,"Audit":7321,"Meta":7322,"Url":7323,"Verify":7324,"bers":7325,"copy":7326,"jvm":7327,"template":7328,"tgz":7329,"Ġ59":7330,"iness":7331,"ones":7332,"ats":7333,"itel":7334,"Ġbody":7335,"Ġbulk":7336,"Ġinvoke":7337,"Ġredirect":7338,"Ġforce":7339,"icense":7340,"ĠAb":7341,"ĠCH":7342,"andid":7343,"Ġ\"-":7344,"Ġran":7345,"Ġ'-":7346,"Exposure":7347,"Ġext":7348,"ĠMore":7349,"ĠMetadata":7350,"forge":7351,"Ġev":7352,"1410":7353,"eregister":7354,"ĠOther":7355,"soli":7356,"264":7357,"269":7358,"44005":7359,"284":7360,"ĠiPad":7361,"366":7362,"591":7363,"535":7364,"Ġfunctional":7365,"Ġprocessed":7366,"Ġhold":7367,"Ġlists":7368,"ĠAndroidRuntime":7369,"884":7370,"Ġperiod":7371,"ONE":7372,"FilterChainProxy":7373,"webkit":7374,"idea":7375,"supported":7376,"velope":7377,"kia":7378,"actoring":7379,"FrameworkServlet":7380,"Notes":7381,"LogMessage":7382,"TextField":7383,"Ġschedule":7384,"discus":7385,"mapv":7386,"cae":7387,"moodlelib":7388,"directory":7389,"Coadd":7390,"iroFilter":7391,"BuildPathManager":7392,"iagnost":7393,"Ġlower":7394,"Ġ???":7395,"Ġfigure":7396,"Ġbrowsers":7397,"StyledText":7398,"AbstractShiroFilter":7399,"EventDispatchThread":7400,"(_":7401,"324":7402,"857":7403,">:":7404,"Cam":7405,"IF":7406,"Length":7407,"UP":7408,"VE":7409,"bean":7410,"cen":7411,"duration":7412,"pdf":7413,"ract":7414,"rabbit":7415,"token":7416,"}<":7417,"ona":7418,"Ġsit":7419,"enrol":7420,"devel":7421,"Ġbamboo":7422,"lict":7423,"Ġmerge":7424,"chromium":7425,"ĠTAC":7426,"example":7427,"icult":7428,"Ġ\"\"":7429,"Ġdeleg":7430,"qual":7431,"ĠFound":7432,"extension":7433,"Ġaren":7434,"55423":7435,"ĠJMS":7436,"Ġjdbc":7437,"Ġjavascript":7438,"Ġadds":7439,"2499":7440,"254":7441,"Ġworkaround":7442,"38895":7443,"ProcessBase":7444,"Ġdocumented":7445,"678":7446,"ETA":7447,"Ġcompare":7448,"Ġaccessible":7449,"Enh":7450,"Ġindicate":7451,"Ġformatting":7452,"Ġprompted":7453,"Selected":7454,"ĠSimple":7455,"wards":7456,"Ġproposed":7457,"Ġ(/)":7458,"Ġrefactoring":7459,"atermark":7460,"ĠRemoving":7461,"KrollRuntime":7462,"Ġartifacts":7463,"Ġalias":7464,"msgSendSuper":7465,"Ġdefining":7466,"55850":7467,"Ġtruncate":7468,"CachedChain":7469,"Ġsequence":7470,"Ġminutes":7471,"Roaming":7472,"Ġsomew":7473,"cenqua":7474,".'":7475,"330":7476,"Evalu":7477,"Sign":7478,"correct":7479,"dent":7480,"guide":7481,"hr":7482,"hidden":7483,"media":7484,"zz":7485,"}/":7486,"Ġeclipse":7487,"Ġingest":7488,"ero":7489,"cture":7490,"Ġinline":7491,"lieve":7492,"lokia":7493,"Ġnear":7494,"cha":7495,"Ġthus":7496,"ĠAbstract":7497,"plain":7498,"Ġ\"<":7499,"ĠRES":7500,"Ġcombin":7501,"Ġlittle":7502,"rib":7503,"ĠPM":7504,"ĠPass":7505,"proc":7506,"come":7507,"comerica":7508,"ĠLib":7509,"Ġleak":7510,"ĠOb":7511,"2697":7512,"ExceptionTo":7513,"ĠInv":7514,"TiDrawableReference":7515,"Research":7516,"ront":7517,"handled":7518,"fully":7519,"Place":7520,"Ġtwice":7521,"BundleManager":7522,"ĠAttempt":7523,"Transport":7524,"SQLException":7525,"StandardContext":7526,"Ġbreaks":7527,"ĠConfigure":7528,"oftware":7529,"ĠEnvironment":7530,"ĠConfigurations":7531,"Ġ5471":7532,"ABLE":7533,"Ġimplicit":7534,"workspcae":7535,"controller":7536,"Ġpossibly":7537,"45613":7538,"ĠOverview":7539,"Ġerrno":7540,"HystrixCommand":7541,"Ġdifficult":7542,"ĠNavigate":7543,"214":7544,"334":7545,"DH":7546,"Merge":7547,"[\"":7548,"fill":7549,"ike":7550,"karaf":7551,"warn":7552,"rem":7553,"ropped":7554,"analytics":7555,"Ġpol":7556,"Ġinher":7557,"lix":7558,"step":7559,"ĠIter":7560,"ĠTap":7561,"examples":7562,"uming":7563,"Ġconvent":7564,"ollowing":7565,"oding":7566,"quire":7567,"Ġguid":7568,"Ġ[----------":7569,"jected":7570,"ĠDI":7571,"uge":7572,"ĠFlow":7573,"corepersistence":7574,"ĠNU":7575,"Dev":7576,"ĠTiStudio":7577,"2701":7578,"258":7579,"488":7580,"Ġsoon":7581,"DefaultList":7582,"mong":7583,"Ġanymore":7584,"ServiceImpl":7585,"locallib":7586,"Ġpositions":7587,"network":7588,"Ġdepending":7589,"âĢĶ":7590,"Ġimporting":7591,"ublished":7592,"Ġsends":7593,"newInstance":7594,"Ġlocalhost":7595,"Ġprotocol":7596,"StandardHost":7597,"Ġregular":7598,"Ġ4737":7599,"Ġhelpful":7600,"Ġreturning":7601,"Offer":7602,"Coyote":7603,"Ġreleases":7604,"instance":7605,"Iterator":7606,"ĠTableView":7607,"Intercepting":7608,"EXT":7609,"Ġduradmin":7610,"issues":7611,"Ġguess":7612,"Ġutility":7613,"notifyListeners":7614,"47787":7615,"signed":7616,"ĠVisual":7617,"MessagingExceptionExecutionInterceptor":7618,"itelist":7619,"ExceptionToMessagingExceptionExecutionInterceptor":7620,"Ġ[----------]":7621,"522":7622,"Darwin":7623,"More":7624,"Tim":7625,"bot":7626,"credentials":7627,"gtest":7628,"hh":7629,"mcat":7630,"sk":7631,"session":7632,"tuple":7633,"tdq":7634,"wo":7635,"Ġ;":7636,"Ġut":7637,"ĠtESB":7638,"alize":7639,"Ġtomcat":7640,"Ġblackberry":7641,"Ġbtn":7642,"Ġpipe":7643,"amq":7644,"Ġanimation":7645,"ota":7646,"Ġhistory":7647,"001":7648,"Ġforum":7649,"abili":7650,"Ġ(!":7651,"Ġbelieve":7652,"ĠCMake":7653,"Ġdemon":7654,"ĠPDF":7655,"ĠFeb":7656,"ĠFunction":7657,"springsource":7658,"Ġupgrad":7659,"Def":7660,"265":7661,"2604":7662,"442":7663,"444":7664,"Ġ2011":7665,"ĠGlobal":7666,"567":7667,"Ġencry":7668,"203":7669,"ChainLifecycle":7670,"Ġseeing":7671,"Ġsubsequ":7672,"Ġtransition":7673,"HttpConnection":7674,"nik":7675,"coyote":7676,"connected":7677,"iddle":7678,"picker":7679,"Ġhardware":7680,"HTTPClient":7681,"DelegateAsyncProcessor":7682,"ĠRegistering":7683,"Ġaffected":7684,"Ġarchive":7685,"3142697":7686,"Ġgradle":7687,"55618":7688,"RedisQueueMessageDriven":7689,"ADME":7690,"CoyoteAdapter":7691,"InterceptingChainLifecycle":7692,"DarwinX":7693,"3142697795":7694,"RedisQueueMessageDrivenEndpoint":7695,"InterceptingChainLifecycleWrapper":7696,"510":7697,"825":7698,"Based":7699,"DAT":7700,"Fetch":7701,"JDBC":7702,"OUT":7703,"Radius":7704,"]\"":7705,"guid":7706,"mes":7707,"mar":7708,"nical":7709,"sy":7710,"ted":7711,"insert":7712,"registration":7713,"Ġcard":7714,"array":7715,"Ġben":7716,"Ġbinding":7717,"Ġpast":7718,"assert":7719,"ĠTe":7720,"estroy":7721,"ĠActive":7722,"ĠAlert":7723,"Ġlandscape":7724,"Convert":7725,"ĠField":7726,"ĠFirst":7727,"142":7728,"220":7729,"225":7730,"191":7731,"069":7732,"267":7733,"2665":7734,"pha":7735,"ĠUT":7736,"ĠGA":7737,"Ġauthorization":7738,"rowen":7739,"365":7740,"483":7741,"TiApp":7742,"butler":7743,"352":7744,"ARG":7745,"Ġselector":7746,"Ġdocuments":7747,"Ġsubsystem":7748,"partition":7749,"Ġpassing":7750,"dispatchEvent":7751,"Ġinvoking":7752,"ĠSchema":7753,"Prepared":7754,"Generate":7755,"ingMessageProcessor":7756,"compare":7757,"ĠTIMOB":7758,"Ġdeclared":7759,"ĠValid":7760,"monitoring":7761,"WSDL":7762,"semble":7763,"Ġprovisioning":7764,"ĠDetecting":7765,"ĠTiUIImageView":7766,"Ġsucceed":7767,"Ġdemonstr":7768,"1000":7769,"GL":7770,"NOT":7771,"Please":7772,"Sup":7773,"card":7774,"fold":7775,"mvc":7776,"solut":7777,"sandbox":7778,"vailable":7779,"wait":7780,"Ġacs":7781,"rea":7782,"Ġsaving":7783,"Ġblack":7784,"Ġmo":7785,"Ġanno":7786,"Ġisolation":7787,"ĠCurrent":7788,"------":7789,"ĠĠĠĠĠčĊ":7790,"serve":7791,"obi":7792,"ĠĠĠĠĠĠĠĠĠĠĠĠĠĠĠĠĠĠĠĠĠĠĠĠĠĠĠĠĠ":7793,"228":7794,"Ġwhitelist":7795,"189":7796,"Ġscheme":7797,"1677":7798,"okup":7799,"445":7800,"MethodInvoker":7801,"252":7802,"341":7803,"ĠProperties":7804,"pointing":7805,"Ġretcode":7806,"ĠlistView":7807,"ĠReplic":7808,"Ġcollect":7809,"Theme":7810,"userid":7811,"Ġrequirement":7812,"groups":7813,"Ġstreaming":7814,"Ġdisplaying":7815,"Upload":7816,"DelegatingPlugin":7817,"Authorization":7818,"Ġcoordin":7819,"Ġdbconnection":7820,"Ġinvestigate":7821,"submission":7822,"Ġmatches":7823,"Ġinitialized":7824,"Ġtickets":7825,"StandardWrapper":7826,"StandardEngine":7827,"ĠAssist":7828,"Ġexited":7829,"types":7830,"Ġdiscovered":7831,"decam":7832,"Serializer":7833,"Ġinconsistent":7834,"spagobi":7835,"ClasspathManager":7836,"Placeholder":7837,"StandardContextValve":7838,"solute":7839,"StandardWrapperValve":7840,",'":7841,"425":7842,"=<":7843,"AST":7844,"Bl":7845,"Camel":7846,"Camera":7847,"Dur":7848,"Family":7849,"Mis":7850,"Measure":7851,"TL":7852,"])":7853,"drop":7854,"faster":7855,"features":7856,"fortun":7857,"menus":7858,"paces":7859,"publish":7860,"temp":7861,"theme":7862,"header":7863,"Ġsuper":7864,"ĠĠĠĠĉ":7865,"Ġcut":7866,"Ġcourses":7867,"itch":7868,"arger":7869,"Ġpic":7870,"loop":7871,"Ġne":7872,"Ġrebuild":7873,"exe":7874,"Ġforced":7875,"iment":7876,"istency":7877,"iggers":7878,"iff":7879,"Ġ[--":7880,"ĠMod":7881,"Ġ32":7882,"loworld":7883,"Define":7884,"177":7885,"Ġleg":7886,"ĠOper":7887,"160":7888,"=\"\"":7889,"Ġ404":7890,"oked":7891,"AbstractHttp":7892,"441":7893,"362":7894,"484":7895,"DEF":7896,"ĠConsole":7897,"Ġsomeone":7898,"498":7899,"Classes":7900,"executeWith":7901,"ĠControl":7902,"ClientImpl":7903,"APE":7904,"One":7905,"omething":7906,"Ġrelative":7907,"Encry":7908,"Prepare":7909,"collection":7910,"IndexOutOf":7911,"Ġobtain":7912,"ĠJobs":7913,"ĠWhich":7914,"listener":7915,"Producer":7916,"BeanDefinitionReader":7917,"Ġidentify":7918,"Ġexpressions":7919,"Ġperson":7920,"ĠCopying":7921,"Ġremains":7922,"Ġremaining":7923,"Ġaggregate":7924,"Ġiterator":7925,"CCESS":7926,"Before":7927,"ĠKitchenSink":7928,"ĠGetting":7929,"Ġsnippet":7930,"ĠPackaging":7931,"pomona":7932,"Ġunnecessary":7933,"BoundsException":7934,"StandardHostValve":7935,"IndexOutOfBoundsException":7936,"/-":7937,"309":7938,"BI":7939,"Foo":7940,"Jan":7941,"Light":7942,"PL":7943,"Sql":7944,"cis":7945,"ev":7946,"kill":7947,"mode":7948,"mapping":7949,"rt":7950,"rime":7951,"svn":7952,"Ġ../":7953,"aring":7954,"Ġpublished":7955,"Ġnor":7956,"static":7957,"Ġdq":7958,"Ġdispatch":7959,"Ġreduce":7960,"Ġrevocable":7961,"ĠSave":7962,"ĠSync":7963,"ĠShow":7964,"Ġ(\"":7965,"Ġproceed":7966,"Ġcomparison":7967,"Ġlarger":7968,"tty":7969,"Instrument":7970,"ĠDown":7971,"Ġ37":7972,"obs":7973,"145":7974,"ĠEXPECT":7975,"Ġwhite":7976,"grading":7977,"094":7978,"2438":7979,"served":7980,"ĠGC":7981,"479":7982,"RunLoop":7983,"track":7984,"Ġenum":7985,"ĠĠĉĠĠ":7986,"HandlerProxy":7987,"ĠVariable":7988,"843":7989,"Ġlibsystem":7990,"ContainerListener":7991,"CreateBuilderImpl":7992,"ErrorReport":7993,"pleted":7994,"ConfigurationBuilder":7995,"FrameworkMethod":7996,"WebView":7997,"apsed":7998,"Notify":7999,"aits":8000,"filters":8001,"Ġinvolve":8002,"ĠScroll":8003,"Supported":8004,"ĠChrome":8005,"RepositoryFactory":8006,"Queued":8007,"allery":8008,"Ġcovers":8009,"john":8010,"URLConnection":8011,"raft":8012,"Reconcile":8013,"EditPart":8014,"success":8015,"MessageProcessorExecutionTemplate":8016,"Ġsaying":8017,"Ġaliases":8018,"issue":8019,"Ġexplain":8020,"HyperSup":8021,"Ġoversubscribed":8022,"Extract":8023,"Decorator":8024,"freezer":8025,"available":8026,"Ġsubsequent":8027,"StandardEngineValve":8028,"fasterxml":8029,"ErrorReportValve":8030,"HyperSuprime":8031,"!!":8032,"703":8033,"Bit":8034,"COS":8035,"False":8036,"Memory":8037,"Python":8038,"Psf":8039,"PATH":8040,"Rout":8041,"Ranges":8042,"Rename":8043,"Singleton":8044,"ULT":8045,"fix":8046,"gpr":8047,"hystrix":8048,"jms":8049,"pw":8050,"prompt":8051,"vagrant":8052,"yles":8053,"Ġaperture":8054,"Ġccd":8055,"Ġcredential":8056,"ters":8057,"Ġannot":8058,"Ġder":8059,"Ġdisp":8060,"Ġdatab":8061,"ecause":8062,"ĠSample":8063,"atever":8064,"Ġproduce":8065,"Ġconstructor":8066,"ĠClose":8067,"Ġgemfire":8068,"rip":8069,"Example":8070,"ĠDec":8071,"ĠDem":8072,"ĠMonitor":8073,"coming":8074,"1334":8075,"ĠEE":8076,"Ġlength":8077,"ĠOf":8078,"1697":8079,"0806":8080,"295":8081,"Ġunless":8082,"Ġiphone":8083,"createTab":8084,"473":8085,"TestClass":8086,"Ġplans":8087,"Ġlif":8088,"loaded":8089,"doDispatch":8090,"487":8091,"205":8092,"374":8093,"Ġparam":8094,"Player":8095,"webwork":8096,"openapi":8097,"SCAPE":8098,"Trigger":8099,"\"></":8100,"Help":8101,"Args":8102,"column":8103,"Setup":8104,"SendEvent":8105,"201409":8106,"Ġadapter":8107,"NSApplication":8108,"Ġ4736":8109,"ĠLogin":8110,"compat":8111,"Ġapprox":8112,"databind":8113,"Ġattempts":8114,"Ġnavigate":8115,"RestTemplate":8116,"Disk":8117,"Ġphase":8118,"straints":8119,"Ġcompatibility":8120,"renderer":8121,"Ġ-----":8122,"Ġstandalone":8123,"Ġcorrection":8124,"Ġmentioned":8125,"alaxy":8126,"PreparedStatement":8127,")\"":8128,"217":8129,"429":8130,"Area":8131,"CR":8132,"JFace":8133,"Last":8134,"Optim":8135,"Press":8136,"Pagination":8137,"Summary":8138,"VENT":8139,"clo":8140,"cxx":8141,"day":8142,"gmock":8143,"hase":8144,"iation":8145,"qs":8146,"tcp":8147,"yy":8148,"Ġsatisf":8149,"Ġcycle":8150,"Ġcandid":8151,"lier":8152,"javax":8153,"ĠSamples":8154,"Ġprocedure":8155,"Ġ\"#":8156,"Ġlayer":8157,"artifact":8158,"ĠMV":8159,"endor":8160,"Review":8161,"grails":8162,"ĠLI":8163,"AbstractTwitter":8164,"ĠHome":8165,"Ġ|--":8166,"39461":8167,"MethodFilter":8168,"Ġworkflow":8169,"ebula":8170,"ĠInverse":8171,"traits":8172,"460":8173,"Usage":8174,"20121":8175,"378":8176,"legacy":8177,"ARCH":8178,"Ġeventually":8179,"ServiceRequest":8180,"Ġpermission":8181,"Ġlocated":8182,"afari":8183,"Plain":8184,"Ġassume":8185,"Ġdepends":8186,"âĢĿ":8187,"Ġpolicy":8188,"Autom":8189,"ĠImprove":8190,"validate":8191,"validator":8192,"Ġcouple":8193,"Projects":8194,"interface":8195,"callback":8196,"Logger":8197,"SetDataBuilderImpl":8198,"Ġsecondary":8199,"Transformer":8200,"Ġautomated":8201,"Ġadvanced":8202,"ĠPlan":8203,"Ġconflict":8204,"join":8205,"ÂłÂł":8206,"Ġsignal":8207,"registered":8208,"handleMessageInternal":8209,"Ġfinished":8210,"Record":8211,"ĠAdministr":8212,"Ġextract":8213,"FilesystemIsolatorTest":8214,"Ġignore":8215,"limited":8216,"KrollProxy":8217,"MBeanExporter":8218,"34609":8219,"cluding":8220,"ValidationInterceptor":8221,"ĠCPU":8222,"nikov":8223,"DelegatingPluginFilter":8224,"Ġdatabases":8225,"AbstractTwitterInboundChannelAdapter":8226,"326":8227,"411":8228,"518":8229,"=[":8230,"CXF":8231,"CESS":8232,"Fault":8233,"Freemarker":8234,"NU":8235,"None":8236,"Tunes":8237,"focus":8238,"ker":8239,"kdir":8240,"metrics":8241,"names":8242,"pattern":8243,"ris":8244,"sa":8245,"sbin":8246,"xn":8247,"rew":8248,"replace":8249,"leep":8250,"Ġfs":8251,"Ġwatch":8252,"Ġpair":8253,"Ġpoll":8254,"Ġdraw":8255,"ĠSwitch":8256,"abi":8257,"Ġ256":8258,"Ġpropose":8259,"Ġruble":8260,"Ġexposed":8261,"obj":8262,"getValue":8263,"perf":8264,"bose":8265,"1457":8266,"ĠNPM":8267,"162":8268,"2640":8269,"399":8270,"280":8271,"282":8272,"247":8273,"Ġunused":8274,"360":8275,"logy":8276,"4679":8277,"598":8278,"883":8279,"Upd":8280,"Ġ80":8281,"Ġshall":8282,"Ġhierarchy":8283,"Ġzero":8284,"Ġterm":8285,"ĠDataSense":8286,"consumer":8287,"functions":8288,"egg":8289,"ĠPreview":8290,"50043":8291,"findLocalClass":8292,"201204":8293,"Recipe":8294,"Ġorigin":8295,"ĠFirefox":8296,"Ġespecially":8297,"ancer":8298,"Namespace":8299,"Ġsimplify":8300,"salnikov":8301,"Ġcpu":8302,"Ġduplicated":8303,"Ġcopied":8304,"Ġimproved":8305,"ĠAuthorizing":8306,"iagnostic":8307,"'},":8308,".]":8309,"244":8310,"DU":8311,"Del":8312,"Domain":8313,"Duplicate":8314,"II":8315,"JNI":8316,"NPM":8317,"aid":8318,"blog":8319,"cover":8320,"calendar":8321,"center":8322,"gc":8323,"havi":8324,"jam":8325,"pid":8326,"sheet":8327,"war":8328,"Ġsymbol":8329,"Ġcat":8330,"Ġcalibration":8331,"ingFilter":8332,"ars":8333,"entVolume":8334,"urns":8335,"hoose":8336,"olumes":8337,"oser":8338,"ĠPress":8339,"148":8340,"ively":8341,"Developer":8342,"readsheet":8343,"Ġleave":8344,"Ġbyte":8345,"ĠJAR":8346,"Views":8347,"Ġbutler":8348,"ĠBundle":8349,"ĠBPM":8350,"390":8351,"274":8352,"Exceptions":8353,"ĠGeocoder":8354,"overflow":8355,"075":8356,"outbound":8357,"020":8358,"Ġenrol":8359,"Ġencoding":8360,"WorkbenchKeyboard":8361,"login":8362,"466":8363,"refactoring":8364,"astrom":8365,"ĠProblems":8366,"ĠWeek":8367,"Ġtherefore":8368,"possible":8369,"Ġ${":8370,"schedule":8371,"Ġlocating":8372,"Ġlocations":8373,"ContextModule":8374,"ConnectionUtils":8375,"Scope":8376,"Ġpointer":8377,"Ġmembers":8378,"ometry":8379,"Ġkernel":8380,"ĠBuilding":8381,"ĠAnalysis":8382,"transaction":8383,"Indexing":8384,"ĠLoad":8385,"Ġregex":8386,"Ġcontrols":8387,"IDEA":8388,"Ġfrequ":8389,"SafeRunnable":8390,"Checks":8391,"Ġreferenced":8392,"InputStreamReader":8393,"hello":8394,"Ġdescrib":8395,"ĠCopyright":8396,"ĠZK":8397,"Graph":8398,"Ġallocated":8399,"enabled":8400,"Ġactivities":8401,"ĠConsumer":8402,"Ġpotentially":8403,"BlobStoreContextModule":8404,"SecurePreferences":8405,"borderStyle":8406,"Canvas":8407,"mouseDown":8408,"ĠAVD":8409,"âĢĶâĢĶ":8410,"fortunately":8411,"/-/":8412,"JFaceUtil":8413,"').":8414,"250":8415,"219":8416,"4537":8417,"699":8418,"9000":8419,">.":8420,"Align":8421,"Cn":8422,"GI":8423,"Groovy":8424,"Geolocation":8425,"Jira":8426,"Mer":8427,"Modules":8428,"Ptr":8429,"Warning":8430,"ict":8431,"iet":8432,"last":8433,"ltk":8434,"tag":8435,"Ġroles":8436,"ervice":8437,"erial":8438,"onym":8439,"Ġcli":8440,"arb":8441,"Ġpane":8442,"Ġmon":8443,"Ġmatter":8444,"entry":8445,"adow":8446,"ĠACL":8447,"Ġonto":8448,"Ġstage":8449,"Ġstuff":8450,"quired":8451,"Ġexchange":8452,"ĠDR":8453,"ĠMove":8454,"ĠMemory":8455,"ndk":8456,"ĠFl":8457,"intro":8458,"Ġrespond":8459,"ĠOCS":8460,"554":8461,"Ġfilename":8462,"Ġ4740":8463,"Ġ<?":8464,"()');":8465,"288":8466,"251":8467,"389":8468,"ĠGot":8469,"ĠGUI":8470,"Ġtriggers":8471,"993":8472,"Ġplay":8473,"reshold":8474,"Ġrepeated":8475,"59884":8476,"astore":8477,"addTab":8478,"Ġ18127":8479,"noarch":8480,"eek":8481,"encast":8482,"ĠUIView":8483,"697":8484,"ĠOpened":8485,"tiapp":8486,"Settings":8487,"LOG":8488,"Sending":8489,"TIME":8490,"9219":8491,"mobileweb":8492,"Ġpicture":8493,"ĠDoes":8494,"optim":8495,"ragment":8496,"URLClassLoader":8497,"Ġ7953":8498,"engine":8499,"Ġmachines":8500,"Ġtracking":8501,"Download":8502,"Ġscenarios":8503,"Ġexperience":8504,"ĠLiveView":8505,"Ġopacity":8506,"jpg":8507,"Ġmacro":8508,"Authenticator":8509,"Migrate":8510,"webkitbrowser":8511,"executeWithChecks":8512,"453759884":8513,"524":8514,"724":8515,":{":8516,"<>":8517,"Ant":8518,"AIN":8519,"Dir":8520,"Ent":8521,"Fin":8522,"Fatal":8523,"GB":8524,"Io":8525,"JR":8526,"Mysql":8527,"calibrate":8528,"fits":8529,"jas":8530,"oom":8531,"por":8532,"pret":8533,"random":8534,"some":8535,"scons":8536,"xb":8537,"Ġui":8538,"erApplicationContext":8539,"Ġtre":8540,"Ġtalk":8541,"Ġsam":8542,"Ġcamel":8543,"Ġtogg":8544,"aru":8545,"Ġbool":8546,"asing":8547,"etas":8548,"Ġnum":8549,"amazon":8550,"Ġreopen":8551,"ades":8552,"iml":8553,"Ġ250":8554,"Ġpropag":8555,"plash":8556,"ĠCase":8557,"olving":8558,"Ġcomes":8559,"quiz":8560,"rient":8561,"atory":8562,"Ġexcept":8563,"ĠDialog":8564,"113":8565,"Profile":8566,"irror":8567,"ĠNe":8568,"libc":8569,"ĠThank":8570,"182":8571,"itionally":8572,"ĠHand":8573,"297":8574,"587":8575,"579":8576,"Ġlisten":8577,"...\"":8578,"ĠVFY":8579,"Ġbackend":8580,"Ġ$.":8581,"Ġreporting":8582,"Ġotherwise":8583,"Ġshut":8584,"ĠDeveloper":8585,"currently":8586,"ĠAuthorization":8587,"etched":8588,"Ġstatements":8589,"Encoding":8590,"ĠScreen":8591,"ĠTherefore":8592,"Ġstories":8593,"Ġtyping":8594,"Ġabort":8595,"Ġobserver":8596,"Ġobvious":8597,"Ġterms":8598,"Shutdown":8599,"DebugUI":8600,"restore":8601,"Ġexported":8602,"ĠâĢĺ":8603,"201212":8604,"statements":8605,"Ġincorrectly":8606,"Ġchildren":8607,"ĠREADME":8608,"longjohn":8609,"ProgressMonitor":8610,"Ġcommunity":8611,"Ġnormally":8612,"35545":8613,"ĠConnector":8614,"ĠTODO":8615,"ErrorHandlingTaskExecutor":8616,"inois":8617,"singlenode":8618,"solid":8619,"ĠNULL":8620,"Lightweight":8621,"ĠDownload":8622,"erApplicationContextExecutor":8623,"339":8624,"325":8625,"786":8626,"AGE":8627,"Cent":8628,"CSS":8629,"Each":8630,"Hadoop":8631,"NO":8632,"Pers":8633,"TEXT":8634,"Wcs":8635,"bi":8636,"btn":8637,"cy":8638,"flix":8639,"non":8640,"public":8641,"ruble":8642,"watch":8643,"orial":8644,"recurs":8645,"Ġca":8646,"aver":8647,"Ġblob":8648,"undeploy":8649,"illed":8650,"Ġopp":8651,"Ġreuse":8652,"Ġhint":8653,"img":8654,"Ġ(_":8655,"Ġconc":8656,"Ġstable":8657,"Ġ\".":8658,"Ġrad":8659,"ĠRC":8660,"erscore":8661,"keys":8662,"Ġ[];":8663,"rammd":8664,"ĠDuplicate":8665,"ĠDSL":8666,"ĠMar":8667,"10480":8668,"anging":8669,"bout":8670,"1407":8671,"ĠEnd":8672,"ĠEntity":8673,"ĠLcom":8674,"ivale":8675,"236":8676,"Ġ---":8677,"266":8678,"phan":8679,"ĠHe":8680,"ERK":8681,"392":8682,"285":8683,"245":8684,"Ġyear":8685,"Throw":8686,"38391":8687,"ĠiTunes":8688,"349":8689,"Ġenh":8690,"486":8691,"pute":8692,"TiApplication":8693,"buildpath":8694,"Ġprocessors":8695,"Ġfailover":8696,"DefaultMule":8697,"351":8698,"sian":8699,"542":8700,"Ġporting":8701,"Ġportrait":8702,"ĠAdditionally":8703,"Ġreproduc":8704,"TRAIT":8705,"Ġtextfield":8706,"netflix":8707,"AULT":8708,"ĠTesting":8709,"1270":8710,"Ġeditors":8711,"RIG":8712,"subject":8713,"subaru":8714,"Ġconstants":8715,"Ġinitially":8716,"regex":8717,"sdks":8718,"Ġ4739":8719,"messageflow":8720,"SpringApplication":8721,"ĠArtifact":8722,"Ġscrolling":8723,"Ġhigher":8724,"Ġconsidered":8725,"AnalysisExecutor":8726,"Ġdetermin":8727,"Ġdeclar":8728,"Ġarchitecture":8729,"Ġintegrated":8730,"44950":8731,"Ġmeaning":8732,"Ġgrades":8733,"Ġinstrumentation":8734,"SecurityInterceptor":8735,"KEY":8736,"LiveView":8737,"GeneratedMethodAccessor":8738,"Privileg":8739,"qualifier":8740,"Evaluator":8741,"ĠRESULT":8742,"remote":8743,"Ġbenef":8744,"9219896":8745,"recursive":8746,"%,":8747,"%|":8748,"'),":8749,"616":8750,"608":8751,"906":8752,"QA":8753,"RK":8754,"Ssi":8755,"YY":8756,"auge":8757,"dr":8758,"dom":8759,"feedback":8760,"iph":8761,"jgit":8762,"menu":8763,"next":8764,"sr":8765,"uation":8766,"uck":8767,"uous":8768,"yon":8769,"zed":8770,"Ġquestions":8771,"ester":8772,"Ġalign":8773,"Ġsecure":8774,"isql":8775,"iting":8776,"any":8777,"Ġwar":8778,"Ġboolean":8779,"utorial":8780,"ĠTarget":8781,"0004":8782,"licies":8783,"Ġusually":8784,"artz":8785,"ĠDEC":8786,"proj":8787,"product":8788,"Ġeg":8789,"ĠFITS":8790,"throw":8791,"1480":8792,"irc":8793,"Ġwhatever":8794,"ĠNDK":8795,"Device":8796,"Imp":8797,"iven":8798,"ĠBack":8799,"ĠHttp":8800,"ĠHave":8801,"ĠUsers":8802,"Ġplug":8803,"logs":8804,"2013":8805,"ificant":8806,"AccessLog":8807,"Actions":8808,"ProcessUtil":8809,"AccessorImpl":8810,"ĠQue":8811,"Ġhandles":8812,"Ġbeta":8813,"Ġrefres":8814,"Ġunderlying":8815,"csv":8816,"recent":8817,"ĠComponent":8818,"wrap":8819,"ValueResolver":8820,"StateException":8821,"Integrate":8822,"Ġroutes":8823,"Ġ4738":8824,"preference":8825,"Ġproduces":8826,"ĠMesosContainerizer":8827,"BeanDefinitionValueResolver":8828,"Ġretrieved":8829,"SessionImpl":8830,"Ġlimited":8831,"Ġ----------------------------------------------------------------":8832,"ĠborderWidth":8833,"NotificationExecutionInterceptor":8834,"ĠTrying":8835,"AVE":8836,"TimeoutException":8837,"MessageProcessorNotificationExecutionInterceptor":8838,"simple":8839,"ĠOracle":8840,"Ġprevents":8841,"********************************":8842,"Ġtechno":8843,"Ġchecksum":8844,"Parameterized":8845,"ConstructorAccessorImpl":8846,"Ġpixels":8847,"Ġpurpose":8848,"ĠSUCCESS":8849,"extensions":8850,"Ġlegacy":8851,"pwang":8852,"Ġsatisfy":8853,"ARCHAR":8854,"jammes":8855,"353":8856,"422":8857,"656":8858,"854":8859,"908":8860,":~":8861,"AG":8862,"BR":8863,"Full":8864,"Fetcher":8865,"Jdbc":8866,"NING":8867,"Put":8868,"bad":8869,"cal":8870,"dor":8871,"gms":8872,"ncs":8873,"ĠKe":8874,"Ġ------------":8875,"repo":8876,"Ġssh":8877,"Ġcron":8878,"Ġcss":8879,"Ġflo":8880,"Ġpanel":8881,"lots":8882,"Ġmeta":8883,"Ġmiddle":8884,"amd":8885,"Ġday":8886,"ĠIS":8887,"iding":8888,"agraw":8889,"usp":8890,"ĠAnt":8891,"Ġrate":8892,"ultane":8893,"ĠWait":8894,"illinois":8895,"1202":8896,"ĠEl":8897,"Ġcontribut":8898,"559":8899,"Ġ44":8900,"Video":8901,"090":8902,"acegis":8903,"pound":8904,"ĠInternal":8905,"588":8906,"}})":8907,"57268":8908,"reserve":8909,"ffix":8910,"BuildParticipant":8911,"467":8912,"egrity":8913,"Ġ18126":8914,"ClassRunner":8915,"ftp":8916,"earn":8917,"settings":8918,"Ġwrap":8919,"ErrorHandler":8920,"RequestMapping":8921,"ierarchical":8922,"Ġlinked":8923,"Ġflux":8924,"Ġcoadd":8925,"ĠKS":8926,"dispatchMessage":8927,"stringify":8928,"ĠĠĉĉĉĉĉ":8929,"Ġconstant":8930,"cmd":8931,"LOE":8932,"Ġflows":8933,"ĠUsergrid":8934,"platforms":8935,"UnitTest":8936,"ĠSetup":8937,"Org":8938,"Ġ27646":8939,"gregate":8940,"ĠArray":8941,"Ġestimation":8942,"Ġhappening":8943,"ĠDurAdmin":8944,"XXX":8945,"ĠborderColor":8946,"Ġmigrate":8947,"Ġimpact":8948,"simulator":8949,"Ġintegrate":8950,"fontSize":8951,"sequence":8952,"executors":8953,"expand":8954,"Ġmonitoring":8955,"Ġmanaged":8956,"createTableViewRow":8957,"ĠLOG":8958,"Ġmerged":8959,"ĠRestart":8960,"Tracker":8961,"written":8962,"Ġcommunication":8963,"Ġrecommend":8964,"ĠMultiple":8965,"ĠTraceback":8966,"Ġdelegate":8967,"Ġsomewhere":8968,"amqp":8969,"Ġupgraded":8970,"RunLoopRun":8971,"Ġlifecycle":8972,"havior":8973,"ivalent":8974,"ncsa":8975,"agrawal":8976,"acegisecurity":8977,"\"]":8978,"-+":8979,"/'":8980,"350":8981,"4128":8982,":[":8983,">)":8984,"BE":8985,"EP":8986,"Em":8987,"Photo":8988,"Ruby":8989,"Ul":8990,"[]":8991,"czar":8992,"cancel":8993,"dashboard":8994,"lish":8995,"rr":8996,"sen":8997,"Ġtaps":8998,"Ġtaking":8999,"ĠtMatch":9000,"ons":9001,"remo":9002,"Ġshe":9003,"Ġcross":9004,"Ġfall":9005,"Ġmask":9006,"Ġanim":9007,"ĠTCP":9008,"verage":9009,"ĠRec":9010,"ower":9011,"osch":9012,"Exists":9013,"ĠPaste":9014,"ĠMenu":9015,"prod":9016,"Ġ*.":9017,"strategy":9018,"forms":9019,"1404":9020,"ĠEach":9021,"ailing":9022,"Contributor":9023,"iva":9024,"ived":9025,"Ġ4741":9026,"Ġnewer":9027,"ĠBecause":9028,"AbstractDispatcher":9029,"396":9030,"278":9031,"Ġ})":9032,"565":9033,"Ġplaced":9034,"Ġrepeat":9035,"ipad":9036,"Ġ{{/":9037,"doIntercept":9038,"ĠReview":9039,"valves":9040,"WindowProc":9041,"321":9042,"Ġcolors":9043,"889":9044,"Values":9045,"Ġscreens":9046,"Ġthemes":9047,"ĠApplied":9048,"webapps":9049,"Errors":9050,"FileIndexing":9051,"Any":9052,"Ġloads":9053,"AbstractMessageSending":9054,"Ġcustomer":9055,"Ġcleaned":9056,"stackoverflow":9057,"Ġchoice":9058,"ĠProcessor":9059,"Ġacceptance":9060,"Ġspecifying":9061,"Ġ7951":9062,"Ġtransformer":9063,"Ġ21806":9064,"ĠInstaller":9065,"Types":9066,"Ġdescribe":9067,"pageid":9068,"AutoConfiguration":9069,"Ġ13312":9070,"Leader":9071,"CFG":9072,"ScheduledFutureTask":9073,"................":9074,"Ġswiml":9075,"Ġreplicate":9076,"Ġproducts":9077,"ANDSCAPE":9078,"ĠPortal":9079,"Ġregardless":9080,"37526":9081,"ĠPOJO":9082,"ĠPassing":9083,"Timer":9084,"PlainSocketImpl":9085,"FileIndexingParticipant":9086,"AbstractMessageSendingTemplate":9087,"455":9088,"<>::":9089,"BUILD":9090,"Gen":9091,"HE":9092,"IC":9093,"Push":9094,"Pipeline":9095,"Rules":9096,"SQ":9097,"ees":9098,"fetcher":9099,"lin":9100,"mall":9101,"microsoft":9102,"pa":9103,"wp":9104,"xa":9105,"xproj":9106,"zing":9107,"iny":9108,"Ġsafe":9109,"Ġcd":9110,"Ġcxf":9111,"Ġcalibrate":9112,"isk":9113,"Ġfactory":9114,"Ġfetched":9115,"Ġworld":9116,"Ġbuffer":9117,"Ġpipeline":9118,"asc":9119,"Ġneg":9120,"Ġren":9121,"Ġrely":9122,"ĠSRC":9123,"ager":9124,"Ġ(@":9125,"Ġbeans":9126,"ollow":9127,"aining":9128,"Ġgrow":9129,"ĠPage":9130,"ĠPATH":9131,"Construct":9132,"ĠĠĠĠĠĠĠĠĠĠĠĠĠĠĠĠĠĠĠĠĠĠ":9133,"Ġcontact":9134,"ĠJira":9135,"ĠJDT":9136,"ĠHost":9137,"248":9138,"259":9139,"465":9140,"Ġholes":9141,"Ġarrow":9142,"ĠVARCHAR":9143,"Ġpretty":9144,"ServiceResource":9145,"scre":9146,"Ġinstalls":9147,"Ġlocator":9148,"WidgetSelection":9149,"Ġdesired":9150,"handleWidgetSelection":9151,"TRI":9152,"tesb":9153,"ongo":9154,"Ġcompiled":9155,"Refresh":9156,"Ġaccessing":9157,"APP":9158,"Simulator":9159,"ĠCommon":9160,"Ġwebview":9161,"ĠAny":9162,"Ġabsolute":9163,"region":9164,"Ġminor":9165,"SimpleJob":9166,"LabelProvider":9167,"ĠERR":9168,"ynamically":9169,"MapView":9170,"Ġchosen":9171,"Ġsuggested":9172,"ĠborderRadius":9173,"Ġdecide":9174,"*)+":9175,"ĠNOTE":9176,"Ġrecords":9177,"15583":9178,"require":9179,"Ġ30228":9180,"---+":9181,"3474":9182,"Ġreceives":9183,"Manifest":9184,"DefaultListableBeanFactory":9185,"butlerUtils":9186,"Ġsubsystems":9187,"Cnxn":9188,"RequestMappingHandler":9189,"328":9190,"413":9191,"409":9192,"728":9193,"BB":9194,"Ho":9195,"Mixed":9196,"OK":9197,"Ubuntu":9198,"hide":9199,"ne":9200,"pter":9201,"pass":9202,"qtt":9203,"vlet":9204,"Ġ67":9205,"inx":9206,"Ġcy":9207,"Ġphot":9208,"utf":9209,"Ġnumer":9210,"Ġnightly":9211,"Ġanswer":9212,"ĠTEST":9213,"adget":9214,"Ġhal":9215,"igning":9216,"iginal":9217,"Ġcomposed":9218,"hence":9219,"Ġ[-":9220,"appers":9221,"ĠDisplay":9222,"Ġassets":9223,"ops":9224,"getFile":9225,"uglify":9226,"ĠFY":9227,"izes":9228,"UIView":9229,"1465":9230,"ReEncry":9231,"ĠEX":9232,"ĠNetwork":9233,"ĠNothing":9234,"Ġupgrading":9235,"ivity":9236,"Ġimpossible":9237,"Ġ<<":9238,"ĠBean":9239,"FilterProxy":9240,"AbstractProtocol":9241,"Ġ}));":9242,"createPicker":9243,"Ġauth":9244,"Testing":9245,"570":9246,"PID":9247,"46283":9248,"loading":9249,"doGet":9250,"ĠResponse":9251,"finish":9252,"widgetSelected":9253,"DefaultSave":9254,"370":9255,"contains":9256,"Ġparty":9257,"Ġ75":9258,"ProcessorChain":9259,"Ġentities":9260,"DelegatingFilterProxy":9261,"Items":9262,"startup":9263,"Author":9264,"hostname":9265,"Ġconnectors":9266,"Controls":9267,"Locale":9268,"Ġinvoked":9269,"Ġoffset":9270,"Ġpract":9271,"retry":9272,"ĠChannel":9273,"Ġhelloworld":9274,"DispatcherServlet":9275,"Ġtimestamp":9276,"ParserPool":9277,"Shift":9278,"Ġautomatic":9279,"GetChildren":9280,"ChangeOperation":9281,"EEE":9282,"Ġdownloaded":9283,"SpringXD":9284,"Ġpatterns":9285,"bytes":9286,"Ġnavigation":9287,"RUNNING":9288,"ĠREAD":9289,"Ġextends":9290,"Ġhooks":9291,"MBeanServer":9292,"Offset":9293,"Ġtechnical":9294,"SSLSocketImpl":9295,"route":9296,"BasicNew":9297,"Ġslider":9298,"Ġevaluation":9299,"PerformChangeOperation":9300,"PORTRAIT":9301,"IdeEventQueue":9302,"AllocatorTest":9303,"SubjectCallable":9304,"ĠReplicate":9305,"MysqlIO":9306,"ParameterizedCommand":9307,"RequestMappingHandlerAdapter":9308,"MixedContent":9309,"ReEncrypter":9310,"GetChildrenBuilderImpl":9311,"10000":9312,"408":9313,"715":9314,"756":9315,"800":9316,">\"":9317,">}}":9318,"BS":9319,"Cocoa":9320,"Catalog":9321,"Email":9322,"GET":9323,"Hibernate":9324,"Split":9325,"TST":9326,"Xcode":9327,"aff":9328,"beta":9329,"bottom":9330,"cise":9331,"credential":9332,"dml":9333,"fjammes":9334,"rer":9335,"ric":9336,"sli":9337,"tss":9338,"ĉĠĉ":9339,"Ġtro":9340,"atest":9341,"learned":9342,"Ġslot":9343,"Ġcc":9344,"items":9345,"edian":9346,"Ġwatermark":9347,"arrow":9348,"unix":9349,"unctor":9350,"Ġdig":9351,"Ġreactor":9352,"ĠTermin":9353,"ĠSuper":9354,"ĠSIG":9355,"adapter":9356,"Ġfork":9357,"ĠAcc":9358,"Ġproduced":9359,"updated":9360,"ĠRent":9361,"Constraint":9362,"1053":9363,"runs":9364,"permission":9365,"Ġelected":9366,"izable":9367,"izont":9368,"compute":9369,"iokit":9370,"1383":9371,"Ġ413":9372,"2738":9373,"257":9374,"Ġunlearned":9375,"478":9376,"585":9377,"5758":9378,"Ġplain":9379,"FOR":9380,"logger":9381,"logdata":9382,"Ġlig":9383,"590":9384,"59302":9385,"Ġhash":9386,"Ġclassic":9387,"Ġarbit":9388,"490":9389,"Ġsimultane":9390,"Ġparity":9391,"Ġkeystore":9392,"ONLY":9393,"Ġshare":9394,"Ident":9395,"CommandProcessor":9396,"ĠSeeked":9397,"Ġ90":9398,"Only":9399,"Webwork":9400,"UND":9401,"Ġcriteria":9402,"Ġfiltered":9403,"Ġperformed":9404,"LOCATION":9405,"Ġinitialize":9406,"SHA":9407,"ĠCheckpointing":9408,"commandline":9409,"Ġcorner":9410,"Ġdiscussed":9411,"ĠWARNING":9412,"FILE":9413,"Ġ15088":9414,"Counter":9415,"Ġidentical":9416,"Ġidentified":9417,"Ġhappened":9418,"Ġstops":9419,"Ġ15708":9420,"Ġblur":9421,"XmlBeanDefinitionReader":9422,"domains":9423,"liverable":9424,"DocGenerator":9425,"Ġcollections":9426,"Ġequivalent":9427,"Multiple":9428,"MBP":9429,"Ġrendering":9430,"ĠConsider":9431,"40696":9432,"ĠCompacted":9433,"Ġbaseline":9434,"AlertDialog":9435,"ĠSHA":9436,"ĠSpecific":9437,"Ġstopped":9438,"Enhancer":9439,"ĠIterated":9440,"Ġdisposed":9441,"ĠThanks":9442,"ĠtMatchGroup":9443,"'}":9444,"/*":9445,"318":9446,"610":9447,"686":9448,"730":9449,"837":9450,"BC":9451,"Bad":9452,"Dq":9453,"JIo":9454,"NN":9455,"Pos":9456,"PRE":9457,"SD":9458,"Syntax":9459,"TT":9460,"ah":9461,"cpus":9462,"dans":9463,"gdans":9464,"ias":9465,"ness":9466,"range":9467,"should":9468,"tist":9469,"xce":9470,"yarn":9471,"zes":9472,"¿½":9473,"ï¿½":9474,"ĠĈ":9475,"Ġhence":9476,"including":9477,"Ġsens":9478,"Ġcost":9479,"Ġflex":9480,"Ġtoast":9481,"Ġmess":9482,"Ġden":9483,"chie":9484,"Ġorphan":9485,"ĠIgn":9486,"ĠSVN":9487,"esture":9488,"Ġ174":9489,"exus":9490,"002":9491,"Ġfore":9492,"orked":9493,"vey":9494,"ĠCl":9495,"ifies":9496,"Ġcoming":9497,"019":9498,"Ġ[.]":9499,"ĠPri":9500,"appicon":9501,"ĠDon":9502,"getS":9503,"ured":9504,"angle":9505,"Ġecho":9506,"bool":9507,"condition":9508,"ĠStorage":9509,"ĠNull":9510,"Ġcontribution":9511,"Ġ/**":9512,"Ġscal":9513,"ĠBy":9514,"EventThread":9515,"294":9516,"dba":9517,"383":9518,"ĠGWT":9519,"4720":9520,"348":9521,"367":9522,"doExecute":9523,"TiActivity":9524,"201110":9525,"Ġlisteners":9526,"Ġqual":9527,"TitaniumProjectWizard":9528,"Ġcoll":9529,"Ġ!=":9530,"Ġviewer":9531,"ContextHandler":9532,"Ġwriter":9533,"ĠĠĉĉĠĠĠ":9534,"aussian":9535,"parsers":9536,"Ġ61":9537,"ĠtableView":9538,"venance":9539,"ContentProvider":9540,"Ġcontexts":9541,"ĠAttached":9542,"AbstractMessageProcessorChain":9543,"Ġstores":9544,"Ġ20150114":9545,"ĠNotes":9546,"Ġteacher":9547,"Shard":9548,"Rows":9549,"SlaveHandlerService":9550,"rieve":9551,"selectId":9552,"ormal":9553,"ĠWorking":9554,"ReportDocGenerator":9555,"Ġreasons":9556,"blue":9557,"Tools":9558,"Toolbar":9559,"Ġuploaded":9560,"ECK":9561,"Height":9562,"vcxproj":9563,"Ġmaximum":9564,"Ġrecently":9565,"Ġ()(":9566,"operator":9567,"MySQL":9568,"ffffff":9569,"IllegalStateException":9570,"TransactionInterceptor":9571,"Ġturned":9572,"AsyncProcessorHelper":9573,"Ġsnippets":9574,"Ġcalculate":9575,"Hyperlink":9576,"Ġconsumers":9577,"9999999999999":9578,"Ġexactly":9579,"Spel":9580,"nowled":9581,"WaiterApplicationContextExecutor":9582,"Ġearlier":9583,"alesforce":9584,"DependencyWaiterApplicationContextExecutor":9585,"guard":9586,"ĠInvestigate":9587,"Measurement":9588,"AuthenticatorBase":9589,"rientation":9590,"LeaderSelector":9591,"BasicNewTitaniumProjectWizard":9592,"JIoEndpoint":9593,"gdansk":9594,"!--":9595,"+'":9596,"315":9597,"405":9598,"687":9599,":<":9600,"Available":9601,"BD":9602,"Book":9603,"Drag":9604,"FT":9605,"JMS":9606,"LIN":9607,"MV":9608,"META":9609,"OD":9610,"PT":9611,"Since":9612,"SION":9613,"Xrd":9614,"dss":9615,"gle":9616,"hort":9617,"hierarchy":9618,"note":9619,"number":9620,"pkg":9621,"wxr":9622,"Ġ..":9623,"Ġtwe":9624,"atial":9625,"lett":9626,"Ġsandbox":9627,"Ġsites":9628,"Ġcaching":9629,"Ġwarn":9630,"cell":9631,"Ġindepend":9632,"ĠId":9633,"ĠScript":9634,"usage":9635,"abs":9636,"Ġproduc":9637,"Ġstout":9638,"Ġrid":9639,"erson":9640,"Ġlauncher":9641,"Ġlinux":9642,"elastic":9643,"acter":9644,"Ġ'',":9645,"Ġgather":9646,"ĠPost":9647,"Ġexceed":9648,"Ġ3507":9649,"assess":9650,"Ġasynchron":9651,"profile":9652,"ĠWould":9653,"ĠFootprint":9654,"Ġrespect":9655,"ĠOAuth":9656,"163":9657,"19289":9658,"ĠBB":9659,"ĠBUILD":9660,"261":9661,"WorkUnit":9662,"Ġuncheck":9663,"ĠGroovy":9664,"***":9665,"ipel":9666,"Ġenc":9667,"Ġenabling":9668,"364":9669,"468":9670,"ĠExtr":9671,"595":9672,"20110":9673,"msdn":9674,"Unique":9675,"867":9676,"372":9677,"354":9678,"Ġsufficient":9679,"Ġanyway":9680,"032738":9681,"Ġoverwrite":9682,"Ġlibc":9683,"663":9684,"Ġintent":9685,"Ġinteger":9686,"shutdown":9687,"Ġways":9688,"Edge":9689,"REATE":9690,"42069":9691,"Ġdistro":9692,"Ġreads":9693,"classic":9694,"Ġxhr":9695,"Ġthrowing":9696,"wrapper":9697,"cmake":9698,"Ġconverted":9699,"Ġclone":9700,"Ġproviding":9701,"TISTUD":9702,"ĠOSX":9703,"Transform":9704,"RepositoryWorkUnit":9705,"SimpleModule":9706,"Double":9707,"Ġdeletion":9708,"Ġprompts":9709,"Ġlongitude":9710,"ĠSetting":9711,"launchConfiguration":9712,"Ġexports":9713,"ĠDesktop":9714,"FIG":9715,"Ġ31525":9716,"Ġwhose":9717,"BeanDefinitions":9718,"ognized":9719,"Compare":9720,"Recorder":9721,"Ġsuggestion":9722,"secure":9723,"Ġaccounts":9724,"helper":9725,"OutputStream":9726,"Ġrecognize":9727,"Ġ27641":9728,"40429":9729,"SERV":9730,"Ġpossibility":9731,"ĠAgent":9732,"Ġsupposed":9733,"MacOS":9734,"ĠLiveViewer":9735,"PostProcessor":9736,"related":9737,"Ġreceiving":9738,"Activator":9739,"Ġcentral":9740,"=\"#[":9741,"lambdaworks":9742,"Ġintermittent":9743,"ExecutableExtension":9744,"ĠActiveMQ":9745,"ĠMonitoring":9746,"FreemarkerManager":9747,"Centroid":9748,"Ġradio":9749,"ĠDECam":9750,"TRIBU":9751,"Ġlight":9752,"ï¿½?":9753,"lettuce":9754,"&,":9755,"327":9756,"40000000000001":9757,"59999999999999":9758,"684":9759,"90000000000001":9760,"Browser":9761,"Coverage":9762,"DD":9763,"Ensure":9764,"FD":9765,"FAILED":9766,"How":9767,"IX":9768,"NPE":9769,"Py":9770,"Sk":9771,"So":9772,"Same":9773,"SUI":9774,"_.":9775,"aed":9776,"family":9777,"friend":9778,"gment":9779,"olokia":9780,"pet":9781,"tar":9782,"total":9783,"Ġ74":9784,"Ġtesb":9785,"atched":9786,"Ġact":9787,"Ġack":9788,"ision":9789,"edic":9790,"Ġbundles":9791,"Ġant":9792,"Ġdump":9793,"Ġredeploy":9794,"chart":9795,"ĠTSS":9796,"ĠToken":9797,"ĠTuple":9798,"ĠSoftware":9799,"Ġthreshold":9800,"estination":9801,"Ġ127":9802,"ims":9803,"icode":9804,"ĠAm":9805,"emon":9806,"Ġstay":9807,"ĠRed":9808,"ĠRout":9809,"Ġnotify":9810,"Ġlack":9811,"Ġgcc":9812,"rive":9813,"eprec":9814,"ĠPattern":9815,"Ġusability":9816,"ĠMin":9817,"ĠMULE":9818,"Ġ3500":9819,"runIn":9820,"forPath":9821,"Ġevaluate":9822,"ĠFuture":9823,"illa":9824,"completion":9825,"Ġapplies":9826,"UIEnhancer":9827,"221":9828,"226":9829,"ĠEven":9830,"ĠEither":9831,"ĠElected":9832,"irection":9833,"::~":9834,"Ġresolution":9835,"Ġreserved":9836,"Develop":9837,"09999999999999":9838,"Ġjr":9839,"uick":9840,"ĠBY":9841,"phinx":9842,"MethodReference":9843,"561":9844,"Ġconfiguring":9845,"TestService":9846,"Handsh":9847,"Ġ{{<":9848,"481":9849,"Ġsupporting":9850,"ĠReplace":9851,"HandlerMetrics":9852,"Ġquality":9853,"377":9854,"ARY":9855,"schemas":9856,"Ġlibmesos":9857,"660":9858,"Ġintroduce":9859,"Repeated":9860,"ĠAddress":9861,"InterceptorChain":9862,"JobExecution":9863,"Ġcompilation":9864,"True":9865,"Ġmanual":9866,"READ":9867,"Ġnamespaces":9868,"Ġinvocation":9869,"Ġoffic":9870,"Ġoffline":9871,"Ġxcode":9872,"GroupProcess":9873,"Arch":9874,"JavaScript":9875,"Ġindicates":9876,"EditorReference":9877,"Ġperforming":9878,"ĠSept":9879,"reenHo":9880,"ĠRecovered":9881,"Ġfreed":9882,"ĠWorkaround":9883,"Ġ'*'":9884,"Ġmeasurements":9885,"showWhile":9886,"0000000198":9887,"Ġsignificant":9888,"Ġretrieving":9889,"Compat":9890,"Ġ32249":9891,"objectId":9892,"blocks":9893,"Matching":9894,"Grails":9895,"ĠGrails":9896,"ĠGraph":9897,"ĠLinuxFilesystemIsolatorTest":9898,"MultiPage":9899,"ymlink":9900,"Ġconsistently":9901,"Ġtrunk":9902,"renderers":9903,"Failure":9904,"Failover":9905,"ĠBehavior":9906,"ucy":9907,"ĠĠĠĠĠĠĠĠĠĠĠĠĠĠĠĠĠĠĠĠĠĠĠĠĠĠĠĠĠĠĠĠĠĠĠĠĠĠĠĠĠĠĠĠĠĠĠĠĠĠĠĠĠĠĠĠĠĠĠĠĠĠĠĠĠĠĠĠĠĠĠĠĠĠĠĠĠĠĠĠĠĠĠĠĠĠĠĠĠĠĠĠĠĠĠĠĠĠĠĠĠĠĠĠĠĠĠĠĠĠĠĠĠĠĠĠĠĠĠĠĠĠĠĠĠĠĠĠĠĠĠĠĠĠĠĠĠĠĠĠĠĠĠĠĠĠĠĠĠĠĠĠĠĠĠĠĠĠĠĠ":9908,"Ġpromised":9909,"dependencies":9910,"ĠCCD":9911,"ĠMaybe":9912,"ĠArchive":9913,"////////////////////////////////":9914,"ĠreadyState":9915,"SingleNode":9916,"Ġadministrator":9917,"Ġ26401":9918,"ĠCentOS":9919,"SimpleMessageHandlerMetrics":9920,"liveview":9921,"MetaData":9922,"discussion":9923,"PtrField":9924,"yond":9925,"Ġ------------->":9926,"Embed":9927,"ParserPoolFactory":9928,"ĠREADONLY":9929,"CocoaUIEnhancer":9930,"Ġarbitrary":9931,"20111024":9932,"RepeatedPtrField":9933,"reenHopper":9934,"\"?":9935,".:":9936,"439":9937,"432":9938,"Ac":9939,"CI":9940,"CU":9941,"Guide":9942,"LANDSCAPE":9943,"Mem":9944,"Pass":9945,"TDQ":9946,"dpi":9947,"dynamic":9948,"drawable":9949,"gmail":9950,"hat":9951,"jet":9952,"luc":9953,"mid":9954,"may":9955,"nl":9956,"pic":9957,"poll":9958,"va":9959,"vendor":9960,"inic":9961,"Ġslight":9962,"Ġcame":9963,"Ġcare":9964,"Ġcategories":9965,"Ġcirc":9966,"anonymous":9967,"anaconda":9968,"alth":9969,"Ġphone":9970,"Ġmand":9971,"Ġnature":9972,"stats":9973,"Ġreconnect":9974,"chat":9975,"ĠTABLE":9976,"ĠSW":9977,"idy":9978,"ided":9979,"Ġ104":9980,"004":9981,"ected":9982,"ĠAST":9983,"Ġconstraint":9984,"ĠCE":9985,"ĠCR":9986,"Ġrace":9987,"lipboard":9988,"odb":9989,"quality":9990,"ried":9991,"Examples":9992,"ĠPax":9993,"Ġ06":9994,"Ġusual":9995,"Ġalthough":9996,"InMethod":9997,"ocal":9998,"ocial":9999,"anip":10000,"ĠWcs":10001,"ford":10002,"ĠEUPS":10003,"Ġ/*":10004,"Ġrespective":10005,"Containers":10006,"ĠLabel":10007,"acebook":10008,"blend":10009,"ĠBasic":10010,"2827":10011,"277":10012,"createExecutableExtension":10013,"ĠInsert":10014,"clinic":10015,"474":10016,"578":10017,"httpclient":10018,"ĠExtend":10019,"790":10020,"792":10021,"2016":10022,"649":10023,"Ġedu":10024,"notifications":10025,"oved":10026,"OTB":10027,"Ġinterval":10028,"ĠobjectId":10029,"HttpRequest":10030,"hedulers":10031,"ATTRIBU":10032,"Scanner":10033,"Ġfixing":10034,"recognized":10035,"Ġmember":10036,"ĠYARN":10037,"Ġstoring":10038,"Ġ27240":10039,"TextEditor":10040,"Ġstacktrace":10041,"Ġproviders":10042,"ALL":10043,"Ġminimal":10044,"IfSupported":10045,"keyboard":10046,"Short":10047,"Shared":10048,"************":10049,"Policy":10050,"applicationProc":10051,"Ġrouter":10052,"Ġconfusion":10053,"Ġlsstsw":10054,"scripts":10055,"Ġterminate":10056,"Ġdownloading":10057,"Ġ15086":10058,"anguages":10059,"Ġ2009":10060,"expressions":10061,"umbn":10062,"Ġcapability":10063,"LaunchConfigurationDelegate":10064,"wizards":10065,"MobileWeb":10066,"crypt":10067,"Ġpublishing":10068,"Ġphp":10069,"Ġcompute":10070,"Ġchunks":10071,"Return":10072,"Ġbreakpoints":10073,"Ġrepresentation":10074,"Ġ20150224":10075,"Ġskip":10076,"Ġdataset":10077,"ĠDistribution":10078,"ArrayIndexOutOfBoundsException":10079,"Ġseman":10080,"Ġdelivered":10081,"liminate":10082,"deleted":10083,"optional":10084,"Ġjoined":10085,"Instrumentation":10086,"ExceptionsInMethod":10087,"Ġreproducible":10088,"screencast":10089,"tistud":10090,"petclinic":10091,"ATTRIBUTE":10092,"ExceptionsInMethodIfSupported":10093,"316":10094,"704":10095,"Bin":10096,"Cxf":10097,"Hash":10098,"Rel":10099,"SW":10100,"Sources":10101,"SAM":10102,"You":10103,"bro":10104,"filing":10105,"jun":10106,"lint":10107,"none":10108,"safe":10109,"vet":10110,"Ġtcp":10111,"Ġcached":10112,"Ġfront":10113,"ashed":10114,"lookup":10115,"Ġdays":10116,"Ġdropped":10117,"Ġdynamically":10118,"ĠIE":10119,"ĠSend":10120,"ĠSafari":10121,"otes":10122,"otion":10123,"esting":10124,"ckto":10125,"usable":10126,"Ġhaven":10127,"0076":10128,"verbose":10129,"Ġproc":10130,"Ġconver":10131,"ĠCar":10132,"Ġrm":10133,"orth":10134,"elcome":10135,"Exec":10136,"Expose":10137,"Information":10138,"ĠMI":10139,"ĠModel":10140,"ĠMax":10141,"Ġ3108":10142,"1032":10143,"production":10144,"runk":10145,"ĠWCS":10146,"ĠWCAG":10147,"ĠFree":10148,"ĠState":10149,"Revisit":10150,"ĠEmail":10151,"ferencing":10152,"errors":10153,"ĠBoth":10154,"touch":10155,"AbstractNew":10156,"3974":10157,"27883":10158,"Ġlogo":10159,"Ġunmount":10160,"Ġunsigned":10161,"5829":10162,"aptcha":10163,"cccc":10164,"ĠXY":10165,"485":10166,"5950":10167,"ĠReserved":10168,"...)":10169,"Ġsomehow":10170,"Ġargs":10171,"ProcessManager":10172,"poses":10173,"Ġsimpl":10174,"Ġlocally":10175,"543":10176,"notification":10177,"Ġremoval":10178,"Tasks":10179,"Collect":10180,"Ġsubtasks":10181,"geom":10182,"ErrorCode":10183,"filename":10184,"HttpParser":10185,"Parameters":10186,"Ġpolicies":10187,"685":10188,"Ġrestrict":10189,"Ġ17500":10190,"ToObject":10191,"Enter":10192,"flux":10193,"Ġpointing":10194,"Ġsinglenode":10195,"ImageDescriptor":10196,"Ġtypically":10197,"Ġhelper":10198,"Ġdeveloped":10199,"ALUE":10200,"Ġblocking":10201,"windowSendEvent":10202,"ĠPlay":10203,"Ġ4734":10204,"sqlite":10205,"Ġverification":10206,"Installer":10207,"Ġcloses":10208,"Order":10209,"Ġdiscuss":10210,"Ġdropdown":10211,"ĠPerform":10212,"CoreException":10213,"Ġswitching":10214,"Ġsmaller":10215,"ĠDetails":10216,"Expand":10217,"InitialDeploymentListener":10218,"Ġproposals":10219,"Disable":10220,"BlockJUnit":10221,"ĠRights":10222,"ĠTools":10223,"ConsoleReader":10224,"CgroupIsolatorTest":10225,"UsingReflection":10226,"Ġquickly":10227,"Ġaccordingly":10228,"Navigator":10229,"RetryLoop":10230,"Ġvisualization":10231,"Ġhangs":10232,"ĠExamplesTest":10233,"invokeJoinpointUsingReflection":10234,"allocated":10235,"Ġestimator":10236,"ĠPMCS":10237,"Ġconvention":10238,"folders":10239,"Ġannotations":10240,"ĠDemo":10241,"ĠOffer":10242,"MethodFilterInterceptor":10243,"Delta":10244,"WebworkSecurityInterceptor":10245,"Ġmandatory":10246,"cktock":10247,")\\\\":10248,"*>":10249,"307":10250,"415":10251,"636":10252,"938":10253,">\",":10254,"Box":10255,"Beta":10256,"Blackberry":10257,"Cat":10258,"Da":10259,"EW":10260,"Err":10261,"Feb":10262,"JNotify":10263,"LES":10264,"Now":10265,"OB":10266,"OAuth":10267,"PR":10268,"Sample":10269,"aight":10270,"bone":10271,"buffer":10272,"diff":10273,"eom":10274,"eared":10275,"lines":10276,"multi":10277,"num":10278,"nos":10279,"pg":10280,"sg":10281,"such":10282,"vector":10283,"Ġ----------------":10284,"Ġtemp":10285,"Ġtutorial":10286,"orpor":10287,"Ġsce":10288,"Ġski":10289,"Ġsolve":10290,"Ġsymlink":10291,"Ġcur":10292,"Ġcoding":10293,"avd":10294,"delay":10295,"Ġplot":10296,"undefined":10297,"loss":10298,"Ġmedia":10299,"Ġreconc":10300,"ĠTOS":10301,"ĠSD":10302,"uses":10303,"007":10304,"ĠAction":10305,"Ġbeaver":10306,"ĠCO":10307,"via":10308,"ĠRel":10309,"Ġcombo":10310,"Ġlanguages":10311,"Ġ[[":10312,"licable":10313,"licated":10314,"ĠPsf":10315,"Ġshot":10316,"Ġ02":10317,"mental":10318,"Ġ39":10319,"1022":10320,"ternet":10321,"ĠFilter":10322,"ĠFeature":10323,"composite":10324,"Ġ===":10325,"2222":10326,"ĠNS":10327,"Ġcontrollers":10328,"5051":10329,"18112":10330,"--------+":10331,"ivotal":10332,"16298":10333,"ĠButton":10334,"ĠTiHttpClient":10335,"Workflow":10336,"ĠHD":10337,"281":10338,"ExceptionReporter":10339,"override":10340,"locity":10341,"Ġspatial":10342,"3613":10343,"4686":10344,"7926":10345,"ĠRefer":10346,"bernd":10347,"Ġ+=":10348,"addr":10349,"201303":10350,"ĠProduction":10351,"Added":10352,"Ġarg":10353,"Ġdisconnected":10354,"containers":10355,"scale":10356,"5450":10357,"Ġimplements":10358,"3333":10359,"gef":10360,"parameter":10361,"Ġassum":10362,"Ġ20140507":10363,"ĠtextField":10364,"Jobs":10365,"Ġconsistency":10366,"Trace":10367,"Ġcolo":10368,"Ġ17505":10369,"Ġstraight":10370,"Ġbehind":10371,"Animation":10372,"flask":10373,"Ġfiltering":10374,"vari":10375,"Ġgiving":10376,"100094":10377,"Ġcleaning":10378,"VERSION":10379,"ĠUnfortunately":10380,"Ġexecutors":10381,"Ġmsg":10382,"ĠLogs":10383,"BarHidden":10384,"OrUpdate":10385,"launching":10386,"Ġexecutions":10387,"000000018":10388,"TableViewRow":10389,"Ġ13932":10390,"Ġ7947":10391,"runWithEvent":10392,"activated":10393,"Supervisor":10394,"Creating":10395,"Protection":10396,"Ġintegrity":10397,"Ġcatalogs":10398,"URAC":10399,"Ġequal":10400,"Ġcomputer":10401,"Ġdurastore":10402,"alibrateTask":10403,"Ġbootstrap":10404,"params":10405,"\\\":\\\"":10406,"Visitor":10407,"Ġentirely":10408,"IntegrationTests":10409,"ĠWriter":10410,"ĠGitHub":10411,"Externalize":10412,"080235":10413,"avorite":10414,"created":10415,"KrollRuntimeThread":10416,"Ġutili":10417,"DATA":10418,"ĠUTF":10419,"Ġmouse":10420,"<>()":10421,"Ġbenefit":10422,"Ġswimlane":10423,"ĠPaxos":10424,"100094000":10425,"\"},":10426,"/<":10427,"/*.":10428,"055":10429,"436":10430,"544":10431,"599":10432,"520":10433,"657":10434,"729":10435,"707":10436,"7343":10437,"984":10438,"Bucket":10439,"Cert":10440,"Fragment":10441,"Go":10442,"LV":10443,"License":10444,"Me":10445,"Min":10446,"Mark":10447,"NT":10448,"Panel":10449,"Phase":10450,"Such":10451,"Tap":10452,"TAB":10453,"afa":10454,"built":10455,"cap":10456,"camp":10457,"dt":10458,"kernel":10459,"large":10460,"mer":10461,"pax":10462,"prefix":10463,"qtp":10464,"sig":10465,"ĉĠ":10466,"Ġet":10467,"atom":10468,"Ġadb":10469,"Ġaware":10470,"ising":10471,"itter":10472,"ingo":10473,"ingu":10474,"Ġftp":10475,"Ġfriend":10476,"alpha":10477,"Ġws":10478,"Ġwish":10479,"Ġpaste":10480,"aspx":10481,"Ġmenus":10482,"ulating":10483,"ĠIO":10484,"ĠTLS":10485,"esta":10486,"Ġ({{":10487,"ĠAC":10488,"ĠAug":10489,"Ġstrict":10490,"Ġ\"'":10491,"ĠRuby":10492,"011":10493,"Ġgreen":10494,"ĠPos":10495,"Condor":10496,"ĠDependency":10497,"structure":10498,":///":10499,"that":10500,"there":10501,"ĠNext":10502,"ĠNone":10503,"Ġresize":10504,"Ġscr":10505,"040":10506,"048":10507,"oggle":10508,"ĠJenkins":10509,"Ġ49":10510,"okie":10511,"ĠBit":10512,"081404":10513,"ĠUN":10514,"ĠTitaniumWindows":10515,"385":10516,"OSGI":10517,"switch":10518,"cles":10519,"clusion":10520,"071202":10521,"Ġplus":10522,"\":{\"":10523,"ĠExecution":10524,"does":10525,"Ġlevels":10526,"buildFile":10527,"derr":10528,"derby":10529,"ĠProvider":10530,"ĠProperty":10531,"Ġposix":10532,"WindowProxy":10533,"Ġrecurs":10534,"Ġsuite":10535,"Ġsuffix":10536,"ContextImpl":10537,"begin":10538,"666":10539,"equence":10540,"Ġhandlers":10541,"eaders":10542,"DelegatingErrorHandling":10543,"courseid":10544,"ConfigurationElement":10545,"PageFilter":10546,"OnClose":10547,"Ġthought":10548,"PartService":10549,"incre":10550,"ĠĠĠĠĠĠĠĠĠĠĠĠĠĠĠĠĠĠĠĠĠĠĠĠĠĠĠĠĠĠĠĠĠĠĠĠĠĠĠĠĠĠĠĠĠĠĠĠĠĠĠĠĠĠĠĠĠĠĠĠĠĠĠĠĠĠĠĠĠĠĠĠĠĠĠĠĠĠĠĠĠĠĠĠĠĠĠĠĠĠĠĠĠĠĠĠ":10551,"classpath":10552,"ĠNodeJS":10553,"Ġformatter":10554,"SocketTimeoutException":10555,"Ġ../../../":10556,"Ġdesigned":10557,"Implementation":10558,"StrategyOSGI":10559,"Ġadjust":10560,"Ġrouting":10561,"Ġ4735":10562,"sqldb":10563,"Ġcovered":10564,"RegistryStrategyOSGI":10565,"ĠLogging":10566,"Modify":10567,"Ġwrites":10568,"kitchen":10569,"Ġsessions":10570,"MessagingMethodInvoker":10571,"Ġseparately":10572,"Started":10573,"ĠWorks":10574,"Ġaddressed":10575,"Ġ27644":10576,"cfht":10577,"Ġestab":10578,"Ġidentifier":10579,"byte":10580,"xxx":10581,"links":10582,"rupt":10583,"LayoutConstraint":10584,"navigator":10585,"fullscreen":10586,"Ġpartitioning":10587,"504131":10588,"PROCESS":10589,"CONFIG":10590,"Ġdestroyed":10591,"Ġassertion":10592,"ĠGeneral":10593,"Ġ8745":10594,"Ġprimary":10595,"ScrollView":10596,"PORT":10597,"Ġearly":10598,"Closed":10599,"Suite":10600,"Ġinvestig":10601,"ĠOperation":10602,"13340076":10603,"Merger":10604,"Ġtoggle":10605,"Ġnumpy":10606,"DebugUIPlugin":10607,"000439":10608,"ascades":10609,"edicated":10610,"Ġjrxml":10611,"ĠSeptember":10612,"1032504131":10613,"DelegatingErrorHandlingRunnable":10614,"MessagingMethodInvokerHelper":10615,"1334007647":10616,")*":10617,"434":10618,"437":10619,"431":10620,"451":10621,"550":10622,"829":10623,"Copy":10624,"Destination":10625,"MT":10626,"Net":10627,"Quick":10628,"Raw":10629,"SM":10630,"XY":10631,"YLE":10632,"gre":10633,"global":10634,"gtk":10635,"lation":10636,"mi":10637,"met":10638,"ruct":10639,"sq":10640,"slf":10641,"eral":10642,"invalid":10643,"ority":10644,"Ġast":10645,"Ġachie":10646,"review":10647,"Ġsaw":10648,"Ġslots":10649,"enso":10650,"Ġctrl":10651,"itut":10652,"anet":10653,"Ġfits":10654,"decor":10655,"Ġinner":10656,"une":10657,"sel":10658,"Ġdiag":10659,"Ġdraft":10660,"Ġreverse":10661,"ĠIllegal":10662,"ĠSw":10663,"ĠSite":10664,"ĠSummary":10665,"ĠSAML":10666,"idge":10667,"exit":10668,"Ġ('":10669,"Ġconstraints":10670,"Ġstyles":10671,"Ġ\"$":10672,"ĠRO":10673,"Extend":10674,"ĠPop":10675,"ĠDirect":10676,"ĠMBean":10677,"ĠManagement":10678,"ĠMedia":10679,"Ġ3506":10680,"proto":10681,"1148":10682,"angular":10683,"1258":10684,"Ġapplicable":10685,"Ġcontract":10686,"Ġreservation":10687,"ĠON":10688,"ĠOOTB":10689,"Ġwhenever":10690,"Ġjunit":10691,"0829":10692,"448":10693,"44122":10694,"393":10695,"duces":10696,"Ġautoc":10697,"STYLE":10698,"BuildContext":10699,"ĠExp":10700,"TiBase":10701,"DED":10702,"finalize":10703,"201210":10704,"Ġquiz":10705,"Adding":10706,"facebook":10707,"Ġarr":10708,"Ġstats":10709,"745":10710,"Ġbackport":10711,"Ġheading":10712,"__.":10713,"sched":10714,"area":10715,"Ġdesktop":10716,"Ġlibjvm":10717,"662":10718,"dataquality":10719,"Ġ192":10720,"Ġintended":10721,"Ġclicks":10722,"ĠDev":10723,"ĠDefinition":10724,"SAX":10725,"ĠHTCondor":10726,"ĠDMCS":10727,"Ġoperators":10728,"ĠUpgrade":10729,"while":10730,"Ġclients":10731,"Ġinvolved":10732,"Ġdetector":10733,"ĠHTTPS":10734,"author":10735,"Ġpops":10736,"Ġhello":10737,"Ġspecifically":10738,"iliation":10739,"Docker":10740,"ĠUsername":10741,"Ġbroker":10742,"ĠWebKit":10743,"Ġelapsed":10744,"Ġverified":10745,"Operator":10746,"listen":10747,"ummer":10748,"Ġaccepted":10749,"5254":10750,"50088":10751,"Ġstandards":10752,"Ġ31521":10753,"150843":10754,"Ġsignature":10755,"Ġretrieval":10756,"Reconciler":10757,"Ġentered":10758,"Ġ5475":10759,"ruit":10760,"mqtt":10761,"ĠOutput":10762,"Ġrefactored":10763,"munity":10764,"ĠâĶĤ":10765,"Flags":10766,"Created":10767,"Ġactivemq":10768,"protocol":10769,"ĠZookeeper":10770,"Ġasked":10771,"Monitoring":10772,"Ġpulling":10773,"Targets":10774,"Cleanup":10775,"Ġbounds":10776,"struction":10777,"Ġhitting":10778,"51219":10779,"ĠClassic":10780,"27625":10781,"Ġraised":10782,"ĠCFRunLoopRun":10783,"ĠCollection":10784,"semb":10785,"Ġconfirmation":10786,"Ġregarding":10787,"routing":10788,"Ġmanaging":10789,"ĠuncaughtException":10790,"ĠSpEL":10791,"~~~~~~~~":10792,"ResultsSummary":10793,"212146":10794,"ActiveMQ":10795,"ciid":10796,"serialize":10797,"onesim":10798,"Ġcombination":10799,"ĠVisualizer":10800,"Ġannoun":10801,"16777343":10802,"Missing":10803,"cism":10804,"saucy":10805,"20120418":10806,"amazonaws":10807,"201212071202":10808,"ĠEndpoint":10809,"Privileged":10810,"izontal":10811,"Ġslightly":10812,"lossary":10813,"ittercism":10814,"20121207120202":10815,"'\"":10816,"*\"":10817,"403":10818,"534":10819,"611":10820,"713":10821,"803":10822,"={":10823,"Astrometry":10824,"COM":10825,"El":10826,"Equ":10827,"Elements":10828,"Following":10829,"JAX":10830,"MM":10831,"PUT":10832,"Tuple":10833,"VALUE":10834,"Wind":10835,"WCAG":10836,"\\\",":10837,"_|":10838,"`.":10839,"baa":10840,"fn":10841,"ges":10842,"mkdir":10843,"oint":10844,"ograph":10845,"tags":10846,"uing":10847,"||":10848,"ĠKey":10849,"Ġsl":10850,"Ġsvn":10851,"ene":10852,"Ġcar":10853,"isation":10854,"Ġfac":10855,"Ġfaster":10856,"arm":10857,"Ġping":10858,"Ġpaused":10859,"Ġpdf":10860,"liant":10861,"Ġmvn":10862,"Ġmanip":10863,"Ġanonymous":10864,"separ":10865,"Ġdi":10866,"Ġdot":10867,"Ġduration":10868,"Ġdedicated":10869,"Ġreply":10870,"urning":10871,"ĠSecond":10872,"Ġhis":10873,"exists":10874,"abet":10875,"icate":10876,"ĠAMI":10877,"igin":10878,"eman":10879,"Ġdelay":10880,"Ġruby":10881,"oded":10882,"ĠRule":10883,"apk":10884,"ellow":10885,"Ġ'\\":10886,"ableView":10887,"append":10888,"ĠMatch":10889,"Ġ35":10890,"getBuildPath":10891,"ndo":10892,"ĠĠĠĠĠĠĠĠĠĠĠĠĠĠĠĠĠĠĠĠĠĠĠ":10893,"Ġvolumes":10894,"ĠFull":10895,"ĠFurther":10896,"rypt":10897,"1845":10898,"Images":10899,"Ġschedulers":10900,"165829":10901,"ĠJAVA":10902,"ĠTicket":10903,"phere":10904,"phabet":10905,"275950":10906,"0000000000":10907,"387":10908,"Ġuninstall":10909,"ĠInfo":10910,"testGet":10911,"RunAfter":10912,"Ġplanning":10913,"3486":10914,"MessageChannel":10915,"Ġspeed":10916,"ccc":10917,"489":10918,"596":10919,"ĠReact":10920,"astrometry":10921,"Ġ+----------------":10922,"Compress":10923,"Ġattemp":10924,"Ġ>=":10925,"BeanSerializer":10926,"ListenerList":10927,"scroll":10928,"ostream":10929,"Ġoverall":10930,"Ġoverlay":10931,"Ġoverlap":10932,"Ġoverwritten":10933,"Ġwrapped":10934,"669":10935,"Ġends":10936,"ifiers":10937,"ModuleDeployment":10938,"ĠQA":10939,"ConnectionHandler":10940,"ĠApply":10941,"Ġshape":10942,"openEditor":10943,"HttpURLConnection":10944,"Ġ20140909":10945,"Ġaccessed":10946,"WebResource":10947,"Ġ17501":10948,"PartStack":10949,"BundleContextImpl":10950,"Objects":10951,"Ġ13305":10952,"rench":10953,"autoc":10954,"baseHierarchy":10955,"ĠClicking":10956,"Ġclar":10957,"Ġobserved":10958,"Ġaccur":10959,"GetDataBuilderImpl":10960,"sourceforge":10961,"AsyncBlobStore":10962,"ĠbaseHierarchy":10963,"Oracle":10964,"compiler":10965,"Ġplaceholder":10966,"FIX":10967,"ĠUpdated":10968,"Ġ31519":10969,"BlobToObject":10970,"27216":10971,"Validate":10972,"Compiler":10973,"ĠCommands":10974,"Ġ15707":10975,"objects":10976,"outputrenderers":10977,"XmlApplicationContext":10978,"Ġaggregated":10979,"ependencies":10980,"zero":10981,"ygon":10982,"Attribute":10983,"Ġrendered":10984,"Ġredund":10985,"ĠTabGroup":10986,"ĠWrite":10987,"Ġwords":10988,"Ġpriority":10989,"ĠRefactor":10990,"Customer":10991,"Ġincrease":10992,"####":10993,"Ġabstraction":10994,"Ġbusiness":10995,"Region":10996,"recovery":10997,"Ġinvestigation":10998,"aaaaaaaaaaaaaaaa":10999,"ĠLibrary":11000,"DHAVE":11001,"MoreExecutors":11002,"compatible":11003,"ĠInverseOffer":11004,"Finish":11005,"Throwable":11006,"ĠAmazon":11007,"ĠSWIG":11008,"ExamplesTest":11009,"AbstractNewProjectWizard":11010,"WorkflowInterceptor":11011,"2759502016":11012,"Ġattemping":11013,"/]":11014,"058":11015,"337":11016,"421":11017,"620":11018,"807":11019,"82679":11020,">&":11021,"BO":11022,"Btn":11023,"Category":11024,"GR":11025,"Jetty":11026,"JAVA":11027,"MK":11028,"Mult":11029,"Menu":11030,"Non":11031,"Nested":11032,"Own":11033,"PRI":11034,"Sy":11035,"Src":11036,"Termin":11037,"\\*":11038,"dalvikvm":11039,"green":11040,"kl":11041,"pex":11042,"uate":11043,"vE":11044,"wd":11045,"Ġ66":11046,"ĠKeeper":11047,"Ġubuntu":11048,"ering":11049,"inct":11050,"atur":11051,"ital":11052,"rough":11053,"Ġfe":11054,"Ġfam":11055,"Ġworth":11056,"avy":11057,"Ġband":11058,"Ġbrowse":11059,"Ġintercept":11060,"Ġincomplete":11061,"aservice":11062,"Ġmarker":11063,"sts":11064,"Ġanalys":11065,"Ġdiv":11066,"changed":11067,"ĠTR":11068,"ĠSecurity":11069,"cks":11070,"Ġhyper":11071,"Ġ1352":11072,"Ġ(__":11073,"velocity":11074,"Ġconsequence":11075,"email":11076,"ĠRename":11077,"iform":11078,"Ġ''":11079,"Ġ'--":11080,"rammar":11081,"InView":11082,"ĠDuring":11083,"ĠMis":11084,"observer":11085,"getBean":11086,"indic":11087,"codec":11088,"forward":11089,"ĠFoo":11090,"intent":11091,"ĠStr":11092,"1376":11093,"ĠEst":11094,"ĠEnsure":11095,"ĠNative":11096,"ĠNOP":11097,"ĠThus":11098,"Ġleaving":11099,"ROID":11100,"RODS":11101,"ERM":11102,"Ġuseless":11103,"380":11104,"381":11105,"createPart":11106,"997":11107,"Ġenv":11108,"3657":11109,"archive":11110,"ĠProt":11111,"640":11112,"ringe":11113,"Ġstatistic":11114,"aks":11115,"Ġgenerator":11116,"viders":11117,"840":11118,"Ġsubmissions":11119,"Keys":11120,"Repro":11121,"sendMessage":11122,"Ġ20140626":11123,"DataSource":11124,"InvocationHandler":11125,"ymap":11126,"\"><":11127,"Ġkeyword":11128,"ometimes":11129,"ticket":11130,"Ġtopic":11131,"Ġordering":11132,"Ġmodes":11133,"ĠAnother":11134,"JSParser":11135,"1003":11136,"20140829":11137,"Ġregistering":11138,"ĠURLs":11139,"Outbound":11140,"ĠUnknown":11141,"Ġexpir":11142,"Kitchen":11143,"Intent":11144,"applications":11145,"FieldEditor":11146,"egin":11147,"Ġassignments":11148,"Ġ`/":11149,"Modes":11150,"Ġmodels":11151,"ĠRESTful":11152,"Ġreasonable":11153,"methods":11154,"lifecycle":11155,"Ġtransports":11156,"Ġgreater":11157,"ĠIPAC":11158,"Ġ15709":11159,"SWTException":11160,"timj":11161,"Ġdestination":11162,"Ġdiscussions":11163,"BambooFreemarkerManager":11164,"Left":11165,"Ġaffects":11166,"Ġsorted":11167,"Bytes":11168,"ĠSkipped":11169,"Assertion":11170,"jaxws":11171,"Ġasking":11172,"Ġeffects":11173,"results":11174,"mediate":11175,"SchedulerFailover":11176,"Ġexplan":11177,"SERT":11178,"32907":11179,"gnl":11180,"ĠEnterprise":11181,"Ġ30229":11182,"Ġmultipart":11183,"OptionsMetadata":11184,"Mouse":11185,"BackgroundColor":11186,"busy":11187,"Ġtranslations":11188,"ĠAborted":11189,"mongodb":11190,"Ġ(!)":11191,"CamelContext":11192,"Bitmap":11193,"Router":11194,"ĠDRP":11195,"jasmine":11196,"Ġacknowled":11197,"eprecate":11198,"000000019856":11199,"inguish":11200,"selves":11201,"onesimulator":11202,"\\\",\\\"":11203,"184521":11204,"ĠKeeperErrorCode":11205,"InViewFilter":11206,"20140829184521":11207,"\"],":11208,"%;":11209,"(/":11210,")'":11211,")');":11212,"-)":11213,"/,":11214,"358":11215,"416":11216,"5000":11217,"613":11218,"604":11219,"688":11220,"712":11221,"817":11222,"=(":11223,"Binding":11224,"Cal":11225,"Caps":11226,"Cacher":11227,"EQ":11228,"Features":11229,"IU":11230,"MENT":11231,"Ns":11232,"Os":11233,"RES":11234,"Reregister":11235,"Site":11236,"Try":11237,"Watcher":11238,"aul":11239,"both":11240,"cron":11241,"cached":11242,"crammd":11243,"first":11244,"lr":11245,"persist":11246,"qli":11247,"split":11248,"take":11249,"twe":11250,"zilla":11251,"Ġess":11252,"instr":11253,"Ġap":11254,"Ġsus":11255,"Ġsqu":11256,"issu":11257,"Ġfactor":11258,"Ġfair":11259,"Ġwp":11260,"deb":11261,"Ġbabili":11262,"Ġbias":11263,"Ġpref":11264,"Ġinject":11265,"uller":11266,"ĠTyp":11267,"hoc":11268,"ĠSalesforce":11269,"ads":11270,"ushing":11271,"Ġhist":11272,"external":11273,"existing":11274,"abe":11275,"ĠAU":11276,"Ġprox":11277,"Ġconven":11278,"ĠCLO":11279,"Ġstamp":11280,"Ġstuck":11281,"ilent":11282,"apns":11283,"Ġ'<":11284,"Ġgalaxy":11285,"ildcard":11286,"Ġalphabet":11287,"Inject":11288,"Include":11289,"ĠDuration":11290,"Stub":11291,"procs":11292,"getConnection":11293,"ĠWin":11294,"ĠWidget":11295,"ĠĠĠĠĠĠĠĠĠĠĠĠĠĠĠĠĠĠĠĠĠĠĠĠ":11296,"ĠFI":11297,"1222":11298,"Ġ=================================":11299,"converter":11300,"ĠStatistics":11301,"1435":11302,"ailability":11303,"ĠNexus":11304,"uppet":11305,"1812":11306,"ĠLDM":11307,"ĠLicense":11308,"Ġlearn":11309,"551":11310,"5544":11311,"ĠJK":11312,"Ġjump":11313,"Ġ<!--":11314,"organization":11315,"064":11316,"Ġchat":11317,"AbstractResource":11318,"ĠUDI":11319,"','":11320,"446":11321,"395":11322,"EventOperation":11323,"279":11324,"duit":11325,"388":11326,"Ġserve":11327,"Ġservlet":11328,"createImageView":11329,"createTextField":11330,"Ġplane":11331,"trac":11332,"MessageDialog":11333,"enchmark":11334,"ĠExport":11335,"4822":11336,"Compart":11337,"Complete":11338,"adding":11339,"2010":11340,"workbench":11341,"DefaultMBeanServer":11342,"Ġheap":11343,"Ġ@@":11344,"ools":11345,"___":11346,"scorm":11347,"scheduling":11348,"Ġkeeps":11349,"Ġdeployments":11350,"backbone":11351,"Ġavd":11352,"Ġago":11353,"670":11354,"hemeral":11355,"Ġsubset":11356,"locks":11357,"ĠAdditional":11358,"Ġassumes":11359,"HttpMethod":11360,"curial":11361,"SCore":11362,"vironments":11363,"Ġcompared":11364,"ResourceIT":11365,"Ġdistort":11366,"PartListenerList":11367,"BundleCacher":11368,"Helvet":11369,"ĠdbName":11370,"Envelope":11371,"callSuper":11372,"Ġgray":11373,"ĠChild":11374,"ExecutionManagerImpl":11375,"Submit":11376,"Ġ30234":11377,"displayCaps":11378,"RepositoryView":11379,"ĠUnhandled":11380,"SQLite":11381,"ĠPlace":11382,"ĠUserCgroupIsolatorTest":11383,"Ġrestarted":11384,"Ġdescriptions":11385,"ĠButler":11386,"Ġpresented":11387,"DeploymentIntegrationTests":11388,"cfg":11389,"ĠIntegrity":11390,"threads":11391,"BeanDefinitionParser":11392,"SessionInViewFilter":11393,"Compile":11394,"Recogn":11395,"ributedString":11396,"installed":11397,"Ġ26212":11398,"Ġattachments":11399,"ĠOutline":11400,"Ġ21053":11401,"ĠImageView":11402,"Ġquotes":11403,"pressed":11404,"ĠMapKit":11405,"Ġideal":11406,"Ġfreeze":11407,"ĠShutdown":11408,"Ġextended":11409,"ĠDocumentation":11410,"Ġ27642":11411,"Ġ27645":11412,"Ġraise":11413,"cludes":11414,"4066":11415,"Ġcorrections":11416,"Ġexperiment":11417,"Ġcertificates":11418,"pago":11419,"reconcile":11420,"Ġ30285":11421,"ĠCriteria":11422,"ExternalResource":11423,"Loaded":11424,"private":11425,"Ġpresence":11426,"Packaging":11427,"bindings":11428,"Distro":11429,"JOB":11430,"ĠInitializing":11431,"Ġrotate":11432,"Ġinstantiate":11433,"LoginFilter":11434,"Ġintermittently":11435,"SimpleMessageListenerContainer":11436,"PersistentVolume":11437,"Ġalternative":11438,"defineClass":11439,"TitaniumUpdatePage":11440,"________________":11441,"Ġsituation":11442,"Ġinherit":11443,"Ġencrypted":11444,"Ġcoordinate":11445,"Ġcandidate":11446,"Ġfrequency":11447,"Ġmonth":11448,"etaserv":11449,"Ġrefreshed":11450,"SpringXDException":11451,"ĠCluster":11452,"20110210":11453,"launchConfigurations":11454,"Windo":11455,"Compartment":11456,"DefaultMBeanServerInterceptor":11457,"Helvetica":11458,"428":11459,"612":11460,"623":11461,"755":11462,"747":11463,"811":11464,"809":11465,"904":11466,"Acc":11467,"Accept":11468,"Bal":11469,"Buf":11470,"CD":11471,"Cl":11472,"Car":11473,"DA":11474,"FITS":11475,"Gant":11476,"JST":11477,"Kill":11478,"Lane":11479,"Max":11480,"Rabbit":11481,"UJ":11482,"Vl":11483,"aD":11484,"coverage":11485,"di":11486,"gcc":11487,"glossary":11488,"hes":11489,"ipped":11490,"kagrawal":11491,"mime":11492,"mirror":11493,"plot":11494,"sur":11495,"snapshot":11496,"wdb":11497,"xc":11498,"ying":11499,"}.":11500,"Ġ\\\\":11501,"inning":11502,"esc":11503,"Ġado":11504,"reduce":11505,"Ġsolver":11506,"Ġsleep":11507,"ĠcCXF":11508,"Ġwsdl":11509,"Ġinverse":11510,"Ġmut":11511,"Ġmill":11512,"Ġmedian":11513,"hooks":11514,"ĠSame":11515,"Ġ140":11516,"abc":11517,"Ġ229":11518,"Ġ($":11519,"ĠAUR":11520,"ĠAstrometry":11521,"Ġbeyond":11522,"Ġconcurrent":11523,"plist":11524,"ĠClo":11525,"ĠCOM":11526,"ĠCModel":11527,"ĠCtrl":11528,"Ġstates":11529,"uplication":11530,"ĠRob":11531,"ĠRSS":11532,"Ġcomposite":11533,"actuate":11534,"Ġ'+":11535,"Ġgain":11536,"Ġgone":11537,"rich":11538,"ĠPUT":11539,"Ġexer":11540,"Ġalter":11541,"Ġalmost":11542,"ĠDispatch":11543,"ĠMaps":11544,"ĠMock":11545,"romise":11546,"Stop":11547,"ndic":11548,"ĠWorld":11549,"Ġefficient":11550,"underscore":11551,"izers":11552,"Ġweight":11553,"Ġappc":11554,"ĠStandard":11555,"1488":11556,"14003":11557,"Received":11558,"Rejected":11559,"Required":11560,"ĠNO":11561,"Ġscatter":11562,"ĠOptions":11563,"ĠJan":11564,"Ġ42":11565,"Ġ401":11566,"():":11567,"Ġbuildbot":11568,"ĠGS":11569,"ĠGNU":11570,"564":11571,"ĠInit":11572,"073":11573,"075544":11574,"MessageReceiver":11575,"ipment":11576,"doBuild":11577,"doPrivileged":11578,"482":11579,"791":11580,"ĠReason":11581,"531":11582,"ĠdataId":11583,"Ġhope":11584,"ledge":11585,"DefaultSingleton":11586,"DefaultCamelContext":11587,"NativeConstructorAccessorImpl":11588,"ashes":11589,"controllers":11590,"BeanRegistry":11591,"ĠItem":11592,"Ġprepare":11593,"Ġspecs":11594,"LETE":11595,"Ġroll":11596,"672":11597,"hemera":11598,"Ġsubmitted":11599,"Ġ20140929":11600,"ATCH":11601,"ĠDevelop":11602,"share":11603,"SCRI":11604,"deps":11605,"ITH":11606,"Ġaccessibility":11607,"683":11608,"ĠAuto":11609,"Already":11610,"Ġ],":11611,"Simp":11612,"ĠComplete":11613,"++.":11614,"++++":11615,"Ġquerying":11616,"Ġkaraf":11617,"Ġoutputs":11618,"Ġtooling":11619,"Ġwebsite":11620,"Ġgrace":11621,"subprocess":11622,"clear":11623,"ĠHTTPClient":11624,"Ġ27242":11625,"Ġ20150124":11626,"Ġwizards":11627,"Ġformats":11628,"disable":11629,"olutions":11630,"ĠLook":11631,"ecessarily":11632,"Ġedits":11633,"Intro":11634,"NSLayoutConstraint":11635,"ĠWhere":11636,"ORDER":11637,"MODE":11638,"fdc":11639,"Ġexecutable":11640,"ĠSimilar":11641,"psf":11642,"ĠPerhaps":11643,"ĠIntegrate":11644,"ĠDeployer":11645,"frm":11646,"15065":11647,"socketRead":11648,"targets":11649,"ĠFailures":11650,"Ġbranches":11651,"latitude":11652,"AWAIT":11653,"Ġcommented":11654,"educe":11655,"AlloyTemplate":11656,"MasterDetails":11657,"Ġmeetings":11658,"Ġignores":11659,"Ġ~/":11660,"brains":11661,"Ġiterate":11662,"Ġeffectively":11663,"dependency":11664,"ĠFinish":11665,"PRODU":11666,"activemq":11667,"Ġ30227":11668,"ĠDistribute":11669,"Ġserialization":11670,"Ġconstructors":11671,"ublesho":11672,"Assist":11673,"authenticatee":11674,"innerRun":11675,"Ġevolution":11676,"Blueprint":11677,"Automatically":11678,"Updates":11679,"Ġcaught":11680,"Ġenhance":11681,"FetcherCache":11682,"ĠIgnoring":11683,"ĠGraphics":11684,"jetbrains":11685,"umbnail":11686,"atomic":11687,"kitchensink":11688,"TiBaseActivity":11689,"CompressingFilter":11690,"Ġexplanation":11691,"pagoBI":11692,"CompartmentLane":11693,"ĠAURA":11694,"DefaultSingletonBeanRegistry":11695,"MasterDetailsPage":11696,"%)":11697,"-[":11698,".\\":11699,".).":11700,"/@":11701,"335":11702,"624":11703,"603":11704,"717":11705,"787":11706,"886":11707,"927":11708,"936":11709,"989":11710,"?\"":11711,"AY":11712,"But":11713,"Boss":11714,"Begin":11715,"Cr":11716,"Cancel":11717,"FE":11718,"Focus":11719,"Geom":11720,"IW":11721,"JSS":11722,"Mqtt":11723,"PAR":11724,"SV":11725,"SOME":11726,"Sandbox":11727,"]$":11728,"big":11729,"cing":11730,"hi":11731,"jj":11732,"migr":11733,"ping":11734,"pump":11735,"tM":11736,"tip":11737,"ua":11738,"uu":11739,"vI":11740,"vance":11741,"Ġâ":11742,"inv":11743,"Ġamong":11744,"rele":11745,"rox":11746,"rote":11747,"animation":11748,"Ġfour":11749,"Ġwatcher":11750,"Ġpure":11751,"unth":11752,"Ġmapped":11753,"ulled":11754,"stage":11755,"javac":11756,"selection":11757,"Ġdhyde":11758,"Ġrevisit":11759,"Ġredesign":11760,"urator":11761,"adb":11762,"estr":11763,"Ġhor":11764,"009":11765,"verify":11766,"imize":11767,"abstract":11768,"icol":11769,"Ġproof":11770,"vict":11771,"ĠRoot":11772,"quiet":11773,"Ġls":11774,"Ġlay":11775,"Ġliter":11776,"ĠDrop":11777,"ĠMark":11778,"ĠĠĠĠĠĠĠĠĠĠĠĠĠĠĠĠĠĠĠĠĠĠĠĠĠĠĠĠĠĠĠ":11779,"forEach":11780,"ĠForked":11781,"cond":11782,"construct":11783,"1333":11784,"Ġupstream":11785,"libevent":11786,"Ġscisql":11787,"ĠLet":11788,"ĠOptim":11789,"5555":11790,"Ġjetty":11791,"ĠTiSDK":11792,"AbstractNio":11793,"ĠHit":11794,"ĠUS":11795,"ĠUnder":11796,"4444":11797,"394":11798,"EventRun":11799,"omez":11800,"Ġlogon":11801,"382":11802,"Ġunres":11803,"Ġ201508":11804,"createTabGroup":11805,"ystream":11806,"ĠInclude":11807,"cribe":11808,"MessageProducer":11809,"Ġspreadsheet":11810,"363":11811,"logies":11812,"processNext":11813,"ynonym":11814,"Ġsound":11815,"866":11816,"37993":11817,"ĠRepro":11818,"AccessController":11819,"TitaniumStudio":11820,"Ġ18130":11821,"765":11822,"Ġrequiring":11823,"ĠVer":11824,"Ġbackwards":11825,"Ġcheckout":11826,"Ġoverl":11827,"Ġlibdispatch":11828,"talendforge":11829,"45384":11830,"Ġreproduced":11831,"ChannelException":11832,"fileMerger":11833,"Ġtransformation":11834,"Https":11835,"ishapelet":11836,"Ġ20140828":11837,"Ġdependent":11838,"Ġscripting":11839,"ĠNoNode":11840,"Ġ91":11841,"APNs":11842,"ĠProjects":11843,"==========":11844,"ProjectBuilder":11845,"ĠUpload":11846,"Similar":11847,"subscribe":11848,"ĠAnaly":11849,"2001":11850,"ĠYUI":11851,"Ġzoom":11852,"1008":11853,"Ġpopulated":11854,"ĠLooks":11855,"Ġcharset":11856,"Ifx":11857,"mpty":11858,"Ġ****":11859,"preferences":11860,"channels":11861,"egacy":11862,"Ġknowledge":11863,"listView":11864,"ReflectiveCallable":11865,"ĠsessionId":11866,"fireEvent":11867,"UserNotification":11868,"QueryAction":11869,"mulesource":11870,"ĠIDs":11871,"lesson":11872,"reports":11873,"ĠPermission":11874,"lified":11875,"visioning":11876,"Observer":11877,"Ġputting":11878,"Ġgrep":11879,"Ġ5474":11880,"OperationHelper":11881,"LaunchConfigurationTabGroup":11882,"MesosTest":11883,"Restart":11884,"Ġ13309":11885,"Ġdecided":11886,"Ġ21055":11887,"Ġ21059":11888,"Initializer":11889,"generated":11890,"Functions":11891,"Ġactivated":11892,"GitOperationHelper":11893,"ĠEvents":11894,"1211906":11895,"Visual":11896,"requency":11897,"<<<<":11898,"Ġleads":11899,"ĠRabbitMQ":11900,"TiUIImageView":11901,"ZNSt":11902,"holders":11903,"ĠPoint":11904,"multishapelet":11905,"liminary":11906,"MYD":11907,"MYI":11908,"Ġoverridden":11909,"ikunth":11910,"jruby":11911,"FetchConnection":11912,"AuthorizationTest":11913,"20121018":11914,"Ġdescribing":11915,"arbage":11916,"ĠNeue":11917,"ProgressMonitorDialog":11918,"LightweightDecorator":11919,"AccessLogFilter":11920,"ĠQueue":11921,"Ġcontributing":11922,"GenKey":11923,"Ġrenamed":11924,"Ġhalf":11925,"ProtectionDomain":11926,"ĠDirectory":11927,"RunAfters":11928,"Ġredundant":11929,"Owned":11930,"Ġfairly":11931,"Ġdistortion":11932,"RejectedAPNs":11933,"ĠGSEventRun":11934,"ubleshoot":11935,"ĠGraphicsServices":11936,"RejectedAPNsListener":11937,")/":11938,"459":11939,"513":11940,"547":11941,"536":11942,"617":11943,"689":11944,"750":11945,"734":11946,"844":11947,"917":11948,"977":11949,"Boot":11950,"Board":11951,"Cursor":11952,"Dump":11953,"EVENT":11954,"JC":11955,"Learn":11956,"May":11957,"MULE":11958,"ORI":11959,"Pipe":11960,"POST":11961,"Should":11962,"Tidy":11963,"UAL":11964,"WD":11965,"WN":11966,"WP":11967,"ajax":11968,"bg":11969,"cert":11970,"destroy":11971,"ey":11972,"gather":11973,"gemfire":11974,"mber":11975,"nom":11976,"normal":11977,"san":11978,"tis":11979,"tig":11980,"your":11981,"};":11982,"Ġ88":11983,"erver":11984,"instrument":11985,"Ġtalend":11986,"Ġtdq":11987,"atives":11988,"Ġamp":11989,"Ġaptana":11990,"heap":11991,"rename":11992,"lend":11993,"Ġcle":11994,"Ġcms":11995,"ister":11996,"animate":11997,"inger":11998,"Ġfast":11999,"Ġwor":12000,"Ġwent":12001,"Ġwide":12002,"avis":12003,"cef":12004,"Ġmaps":12005,"ulations":12006,"Ġodd":12007,"omas":12008,"Ġreli":12009,"chris":12010,"ĠTUJ":12011,"Ġ118":12012,"imension":12013,"Ġprovenance":12014,"ĠClear":12015,"ĠCascades":12016,"Ġstub":12017,"Ġ\"[":12018,"Ġrisk":12019,"oreograph":12020,"010":12021,"015":12022,"rice":12023,"ĠPAS":12024,"ĠPAR":12025,"ĠMB":12026,"ĠMo":12027,"ĠMer":12028,"ĠMDM":12029,"Ġ33":12030,"Ġ34":12031,"Ġ300":12032,"assist":12033,"Ġaspect":12034,"program":12035,"opic":12036,"ĠWinter":12037,"ĠEvery":12038,"Contacts":12039,"ĠLD":12040,"ĠLike":12041,"0459":12042,"Ġjms":12043,"Ġjenkins":12044,"ĠHyper":12045,"INS":12046,"Ġunavailable":12047,"5899":12048,"991":12049,"0204":12050,"\":[":12051,"Ġlife":12052,"ĠExisting":12053,"ĠĠĉĠ":12054,"594":12055,"ignore":12056,"Compound":12057,"533":12058,"ĠProgram":12059,"ificate":12060,"ensure":12061,"ĠĠĠĠĠĠĠĠĠĠĠĠĠĠĠĠĠĠĠĠĠĠĠĠĠĠĠĠĠĠĠĠĠĠĠ":12062,"3029":12063,"langu":12064,"Ġarri":12065,"('#":12066,"760":12067,"Ġbacked":12068,"Ġbacklog":12069,"posing":12070,"494":12071,"ARD":12072,"setBackgroundColor":12073,"545":12074,"667":12075,"6666":12076,"Ġthemselves":12077,"StreamDeploymentIntegrationTests":12078,"ausing":12079,"formatter":12080,"Ġ65":12081,"Ġcontained":12082,"maintenance":12083,"Ġ20140714":12084,"Ġtableview":12085,"ĠDefine":12086,"Ġids":12087,"curren":12088,"Ġwhereas":12089,"missing":12090,"venv":12091,"Ġdifferences":12092,"ĠImages":12093,"Ġunderne":12094,"ĠFormat":12095,"Ġdialogue":12096,"Ġvalidator":12097,"Ġvalidated":12098,"ClientCnxn":12099,"Ġ95":12100,"fca":12101,"ContentType":12102,"Forced":12103,"Ġrestored":12104,"Ġproblematic":12105,"deployed":12106,"entially":12107,"Ġcompletes":12108,"Ġaccom":12109,"textAlign":12110,"Ġlatitude":12111,"Setting":12112,"Ġ27241":12113,"Statements":12114,"LocalFile":12115,"ĠDouble":12116,"ĠDoxygen":12117,"egomez":12118,"slaveId":12119,"Ġchooser":12120,"ĠTrue":12121,"Ġ15089":12122,"Ġmostly":12123,"Ġqueued":12124,"Ġboxes":12125,"enterprise":12126,"Ġnetworking":12127,"Ġgrey":12128,"Ġentering":12129,"Ġdestruct":12130,"Ġcapacity":12131,"Ġblue":12132,"ocks":12133,"IOException":12134,"ĠREPRODU":12135,"Grad":12136,"Blocking":12137,"InterceptingMessageProcessor":12138,"Ġcaptured":12139,"Ġlocked":12140,"Ġ20150206":12141,"Ġlicens":12142,"Ġipad":12143,"cluded":12144,"going":12145,"Ġexperi":12146,"Ġpurposes":12147,"Ġreplacing":12148,"ĠTextField":12149,"ĠCCB":12150,"graphics":12151,"Ġinserted":12152,"ĠDetected":12153,"Ġbrings":12154,"centos":12155,"Ġexpanded":12156,"Specific":12157,"StorageProvider":12158,"exports":12159,"InvokeMethod":12160,"Ġresponses":12161,"Ġdisappears":12162,"Ġ24590":12163,"Ġ24593":12164,"Ġrecommended":12165,"CKER":12166,"ĠReturn":12167,"chunks":12168,"ĠAssignees":12169,"terminal":12170,"ĠOtherwise":12171,"tracker":12172,"Ġpairs":12173,"covery":12174,"Ġyears":12175,"Ġtechnology":12176,"Ġdenied":12177,"Sky":12178,"Ġsemantics":12179,"Collector":12180,"variable":12181,"Ġestablish":12182,"ClosedChannelException":12183,"Ġdiagram":12184,"Ġfeel":12185,"Ġfamili":12186,"Ġanalyses":12187,"Ġsuspect":12188,"Ġ=================================================================":12189,"RepositoryViewService":12190,"ORIZ":12191,"oreographer":12192,"Ġunderneath":12193,"057":12194,"338":12195,"356":12196,"379":12197,"538":12198,"629":12199,"725":12200,"70122":12201,"AF":12202,"Audio":12203,"Built":12204,"Choose":12205,"During":12206,"Hi":12207,"Hierarchical":12208,"Ip":12209,"LOST":12210,"MCE":12211,"MAX":12212,"Metric":12213,"Named":12214,"Ok":12215,"Payload":12216,"QS":12217,"QVGA":12218,"Sequence":12219,"Unt":12220,"Ubi":12221,"Var":12222,"WM":12223,"]=":12224,"bcc":12225,"banner":12226,"dde":12227,"dnd":12228,"disp":12229,"dsl":12230,"echo":12231,"eups":12232,"frame":12233,"hash":12234,"history":12235,"iating":12236,"ka":12237,"mZ":12238,"ming":12239,"mch":12240,"pite":12241,"templates":12242,"world":12243,"watcher":12244,"xv":12245,"yde":12246,"yquery":12247,"zk":12248,"Ġ----------":12249,"erber":12250,"atas":12251,"reme":12252,"revocable":12253,"Ġsolutions":12254,"Ġcast":12255,"Ġclang":12256,"Ġfootprint":12257,"Ġfilled":12258,"arant":12259,"Ġpipel":12260,"Ġinspect":12261,"Ġmessaging":12262,"Ġmatrix":12263,"strict":12264,"amine":12265,"Ġanaconda":12266,"Ġreve":12267,"Ġreject":12268,"Ġreach":12269,"Ġrelying":12270,"ĠTotal":12271,"adha":12272,"0018":12273,"imit":12274,"abor":12275,"umably":12276,"ĠCoverage":12277,"ĠChoose":12278,"ĠCREATE":12279,"Ġ\"+":12280,"quity":12281,"quick":12282,"osname":12283,"epSource":12284,"ĠPetr":12285,"Ġexposure":12286,"prere":12287,"Conscript":12288,"Conduit":12289,"Incorrect":12290,"ĠDO":12291,"ĠDoc":12292,"ĠDrag":12293,"Ġ36":12294,"1052":12295,"produce":12296,"runner":12297,"ĠWatch":12298,"forced":12299,"ĠFetch":12300,"completed":12301,"1219":12302,"extr":12303,"Ġappcelerator":12304,"UIJob":12305,"Reading":12306,"ircle":12307,"gres":12308,"readMessage":12309,"readBytes":12310,"Ġimpl":12311,"ĠOur":12312,"557":12313,"ĠJust":12314,"ĠJRE":12315,"Choreographer":12316,"acegi":12317,"Ġjmx":12318,"ĠBl":12319,"083":12320,"AbstractCollection":12321,"AbstractQueued":12322,"AbstractPlainSocketImpl":12323,"ĠHSQL":12324,"3938":12325,"EventMatching":12326,"38501":12327,"pole":12328,"Ġseries":12329,"ĠGMT":12330,"ebyquery":12331,"Ġconfigs":12332,"Ġtract":12333,"575":12334,"trust":12335,"4687":12336,"4640":12337,"processing":12338,"796":12339,"Resolve":12340,"builders":12341,"201507":12342,"868":12343,"869":12344,"ĠĠĠĠĠĠĠĠĠĠĠĠĠĠĠĠĠĠĠĠĠĠĠĠĠĠĠĠĠĠĠĠĠ":12345,"TitaniumNPM":12346,"ĠConfluence":12347,"EclipseLazy":12348,"Ġoptionally":12349,"ACSCore":12350,"Ġanywhere":12351,"Ġprefer":12352,"ServiceFactoryBean":12353,"Ġkept":12354,"Ġlocate":12355,"Ġ70":12356,"Ġ78":12357,"ĠJSCA":12358,"ConfigParser":12359,"StreamDeploymentListener":12360,"executeRepositoryWorkUnit":12361,"ProxyRepositoryFactory":12362,"Ġportion":12363,"without":12364,"Ġsharing":12365,"FileManager":12366,"FileNotFoundException":12367,"Ġtransparent":12368,"DataMapper":12369,"curl":12370,"âĢ¦":12371,"Ġemit":12372,"Ġcompliant":12373,"implRead":12374,"Ġ94":12375,"REQ":12376,"ducing":12377,"Ġconnecting":12378,"Ġdistinguish":12379,"Partition":12380,"Ġstrange":12381,"Ġreadable":12382,"UNT":12383,"++/":12384,"Ġmodification":12385,"Ġcrashed":12386,"avick":12387,"econds":12388,"ĠAnalytics":12389,"JavaRecogn":12390,"BasePack":12391,"Ġ27238":12392,"rete":12393,"Ġpopover":12394,"transformer":12395,"TextViewer":12396,"ExecutionInstance":12397,"ĠNotification":12398,"annotations":12399,"ĠSuccess":12400,"Ġadapt":12401,"Ġadvant":12402,"prepare":12403,"functional":12404,"Ġ24584":12405,"Ġhosts":12406,"Ġterminating":12407,"sdss":12408,"RedisClient":12409,"RedisTemplate":12410,"Ġfullscreen":12411,"Ġ27638":12412,"Ġplaceholders":12413,"SpringXml":12414,"Ġ15087":12415,"ReportRun":12416,"Ġ31523":12417,"Ġ31524":12418,"Ġ31520":12419,"Ġcounts":12420,"ĠListener":12421,"0000000100":12422,"Ġlimits":12423,"ĠâĢ¢":12424,"ModelPresentation":12425,"Editing":12426,"ĠJavaScriptCore":12427,"Ġreplacement":12428,"transports":12429,"fields":12430,"rupted":12431,"Ġdeclare":12432,"Ġ21057":12433,"tabGroup":12434,"MessageProcessorChain":12435,"Ġsorting":12436,"fontFamily":12437,"Ġ27436":12438,"ModalContextThread":12439,"ByName":12440,"SyncTaskExecutor":12441,"CompositeExpression":12442,"EXEC":12443,"ĠDuraStore":12444,"ReleaseNotes":12445,"Ġboards":12446,"Ġreplicated":12447,"Ġdirty":12448,"TalendJob":12449,"Ġ8746":12450,"NioClient":12451,"Ġqdis":12452,"Ġ30288":12453,"ReflectionDispatch":12454,"SecureAction":12455,"ĠbindId":12456,"Ġanalyzed":12457,"ĠActivityManager":12458,"ĠSuggested":12459,"Ġdealing":12460,"ArtifactWrapper":12461,"Ġmerging":12462,"CharBuf":12463,"Ġdrill":12464,"Ġdrwxr":12465,"Idea":12466,"Ġoverrides":12467,"deletebyquery":12468,"ÂłĠÂłĠÂłĠÂłĠ":12469,"Popover":12470,"Ġsyslog":12471,"failure":12472,"ĠCHECK":12473,".'&":12474,"Ġpolling":12475,"skip":12476,"ĠTech":12477,"Ġneither":12478,"DEFAULT":12479,"Ġsymbols":12480,"ĠFlags":12481,"ĠHandling":12482,"RIGHT":12483,"Ġaligned":12484,"UnitTestImpl":12485,"ExistsException":12486,"SQLE":12487,"DefaultSaveOrUpdate":12488,"Ġsimultaneously":12489,"DqRepositoryViewService":12490,"PREFIX":12491,"Ġindependent":12492,"Ġencaps":12493,"Ġofficial":12494,"Ġrecursive":12495,"Equals":12496,"JettyHTTP":12497,"Synd":12498,"KillTask":12499,"AlloyTemplateInstaller":12500,"FetcherCacheTest":12501,"JSSymbol":12502,"MessageProducerSupport":12503,"==========]":12504,"Ubiquity":12505,"mchadha":12506,"AbstractQueuedSynchronizer":12507,"EventMatchingMask":12508,"TitaniumNPMRelease":12509,"EclipseLazyStarter":12510,"ACSCorePlugin":12511,"JavaRecognizer":12512,"BasePackFetchConnection":12513,"DefaultSaveOrUpdateEventListener":12514,"'}},":12515,"([":12516,"(\\*":12517,".|":12518,"517":12519,"546":12520,"607":12521,"723":12522,"937":12523,"949":12524,"=#":12525,"?).":12526,"Api":12527,"BAM":12528,"Captcha":12529,"DATE":12530,"Evaluate":12531,"Fore":12532,"Final":12533,"Gallery":12534,"Hint":12535,"Hover":12536,"IL":12537,"MC":12538,"MON":12539,"Mongo":12540,"NB":12541,"OF":12542,"Our":12543,"Oss":12544,"Qd":12545,"Top":12546,"Uri":12547,"WVGA":12548,"bs":12549,"buf":12550,"elements":12551,"favorite":12552,"gmt":12553,"hino":12554,"hdpi":12555,"kone":12556,"mos":12557,"mvel":12558,"merge":12559,"nebula":12560,"oauth":12561,"ralc":12562,"sop":12563,"ufs":12564,"vs":12565,"week":12566,"yaml":12567,"zone":12568,"Ġ....":12569,"ĠKeyboard":12570,"ermine":12571,"ĠtREST":12572,"atio":12573,"reed":12574,"len":12575,"ropping":12576,"edora":12577,"Ġbenchmark":12578,"Ġins":12579,"Ġindent":12580,"una":12581,"Ġmag":12582,"Ġmdl":12583,"ulative":12584,"Ġow":12585,"ĠIAM":12586,"hose":12587,"hoSim":12588,"ĠSC":12589,"ĠSynchron":12590,"ĠSyntax":12591,"otyp":12592,"usc":12593,"Ġ1461":12594,"existent":12595,"umulative":12596,"ĠActiv":12597,"Ġprofiler":12598,"ĠCancel":12599,"ĠCalibrateTask":12600,"vial":12601,"014":12602,"quis":12603,"Ġnotified":12604,"acade":12605,"else":12606,"riever":12607,"Explorer":12608,"Ġ[\"":12609,"ĠPRO":12610,"ĠPausing":12611,"Ġexclude":12612,"ocer":12613,"ĠDynamic":12614,"ĠMain":12615,"ĠMeasure":12616,"oped":12617,"1173":12618,"ĠFind":12619,"ĠFollowing":12620,"figure":12621,"ĠEVENT":12622,"Ġresume":12623,"1801":12624,"Ġscience":12625,"ĠLine":12626,"ĠLast":12627,"043":12628,"ĠJim":12629,"234822":12630,"ĠBug":12631,"ĠBabili":12632,"Ġchapter":12633,"()\"":12634,"2874":12635,"createContents":12636,"createHTTPClient":12637,"569":12638,"998":12639,"573":12640,"576":12641,"ffdd":12642,"ipate":12643,"Building":12644,"redicate":12645,"TiHttpClient":12646,"Completed":12647,"worker":12648,"Ġresulted":12649,"Ġdescript":12650,"677":12651,"Streams":12652,"park":12653,"paring":12654,"Ġinteract":12655,"Ġinteraction":12656,"Ġ20141028":12657,"ĠSerial":12658,"ship":12659,"870":12660,"elling":12661,"Ġconsume":12662,"ITOR":12663,"Ġdialogs":12664,"Ġdifferently":12665,"Ġ17504":12666,"deployment":12667,"Ġstrateg":12668,"Ġgrouping":12669,"Ġcritical":12670,"Ġgrab":12671,"Ġgrading":12672,"Ġlatter":12673,"980":12674,"Ġtyped":12675,"Ġclause":12676,"Ġedited":12677,"Ġeverywhere":12678,"Ġvisibility":12679,"LaunchActivity":12680,"coord":12681,"ĠUnit":12682,"gorithm":12683,"CacheListener":12684,"viously":12685,"SlaveTest":12686,"Instant":12687,"repositories":12688,"Ġfocused":12689,"Ġdownloads":12690,"Ġfullname":12691,"Ġremember":12692,"Ġhardcoded":12693,"distrib":12694,"contents":12695,"Ġparticipant":12696,"Compilation":12697,"Ġ24473":12698,"1264640":12699,"Ġdecision":12700,"Initialization":12701,"Ġkeeping":12702,"Ġexpects":12703,"Ġapplying":12704,"Ġiteration":12705,"ĠRemote":12706,"Ġequipment":12707,"Ġephemeral":12708,"attery":12709,"ĠDiscus":12710,"ĠDocuments":12711,"Retrieve":12712,"Ġexplore":12713,"31190":12714,"Ġstudents":12715,"itespace":12716,"Ġ26396":12717,"Ġ26398":12718,"anizations":12719,"Cgroups":12720,"ĠColumn":12721,"Ġprovisioner":12722,"Ġ8744":12723,"Ġdiscovery":12724,"Ġshortcuts":12725,"Ġ1681264640":12726,"Ġoversubscribable":12727,"StepExecution":12728,"LiveViewer":12729,"3193029":12730,"canEdit":12731,"Ġcharts":12732,"Ġsemicol":12733,"Binder":12734,"Ġconventions":12735,"ĠtESBConsumer":12736,"guides":12737,"ĠEXPECTED":12738,"Pressed":12739,"Pressure":12740,"Impact":12741,"PhotoGallery":12742,"Ġanimated":12743,"prodinfo":12744,"inyMCE":12745,"Ġcycles":12746,"Ġpractice":12747,"slice":12748,"Position":12749,"XrdSsi":12750,"Ġunchecked":12751,"liveviewer":12752,"maybe":12753,"Ġcolour":12754,"SupervisorCacheListener":12755,"PhaseInterceptorChain":12756,"ĠPossible":12757,"Ġachieve":12758,"tweets":12759,"Ġexercise":12760,"tigress":12761,"currency":12762,"erberos":12763,"(\\*):":12764,"Foreground":12765,"ralcocer":12766,"3193029443":12767,"%\"":12768,"./":12769,"/{":12770,"419":12771,"499":12772,"430":12773,"630":12774,"635":12775,"718":12776,"708":12777,"702":12778,"806":12779,"903":12780,":-":12781,":</":12782,"ALI":12783,"Break":12784,"Bulk":12785,"Cpp":12786,"Cho":12787,"Could":12788,"DP":12789,"EF":12790,"Est":12791,"FDF":12792,"GV":12793,"Have":12794,"Hook":12795,"Icon":12796,"Mail":12797,"Msg":12798,"NIOS":12799,"TID":12800,"Xd":12801,"`,":12802,"bio":12803,"binding":12804,"cn":12805,"camera":12806,"dot":12807,"draw":12808,"drag":12809,"even":12810,"fx":12811,"fers":12812,"future":12813,"gt":12814,"hFDF":12815,"mask":12816,"messages":12817,"mvn":12818,"oct":12819,"pc":12820,"pages":12821,"qr":12822,"say":12823,"sWith":12824,"sudo":12825,"tm":12826,"then":12827,"uIW":12828,"vesta":12829,"xrd":12830,"})":12831,"Ġer":12832,"Ġ................":12833,"inue":12834,"Ġtuple":12835,"ĠtGenKey":12836,"onCreate":12837,"enh":12838,"Ġcodes":12839,"Ġcmd":12840,"ĠcJMS":12841,"ises":12842,"Ġfresh":12843,"del":12844,"decrypt":12845,"argument":12846,"Ġpause":12847,"Ġpending":12848,"asion":12849,"ety":12850,"utting":12851,"Ġduplication":12852,"Ġrevert":12853,"Ġrevis":12854,"chor":12855,"chdl":12856,"ational":12857,"ecode":12858,"ĠSpace":12859,"ĠSnipp":12860,"ĠSphinx":12861,"usive":12862,"Ġ136":12863,"006":12864,"Ġprofiling":12865,"ples":12866,"oler":12867,"Ġdemand":12868,"Ġdecor":12869,"Ġrapid":12870,"ĠRack":12871,"ĠRubles":12872,"iffer":12873,"Ġgal":12874,"Ġgadget":12875,"Ġgrammar":12876,"Ġ[==========]":12877,"ĠPassword":12878,"ĠPaul":12879,"Conversion":12880,"Infer":12881,"Insets":12882,"aniel":12883,"ĠMe":12884,"ĠMarch":12885,"Ġ31":12886,"Ġ38":12887,"Ġ3502":12888,"provision":12889,"providers":12890,"..\"":12891,"Ġ*****":12892,"running":12893,"udson":12894,"urement":12895,"ĠĠĠĠĠĠĠĠĠĠĠĠĠĠĠĠĠĠĠĠĠĠĠĠĠĠ":12896,"failed":12897,"1234":12898,"conn":12899,"Ġappeared":12900,"141812":12901,"Ġareas":12902,"Delivery":12903,"1713":12904,"upper":12905,"ĠLion":12906,"Ġimg":12907,"Ġleverage":12908,"ogram":12909,"=\".$":12910,"Ġ45":12911,"Ġjline":12912,"solete":12913,"ĠBr":12914,"ĠBrowse":12915,"ĠBlackberry":12916,"Filtered":12917,"AbstractDocument":12918,"AbstractExpression":12919,"1567":12920,"INDO":12921,"INPUT":12922,"27268":12923,"MethodInvok":12924,"ĠsetTimeout":12925,"Ġunzip":12926,"Ġ2016":12927,"createControl":12928,"createListView":12929,"createAlertDialog":12930,"565899":12931,"4700":12932,"Ġtrim":12933,"ysical":12934,"TestSuite":12935,"MessageFlow":12936,"3660":12937,"BuildResultsSummary":12938,"doCall":12939,"592":12940,"ĠReg":12941,"ListSection":12942,"Comparison":12943,"builds":12944,"Unhandled":12945,"ĠProxy":12946,"Ġhours":12947,"Ġshowed":12948,"865":12949,"HandlerWrapper":12950,"ensity":12951,"Ġquit":12952,"atester":12953,"Ġ18131":12954,"31503":12955,"ASUS":12956,"spreadsheet":12957,"ssues":12958,"Ġ!!!":12959,"ClassRule":12960,"Ġparsed":12961,"Ġround":12962,"333":12963,"TaskThread":12964,"ĠĠĉĉĠĠĉ":12965,"Ġsubtr":12966,"paration":12967,"Ġ63":12968,"Ġported":12969,"Ġshapelet":12970,"AMP":12971,"ATUS":12972,"Ġappearing":12973,"ĠtableName":12974,"ĠAltern":12975,"Ġviol":12976,"TableGenerator":12977,"RequestResponse":12978,"JobDeploymentListener":12979,"Ġcomplicated":12980,"ITAN":12981,"694":12982,"696":12983,"698":12984,"ResourceClasses":12985,"ResourceClassRule":12986,"GED":12987,"Webapp":12988,"WebComponent":12989,"Ġoccured":12990,"WithRetry":12991,"Ġcontextual":12992,"TypeInfer":12993,"ĠScope":12994,"arently":12995,"ActivityManager":12996,"subscription":12997,"Ġfinding":12998,"Ġcustomers":12999,"ĠSlaveInfo":13000,"SocketProcessor":13001,"Ġobsolete":13002,"Transition":13003,"ĠJobServer":13004,"Ġblocked":13005,"ĠDataMapper":13006,"StandardTestService":13007,"SED":13008,"pike":13009,"Fields":13010,"Ġelastic":13011,"MOD":13012,"Ġchoos":13013,"ĠInstalling":13014,"ĠTrigger":13015,"RedisMessageBus":13016,"UserCgroup":13017,"Ġmapview":13018,"jolokia":13019,"Ġ5795":13020,"contentassist":13021,"LineTask":13022,"blur":13023,"Ġfinally":13024,"Ġ509":13025,"ToolBar":13026,"Ġsuggests":13027,"Ġsuggestions":13028,"Ġ24485":13029,"Consider":13030,"Ġ15703":13031,"ruary":13032,"ĠDetail":13033,"eae":13034,"Restore":13035,"successful":13036,"Ġ13311":13037,"Ġexpecting":13038,"Ġaggregator":13039,"ĠGrade":13040,"FFaD":13041,"GROUND":13042,"RootActivity":13043,"RootFilesystem":13044,"RootResourceClasses":13045,"jaxrs":13046,"Ġcommits":13047,"Retriever":13048,"ĠMDLQA":13049,"Ġpressing":13050,">>>>":13051,"Ġosgi":13052,"Ġfinishes":13053,"ĠConnections":13054,"IOSConfiguration":13055,"Ġreplicator":13056,"required":13057,"ĠAgile":13058,"pxVl":13059,"Ġ1682874":13060,"ĠRefresh":13061,"Formatter":13062,"Ġbasis":13063,"Mojo":13064,"detection":13065,"ĠPlatforms":13066,"LettuceConnection":13067,"Abs":13068,"201506141812":13069,"ĠMany":13070,"ĠManage":13071,"Scrollable":13072,"ĠEnabled":13073,"CreationException":13074,"writing":13075,"Ġ26400":13076,"Ġhighlighting":13077,"LogMessageFatal":13078,"discuss":13079,"DefWindowProc":13080,"dispatchEventImpl":13081,"QueuedThreadPool":13082,"Ġderived":13083,"21791":13084,"Ġcandidates":13085,"Ġdescribes":13086,"preted":13087,"Ġlistening":13088,"Perspective":13089,"ERKNS":13090,"iphonesimulator":13091,"ĠKeep":13092,"ĠISR":13093,"Ġshear":13094,"889280":13095,"Ġnegative":13096,"Ġphotometry":13097,"Ġnumeric":13098,"MeasurementTask":13099,"SingleNodeStreamDeploymentIntegrationTests":13100,"vaikunth":13101,"ĠExtender":13102,"broad":13103,"Errno":13104,"1148889280":13105,"Ġarrays":13106,"BeanSerializerBase":13107,"ĠTRACE":13108,"KitchenSink":13109,"IUM":13110,"Ġproxies":13111,"ĠCLOV":13112,"Simplify":13113,"CompartmentLaneEditPart":13114,"vIxv":13115,"1333565899":13116,"LaunchConfigurationTabGroupViewer":13117,"ubleshooting":13118,"ĠLDAP":13119,"045956":13120,"ĠREPRODUCE":13121,"QdvIxv":13122,"NIOServer":13123,"hFDFFFaD":13124,"uIWid":13125,"AbstractExpressionEvaluator":13126,"MethodInvokingMessageProcessor":13127,"MessageFlowEditor":13128,"ITANIUM":13129,"TypeInferrer":13130,"RootResourceClassesRule":13131,"Ġ1682874368":13132,"20150614181235":13133,"hFDFFFaDpxVl":13134,"!\"":13135,"!)":13136,"!');":13137,")-":13138,"/**":13139,"0502":13140,"2181":13141,"336":13142,"412":13143,"424":13144,"639":13145,"628":13146,"716":13147,"753":13148,"834":13149,"805":13150,"8463":13151,"913":13152,"950":13153,"909":13154,"935":13155,"Br":13156,"Cmd":13157,"CBC":13158,"Ee":13159,"EXPECT":13160,"HIG":13161,"IM":13162,"JLine":13163,"Jmx":13164,"Long":13165,"LSE":13166,"MET":13167,"Medi":13168,"NG":13169,"NSA":13170,"Orientation":13171,"PER":13172,"Persistence":13173,"Prefix":13174,"Sdk":13175,"Samples":13176,"Splash":13177,"SpagoBI":13178,"UL":13179,"WER":13180,"WITH":13181,"WINDO":13182,"YPE":13183,"calib":13184,"dx":13185,"eff":13186,"element":13187,"fEvent":13188,"fusc":13189,"ga":13190,"gif":13191,"hns":13192,"iPad":13193,"land":13194,"lator":13195,"math":13196,"tz":13197,"tent":13198,"tizen":13199,"uk":13200,"upt":13201,"{}":13202,"Ġ99":13203,"Ġ76":13204,"Ġ84":13205,"ĠVideo":13206,"inject":13207,"oracle":13208,"onom":13209,"onfigure":13210,"atures":13211,"Ġche":13212,"Ġcoded":13213,"isolation":13214,"itable":13215,"itives":13216,"anim":13217,"Ġfd":13218,"alformed":13219,"Ġtoday":13220,"Ġbrie":13221,"Ġpersistence":13222,"Ġpower":13223,"etime":13224,"loon":13225,"loat":13226,"Ġmar":13227,"Ġmet":13228,"Ġmix":13229,"Ġopt":13230,"Ġdark":13231,"Ġrevision":13232,"Ġrejected":13233,"ĠĠĠĠĠĠĠĠčĊ":13234,"ĠTod":13235,"008":13236,"0001":13237,"emf":13238,"emit":13239,"012":13240,"quant":13241,"Ġ',":13242,"Ġ[]":13243,"ĠParent":13244,"ĠPhoSim":13245,"Inner":13246,"Insert":13247,"InForeground":13248,"ĠDH":13249,"ĠDocs":13250,"ĠDOM":13251,"ĠDiagnostic":13252,"ĠDenso":13253,"anize":13254,"ĠMD":13255,"ĠMQ":13256,"ĠMS":13257,"ĠMon":13258,"ĠMETA":13259,"obufs":13260,"1126":13261,"Ġvector":13262,"izations":13263,"Ġappicon":13264,"Rebuild":13265,"Reason":13266,"ĠNon":13267,"Ġcontr":13268,"Ġdoxygen":13269,"grace":13270,"Ġscan":13271,"Ġcanvas":13272,"1618":13273,"191052":13274,"Ġjira":13275,"231435":13276,"ĠBreak":13277,"Filters":13278,"263":13279,"ERT":13280,"ĠUsed":13281,"ĠUUID":13282,"253":13283,"Ġworkers":13284,"Ġunread":13285,"Ġunrecognized":13286,"ApplicationWindow":13287,"ĠGithub":13288,"ĠGaussian":13289,"ĠGreenHopper":13290,"createPage":13291,"ĠInformation":13292,"ĠInstrument":13293,"4719":13294,"994":13295,"PIC":13296,"\":[\"":13297,"MessageHandling":13298,"anned":13299,"Ġ{{--":13300,"STR":13301,"Ġens":13302,"Ġenvironments":13303,"ouch":13304,"BuildExceptionReporter":13305,"4625":13306,"loadBeanDefinitions":13307,"doStart":13308,"doInvoke":13309,"797":13310,"798":13311,"astdev":13312,"berg":13313,"Ġ++":13314,"Ġsoap":13315,"Ġquote":13316,"AccessException":13317,"xyz":13318,"Ġrecorder":13319,"ProcessBuilder":13320,"Ġbackups":13321,"Ġwasn":13322,"495":13323,"49188":13324,"881":13325,"Ġselects":13326,"Ġselectable":13327,"ostype":13328,"setActive":13329,"Ġwrappers":13330,"notlong":13331,"StreamReading":13332,"Ġsubst":13333,"webview":13334,"ountain":13335,"Requested":13336,"Ġrefers":13337,"Ġreflected":13338,"izedDispatch":13339,"6961":13340,"ĠINF":13341,"ĠMethods":13342,"visible":13343,"Ġmismatch":13344,"9732":13345,"ObjectTo":13346,"Analytics":13347,"topic":13348,"2005":13349,"JavaFramework":13350,"columns":13351,"modal":13352,"Ġcustomized":13353,"Tables":13354,"Ġ27236":13355,"transparent":13356,"ĠChanging":13357,"Ġdiscard":13358,"961":13359,"KeyEvent":13360,"Ġaccident":13361,"Ġprotobufs":13362,"Ġdeletes":13363,"mapreduce":13364,"Ġregions":13365,"Ġbreaking":13366,"Ġthinking":13367,"Ġincorpor":13368,"Ġbrand":13369,"ĠImplementation":13370,"Origin":13371,"StartLevel":13372,"Ġ27639":13373,"endpoints":13374,"Ġ15090":13375,"Ġqueues":13376,"bci":13377,"editpart":13378,"Ġtagged":13379,"Ġdistributions":13380,"hadoopDistro":13381,"NoNode":13382,"NoSuch":13383,"Ġ13933":13384,"Ġcontinues":13385,"Ġcontinuous":13386,"Ġmoves":13387,"Ġparenthes":13388,"tech":13389,"Ġ31215":13390,"Ġ5476":13391,"ĠInstance":13392,"bbb":13393,"8081":13394,"SearchBar":13395,"IGHT":13396,"ĠâĶĶ":13397,"ĠFrameworkInfo":13398,"enario":13399,"aterial":13400,"Ġaggregation":13401,"VirtualFilterChain":13402,"Ġfreezes":13403,"Needed":13404,"Ġactivate":13405,"ĠBefore":13406,"8019":13407,"Beans":13408,"Ġswipe":13409,"Ġguarant":13410,"Ġinstrumented":13411,"ĠVMs":13412,"reporter":13413,"Ġanalyze":13414,"Redirect":13415,"ĠQuartz":13416,"lsx":13417,"FormContent":13418,"Ġevaluated":13419,"Ġprimitives":13420,"pertureFlux":13421,"Ġresponsible":13422,"findClassInternal":13423,"Ġcopies":13424,"Renderer":13425,"Rendering":13426,"records":13427,"DRF":13428,"TODO":13429,"Regex":13430,"tryOptim":13431,"ĠObserve":13432,"ĠFebruary":13433,"ĠUTC":13434,"Dura":13435,"publisher":13436,"Updating":13437,"onymized":13438,"ĠACLs":13439,"Ġdeclaration":13440,"Ġfloat":13441,"uspend":13442,"doGetBean":13443,"Ġorphaned":13444,"pkginfo":13445,"ĠExtra":13446,"UniqueVerify":13447,"gmentation":13448,"\"?>":13449,"Acceler":13450,"CustomerService":13451,"FeaturesServiceImpl":13452,"Injector":13453,"TidyValidator":13454,"Ġcleared":13455,"Ġcmsd":13456,"ĠPetravick":13457,"prerelease":13458,"Ġadvantage":13459,"Ġqdisc":13460,"MONITOR":13461,"Ġstrategies":13462,"WebappClassLoader":13463,"846338":13464,"hnson":13465,"MessageHandlingException":13466,"StreamReadingTask":13467,"tryOptimizedDispatch":13468,"MONITORING":13469,"'],":13470,"450":13471,"402":13472,"420":13473,"454":13474,"710":13475,"746":13476,"720":13477,"774":13478,"751":13479,"705":13480,"815":13481,"839":13482,"874":13483,"8000":13484,"920":13485,";}":13486,"<?":13487,"BG":13488,"BM":13489,"Cli":13490,"Caller":13491,"Don":13492,"EB":13493,"Every":13494,"EPS":13495,"Fill":13496,"Gesture":13497,"Hdfs":13498,"HDFS":13499,"Js":13500,"Kw":13501,"Management":13502,"QP":13503,"Reduce":13504,"Software":13505,"Templates":13506,"Trunk":13507,"TERM":13508,"VO":13509,"WW":13510,"aho":13511,"bor":13512,"bundles":13513,"cassandra":13514,"ece":13515,"each":13516,"fz":13517,"gp":13518,"glib":13519,"jps":13520,"jdt":13521,"ln":13522,"need":13523,"nodes":13524,"prec":13525,"pixel":13526,"rim":13527,"sax":13528,"sorter":13529,"sShell":13530,"urop":13531,"wik":13532,"xcode":13533,"yes":13534,"zh":13535,"}]":13536,"ě[":13537,"Ġug":13538,"Ġĉĉ":13539,"inferencing":13540,"Ġturns":13541,"onChild":13542,"reement":13543,"leader":13544,"Ġswit":13545,"Ġsym":13546,"ena":13547,"enant":13548,"envelope":13549,"itate":13550,"anal":13551,"Ġflick":13552,"Ġfatal":13553,"Ġfires":13554,"Ġfiber":13555,"Ġfocal":13556,"eda":13557,"Ġpay":13558,"Ġpulled":13559,"Ġind":13560,"unsigned":13561,"asically":13562,"eting":13563,"Ġmetric":13564,"Ġmatched":13565,"stat":13566,"--+":13567,"Ġdiagnostic":13568,"ĠTH":13569,"ĠTree":13570,"ĠSdss":13571,"Ġhdp":13572,"Ġ110":13573,"Ġ123":13574,"Ġ156":13575,"vers":13576,"ĠAR":13577,"ĠAJAX":13578,"Ġonline":13579,"ĠCON":13580,"Ġstderr":13581,"Ġ{},":13582,"Ġradius":13583,"ĠRCP":13584,"apis":13585,"acct":13586,"Ġ'.":13587,"Ġ'_":13588,"tting":13589,"ĠPhoto":13590,"Ġexpen":13591,"Ġexits":13592,"ctionary":13593,"Ġlose":13594,"Stud":13595,"runt":13596,"runTask":13597,"ĠWithout":13598,"fores":13599,"Ġever":13600,"extract":13601,"ubble":13602,"13291":13603,"22543":13604,"ĠETL":13605,"ĠEFD":13606,":::":13607,"Ġreserv":13608,"Deliverable":13609,"185051":13610,"Ġlearning":13611,"ĠORIG":13612,"552":13613,"Ġ400":13614,"Ġjdk":13615,"Ġnewinstall":13616,"ViewController":13617,"ĠBased":13618,"FilterAutoConfiguration":13619,"ĠTiapp":13620,"ĠTiBlob":13621,"086":13622,"AbstractPage":13623,"AbstractHandlerMethod":13624,"AbstractTextEditor":13625,"AbstractConnectionHandler":13626,"ĠHook":13627,"ĠUs":13628,"MethodAnd":13629,"246":13630,"These":13631,"ĠTitaniumKit":13632,"policy":13633,"ĠiRODS":13634,"ĠGB":13635,"ĠInvoke":13636,"RunBe":13637,"rows":13638,"0214":13639,"reset":13640,"resume":13641,"Ġreplication":13642,"ffee":13643,"STS":13644,"Ġencoded":13645,"3615":13646,"WorkbenchPreferenceDialog":13647,"logbuf":13648,"httpStream":13649,"ĠExtension":13650,"doWork":13651,"ĠRevert":13652,"achine":13653,"finite":13654,"Reservation":13655,"xmlsoap":13656,"201311":13657,"201502":13658,"ĠProbably":13659,"645":13660,"860":13661,"861":13662,"DefaultMaven":13663,"Threading":13664,"Ġrecycle":13665,"Ġrecipe":13666,"ActionBar":13667,"ActionCo":13668,"Ġhealth":13669,"ĠAndroidManifest":13670,"4931":13671,"Classic":13672,"ClassNotFoundException":13673,"Ġtied":13674,"ationship":13675,"Ġpreced":13676,"Ġviewing":13677,"Ġ168019":13678,"Maintenance":13679,"Ġlibobjc":13680,"groupId":13681,"ĠPersistentVolume":13682,"6700":13683,"ĠQo":13684,"ConnectionImpl":13685,"Ġsubscrib":13686,"webui":13687,"Ġ0808":13688,"Ġshift":13689,"ovember":13690,"TRA":13691,"FileStore":13692,"HttpInboundChannelAdapter":13693,"Ġ20140502":13694,"ĠtextAlign":13695,"ĠSerena":13696,"Ġlooked":13697,"shal":13698,"ĠAlthough":13699,"Science":13700,"8700":13701,"DelegatingSubject":13702,"tester":13703,"Ġmyjob":13704,"JobRepository":13705,"\\\\.":13706,"started":13707,"ITION":13708,"ServletInvocableHandlerMethod":13709,"ĠForeman":13710,"video":13711,"ContentStore":13712,"ResourceStatistics":13713,"Ġdistribute":13714,"Ġoccasion":13715,"PartRendering":13716,"ĠKill":13717,"NodeJS":13718,"ĠYAML":13719,"Ġindication":13720,"General":13721,"JSFileIndexingParticipant":13722,"SystemButton":13723,"Ġperforms":13724,"Ġ20150126":13725,"IndexContributor":13726,"datam":13727,"DMatrix":13728,"Ġdeveloping":13729,"ettyHttpInboundChannelAdapter":13730,"Ġrootfs":13731,"keyring":13732,"Shape":13733,"Getting":13734,"meabi":13735,"ĠModuleDeployer":13736,"Ġinputs":13737,"SDKBuildPath":13738,"restart":13739,"fds":13740,"Ġsinks":13741,"choice":13742,"Ġaddresses":13743,"Isol":13744,"MetadataConnectionUtils":13745,"HTTPConduit":13746,"writeObject":13747,"TableViewProxy":13748,"tableview":13749,"Ġbinaries":13750,"Ġ24478":13751,"Ġformer":13752,"ĠIPv":13753,"ĠContainerizer":13754,"timer":13755,"Ġ30617":13756,"Ġ30609":13757,"Ġ30615":13758,"Ġappropriately":13759,"Ġmigrated":13760,"Ġ13307":13761,"Poll":13762,"Ġarchitect":13763,"ĠexitOnClose":13764,"attached":13765,"ElementLabelProvider":13766,"Ġdrivers":13767,"ĠOrg":13768,"BuildPathIndexContributor":13769,"Ġideas":13770,"ColumnMasterDetailsPage":13771,"ĠShared":13772,"Ġeffective":13773,"Registration":13774,"ĠDELETE":13775,"Ġbadge":13776,"CompositeChange":13777,"Aggreg":13778,"Ġunderstanding":13779,"Ġfooter":13780,"Arguments":13781,"GitRepository":13782,"Ġ20150222":13783,"authenticator":13784,"Ġutilities":13785,"Visible":13786,"WriteUniqueVerify":13787,"Ġconditions":13788,"Ġ1381":13789,"Ġfitting":13790,"CONT":13791,"Ġdatasets":13792,"Ġkinds":13793,"NioEndpoint":13794,"iPhonePackaging":13795,"Ġerrone":13796,"HystrixContext":13797,"Ġcalculated":13798,"Ġcalculation":13799,"ĠParameters":13800,"Ġserialized":13801,"ĠSubmit":13802,"Ġmodifying":13803,"Ġincrement":13804,"Ġanalyzer":13805,"PlanExecutionManagerImpl":13806,"ĠGenerate":13807,"FormEditor":13808,"LazyBuildParticipant":13809,"Ġ8749":13810,"LettuceConnectionFactory":13811,"HTMLTidyValidator":13812,"Character":13813,"CommandsHelper":13814,"DropAdapter":13815,"DropTarget":13816,"Facebook":13817,"Ġsynchronous":13818,"Ġcentroid":13819,"Ġ:::::":13820,"Ġundeployed":13821,"ĠPlugins":13822,"Qua":13823,"Quota":13824,"Ġ{};":13825,"iticalmodel":13826,"ĠCentral":13827,"ĠAssignment":13828,"lapse":13829,"Ġalternate":13830,"jrxml":13831,"Ġextens":13832,"ĠTableViewRow":13833,"partitioned":13834,"------+":13835,"16772":13836,"collections":13837,"ReconcileKillTask":13838,"Ġparams":13839,"ArgsCaller":13840,"Ġadapters":13841,"DiskIndex":13842,"SecurePreferencesRoot":13843,"âĢĶâĢĶâĢĶâĢĶ":13844,"Ġplaying":13845,"DefaultMuleMessage":13846,"RKSt":13847,"Ġsecured":13848,"requirements":13849,"createPickerRow":13850,"assessment":13851,"Ġasynchronously":13852,"friends":13853,"Handshake":13854,"MultiPageMessageFlowEditor":13855,"Binary":13856,"juno":13857,"Ġreconciliation":13858,"ĠSDSS":13859,"Ġautocom":13860,"getBuildPaths":13861,"autoconfigure":13862,"Terminal":13863,"ĠAUTH":13864,"survey":13865,"pumpEvents":13866,"ContentTypeFilter":13867,"Gradient":13868,"ORIZATION":13869,"MetricFilterAutoConfiguration":13870,"ydeMBP":13871,"gresql":13872,"NioClientBoss":13873,"SQLError":13874,"favoriteAction":13875,"ĠEVENTS":13876,"PressureMesosTest":13877,"olerance":13878,"AbsListView":13879,"JLineShell":13880,"quantal":13881,"ĠDHydeMBP":13882,"NoNodeException":13883,"Ġswitched":13884,"analiticalmodel":13885,"Ġreservations":13886,"AbstractPagePart":13887,"AbstractHandlerMethodAdapter":13888,"MethodAndArgsCaller":13889,"RunBefores":13890,"logbufsecs":13891,"ActionCoordinator":13892,"Ġ1680191488":13893,"ĠPersistentVolumeTest":13894,"PartRenderingEngine":13895,"SDKBuildPathContributor":13896,"#//":13897,"026":13898,"515":13899,"548":13900,"644":13901,"646":13902,"828":13903,"836":13904,"879":13905,"955":13906,"925":13907,":_":13908,";)":13909,"AJ":13910,"Center":13911,"Cassandra":13912,"Dem":13913,"Disp":13914,"EM":13915,"Fit":13916,"Feed":13917,"Fruit":13918,"GC":13919,"HR":13920,"Headers":13921,"IFI":13922,"ILD":13923,"IVE":13924,"Ljava":13925,"LDM":13926,
[...]
