[PAD]
[UNK]
[CLS]
[SEP]
[MASK]
!
"
#
$
%
&
'
(
)
*
+
,
-
.
/
0
1
2
3
4
5
6
7
8
9
:
;
<
=
>
?
@
A
B
C
D
E
F
G
H
I
J
K
L
M
N
O
P
Q
R
S
T
U
V
W
X
Y
Z
[
\
]
^
_
`
a
b
c
d
e
f
g
h
i
j
k
l
m
n
o
p
q
r
s
t
u
v
w
x
y
z
{
|
}
~
§
©
«
®
´
»
½
¿
×
ß
ø
λ
π
φ
б
с
א
ב
ג
ד
ה
ו
ט
י
ל
ם
מ
ן
נ
פ
צ
ᄀ
ᄇ
ᄋ
ᅩ
ᅲ
ᅵ
–
—
‘
’
“
”
„
•
…
→
⇒
∞
≫
─
│
└
├
┤
┬
►
★
✓
✕
➔
⟫
、
。
こ
す
て
の
は
れ
ウ
コ
サ
シ
セ
ッ
ト
ヒ
ミ
メ
ロ
ー
ㄇ
ㄏ
ㄔ
ㄚ
ㄟ
ㄣ
ㄨ
上
令
佈
佐
你
入
命
和
報
奎
好
宏
度
廣
未
李
束
東
标
正
法
的
确
神
符
網
结
美
藤
話
识
輸
部
长
陳
零
非
（
）
，
：
？
##V
##N
##S
##a
##s
##l
##A
##u
##t
##h
##e
##n
##i
##c
##o
##r
##9
##7
##3
##8
##E
##T
##U
##P
##p
##d
##g
##k
##M
##C
##f
##m
##b
##1
##5
##2
##y
##v
##z
##R
##4
##D
##0
##I
##x
##L
##6
##B
##O
##G
##H
##X
##Q
##w
##Y
##F
##j
##K
##q
##W
##Z
##─
##┬
##法
##的
##零
##长
##度
##标
##识
##符
##J
##れ
##は
##ᅲ
##ᄇ
##ᅩ
##ø
##報
##ל
##א
##ㄣ
##藤
##ᅵ
##令
##未
##正
##确
##结
##束
##好
##ß
##י
##ן
##´
##上
##廣
##東
##話
##輸
##入
##נ
##ה
##ג
##ם
##פ
##ו
##ט
##צ
##の
##コ
##ミ
##ッ
##ト
##メ
##セ
##ー
##シ
##て
##す
##┤
##ロ
##®
##ウ
##ב
##ד
##部
##和
##ㄟ
##ㄏ
##ㄨ
##ㄚ
##→
##π
##er
##or
##on
##at
##in
##es
##he
##en
##le
the
##ion
##ro
##ing
##an
##ed
##it
in
##ct
##al
##st
to
##re
##av
##ar
##et
##ce
##il
##nd
##ent
##pp
##ou
##od
##se
##ic
##ava
re
java
##am
or
##om
##is
##ut
##un
##ation
##ter
org
th
##as
##ess
and
##ate
##ul
##ot
##ew
##id
is
##ag
##pl
##ch
##ow
##pt
##est
for
##ad
con
st
pro
##ect
##el
##ac
##um
##li
##ab
of
##ork
com
be
##00
##oc
##ist
##ur
on
##ol
de
##ode
at
##ers
##ig
##ith
##ver
##age
ex
##ly
##ec
##ort
##lip
##im
##em
##ile
##lipse
##clipse
##cess
##ld
##ain
##ore
sh
##and
us
not
app
##ult
##iv
##ould
with
run
##ib
##og
##ll
it
eclipse
##tt
##able
##01
##ild
##os
an
##ator
##ction
##hen
##ay
##erv
##dd
that
code
as
##te
sp
##ment
##uild
##ra
##our
##ttp
##ring
##ack
##ject
##ue
##ram
##ke
##ave
##ani
##per
##iew
su
##ob
cpp
##ption
##end
##ule
##rom
##anium
##itanium
inter
##art
test
##fa
mod
http
##lic
##ple
##ework
##ramework
##ass
##ud
##reate
##rr
##ame
##qu
should
##nal
##if
we
##ind
ma
##us
do
##ang
##oo
St
##ler
Re
from
##ri
##ir
##iz
##eth
##rror
this
##Con
##vent
##ug
##ata
res
##ase
##all
##xt
##ache
sc
im
##ice
Th
wh
##ill
Ti
se
all
##orm
add
ch
##In
##ethod
core
up
##ure
##ory
##lass
##ated
cont
spring
##ime
internal
##fig
##02
build
##roid
log
tr
##form
##ere
De
##ilter
##Ex
The
##ive
##up
are
##ecut
##ity
##ail
Titanium
##pe
##ine
##io
##get
create
In
##th
inst
##lect
##fer
get
10
##essage
ap
##indow
en
le
##ccess
ne
file
##ard
##oad
##port
##oy
##lication
can
##Pro
new
##ial
by
##pport
##fault
##ception
project
##St
##vel
will
dis
##gr
##ster
##ov
##11
##pen
15
set
##ract
##pro
##nect
##out
user
201
but
pl
##ire
when
13
error
##atch
##op
##ry
16
##ource
##ap
##udio
if
##gist
##Re
##ener
##over
12
work
##framework
##aun
18
springframework
##bst
UI
19
Con
lib
Ex
##Im
##plic
##aunch
##bstract
apache
inv
process
need
##int
have
##ies
##urr
Abstract
config
##read
Pro
I0
##ition
##idget
##ersion
##Filter
##RO
14
##ervice
##ub
App
##ml
17
##ock
This
##ces
al
##lave
aut
##ask
##Ch
##ome
##ual
requ
##ream
data
un
##urrent
0x
##ules
##ace
##du
##ath
##ht
id
##ype
11
ui
##own
##iles
##ans
##tic
##low
val
##act
use
##play
##View
master
##04
##cl
name
Work
Res
no
support
##ument
##ating
##ploy
sw
ab
##Impl
comm
23
upd
##ary
##und
##cept
var
##ck
##dit
Us
##erver
##til
##yst
27
##ainer
IN
##so
##ence
js
invo
##pert
regist
module
##time
Studio
https
##ite
##ys
##OS
##06
##heck
##App
does
open
##unction
##ide
##ost
##ust
loc
out
##99
21
##yn
##hentic
##pos
##pect
##oint
##DK
invoke
##ight
##nection
fol
android
execut
##celer
##PI
int
version
##plica
##one
##db
##hed
22
We
##ord
And
hand
##celerator
##ench
##rib
##pon
par
##Event
31
##ystem
##roup
##ich
rec
##0000
ar
start
##bench
##Exception
qu
so
##min
INF
##ex
##uration
swt
doc
##anag
cl
##64
view
##ext
slave
function
##ning
level
##22
##text
Add
titanium
has
ER
##Method
ph
##ative
class
##ps
chang
which
INFO
##ink
ref
##let
modules
Android
##ROR
ERROR
20
node
call
ad
using
##anager
##ES
##ff
##esos
##ix
##ant
##ann
col
##put
##62
att
##Hand
default
appcelerator
Un
##ee
framework
##lick
##13
action
##serv
widget
SDK
25
##clud
propert
##ser
##84
back
list
##ound
##ove
##tegr
##Message
##bject
##86
##24
##ript
##Cont
event
result
job
08
launch
authentic
iss
li
you
Workbench
xd
ret
##ance
##ources
##plement
##ugin
##Test
server
API
pre
##ook
##ip
ind
##fin
##irect
##ast
fail
##De
##ns
##79
##14
##ox
tests
##row
pos
##lient
##Run
##ana
stat
Users
lang
runtime
includ
only
php
me
widgets
##arch
##bug
##ress
one
rem
##ach
check
##05
##ptana
bl
##eld
55
##pected
##09
type
##03
##ull
##point
##led
##ific
Dis
##pm
xml
##ield
files
Eclipse
##List
edit
line
##app
##12
window
##74
npm
##alend
##ton
sun
24
##ign
34
##der
Run
##ribut
would
##fo
04
##ber
##cc
##ting
##Manager
##tegration
##Th
py
##ersist
Create
##000
##ms
cre
##ead
##ates
like
util
time
##round
show
Application
##ample
##ph
##fter
win
into
##annel
iOS
pr
##ok
Act
##patch
Window
message
##ens
##82
Default
option
some
task
deploy
Result
local
##Execut
##ther
26
##56
select
update
stream
##ference
##dk
dev
##07
##ery
##nt
##ML
follow
per
current
##ru
replica
39
install
##AS
there
leveldb
##18
##ve
##ool
##ize
Com
##ages
##Access
Cont
end
##17
hpp
mesos
os
##xy
Build
##ose
read
##face
35
sim
##32
##actory
##ialog
display
direct
##ble
##ocation
ke
##atform
##duce
##odule
Native
##ux
go
Method
##obile
request
command
was
text
more
send
47
serv
##34
gener
##ger
##Accessor
I02
bas
plugin
em
integration
reflect
##Handler
44
JS
##lease
##pd
##ote
It
##08
##ical
DE
##ER
aptana
##ean
value
any
load
##ify
##52
##atab
spec
Im
wr
container
##Inter
pack
prov
des
##leg
trans
##ues
see
det
##roll
cor
web
##MethodAccessor
##empl
Test
report
##ceptor
32
click
##posit
ti
##92
##ick
Display
ass
07
Ste
tab
##88
same
##AR
##ations
##ash
##ceiv
##MethodAccessorImpl
handle
used
I01
##UI
##ian
document
retur
service
##produce
registry
following
method
##oot
issue
##ss
##ync
##ful
then
##ft
main
exist
##Chain
mule
##enc
port
##ear
##Build
##ulator
##view
##itle
status
##sc
##39
act
Expected
content
##Application
##ponent
path
works
sub
##amb
##Process
fe
also
##BU
##ST
##pend
##ments
Su
av
##ible
##Listener
ag
##pository
und
access
##ruct
##ions
init
field
part
##are
configuration
net
connection
##16
##ia
##ceived
system
debug
implement
##iled
after
application
red
sec
2014
##Action
##ON
##pace
##umber
##oth
exception
##oard
##BUG
##55
DEBUG
##alse
##rect
Steps
Widget
##iss
36
##ider
scre
over
##Res
anal
page
##ong
execute
Actual
##ak
##ourse
resources
true
Ch
##con
##use
##work
sched
03
01
devel
tw
title
##load
button
other
ls
them
##LE
make
##lassian
##ailed
##res
##ifi
##atabase
##Bean
##oop
image
table
comp
Persist
##ca
index
48
##IN
cr
Main
defin
atlassian
filter
##ices
##amboo
include
allow
##ysis
All
##The
editor
false
##Inv
##emplate
If
59
my
object
Error
##rary
dir
ac
##38
equ
talend
##ql
##ground
##Context
##15
##quest
position
course
HT
db
28
Java
lsst
source
##ell
File
Sc
##19
##10
met
##atal
##izard
29
Sp
##76
54
##ount
##nown
script
string
##ached
about
##75
Open
##mand
property
##Factory
##apt
Thread
device
info
##Executor
##oud
contain
colum
fir
##ivity
CL
##alled
##aus
##RA
ext
##af
##ake
Windows
##ous
##26
bin
##ange
##Com
dif
##abel
admin
Pl
nam
##CS
properties
return
fl
##ree
ev
##empt
XML
feat
could
##Service
00
how
##adata
const
##ateg
jar
recover
##36
change
##TP
##ese
##ocket
man
directory
SAS
context
##ems
SASL
##58
##Interceptor
51
Aut
rest
may
##known
qserv
##Task
component
50
##ailable
##js
appear
depend
##ID
##ulti
down
##Class
##ym
##hem
they
tool
##FilterChain
look
case
##les
##board
##blem
##undle
02
##lean
key
##figuration
platform
##Dis
##OT
##izer
As
Upd
number
pass
##Val
art
able
##35
##ge
##yp
##lection
When
##rc
##77
##ish
38
background
connect
##Channel
dist
example
EclipseApp
form
##arget
##inox
client
##group
bet
exp
Deleg
No
Source
jface
##rol
XD
##ark
equinox
58
##Launch
2015
52
06
inform
##amet
Project
##Col
##fore
correct
available
##ified
ob
##ustom
catal
##ession
##not
cons
##ection
way
##Id
En
##54
##thon
##fact
src
##ade
##ithub
46
##dp
##Processor
##ier
##ility
running
##format
valid
Replica
ht
##sole
mem
##aging
doFilter
first
##We
On
where
just
DM
import
56
Event
noformat
common
group
ste
created
events
##AT
requir
analysis
##Window
I09
endpoint
AU
dialog
Cl
##NT
##mp
##Dispatch
##ampl
stack
##ription
##Connection
try
##Invocation
Delegating
comple
ID
##atter
html
github
reproduce
##ocator
oper
##we
state
##Proxy
##uler
##And
##ood
##78
CLI
ApplicationFilterChain
he
##Ad
##ocument
##tes
##94
studio
fix
##arn
dur
while
home
##vir
##amples
gr
##viron
##72
##ging
##hell
##andard
##ors
changes
attached
##hot
ST
##ax
base
fails
##lete
##apter
I11
##201
link
##ner
projects
top
enable
##ccessful
49
cam
53
For
database
##ized
##Module
##ally
##vert
differ
information
bamboo
mobile
write
output
MES
42
##ification
Service
column
##ics
std
model
arg
43
##ik
doesn
query
##enu
##Sc
##ET
##de
package
##IT
##Load
Inst
##Thread
Sim
brow
##ina
##ervlet
needs
UR
##SC
##cription
##arning
NativeMethodAccessorImpl
these
now
under
I1
##When
find
09
##Container
impl
Web
##vironment
Des
##ogle
##95
took
See
##rar
based
##ierarch
##gi
##oodle
ww
rel
sl
##Data
##ince
##AG
##ling
npmjs
LS
##As
##33
been
##process
##hema
##Util
##Builder
cgroup
want
different
2012
Support
200
Unknown
##Pool
than
ent
remove
57
OS
##lob
##ponse
char
##It
##ences
##lib
testing
bytes
##aptor
each
05
64
multi
##word
##ueue
folder
##arter
being
instead
Node
custom
launcher
3r
Module
lat
require
opens
##ression
catalina
##Request
##Work
conc
##urity
##This
##ures
clover
Slave
am
##ond
repository
Lib
##opy
target
cc
##uture
setting
##ually
##ced
before
feature
##Launcher
##par
users
Job
two
Se
##Starter
cur
##23
##roug
##iler
beca
paramet
right
##alid
##ribution
because
##bound
##back
Stream
sdk
##ARN
View
dependenc
##28
##aven
##ng
results
our
##arty
##ready
##dparty
##rl
##Error
what
##urrently
meas
##Color
Mobile
##ever
wizard
##000000
##PE
##ingle
##idth
problem
Rem
cp
menu
##Table
off
##ization
vari
HTTP
3rdparty
##aster
##inux
documentation
##Loader
initial
##rough
conf
services
##Se
still
##rop
existing
null
occ
received
channel
##Name
##itter
screen
##Viewer
without
currently
##rateg
poss
##ditor
Not
here
tim
##ferences
66
icon
installed
##ets
through
tmp
authenticate
Library
Document
##59
adaptor
names
##ccessfully
##PS
console
aux
mess
##Rec
##ays
already
register
dispatch
127
##ING
30
WARN
##ential
##empting
failed
row
##Template
prot
Update
vis
##ents
##pper
order
such
##57
##QL
##With
stor
EclipseStarter
pub
usr
metadata
Sh
both
##sert
develop
##ration
##30
via
##ett
servlet
##ically
added
Bl
had
##Par
ms
dirt
Log
don
##ira
prom
##aces
issues
sendEvent
EclipseAppLauncher
##rategy
##ases
map
updated
again
Spring
##ely
##AGE
throw
##EST
python
beh
instance
authentication
##ured
space
block
##inc
New
et
##Page
##Configuration
api
Implement
Message
##name
thread
Class
alloy
37
Pre
well
##utton
Process
hierarch
##96
##ender
osgi
MD
##aps
values
perform
##oper
Http
##Su
##37
##44
concurrent
Att
##Adapter
##AC
definition
DelegatingMethodAccessorImpl
found
##oin
##ternal
##race
##phon
www
##98
##SS
##Deploy
##line
remov
som
release
etc
Par
clean
hel
##rans
##Pl
windows
##RY
LSST
##oord
##lert
##File
##very
princ
##ND
its
##fs
##xf
##itor
##ron
##place
disc
##ply
HSC
basic
mob
##aa
delete
67
ele
point
##Dialog
detect
accept
mobiles
head
tick
##Stream
##ocker
mobilesdk
0000
root
##its
##ndex
convert
Debug
##PoolExecutor
DefaultAction
Data
match
##umer
pop
##SAGE
##Job
##issing
100
warning
##nable
Received
302
Set
typ
MESSAGE
Click
##AM
assign
Launch
##PRO
docs
since
##46
##oug
location
size
##To
jobs
width
##miss
options
Mod
min
##EventListener
##etch
##ayout
indic
There
Platform
##48
##iven
selected
specific
scheduler
##phony
Red
##Path
##Client
label
##20
##ware
classes
Container
ACS
##ermin
##elf
json
emulator
##ymphony
height
opensymphony
DefaultActionInvocation
Bundle
inc
format
TI
##ocal
schema
libprocess
##ashboard
##enshot
camel
cm
flow
moodle
##avi
flag
multiple
##code
Persisting
URL
##igger
implementation
cxf
section
##ient
Persisted
Authentic
required
errors
##ise
##97
AbstractMessage
0x7
##45
gu
beans
User
Command
An
##pping
##NTRY
##ween
GET
##Button
##oid
produ
git
self
item
##Item
v201
##ten
Alloy
Framework
##side
Inv
step
##yc
##dbc
To
happ
during
##Regist
102
done
##31
##50
sure
backgroundColor
How
jira
plugins
##Group
second
between
Note
fin
your
reg
disk
Rec
must
##onitor
google
Ref
##ough
Check
non
png
##host
##Type
##grid
tiapp
bug
host
async
##Info
updates
##eeper
##lish
provid
##gress
redis
##resh
authenticator
Ad
Reproduce
missing
##ey
search
##oordin
##vider
String
resource
##9999
Qserv
Servlet
batch
cache
el
single
ver
##gest
uses
##Runner
I102
related
##ails
Resources
possible
acc
opt
##XPRO
AUXPRO
AUXPROP
h5
##ared
handler
tasks
appears
##aves
security
Pack
stout
left
pres
localhost
##roller
##ipal
##finition
##Command
shell
##gram
##phone
behavi
Al
long
##Act
##Aut
##yle
##itch
##alm
even
authenticatee
Mesos
##ern
##roov
Exception
##Utils
RE
url
Simple
Version
I08
developer
##factor
te
##hone
##29
environment
processor
latest
principal
84
##rapper
Start
List
##unit
response
##ait
functional
provide
xwork
##rint
##Part
##raw
iphone
##file
their
0x2
transport
last
##UN
reference
Please
##cs
##53
I0224
design
grad
##gn
##box
##alu
##ysql
Hand
##CT
##olut
##emp
addEventListener
post
##be
##66
##unk
generated
ThreadPoolExecutor
##uf
correctly
##attern
##ines
input
Execut
IDE
##CE
color
tag
delet
I082
##ribute
bel
##uss
##ething
impro
304
##hor
store
Master
##Not
mode
native
##ndpoint
items
createWindow
I0114
##other
prompt
copy
##reak
interface
##river
fields
##ecess
##oute
proxy
cannot
Object
##ycle
every
##uery
allocator
##order
##aused
##etty
##ren
Action
br
iP
sample
##43
##oun
Remove
##OR
##pty
Clover
##pload
##imit
I092
executor
methods
##iki
##olator
usergrid
fc
sql
##vm
rep
##ither
##ructure
306
Wh
factory
##Dec
##edential
defined
##action
##Child
workspace
enabled
Black
##roovy
##ular
dec
##duc
##Definition
generate
screenshot
Install
setup
close
Socket
System
manager
##Mess
trigger
description
crash
messages
##ME
Redis
save
##Met
##ings
JSON
##ious
##83
##On
ticket
Go
Gener
persist
##Upd
##mit
##State
##arned
parameter
aw
##ont
addition
deployment
##ocus
2013
##BeanFactory
Mule
x86
##Hel
displayed
contains
81
old
##ole
##aving
configure
174
autom
Cre
full
##now
##ope
proper
##ush
execution
blob
##Resource
slaves
##Add
##Provider
Worker
##lobal
def
seems
##Image
syn
##Send
##uplic
##Object
started
credential
password
complet
33
##olve
separ
extens
wiki
##eper
Standard
hadoop
something
##oder
library
ast
##aw
another
images
empty
##Helper
##eed
##80
##bit
##Project
plan
##oordinator
fs
##Node
##AL
##era
##erm
##onc
those
##ooke
Regist
parse
creating
##Execution
##ecessary
94
##path
##erial
##chron
export
##Read
##ather
Resource
hierarchical
help
##top
##ert
##afe
GA
sys
were
##rray
##ookeeper
322
My
##son
##ilar
##igate
Deploy
eas
##sing
##ken
registrar
simple
##idd
working
However
sink
##ause
##olv
Fix
io
##Http
##plor
within
40
break
given
##65
##ffect
mysql
Type
cal
##ifact
##erry
##Reference
tools
##ION
##ili
##ably
195
writ
MD5
junit
##For
##ense
interceptor
##grade
commands
##AI
##erse
##ities
expected
supported
shows
I0206
HTML
download
detected
584
##ynam
##73
##omain
##olum
##prop
Content
Table
alert
nav
##ni
##gor
Request
##Strategy
manage
cpus
discuss
bro
##Endpoint
success
removed
address
auxprop
##ktop
##ily
Aptana
termin
loader
##plorer
##Currently
##Loop
##etry
simulator
expression
Failed
Per
168
osx
##ersey
jdbc
##Editor
##ways
shown
##Exp
timeout
transform
##Valve
##Dispatcher
foo
socket
##Handle
bar
focus
template
##Berry
standard
enc
connector
Linux
##TH
think
appc
##Inst
190
##626
Select
inside
##Repository
##script
development
functionality
##gorith
Make
##ED
##ename
##ries
learned
Successfully
docker
most
##rie
ide
##Contribution
BuildManager
Package
dr
jersey
##ched
##rit
343
##arker
1024
##81
##Base
##Kit
always
272
clos
##Runtime
##RAM
Core
##aller
deployed
##89
##Pre
##pre
##vious
##pped
##ason
Sched
##Support
caus
zookeeper
review
##scrib
unde
BlackBerry
ENTRY
Talend
logging
dependency
##olution
fetch
pay
##386
##Store
needed
types
##SL
##space
##ounter
So
##com
##85
##ories
components
##Value
##Plugin
behavior
86
Bamboo
Future
jetty
##NA
processing
Recover
4000000
date
##cd
##mon
##ingMessage
##edia
400000004
cases
##87
##gre
lead
Activity
browse
ES
count
groovy
side
##API
##Text
either
##Keeper
##ooKeeper
45
##Field
##Script
fre
##ipe
##cp
mak
logs
Runtime
keys
Dur
might
##filer
memory
Client
lar
session
very
control
builder
##lective
Connection
operation
0x2b
##Children
pol
##rate
##Cache
##Index
argument
occur
below
##ContributionItem
262
##DF
##Out
ports
know
##uch
##Un
##atically
##anis
restart
browser
settings
##ointer
element
REST
Tab
##47
algorith
##Workbench
##lu
##igh
adding
auto
unit
functions
Get
Use
box
es
intercept
##irt
next
Attempting
##tax
##PSH
##ynamic
79
did
##Mod
##Rule
##OO
##inding
Configuration
mech
Change
evalu
##rg
##icker
##LED
border
cover
called
queue
##eries
##unt
133
steps
requires
ve
##rics
##27
##Row
##IG
##Framework
##umm
##mission
##idden
mechanis
Server
upload
122
##ntity
similar
dat
##Tab
twitter
dependencies
##Activity
maven
##eb
##ged
##flow
failure
EventTable
Caused
DB
FAI
Local
##Cl
Inter
versions
charact
separate
driver
stop
##igin
Realm
##Reply
##irtual
ZooKeeper
take
##DB
##orter
##Produc
gradle
You
##Create
above
##AndRun
present
##PSHOT
But
SNA
af
##red
##Key
TiAPI
activity
##Deployer
Also
SNAPSHOT
Sub
font
gre
i386
place
##ency
network
Desktop
cgroups
Reflective
##Sh
##If
createAndRun
Comp
##ACK
AP
ios
##ape
##ators
invalid
Appcelerator
features
EclipseAppHandle
iPhone
PH
Safe
necessary
##Source
##az
##71
building
payload
Path
SQL
##ef
##Bar
##cel
2010
I06
quote
black
desc
move
##ceed
##Input
192
changed
##ision
##abbit
##raph
PlatformUI
##Decoder
createAndRunWorkbench
##down
##Queue
##Wrapper
000
65
fine
##set
##AD
##Call
##bably
notice
##servable
header
##uster
##val
external
##ecycle
##anges
disable
##Result
better
Fail
##UR
##eng
##ifecycle
quest
measure
IP
sm
##orrect
##ody
apple
curator
storage
public
cert
hard
##ature
##itial
rele
refresh
attempt
exists
AUTH
StreamDecoder
credentials
tak
##sw
##Trans
##21
##Found
##ins
157
Using
calls
attempting
properly
Files
layout
##f4
##old
apply
scroll
##WT
##ibern
##gression
##plicit
##dfs
replace
Documents
##ibernate
After
mules
trace
##uce
parser
additional
ESB
FAILED
##c1
enter
##ynchron
##annot
##Controller
specified
scripts
Authentication
del
h3
##ie
##cat
child
switch
datab
##iver
##bar
##25
specify
many
fc8
management
Cannot
Det
##fb
##Label
least
172
##Content
Image
##notation
##greg
Cam
##SQL
##ished
##ibility
500
564
Null
domain
##bd
##oco
examples
##emarker
135
partic
trying
##Async
##Parser
##untu
99
Database
SU
ip
samples
too
Workspace
containerizer
##Registry
Handler
Out
Right
bit
put
##OB
##ank
progress
##thing
312
##blems
I0126
Ar
dy
due
monitor
wait
##uil
##used
##String
ReflectiveMethod
##ength
dashboard
##VER
##oft
limit
zip
##wn
##ward
##que
##ross
ident
110
arch
complete
variable
Bean
drop
##lear
orient
style
propos
afw
Em
linux
pull
##Server
##Servlet
##ython
probably
Dev
static
Allow
##luence
Currently
duplic
rules
ws
##Oper
refer
once
##nalysis
white
parsing
##alendar
PHP
##anch
builds
##profiler
31000
included
##emplates
32000
##ApplicationContext
##resent
JavaScript
dylib
pattern
site
##fd
##68
comment
##oss
successfully
max
Program
dataprofiler
##perty
invoke0
improv
##prec
41
WS
##60
##ables
provider
Admin
##Update
define
Map
##Set
##rite
##93
##bed
reason
##rix
##pond
Results
Environment
boot
##UD
##Log
##stim
tot
##odes
##amp
registration
218
##ingMessageHandler
DQ
cent
##EE
##buntu
##LL
##atus
refactor
regression
##overy
activ
causes
high
##Mapp
##sel
decl
usage
cluster
backup
details
##rawable
Val
##ale
##fest
##istent
##older
##rap
##anifest
Read
login
Problem
ability
previous
actually
objects
##ocoa
##uilt
RUN
Xcode
cli
fire
mov
nio
spl
##iate
##507
##yde
##Proc
##fined
creation
good
##uage
##ubscrib
Unable
retrie
##ChannelAdapter
provided
automatically
CF
Part
RO
##Pointer
##Do
##ons
##ump
AbstractReply
##030
analy
flags
ReflectiveMethodInvocation
dest
render
sk
void
##gin
##iling
Config
intro
record
authenticated
columns
##00000001
large
mulesoft
TRA
ss
##ability
##istics
mach
Description
Editor
Text
##ari
eng
##eep
##ATE
NullPointer
LO
Mac
NS
Trans
##rument
##Map
inbound
##Internal
returns
parameters
auxili
##ProducingMessageHandler
Value
AbstractReplyProducingMessageHandler
auxiliary
Ass
Sec
mac
##70
##ott
dem
parent
packages
NullPointerException
##90
##estigate
##assword
resolve
queries
##asting
Common
STACK
visit
##Unit
679
Base
##print
##onger
appro
0x00000001
installation
Name
##Is
##Of
##urn
##urred
Impro
performance
FutureTask
DI
ali
##OD
149
until
##00000000
views
##ategory
lookup
I0917
deleted
branch
Met
bundle
free
longer
mark
##VE
##49
##ZID
apps
##Config
actions
handleMessage
##ructured
theme
happen
syntax
extension
AUTHZID
having
TiApplication
##posite
##8428
Control
##ouds
##Web
Once
assignment
##Reader
756
tap
##714
##ane
origin
win32
Creating
total
Git
Look
SE
global
rev
##utdown
shared
sever
168428
##Default
named
16842879
Le
cs
structure
##lig
##ending
2764
containers
##ClassLoader
Query
hibernate
##fc
##fix
attribute
remote
entry
h2
pers
temp
##UT
##61
contin
##tics
commit
OK
jcl
##ggest
##HT
suggest
recent
cpu
orientation
TRACE
ZOO
jvm
##SDK
##91
##Time
##ogn
getting
includes
##ART
confluence
happens
Dashboard
Rest
##ives
175
Unified
tables
fixed
455
Copy
aop
##pose
##GA
Prov
##ESB
including
525
##BuilderImpl
publish
msg
account
74
push
route
##less
##ba
##Des
##IF
bean
Explorer
unknown
streams
strings
distribution
consumer
else
##ummary
demo
CRAM
Maven
Shell
future
h4
rather
##AP
short
allocation
acs
jclouds
Load
SWT
mig
own
role
##RE
150
139
##pective
preference
I0218
loading
wrong
reports
occurred
68
Python
templates
isolator
276
assist
TIM
describ
874
CSS
Ext
Number
Tool
dh
##ek
##PM
##Per
##for
##store
##ndic
##Runnable
92
US
##sor
##da
note
useful
##ributed
Index
Tr
few
##ted
validation
undefined
several
##Ste
##ances
##reen
though
##ased
##acle
Structured
track
collection
Unic
print
allows
returned
artifact
I0909
against
AbstractMessageChannel
I1029
##self
dhyde
60
cap
cause
##iated
##ocol
Apple
quot
##ssue
commons
I0828
I0929
##Expression
coverage
##ottom
111
Fire
Iter
array
exit
##riate
I0714
I0222
##legate
agent
consider
operations
Google
Recovering
freemarker
h6
ign
##All
##chen
##En
##b62
deprec
##izing
TiD
I0507
179
obs
##ropriate
incorrect
I0804
calib
Or
range
##DL
##ination
##root
##anel
javascript
##umb
##olver
I0626
startup
##ello
looks
endpoints
##Select
Register
5847
75
##sumer
##version
##69
##BE
anim
##rame
keyboard
evaluate
JI
ll
mer
rub
##ners
##From
##esh
runs
AndroidRuntime
attach
requests
##ructor
overr
MESOS
I1028
##Metadata
##Model
StructuredViewer
NOT
Wizard
around
##b74
##hether
##ref
##ested
##ableBeanFactory
selection
ens
Running
I0610
ROOT
hook
##dition
viewers
frameworks
I0124
protob
elements
BundleLoader
I0825
SafeRunner
bottom
cocoa
div
estim
mapping
##berry
win1
I0123
START
URI
Ac
Access
##rain
##witter
##ceb62
appropriate
##Const
unable
preferences
manually
I1030
400000004b74
mechanism
400000004b74ceb62
95
Live
Multi
##Entity
strategy
profile
avoid
implemented
##Instance
Pub
edu
##lleg
stand
story
problems
##oose
##ired
upgrade
##Studio
196
lik
preview
244
I0903
I0925
repo
discussion
##DoFilter
##astingDispatcher
##llegal
Around
EX
Hel
##Arg
##itchen
comput
##ervices
Devel
0x1
directly
tabGroup
aggreg
team
Could
From
Ob
sign
##PT
##oding
forum
comments
runWith
138
##acted
274
particular
AroundInterceptor
AW
bad
clear
pid
##OM
##ils
##ouble
javax
##estamp
##uled
Context
readAnd
##respond
meta
recovery
##Recovery
##Deployment
7568
readAndDispatch
69
80
Home
S0
built
cach
lock
pool
whether
##dl
##MS
real
things
alloc
internalDoFilter
##ups
createButton
param
correspond
IDEApplication
Perform
##light
UnicastingDispatcher
Firef
Code
Edit
SAM
Try
eg
made
##AB
##tain
##ulate
configured
##STUD
##oudh
requirements
algorithms
332
Moodle
keep
##f1
##yper
##Or
##lement
##045
meet
packaging
icons
Preferences
Do
##ault
never
prefix
partition
compile
final
Deployment
##rawableReference
TiDrawableReference
808
Task
capt
##d5
##data
##Blob
##ater
program
##oken
feed
obj
Enable
I1117
links
##raries
##missions
minim
ActionContributionItem
Filter
hdfs
pri
solution
##zar
##40
##sec
explicit
filesystem
ModuleDeployer
times
Device
Improve
SO
iter
length
notification
##ferred
107
##perties
remain
Runnable
I1124
##horization
TIMOB
264
63
SSL
much
##xx
##XF
##Query
##araf
doing
##Stack
##posed
optional
lsstsw
offers
##tenance
astrom
improvem
676
boo
##Pack
##ret
chunk
##okke
allowing
guide
##riter
UnifiedBuilder
likely
61
73
72
70
PS
ra
sync
##See
##e4
##bc
##67
##Wizard
##Report
Example
##ipant
Contents
Import
debugging
across
I1113
registered
##Messaging
Port
Sk
Synchron
mult
manifest
sent
serial
##rast
##Start
assoc
makes
Provide
534
affect
##ked
##yg
##Gener
##roy
integr
##stream
runners
itself
means
##okesh
reading
actual
##99999999
crashes
##ermine
##olume
##DBC
machine
##oudhary
Illegal
With
##Password
##Get
inf
##stand
token
rece
exec
Report
chain
gets
##OST
##rowser
##eader
##Reconc
Modules
finish
proposal
##ndicator
78
Media
body
coordinator
s3
sort
##Files
##enk
##ught
env
##ifications
##ftware
dispatcher
esb
protobuf
##RecoveryTest
101
404
Clean
Coordinator
lokesh
nice
##ea
##kit
##vers
##choudhary
runEvent
compat
catalog
visible
Modal
question
lokeshchoudhary
runEventLoop
87
Option
say
##System
##med
##icense
assert
TiUI
camera
nodes
##NS
##d8
##orp
AbstractS
##Events
WorkbenchPage
exceptions
##ifier
rows
I0813
awt
measurement
ensure
STARTING
Be
Batch
Typ
czar
lot
tri
##lock
##IC
##──
##unc
##otype
username
callback
##Output
bus
dq
##tr
##ict
##Tree
##63
##JS
##orld
append
Proxy
##ystrix
##ideo
255
I0122
##InputStream
##enkins
Ab
Fin
Issue
##An
##pec
##Cap
##icro
##ocable
##fff
##BeanDefinition
Assert
cursor
##uffer
83
98
Qu
bind
mort
##sf
##uid
##bay
##book
##vn
insert
##ume
Refactor
125
libs
##ViewProxy
extend
##Search
product
broken
##ChildrenCache
##Operation
##Isolator
mortbay
Nov
##uple
##Tr
isn
expect
##012
That
configur
##ROU
##Change
Parent
production
SI
ep
rule
uri
##Socket
##test
scope
103
##ixel
launching
verify
original
Can
Up
press
sources
##tent
##c2
##Code
##Document
replic
##owire
##verse
annotation
Repository
TiApp
Initial
listener
clicking
##888
portal
##Component
##olved
Failure
##Foundation
WSDL
SH
pom
tree
##e3
##7f
##Pol
##DQ
##Lifecycle
##secs
Reference
Inc
cloud
sending
namespace
optim
Dura
Accept
corresponding
505
CI
category
rcp
##Version
##lers
##iro
##513
##ipel
Changes
##LECT
platforms
passed
TISTUD
small
Ag
AND
OR
Tim
pipe
rout
##rag
##ouse
stud
##acy
Replace
Delete
Connect
AppData
starting
variables
##Selection
SELECT
Call
less
ok
##hing
##dc
##Indicator
really
commun
##ESS
applications
##ATION
thrown
improve
##rootd
Publish
Ski
JDBC
Label
Sync
effect
picker
##CC
##CH
##Core
##4j
##aced
##key
instances
##Property
137
handling
##796
completion
##Timeout
Kroll
Move
err
##New
##anced
##itud
##adoop
##ctions
##anged
scons
cancel
Console
soap
SDKs
language
validate
initialize
##rastructure
664
FI
HDF
##ied
##vant
##RI
##onym
expl
seem
worker
187
I0211
SlaveRecoveryTest
Setting
indicator
##Mapper
ModalContext
TR
##Size
##Case
##Line
##Form
##alone
##etwork
2011
2105
Scheduled
##URL
SUBE
JIRA
SUBENTRY
77
90
Route
##AX
##MQ
##lied
##quence
AbstractAut
315
prevent
showing
email
handleEvent
##Valid
201501
##web
Executor
CoreFoundation
deprecated
##CapableBeanFactory
##owireCapableBeanFactory
AbstractAutowireCapableBeanFactory
Col
Dist
Some
got
kill
##tn
##build
##102
##42
tog
proceed
begin
libraries
171
##soft
##ording
maintenance
##IDE
One
2008
##Notification
closed
Scheduler
characters
At
jdk
rol
##paces
##Local
nothing
##rails
##aniz
instrument
AbstractBeanFactory
##527
determine
##Containerizer
curl
Should
Parser
##raint
associated
receive
93
Here
Kitchen
Time
UT
fact
rabbit
watch
##log
##ience
##UL
##Check
##Ccd
##eners
##018
##ayer
These
area
##rypt
contents
important
Invalid
Investigate
##Steps
hidden
low
norm
pe
##Sim
##ep
##700
##mx
##inst
tom
##ivate
Stack
handlers
3152
observable
consistent
Enter
MDL
persistence
Registry
Linux64
feedback
##icrosoft
Docker
Sw
Ubuntu
bound
fff
join
loop
raw
##tifact
##hile
##b8
##By
APIs
Simulator
Authenticating
211
474
FRO
Ide
Man
##a2
##Aware
##Ext
##Cam
##ention
##ames
##aged
##ributes
##566
##ASE
embed
##Response
I0905
##ModuleContainer
ServletHandler
tech
blobstore
PathChildrenCache
disabled
databinding
runWithDefault
Is
VER
Warning
txt
##pare
##orary
##ides
##urther
##andom
controller
##Style
##grad
blue
active
connections
scripting
operator
Executors
Generic
persistent
idea
occurs
CXF
href
yet
##Session
##ique
##cf
##come
##oh
##FF
##icy
##asic
##admin
condition
##elli
##izen
TiViewProxy
invokeFramework
reconc
listed
retry
##Delegate
creates
##UID
##TableView
##ettuce
arguments
85
Analysis
Now
sn
##air
##h5
##http
##me
140
uns
##Tests
597
grade
understand
prototype
throws
basicRun
##aaaa
drag
ssl
perspective
infrastructure
tomcat
Need
Ver
##sers
##f45
##ora
realm
##asl
notify
runApplication
##FilterModuleContainer
fold
recogn
classpath
expand
##Worker
messaging
ServletFilterModuleContainer
##nipp
character
destroy
Help
##Generator
ServletFilterModuleContainerFilter
Keeper
TDQ
calendar
fill
qual
xrootd
##AN
##hop
##cut
##Edit
##ised
shutdown
scen
checked
going
transaction
metrics
Auto
entity
READ
takes
caches
FROM
nested
overs
##tp
##here
##c4
##Match
##vik
##alvik
refused
mean
2856
I1120
breakpoint
21809
approach
52576
##itude
dalvik
graph
lines
p2
##Section
##sive
##ued
##df
##king
##aved
##igation
reserv
tr1
Depend
simply
detail
webs
##Resolver
##ameter
##apshot
fetcher
Looking
meeting
Upgrade
AS
Ge
dro
fil
##pr
##ded
##gacy
##LD
##orage
##icipant
##ively
interval
cho
##aunched
##Control
win2
provision
subt
88
Custom
EM
##a0
##After
##d1
##fire
##Det
##Bundle
##Fl
runUI
##irst
185
opened
outbound
Dispatch
groups
later
incre
IDEA
##Messages
engine
HDFS
Link
NCS
Since
counter
pixel
##c6
##Tool
ones
##andbox
##apid
0x0000
0x18
##irectory
xmlns
however
restore
express
##30f
AbstractMessageHandler
making
##IsolatorTest
206
HO
NPE
Ret
amp
eups
hit
xs
##Element
##Lock
##ored
##alle
three
##verter
notes
spaces
schem
##thread
128
I0527
##627
diff
tooling
ww2
everything
##ImageView
blackberry
duplicate
##resentation
##ubscribable
analytics
DIR
objc
53443
Typed
Date
##Locator
##Layout
##GROU
comb
ant
Integration
along
quick
Composite
filters
##Invok
Plan
##RequestFilter
stored
developers
cleanup
TableView
datas
freez
OncePer
Loading
standalone
tried
NCSA
OncePerRequestFilter
May
Temp
kroll
live
##c75
##bb
##0c
conversion
checkbox
devices
corre
Step
fired
mobileweb
What
easy
512
Mess
RC
iper
please
sit
sam
word
wrapper
##DM
##Off
repe
##oyote
utils
workshop
compare
##Admin
Design
LSE
Show
ActivityThread
##Cloud
Emulator
prior
FY
Twitter
Valid
sig
uuid
##uide
##iag
##edora
##change
tested
##Consumer
choose
Exp
checks
##ension
##Comp
201502
Only
targets
popup
warnings
##olves
##Argument
Synchronizer
Dialog
Fl
Rabbit
SL
dynamic
mut
v8
##User
##ds
##Doc
repro
##umal
modal
Release
##Inbound
enough
##Ref
##posure
starts
Notice
tags
0x2b46
Metadata
PSF
##mediate
ParentRunner
HOME
iperumal
Dec
Global
More
VM
jenkins
pur
panel
virtual
##Cre
##xml
##atic
##isit
##ffic
simpl
director
compiler
CLO
##Registrar
##Participant
##Metrics
completed
continue
62
82
Group
hist
pick
turn
##haps
##eature
##Titanium
##US
##dge
##bol
##51
##DN
##ores
##ours
colors
##positories
Updating
##UNC
center
1000
91
Json
Locator
Network
board
jb
none
##uc
##e8
##ric
##mt
##imes
doSend
Store
##rict
logic
Internal
newkey
Examples
changing
##anner
editing
##There
servers
constant
##ymbol
various
##Super
extensions
written
795
EC
Ev
Function
Nav
Page
launched
##Slave
##vin
##Root
##YPE
##While
createView
Progress
unique
##Handling
redacted
Cloud
##PEND
points
400000004f45
Firefly
##c7530f
400000004f45c7530f
71
CC
Tree
fedora
past
random
saved
won
##Sink
##a4
##her
##Eng
##ks
##Mule
##Monitor
##faces
##lex
##amily
supp
Status
why
##duced
Added
##795
posix
perf
extra
WebApplication
removing
17458
MySQL
refactoring
FQ
Rub
Then
V8
##around
##len
##oke
##do
##by
##oded
##otential
offer
whole
chart
##Init
##ially
1812
143
general
##cons
Search
indicators
0x7f
regex
Starting
writing
broad
terminal
APPEND
Arch
Configure
400000004b74ceb62c1
Skipping
folders
TypedListener
406
97
LI
Over
POST
double
let
mouse
##uck
##eploy
##files
##Bus
repl
##ackson
logger
UIKit
executed
intelli
failing
55566
displays
##LEASE
##caught
construct
entire
confir
WARNING
definitions
headers
hostname
USER
quota
dalvikvm
Basic
OVER
Will
op
summary
video
##Virtual
##ty
##no
##9f
##Main
##vc
##XX
exper
##osed
153
129
1211
##cla
Adding
attributes
checkpoint
Tests
configurations
ContainerRegistrar
RELEASE
easily
Filesystem
##ipeline
UTF
401
511
508
SUI
Services
m2
mis
manag
pages
##HE
##005
##ift
week
butler
161
updating
340
paths
buttons
Spec
Updates
2009
timed
visual
##Param
ClassLoader
DebugConnection
seconds
MesosContainerizer
algorithm
certific
Detect
8080
DuraCloud
##Engine
FQDN
intellij
AC
FTP
Pattern
gm
##Next
##TE
##Mach
##atistics
touch
##ario
##ately
becla
##istr
##Connect
imps
Integr
##Rep
##clude
statistics
##ASH
kevin
generic
assets
##arness
confus
Listener
ListView
undeploy
##Polling
TRUNC
techn
CON
Jul
Key
Lite
Oper
btn
css
sur
td
├──
##a6
##loud
##Host
##ica
reload
##olation
runAsync
##ether
upgrad
##lected
processes
241
loaded
Errors
containing
maybe
dialogs
MobileWeb
blocks
region
##ExecutionInterceptor
calc
override
##secret
snapshot
##allel
TRUNCATE
runAsyncMessages
Colum
Und
cf
kind
##to
##cript
##corp
##CRAM
##RIDE
repositories
##tern
##ulk
##plete
##usasl
##Status
userPassword
AbstractApplicationContext
210
##expected
3234
submit
201409
overl
connected
matching
cmusasl
Created
Observable
400000004f45c7530fed
OVERRIDE
##secretCRAM
cmusaslsecretCRAM
300
IS
Phone
pc
patch
##Need
##spect
##MBean
##Current
##Dynamic
struct
##acloud
spi
##ird
1600
processCcd
recip
adv
failures
deployments
Component
##ambda
JavaVirtual
lsstcorp
##751
While
##uplicate
##umbers
##Selector
##ULT
##Machines
JavaVirtualMachines
Bus
Fetch
Mem
Template
TESB
fault
hsc
lost
sing
v1
##sh
##Target
##ali
interfaces
##uggest
createLabel
installer
1508
play
1352
Export
173
##ownload
##tical
phone
windowProc
submission
debugger
##ATH
##729
timestamp
MessageProcessor
leader
retrieve
capture
##install
WebApplicationImpl
Hystrix
Sink
jni
##VM
##link
##cast
##b4
##1c
##LS
##ently
##outer
##emfire
seen
logged
enrol
163
software
Addition
##astic
##ASK
##ERE
anything
overw
##Sched
regard
provides
encounter
datam
macos
temporary
##PTY
Messaging
456
89
EE
Id
KS
Sending
rename
snipp
xer
##Analysis
##holder
##Token
##bl
##heet
##itect
##ilities
appcel
##ibly
successful
modify
##naly
188
auth
##Changed
##HandPath
##Deferred
245
##SS3
##HttpClient
RightHandPath
splash
##IFY
shortcut
migration
AWSS3
macosx
RightHandPathRule
462
CM
Gr
Hadoop
Location
TASK
ge
mock
pthread
potential
##NI
##a3
##b9
##Rem
##Del
##ully
runDeferred
##thers
##oadd
21045
346
Scroll
##787
##ITE
OSG
according
201311
##Preference
monitoring
ProgramData
astrometry
5050
Column
runDeferredEvents
96
Array
HASH
Rapid
WH
Write
warn
yml
##px
##OC
##Xml
##etimes
##abling
##uring
##ackground
##ended
They
Input
legacy
Cons
private
##INST
duracloud
python2
##AME
LaunchConfiguration
behaviour
##ProjectWizard
great
Iterating
ruble
RunnableLock
##SocketImpl
embedded
KeeperException
EMPTY
##InboundChannelAdapter
76
939
Hyper
fit
tes
##ae
##IS
##Le
##Function
##asali
##ector
##acity
INT
ending
ready
special
2877
##201513
args
entries
channels
guid
deleting
fcasali
##Statement
##626796
CommonReconc
Registered
epic
201311201513
2877626796
204
AGA
PID
further
hide
land
mount
##a1
##tocol
##earch
##c3
##d2
##MB
##fy
##b1
##Lib
##Option
##Flow
references
force
##olog
notifications
123
121
tabs
statements
##ORT
940
certain
relevant
Camera
described
Developer
AbstractSubscribable
##TreeViewer
configurable
VERIFY
##ArgumentException
AGAINST
AbstractSubscribableChannel
Save
TEST
jmx
license
media
sandbox
vs
v2
##Sub
##ah
##Hierarch
##job
##Writer
##istic
##ivid
scale
186
##mins
##appear
344
2639
installing
Builder
STS
threads
screenshots
split
boost
##88899
160088899
recipes
WHERE
Ap
CP
Cent
IO
Line
S3
frame
jr
lit
numbers
##Ar
##ople
##rd
##b6
oracle
##omm
##ember
codeh
##Initial
AbstractService
uncaught
0x00
114
275
229
adapter
defaults
256
individ
blank
bash
binary
flak
v2015
interceptors
##azy
questions
Secure
msgSend
##BlobStore
##Invoker
xerces
311
622
Entity
Feb
Fokke
Microsoft
Suggest
duration
others
##Sup
##d3
##vas
##OP
##wise
##als
##ulated
reset
trunc
Def
instant
##Implement
215
handled
recon
checking
##828
permission
tab1
##scape
overview
protocol
mechanisms
waiting
wsdl
##HTTP
LiveView
##onymous
codehaus
305
400
Harness
Single
book
sem
tra
zk
##AV
##e7
##pri
##dis
##f3
##field
##enus
##sem
##ollow
108
involves
AbstractPolling
2724
outline
executing
permissions
loadClass
systems
allowed
consum
57018
Frameworks
##ernel
Interface
##ieve
Switch
Verify
expressions
606
Cp
IOS
RF
TYPE
gives
jax
##ium
##Future
##reenshot
##udit
##overs
162
UIView
libc
supports
273
opening
phot
208
Unit
listing
554
directories
goes
extract
distributed
calibrate
##Package
##AwareInterceptor
292
453
655
Mer
RES
Vis
mom
ubuntu
##Sec
##Location
##ZE
##ero
##anc
ann
shouldn
Delet
176
author
116
detection
Plugin
toolbar
##ThreadPoolExecutor
Preference
Processing
hierarchy
SocketInputStream
closing
##azon
412
658
D7
Duplicate
bring
cw
der
daf
fully
rot
##eas
##Ev
##d9
##DI
##Be
##ags
##ections
sudo
##eregist
##acebook
##actor
outside
##625
observ
Documentation
synchron
Camel
compatible
Acceptance
Browser
CGROU
bool
far
hang
jackson
karaf
lt
yes
##right
##f8
##b5
##Open
ingest
##aming
forward
str
##ramm
immediate
upon
createTableView
External
recur
##igned
##ManagerImpl
assum
Schema
OpenStrategy
Author
looking
complex
Instead
Remov
Launching
ServletContainer
vertical
##Auth
Handle
Reading
moving
##ilingStrategy
##DeploymentListener
##MessagingTemplate
ScheduledThreadPoolExecutor
people
GenericMessagingTemplate
xsd
CLOVER
##lenode
confirm
IteratingFilterChain
AbstractPollingEndpoint
CGROUPS
388
615
Alert
JUnit
TAB
faster
lambda
##AND
##cegi
##003
TitaniumSDK
disappear
23751
##Dev
deploying
perhaps
##enced
terminated
##apelet
Level
##EntityManager
student
JDK
give
mat
mention
menus
##Att
##dir
##f0
##b2
##Ob
##adi
##ueued
whit
132
164
115
abort
231
##HandlerMethod
reported
##connect
schedule
promise
##Updater
aws
easier
deliver
archive
##Descript
merge
IllegalArgumentException
Settings
##fficient
Apache
flaky
577
AV
Download
Jira
SITE
arr
catch
sections
volume
##VGA
##Al
##iod
##Enable
##Count
##fe
##IO
##Block
##strap
##iced
##ison
deal
##lying
Review
createTab
##duction
##perture
locator
arm
iOS8
BuildPath
Testing
recovered
basicBuild
minut
retriev
animation
explicitly
improvement
TiUIImageView
Dispatcher
broadcast
tdq
Boot
Doc
MET
Ph
PR
Zyg
best
says
##a5
##trace
##302
##EX
##ULE
##f5
##DT
##OW
##Width
receiv
##aml
byte
152
Property
235
##131
listView
Applications
##oteInit
transl
##screen
FileSystem
EventQueue
changesets
##DataBuilderImpl
Login
reviews
leading
didn
Artifact
moved
normal
##Flux
TwitterSearch
JsonOutput
EC2
singlenode
##Hierarchy
ZygoteInit
BUI
CA
Field
Jan
Tizen
UUID
hello
kernel
tcp
##a7
##Click
##Dr
##Bound
inner
concept
instru
plain
184
Properties
0x14
Reserv
parallel
314
period
expose
fixes
bugs
iPad
analyz
attachment
Performed
minimum
mutex
##Descriptor
Flow
First
Of
Pol
Session
a6
ser
svn
zero
##Aop
##e0
##ci
##of
##XD
thing
##abilities
modified
##Properties
178
alph
##acher
selecting
requested
##ootprint
Screenshot
naming
##ITS
slot
CommandContributionItem
##99999
astro
##comes
SubLocator
##000000000000
improvements
SHA
roles
webservice
individual
moment
BUILD
##AopProxy
SubLocatorRule
384
575
Ant
JM
JVM
MY
PRO
Sample
ct
ear
##sException
##e5
##d0
##Date
##Down
##orator
##Protocol
151
unexpected
quiz
listen
handleRequest
netty
Sprint
Async
661
populate
incom
##mittent
##Transform
allocate
##9999999999999
together
filename
tesb
CpEntityManager
TitaniumSDKUpdater
SITEID
TwitterSearchChannelAdapter
413
Guide
Jdk
bund
cat
fig
jms
tries
war
##AML
##tle
##more
##Directory
##LY
##eton
##agination
##cho
##ptim
exact
explorer
sprint
testdata
AbstractBundle
147
executors
calling
##ffort
250
##apping
packaged
transfer
crit
flux
Debugger
Started
##Callback
56447
revocable
##force
Develop
communic
##prise
##adius
619
794
Direct
Karaf
NU
PATH
gemfire
known
slow
sense
tell
wra
wrap
##a9
##a8
##UE
##Post
##d4
##go
##gen
##gers
##RC
##Red
##win
##sequ
isolation
annot
TiStudio
newly
places
130
##overed
199
170
unc
22729
quite
##1354
556
##Listeners
DefaultClassLoader
generation
detailed
##926
compar
OpenStack
##268
##TaskExecutor
possibly
Processor
copying
174012
##Enc
##Filesystem
KitchenSink
##62752
history
jboss
JdkDynamic
2272962752
1740121354
282
Board
Form
Lettuce
None
Vari
big
binding
buffer
##At
##EL
##Cgroup
##ves
##jor
profiles
come
##anguage
Sty
respon
chrom
104
134
313
maintain
schedul
constraint
jars
##ypes
##LaunchConfiguration
imported
arg0
amount
##cedure
##PECT
hierarchies
HttpServlet
princeton
##Mapping
previously
WizardDialog
Multiple
compute
allocated
Manage
scenario
Dependency
encountered
OSGi
CommonReconcilingStrategy
RFC
Visual
JdkDynamicAopProxy
579
Other
effort
w3
##uff
##open
##Hidden
runWorker
Replic
sequence
##Integration
contact
136
165
##Replace
Prot
558
workspaces
Script
##583
##Colum
##weight
statement
arg1
##Schema
findClass
671
0x7ff
triggered
RedisQueue
completely
poll
APP
LOG
##ODO
capabilities
Finished
SIZE
0x00007
certificate
##easure
202
303
417
AR
Tap
lifecycle
rx
sy
tESB
##hand
##iring
##ral
##3Z
##bin
##yIndicator
##zb
##jo
inher
##ales
##ula
stage
##ement
spag
Response
nodejs
Disc
Active
generating
Channel
##Windows
amq
##pared
initialization
Notes
represent
TypeParam
Security
EXPECT
SOAP
BusyIndicator
##itecture
##0000000000001
Grails
Retry
Rename
Spl
Tom
co
cop
draw
md
tuple
##Vis
##sS
##rant
##d6
##qtt
##atis
incons
forced
produce
##limin
leak
158
sets
191
altern
coll
##ributor
##ersistence
reader
clicked
cron
objectId
Javascript
beta
Logging
v2014
##Preferences
RuntimeException
Assign
##Constructor
Ideally
##Scheduler
9393
instructions
JMX
0ms
FITS
NPM
Pass
edge
##Ag
##ta
##pact
##gle
##Header
##Fail
##KE
##ino
##ilation
##ouple
sty
dead
##igator
shiro
##though
disconnect
141
118
234
212
recomm
classic
collect
launches
342
keyst
goal
##rollers
320
implementing
##atterns
Setup
Any
SimpleMessage
Generate
away
TypeError
Transaction
##Offers
Deleting
broadcasted
##Driven
DR
Monitor
Win
Wait
fri
fokke
ut
##sible
##TT
##101
##v2
##Win
##ala
##avor
##icon
##acing
noticed
applied
who
Int
userid
1394
follows
##Intercept
##883
agents
parts
difference
Place
Close
##ConnectionFactory
sometimes
helper
matches
assigned
##Commands
policy
Getting
introduced
##pecially
beginning
replaced
recursive
fokkezb
438
Aop
CO
Nio
PM
ca
pic
##Serial
##source
##EF
##Using
##Presentation
##mesos
##b7
##Join
##alk
repos
##ulation
sto
##lies
become
becomes
intermittent
##Converter
resolved
Inverse
109
106
enh
156
169
##duct
##ixed
##MessageDriven
##TestCase
##829
DefaultLifecycle
redirect
arg2
causing
##Callable
estimate
aggregate
Ruby
CMake
AopUtils
001
411
Analy
Found
Host
JF
JMS
Mar
QS
Row
SQ
Send
TAC
Trace
acegi
##e6
##pg
##mq
stmt
##olid
##olocation
##teger
##quire
1334
124
unn
invokeJoin
phase
resulting
DefaultS
generates
441
##526
webwork
extender
##ously
duradmin
restarting
taken
alias
artifacts
hooks
Changeset
##CCESS
recognized
datamart
CPU
immediately
DirectChannel
DefaultLifecycleProcessor
invokeJoinpoint
Find
Groovy
ben
ds
##VN
##Alert
##nost
##core
##Port
##f2
##oring
##enger
##andra
##oser
Statistics
##irc
img
TiMess
112
##nsure
##791
stats
240
2613
followed
webapp
##scription
indexing
Projects
doFilterInternal
Parameter
tickets
DataS
##Auto
32238
##Exporter
##Close
I0612
ipad
highlight
marked
Oracle
400000004b74ceb62c
explain
confusing
cwm
##Enabled
arm64
a6d8
Tomcat
friend
DirectChannelMetrics
TiMessenger
299
722
Blob
Cr
Current
Foo
Target
WC
cd
fits
h1
##aut
##system
##c9
##c7
##f6
##Ret
##Background
##Folder
##strom
##agrant
##adaptor
share
anonymous
##assandra
mail
##112
183
1139
##yntax
##ightly
317
lists
selector
##BuildJob
201405
5471
##Collection
baseadaptor
Notification
668
formatting
cmd
##NotFound
released
##Operations
ignored
Collection
##anization
lower
ListenerContainer
Removing
##Column
Bit
CH
Dem
Oct
aries
bulk
ptr
pdf
rb
##Nav
##lished
##ha
##iet
##ivery
##ror
##pag
##map
##where
rebuild
##unes
thus
third
often
##ivile
suc
##rome
major
contribute
##overage
worked
AbstractSh
##clus
intent
##343
##ERT
documents
documented
##encing
369
executeCommand
##FactoryBean
##ategories
validator
##onda
Jobs
Block
##461
transformer
declar
person
ignore
iterator
Timestamp
FILL
##Format
blueprint
reconciler
AutoBuildJob
##ourses
ExamplesTest
advanced
WCAG
410
Samples
VOT
Xml
tat
ug
##Services
##class
##dn
##CA
##bf
##b0
##xim
##jax
##alib
##007
subject
##ooper
Storage
adds
##024
TitaniumUpdate
##Release
120
198
invest
144
abs
230
207
blog
Building
##326
specification
transition
Char
##ProcessorChain
wants
##ront
##480
labels
moodlelib
older
hardware
releases
delay
##ubscribed
##MessagingException
community
oversubscribed
Overview
##Reporter
##Options
VOTING
Back
Calendar
Looper
Mig
PO
TODO
caused
echo
symbol
##type
##ENT
##CK
##DER
##Driver
##FS
##atures
##aterm
##itive
##ality
##arwin
##ceiver
##isor
##aconda
##ocoder
shall
##iving
##ivers
Repe
##atcher
166
workaround
193
libart
AbstractTreeViewer
unre
1145
257
254
##Executable
476
##fully
subscrib
implementations
EventDispatch
##hoto
Instrument
wizards
##ExecutionTemplate
exports
58462
controls
##Transaction
records
##Description
egg
##ocableHandlerMethod
##Track
choice
Integrate
##Level
landscape
v201506
Define
minutes
Styled
chromium
ALL
Bind
Button
Cached
Ensure
Factory
False
Ro
gather
gtest
hold
ran
sa
##h2
##hip
##net
##client
##dss
##Mode
##bers
##4c
##Hub
##Widget
##Java
##erica
inline
##amed
##rait
##qua
contribut
log4j
Consumer
investigate
autoc
unbound
Week
209
##ipart
249
2612
tab2
avd
accessible
Chrome
twe
defining
##198
##ServiceImpl
Authorization
obtain
customer
indicating
guess
Generated
especially
green
Details
BeanDefinition
RunnableAdapter
boolean
KrollRuntime
##LocalClass
##aaaaaaaa
correction
gmock
##Connector
BuildPathManager
##NotFoundException
464
407
NDK
PDF
Te
TC
abstract
fr
ill
pk
tg
##SE
##si
##doc
##Mer
##DS
##XML
##iness
composite
##001
##andid
spel
implicit
##Int
controllers
##020
##formation
createP
getS
near
##velope
##117
160
12T
processed
authorization
aren
arrow
##Contents
WorkbenchWindow
553Z
##ListView
##18n
44005
webview
webkit
##ChainProxy
##BuildPath
subsystem
unders
party
depending
baseHierarchy
##ModuleTest
browsers
initialized
mapv2
indicate
v2012
FrameworkServlet
##Address
DurAdmin
##wards
proposed
LiveViewer
FilterChainProxy
##iroFilter
routing
signal
##iagnost
constants
ACL
DataSense
AbstractShiroFilter
EventDispatchThread
StyledText
tgz
mapv2ModuleTest
403
Bet
GC
Hello
JAV
OAuth
PORT
cen
car
cycle
gt
gcc
##e2
##cise
##oom
##Twitter
##pca
##f9
##ona
##arily
##icult
##otal
##list
##emq
shar
appicon
anaconda
plot
1410
unused
invoking
##ightweight
utility
streaming
329
returning
##connection
twice
Enc
LogMessage
Attempt
somew
BundleManager
regular
elastic
verb
Packaging
##Activ
prompted
breaks
errno
freezer
##Creation
Navigate
##ucket
truncate
55423
##Security
55850
##atermark
CachedChain
Roaming
JAVA
cenqua
301
422
578
CR
Car
Darwin
Next
SC
SIG
ftp
grails
med
pict
sf
tar
term
vagrant
##VI
##AA
##iation
##c0
##Url
##GL
##ered
##org
convent
##elist
comerica
##olok
##ortun
answ
springsource
newInstance
180
Exposure
0x04
##cepting
##146
sends
4737
449
anymore
workspca
##ONE
##ongo
##2697
administr
##368
385
##545
Remote
offset
Launcher
##Active
believe
StandardContext
helpful
navigation
Configurations
borderStyle
Intercepting
activemq
##forge
collections
exited
##Selected
##Annotation
increment
difficult
HystrixCommand
45613
little
38895
META
annotations
##olokia
workspcae
744
Av
Coyote
EN
Fre
Have
MULE
Ne
coyote
courses
dml
nightly
rt
rm
she
##hr
##persistence
##git
##MI
##base
##Feature
inject
##ctor
##cha
stable
##lict
exe
ask
##raction
##uge
corepersistence
enum
unless
soon
Address
blur
2499
DefaultList
locallib
##327
textfield
47787
DEF
seeing
323
##391
equiv
positions
formatter
importing
ccd
Classpath
##StreamReader
##ToMessagingException
Reflection
ExceptionToMessagingException
Execution
StandardHost
##ingMessageProcessor
##AsyncProcessor
Assist
##Constraint
Firefox
pomona
notifyListeners
provisioning
repeat
opacity
Memory
msgSendSuper
Variable
keystore
##strometry
ExceptionToMessagingExceptionExecutionInterceptor
Endpoint
License
MBean
OCS
Rel
Ser
Xrd
aperture
card
day
jpg
vend
xcode
##case
##Up
##PL
##Point
##zip
##X86
##ateAsyncProcessor
strict
##imum
##ived
TiHttpClient
plug
##Receiver
1813
processors
0x05
117
Research
2701
##Debug
243
2448
##Execute
##rupt
displaying
475
##ChainLifecycle
subsequ
##othing
##Resources
tableView
Autom
passing
DelegateAsyncProcessor
566
##950
rowen
Authenticator
finished
decam
automated
fullscreen
encoding
Software
##Keyboard
fontSize
declared
renderer
ssh
Copying
observer
Registering
NOTE
affected
##Validator
##Extension
##ohn
README
MessagingTemplate
AWSS3BlobStore
PreferenceDialog
3142697
bundles
55618
RedisQueueMessageDriven
DarwinX86
InterceptingChainLifecycle
CoyoteAdapter
3142697795
RedisQueueMessageDrivenEndpoint
InterceptingChainLifecycleWrapper
574
600
Bad
El
MOD
cut
couple
jas
mk
##ls
##3f
##Mask
##Maven
##bot
##Radius
##entation
##search
procedure
demon
shut
##raft
test2
noarch
##065
220
hash
##094
Disk
2665
##521
reporting
reduce
secure
dispatchEvent
0x7fb
UserCgroup
Invoke
providers
Blackberry
##iddle
activities
tracking
remaining
compatibility
Agent
##rypted
liveview
Evalu
Detecting
Operation
Fetcher
whitelist
##paredStatement
succeed
demonst
535
BPM
Case
DH
Dynamic
Drag
Range
Token
coordin
hint
po
pipeline
sal
taps
wp
##Volume
##Spec
##h3
##Pr
##gs
##Mem
##IX
##Over
##info
##ros
##ingFilter
##ars
##amm
orph
delegate
##016
spread
##obi
##quency
Problems
##MethodInvoker
retcode
##AST
##ERK
##works
dbconnection
##585
##ameters
consist
DelegatingPlugin
##SCA
requirement
discovered
ContainerListener
Which
StandardWrapper
StandardEngine
##OutOf
borderColor
##arios
aliases
Connector
unsigned
scheme
schemas
Expression
snippet
##PreferencePage
##ollowing
##handled
spagobi
inconsistent
##Serializer
StandardContextValve
ClasspathManager
StandardWrapperValve
286
518
ACT
Feature
Lcom
candid
dm
mon
ns
rc
router
saving
satis
v0
##Ver
##Names
##Ali
##ui
##e9
##off
##Ent
##fortun
##DD
##Language
##Family
##error
##rea
proc
##iggers
super
Rev
##Storage
##11Processor
1383
##api
197
AbstractHttp
##loworld
located
clone
backend
##ancel
2459
someone
2604
471
executeWith
290
constructor
Events
slider
entities
##Parameter
helloworld
preserv
longitude
transports
General
children
SUCCESS
identify
align
csv
RestTemplate
remains
##BeanDefinitionReader
qualifier
##BoundsException
figure
unnecessary
picture
StandardHostValve
##OutOfBoundsException
376
COM
GUI
JNI
Match
Post
Past
Root
Tuple
covers
layer
mvn
ter
##AVE
##h4
##nik
##rime
##8b
##d64
##mark
##IP
##john
propose
##oles
##tty
chat
##Exist
getValue
##proj
plans
167
126
Convert
238
271
##RunLoop
CreateBuilderImpl
##325
4720
portrait
Super
ErrorReport
##777
latitude
published
##ConfigurationBuilder
Preview
##apsed
FrameworkMethod
longjohn
##Decorator
##Once
##RepositoryFactory
##allery
larger
borderRadius
attempts
databases
HandlerService
Email
duplicated
LOE
##VEL
Restart
params
saying
libsystem
##EditPart
MessageProcessorExecutionTemplate
Consider
HyperSup
jrxml
reconnect
fasterxml
ActiveMQ
TCP
subsequent
##SCAPE
StandardEngineValve
ErrorReportValve
HyperSuprime
362
324
638
801
9000
MV
Press
gpr
hover
hystrix
la
nor
vector
yarn
##Sp
##ike
##c5
##cent
##opper
##ris
##f7
##IL
##way
##FY
##orate
##inglet
##rew
##ism
##atever
##iding
##abili
compl
exposed
exchange
##ecause
usually
doDispatch
workflow
libe
involve
146
##069
openapi
prepare
555
2438
DefaultMule
39461
##188
4736
assume
otherwise
##atalog
linked
amazon
sdks
conflict
Shutdown
SpringXD
ProcessBase
HttpConnection
##Player
secondary
SimpleModule
##SendEvent
navigate
borderWidth
databind
CFRunLoop
machines
NSApplication
Copyright
True
##Step
##Args
Does
Timer
##URLConnection
Geolocation
LIB
RESULT
mentioned
NULL
v201409
##alaxy
703
999
Acc
CS
Drop
Got
Nothing
Pop
Termin
circ
da
drawable
ec2
pw
pointer
psf
sle
safe
sbin
world
year
##Sql
##h6
##ker
##Cent
##qld
reactor
reopen
##ationInterceptor
stuff
except
##orted
##rip
triggers
Theme
Const
AbstractTwitter
142
locations
##647
252
##MessageBus
eventually
transpar
determin
591
Screen
##afari
flo
depends
members
Installer
stories
SetDataBuilderImpl
grades
##imited
ClientImpl
##IndexOutOfBoundsException
Subject
domains
architecture
referenced
improved
##VENT
handleMessageInternal
migrate
Tools
calibration
2640
Beh
products
KrollProxy
instrumentation
34609
traits
##FilesystemIsolatorTest
amqp
copied
JFace
DelegatingPluginFilter
##nikov
AbstractTwitterInboundChannelAdapter
399
378
405
522
680
JAR
KE
MS
Menu
Mysql
Same
VAR
adb
dot
iT
nature
##NAME
##Em
##Title
##Persist
##COS
##Based
##jected
Reg
respect
Thank
whatever
Include
leave
neg
Conf
##Import
locating
Unhandled
##846
prim
265
therefore
Contain
Persistent
296
stringify
Opened
obvious
560
heap
findLocalClass
##Recipe
50043
bootstrap
skip
Options
scenarios
Geocoder
repeated
priority
purpose
simplify
experience
potentially
##ology
##Artifact
##ancer
Authorizing
AVD
alpha
Monitoring
webapps
##iagnostic
salnikov
Paste
KEY
1m
4a
CAL
Don
Del
DSL
Full
IM
Rent
Ranges
XY
ZN
ZK
aa
d6
dig
numer
rs
ren
rate
solid
##sheet
##AIN
##e1
##Use
##pol
##Coadd
##ven
##Rest
##DU
##xn
##BC
##JO
##alc
##ometry
propag
suite
suff
##user
addTab
TitaniumWindows
##Prov
1697
181
##asks
unm
119
##843
WorkbenchKeyboard
pretty
##ressed
##pointing
268
commandline
##ListenerContainer
Choose
##reserv
##ContextModule
manual
contexts
##dpi
641
Model
Usergrid
##olute
##Meta
exported
##olumes
SafeRunnable
approxim
incorrectly
routes
normally
##Camera
mouseDown
managed
InputStreamReader
SecurePreferences
##semble
##Evalu
verbose
mkdir
spreadsheet
##fortunately
JFaceUtil
iTunes
00000
501
825
Ign
JOB
Password
SS
Sm
SVN
Util
Upload
care
facebook
grace
hyper
j2
mi
matter
ndk
pane
rad
tre
tss
vi
xxx
##AIT
##Area
##ipped
##End
##Cn
##b3
##browser
##RK
##BS
##Buffer
##Ge
##jdbc
reuse
##adow
comes
##002
##quired
##izes
respond
impos
impact
buildpath
trunk
105
182
libmesos
11e4
##active
239
225
handles
##648
##Def
##ools
4738
445
##Interface
##icket
##encast
editors
##7598
NoNode
580
topic
##dev
clover2
##Record
SpringApplication
Classic
Prepare
label1
flows
##reshold
terminate
##Supported
TabGroup
uploaded
identical
##Setting
TextField
##Offer
Trying
##ragment
##Checks
4740
meaning
##Details
7953
paste
18127
overwrit
Scrollable
4537598
ltk
##easurement
styles
webkitbrowser
executeWithChecks
453759884
2x
409
524
601
923
Am
AL
CE
CRE
Calib
Each
Graph
LDM
S15
VFY
W16
cy
gen
hs
mvc
ping
pul
pair
rid
##Sync
##Array
##ua
##man
##zz
##REST
##wx
##Frame
##just
##erApplicationContext
##ed2
##aru
##etched
##ades
##aining
##atory
State
Repro
Insert
10480
159
##overflow
194
177
although
0x11
##993
219
##792
##059
398
390
##ASS
35545
4739
generator
443
440
Item
loads
subaru
screens
screencast
themes
ErrorHandling
initially
stores
DebugUI
typing
Therefore
cmake
Refresh
##olving
##nique
ActivityManager
##IGHT
##Producer
HandlerProxy
higher
CFG
continu
considered
integrate
integrated
prevents
watcher
##d1f
reproduc
Additional
Additionally
##Remove
5758
ARG
Passing
##inois
Parameterized
Migrate
##ammes
terms
sleep
##erApplicationContextExecutor
ErrorHandlingTaskExecutor
2ed2
334
5000
5bd
Db
FOR
Footprint
Jdbc
Leader
MB
PAR
Poss
SD
SW
TEX
XX
bd1f
cross
cramm
categories
d045
gl
lic
pract
qdis
vc
##AULT
##oz
##9c
##Ptr
##fli
##Dist
##GB
##He
##Fire
##roub
##edic
##ited
##aries
##avail
##utor
##ided
forms
prod
##lier
##iml
##osen
##osing
ang
##query
trac
getFile
154
1457
214
executions
223
228
parsers
##Exceptions
inde
failover
Disable
messageflow
textAli
emit
44950
##ERV
desktop
##92198
assess
porting
submissions
netfli
##168
tableview
compiled
##RAIT
38391
##ATA
WebKit
OSX
amd64
##Parse
ProcessUtil
##96e3
##Plan
DataMapper
v2013
taking
scrolling
describe
##Allocator
##Enh
merged
AccessLog
Portal
serialization
##a0bd
TableViewRow
dataset
checksum
regardless
comparison
benef
410a
Instrumentation
GeneratedMethodAccessor
subsystems
PORTRAIT
equival
satisfy
pwang
5bd92198
TEXT
crammd5
d045a0bd
textAlign
netflix
5bd9219896e3
309
374
419
513
616
Because
Fe
JDT
Last
M1
ON
Space
SRC
bb
band
fj
fast
flex
front
jgit
##auge
##upport
##ees
##cb
##UM
##URA
##Pattern
##mod
##Dir
##java
##Wait
##eria
infer
##icies
##isql
fore
##verage
##iment
subst
##artz
##ifies
scan
apk
Expose
invocation
1407
##ocks
unix
0x6
Workaround
233
invoked
##ificant
##AccessorImpl
295
clients
stackoverflow
operators
baseline
ServiceResource
underlying
201204
1270
produces
SimpleJob
##Notify
##StateException
writer
##ValueResolver
ImageView
limited
LOC
ruby
programm
##security
IllegalStateException
Finish
replicate
##CHAR
##NotificationExecutionInterceptor
pixels
CONF
upgraded
MessageProcessorNotificationExecutionInterceptor
overwrite
UnitTest
Merge
createTableViewRow
retrieved
Phase
Offer
ctrl
criteria
communication
Management
##ConstructorAccessorImpl
BeanDefinitionValueResolver
Beta
AWSS3BlobStoreContextModule
orphan
##utorial
fjammes
386
375
414
509
699
659
By
EVENT
Lazy
MI
Max
OUT
Queue
TO
came
cached
grow
gms
mime
ncs
tur
tMatch
watermark
##NING
##ojo
##rated
##9d
##Psf
##dor
##2p
##wo
##oriz
##ined
##aver
##isk
##asc
##asing
##idoc
##ager
##agraw
fork
coming
dex
##ultane
##ervisor
resolution
resume
scal
15583
131
1480
##Chunk
Working
232
319
310
##640
##224
ERR
##TestClass
##astore
341
installs
##185
357
textField
desired
##BuildParticipant
accessing
##ClassRunner
##groups
relative
57268
HTTPS
dispatchMessage
Logs
acceptance
Modify
Reconc
teacher
sqlite
##Sending
LinuxFilesystemIsolatorTest
13312
pulling
happening
27646
suggested
estimation
AWAIT
partitioning
integrity
##Trigger
Aggreg
CCD
18126
visualization
calculate
receives
##Transformer
recommend
Traceback
acegisecurity
POJO
illinois
underscore
somewhere
##SecurityInterceptor
vendor
CFRunLoopRun
suffix
equivalent
ncsa
##agrawal
10000
308
339
372
602
678
696
826
895
AST
BB
EU
Jetty
LAND
Min
Org
QA
abst
bi
cast
fd
fall
family
hal
ld
lif
mid
mqtt
middle
patterns
sens
ur
xhr
##ses
##uages
##rs
##EN
##Us
##part
##gu
##md
##bs
##bi
##Drop
##IZ
##674
##ws
##Fatal
##eral
##ingParticipant
rely
reply
##lify
##ainSocketImpl
shape
##iva
##019
##osch
interaction
weight
doIntercept
chapter
contract
environ
newer
placed
AbstractDispatcher
Applied
113
valves
swiml
parity
##EventQueue
205
##Contributor
##051
##090
py2
##encies
subprocess
redeploy
##Actions
equal
##54a
member
##WindowProc
stacktrace
##Scope
charset
##289
Shared
MessageBus
37526
cleaned
##FileIndex
minor
URLClassLoader
AbstractMessageSending
produc
InvocableHandlerMethod
I0806
decide
RequestMapping
0x2b11
evaluation
placeholder
specifying
maximum
21806
RUNNING
Transport
publishing
0x100
ScheduledFuture
4741
provisioner
situ
7951
TreeViewer
butlerUtils
readyState
##Before
uncheck
a6d801
Demo
##Tracker
##Privile
transparent
Behavi
VARCHAR
Thanks
j2ee
mirror
impossible
LANDSCAPE
##FileIndexingParticipant
AbstractMessageSendingTemplate
ScheduledFutureTask
415
5s
656
697
Mixed
Optim
Prom
Psf
Safari
Virtual
Wcs
XXX
dump
fetched
gd
holes
kagrawal
mar
mys
microsoft
pex
##NN
##Some
##sp
##Av
##how
##Each
##TR
##Master
##Manifest
##Clean
##mine
##2d
##4ClassRunner
##Db
##Database
##xproj
##GI
##Head
##First
##Write
##JUnit
##ower
composed
##ocale
onto
asci
##plet
scisql
chosen
Definition
neb
##proc
##ryp
18112
1748
##ansk
213
216
345
3474
##826
261
260
##ruit
351
handleWidget
##earn
dbName
##Values
connectors
568
498
423
offline
Implementation
30228
produced
downloaded
##ynamically
discussed
sessionId
Submit
##LabelProvider
##Login
Extension
capability
reserved
BasicNew
12119
technical
snippets
4128
Replicate
stopped
##AutoConfiguration
##clusion
absolute
DefaultListableBeanFactory
##Memory
libevent
##Cnxn
independ
##JUnit4ClassRunner
handleWidgetSelection
1mins
507
7926
Cocoa
GWT
L1
Layout
Mark
NAME
Point
Rule
Som
TST
VAL
Would
aware
cost
cook
gc
hence
i18n
nump
pet
qs
sli
##Space
##server
##TL
##Types
##Mobile
##Domain
##Iter
##Hello
##ota
##adget
converter
##iber
maps
doGet
##anging
Refer
ReEnc
trust
areas
10mins
enabling
disposed
189
AbstractProtocol
##FilterProxy
148
Apply
##activ
270
viewer
widgetSelected
languages
##1202
247
Contact
##HandlerService
##HandlerAdapter
DECam
##523
Chain
filtered
59302
293
5450
##350
DelegatingFilterProxy
425
ServiceRequest
##ErrorHandling
namespaces
HttpClient
Attached
removal
##ought
0x7ba
deletion
##One
automatic
syslog
##ChildrenBuilderImpl
policies
GetChildrenBuilderImpl
descript
identified
introduce
##MapView
Improv
##Construct
chunks
multipart
extends
##ChangeOperation
IdeEventQueue
combo
##Offset
Specific
upgrading
##MBeanServer
46283
CentOS
derby
DispatcherServlet
SessionImpl
AsyncProcessor
exactly
scheduling
0x7ffff
##alesforce
DefaultSave
uglify
createPicker
SubjectCallable
MysqlIO
PersistentVolume
ParameterizedCommand
LeaderSelector
tMatchGroup
RequestMappingHandlerAdapter
MixedContent
##rypter
numpy
ReEncrypter
7Q
701
724
BY
BAM
Cgroups
Header
SAML
WCS
ack
banner
coding
e4
elected
nl
sorter
tizen
tutorial
xr
##Ap
##c8
##d7
##day
##MP
##ma
##Rules
##Render
##41
##Lazy
##Graph
##Wcs
##atest
##atively
##lements
##learned
reverse
##unctor
##ters
##istration
exceed
asynchron
##izable
resize
##allow
whose
builders
logdata
Info
1053
1465
##ubscription
unlearned
ids
27625
arbit
203
##628
251
2559
listeners
##Delete
##Running
##749
##okit
##561
##565
3507
simultane
##pdown
corner
pageid
Child
##BeanRegistry
compilation
298
540
##587
EventThread
Closed
durastore
42069
Seeked
##PoolFactory
HTTPClient
performed
pointing
v20111
Checkpointing
##Authorization
encrypted
stops
Compacted
15708
##iverable
identifier
rendering
Second
happened
recently
Iterated
Observ
caching
serialize
ReportDoc
Assertion
AnalysisExecutor
0x2b4679
40696
15088
##semb
TABLE
disconnected
XmlBeanDefinitionReader
administrator
AbstractHttp11Processor
##ingleton
Containers
##Settings
vcxproj
Features
##upported
##orizont
Reconcile
Behavior
BasicNewTitanium
ReportDocGenerator
684
603
672
7A
715
866
Cancel
Fork
Green
Lightweight
PASS
UN
Watch
ach
coh
den
iokit
kitchen
mask
miss
sq
sess
squ
tM
tist
xce
##sian
##eys
##col
##oEndpoint
##Upload
##Put
##pat
##ges
##1f
##2P
##Reregist
##Fetch
##ering
##atrix
##enance
integer
toast
##rem
##ppers
##omet
threshold
##ident
##esture
##add
##imation
shot
applies
httpclient
doExecute
##angle
##rientation
TiActivity
##Export
15065
plus
##aph
##Reg
19289
##064
Unfortunately
edits
3486
##567
selectId
##181
##vey
Complete
corp
##Invoke
myjob
Spel
##aussian
##Android
duras
bamboo2
SlaveHandlerService
offic
registering
Blue
typically
AbstractMessageProcessorChain
Startup
##nowled
27216
##TextField
Output
Administr
reasons
0x0000000198
GitHub
##Perform
JIoEndpoint
ContextHandler
##Startup
busy
configuring
##TimeoutException
20150114
toggle
##Extract
reconcile
recognize
quality
Return
sites
turned
Even
Archive
Ident
consumers
earlier
DependencyWait
Split
##Agent
Intro
Placeholder
Repeated
DEFAULT
AuthenticatorBase
##Spring
radio
##Height
0x2b1173
gdansk
AsyncProcessorHelper
BasicNewTitaniumProjectWizard
DependencyWaiterApplicationContextExecutor
0327
288
364
408
436
700
857
ATT
CHE
Either
HD
Missing
Names
Pr
Summary
TSS
TLS
V1
V2
b1
draft
favor
horizont
lack
lettuce
si
solver
tin
troub
vm
##Synchron
##Ass
##cr
##7process
##Equ
##Ul
##CL
##Right
##439
##Dest
##IOS
##BB
##Gen
##Hadoop
##Fre
##Json
##ester
##ids
##plot
##isting
##orth
##ains
sufficient
##obj
interest
mapper
Provider
##mlink
supporting
2744
slaveId
backport
launchConfiguration
##rowable
##823
269
266
reads
anyway
accessibility
##ONLY
##aking
flask
expir
ways
##Adv
NodeJS
3rd
##WorkUnit
possibility
protect
msdn
throwing
blocking
performing
converted
Clicking
Username
Commands
providing
prompts
representation
Where
Recovered
SQLite
##olders
##emarkerManager
participant
central
Transform
##WebView
27641
suggestion
accounts
Extract
animated
signature
partitioned
finalize
minimal
40429
##BeanDefinitions
##RIBU
Distribution
ParserPoolFactory
31525
Customer
Maybe
GroupProcess
supposed
ArrayIndexOutOfBoundsException
##HTTPClient
##dispatch
lambdaworks
receiving
translations
20140507
##ExecutableExtension
v201212
sharing
##qldb
CREATE
##wxr
##Enhancer
CONFIG
EUPS
##Iterator
0x7ba9f
032738
CHECK
003
09999999999999
40000000000001
59999999999999
90000000000001
Clear
Driver
Element
Elected
Jenkins
Length
NO
Non
Site
WVGA
YARN
ajax
est
ess
func
mand
pax
race
slight
##No
##aff
##sink
##iant
##co
##opt
##Edge
##Unique
##Pop
##Photo
##picker
##gment
##Calendar
##DE
##Hopper
##inx
##env
##start
##cell
reach
##ung
isr
forPath
sts
stay
complic
##ursor
usability
runIn
##014
##illa
logo
learn
##irection
dataId
##Views
Works
227
##222
258
##142
##052
showWhile
##187
##170
3500
MethodReference
##HandlerMetrics
##ARY
##UIEnhancer
filtering
285
Science
##InterceptorChain
restrict
565
fixing
Simpl
Webwork
##337
Sept
storing
promised
typed
indicates
specifically
##Register
##roovyc
32249
freed
##Rows
measurements
firef
EditorReference
revision
##ognized
741
Toolbar
MultiPage
significant
26401
##OutputStream
roll
consistently
Enterprise
ffffff
READONLY
dropped
##ucy
ProgressMonitor
gmail
Under
overlay
announ
##Device
delivered
retrieving
Reserved
##PostProcessor
SimpleMessageHandlerMetrics
Analyz
12T21
median
answer
jasmine
FetcherCache
consistency
Constructor
reproducible
##PtrField
CocoaUIEnhancer
arbitrary
v20111024
RepeatedPtrField
624
Aug
Both
FL
Free
Facebook
IE
PL
Pax
SCon
V5
b6
coded
di
days
dynamically
ea
fresh
haven
mag
qtp
rh
sil
vest
##Shell
##SION
##Syntax
##hh
##iP
##rid
##7a
##EP
##EC
##TER
##po
##CESS
##Rel
##BI
##Batch
##Book
##Optim
##atial
##inic
inspect
##alth
##stack
##odb
##ising
thought
##idy
##ocial
demand
##erspective
exposure
##lipboard
shift
shapelet
usual
codec
##anip
scatter
##InMethod
Deprec
TitaniumStudio
createExecutableExtension
##portal
##Progress
##Statistics
setTimeout
1234
alone
unf
uninstall
##clinic
27883
##998
224
3108
adjust
Uns
##apper
##ruction
##328
075
Success
implements
applicationProc
2014102
Chunk
##cont
##ifiers
##Invalid
297
##Executors
Play
evolution
##OTB
backgroundImage
distrib
460
421
##Scanner
##ErrorHandler
##Recorder
proto
developed
MDM
accepted
verification
Installing
##aws
downloading
broker
focused
##TextEditor
##TabGroup
##IfSupported
##Transport
Outline
Rights
MacOS
15086
8745
Tooling
##umbn
aggregated
InitialDeploymentListener
ConsoleReader
Distribute
Distributed
factor
bounds
joined
##Camel
breakpoints
reservation
dropdown
20150224
confusion
cfg
ISO
seman
27240
Policy
early
2827
##LaunchConfigurationDelegate
##liminate
##Failover
DRP
utf
##auth
saucy
convention
##ExceptionsInMethod
benefit
##guard
petclinic
slice
tistud
ATTRIBU
WebworkSecurityInterceptor
##ExceptionsInMethodIfSupported
ATTRIBUTE
0B
330
717
Coverage
DC
Further
Github
Learn
TOS
Writer
Zookeeper
cle
g6
gef
manip
solve
tract
volumes
##Sw
##Spl
##Ssi
##tock
##ips
##cognized
##page
##ka
##Mesos
##Counter
##filing
##bo
##b86
##yM
##Issue
##BD
##Body
##inal
##edis
ins
##report
##arge
javac
##ashed
##otion
##elcome
deep
debl
##erson
##ims
##imal
##emon
##ements
##011
aspect
##raight
interpre
http11
##pleted
Reason
##figure
##0235
libj
Existing
AbstractNew
Production
##FilterInterceptor
145
##uby
0x3
##048
##0626
levels
##125
windowSendEvent
utilities
prere
somehow
locally
MethodFilterInterceptor
4734
serve
##349
442
Items
feel
##ongodb
tableName
SpEL
542
flat
evt
keyword
gray
models
Instance
behind
HttpParser
Parse
ticktock
##ToObject
accur
writes
downloads
navigator
discussions
addressed
standards
closes
CoreException
Butler
smaller
entered
switching
##ContentProvider
destination
17500
animate
estimator
proposals
Ability
extended
sconsUtils
##ValidationInterceptor
##Simulator
VERSION
##Matching
subtasks
Retrie
quickly
##Reflection
##MBeanExporter
##Delta
accordingly
##PreferenceDialog
instantiate
16298
hangs
schedulers
tESBConsumer
inherit
RetryLoop
PMCS
##UsingReflection
InverseOffer
enhanced
invokeJoinpointUsingReflection
BlockJUnit4ClassRunner
KrollRuntimeThread
gtk
##Verify
##Centroid
unmount
##edicated
##Available
nebula
sessions
mandatory
424
434
503
588
728
Ct
Den
Double
Fault
Gesture
JNotify
Let
Me
NSL
OOTB
Video
ber
coord
fb
fatal
giving
ie
math
paused
ts
vel
##Sk
##SD
##a62
##Audit
##tool
##n7
##cur
##pa
##pack
##Catalog
##match
##most
##bone
##1a
##any
in2p
straight
##uming
##abs
beaver
##ocity
applic
##ivotal
##ayload
spatial
testGet
TitaniumKit
##St5
15secs
16777
Product
unavail
##04131
##poses
316
##ExceptionReporter
080235
##1404
##123
##747
##cccc
392
3974
ends
353
JSParser
TestCase
201407
365
3613
courseid
287
5475
eval
distribut
##549
##ConnectionUtils
##9502
slf4
ModuleDeployment
cleaning
detector
0x7fff
designed
SocketTimeoutException
planning
During
##rateTask
RESTful
separately
##BarHidden
##9184
17505
13932
Origin
computer
0x186
runWithEvent
##OrUpdate
##riteria
catalogs
##ICATION
business
Quota
replicated
Skipped
Timeout
destroyed
##Controls
increase
##Compat
entirely
cfht
20140909
##Supervisor
rotate
##rammar
Externalize
Reservation
7947
wrapped
constraints
##IntegrationTests
symlink
InverseOffers
friendly
XrdSsi
##094000
UserCgroupIsolatorTest
Revisit
primary
##MetaData
##Evaluator
Amazon
cycl
SWIG
angular
##Usage
swimlane
0x100094000
##activated
Forked
WVGA8
Paxos
bernd
in2p3
slf4j
284
402
662
Brow
Break
Bulk
Cxf
Criteria
Duration
Estim
GM
Hit
Pa
Push
RSS
Summ
Ticket
cassandra
dedicated
ed
gn
galaxy
jolokia
num
o1
sce
talk
wdb
wish
xm
zoom
##SA
##aled
##lation
##ts
##ne
##ness
##card
##cism
##PP
##Panel
##Custom
##5b
##Route
##0828
##II
##QA
##FTP
##qserv
##oration
##esim
##anvas
ingo
rew
##omic
organization
##ulating
##chunk
##pth
conse
onload
shadow
##ograph
aspx
##oolean
Stud
##Condor
buildFile
Intent
10325
envelope
##116
##project
1329
Expect
237
Usage
##OSGI
221
226
##22e
AndroidManifest
081404
prefer
precise
##oxyg
248
##derr
iOS9
##Executions
##071202
397
BuildContext
4735
321
clicks
20140626
487
Allocator
##ContextImpl
HTCondor
dba
5474
##366
Updated
589
DelegatingErrorHandling
Similar
customers
663
mapview
Classes
HttpURLConnection
##Such
TIME
elapsed
verified
I1022
REQ
##OnClose
##StrategyOSGI
ConfigurationElement
covered
twitterstream
fontFamily
000439
##Results
retrieval
27644
quotes
exitOnClose
DeploymentSupervisor
raise
assertion
Before
About
Initializing
DuraStore
lesson
20150124
RegistryStrategyOSGI
hitting
PageFilter
managing
submitted
MessagingMethodInvoker
uncaughtException
photometry
confirmation
Discuss
1334007
investig
hsqldb
DebugUIPlugin
##ascades
urn
estab
slightly
September
vesta
Ctrl
cycles
1032504131
##oxygen
DelegatingErrorHandlingRunnable
MessagingMethodInvokerHelper
1334007647
486
592
515
674
786
908
AMI
Cache
HE
Hibernate
JR
Mock
MVEL
Pagination
Rob
SP
diag
f5
fac
gz
his
hope
jump
mp
mit
marker
nos
pure
que
sound
saw
sdss
tREST
worth
##Since
##a32
##sets
##rong
##Und
##Please
##Cat
##full
##v6
##YY
##YLE
##esign
##ingu
##itut
stderr
profiler
##istory
asked
speed
##quality
React
##ried
scr
TiBase
log4c
##lector
getCurrent
##Profile
whenever
involved
dataquality
0x4
abi
executable
##PID
intended
##enchmark
quant
clang
##Depend
##091
##120
ApplicationContext
primit
3506
##321
subclass
accessed
redund
20140828
##555
3657
analys
Changing
##loaded
##INE
463
DMCS
AURA
490
431
##Scroll
WebResource
SlaveTest
Viewer
##ittercism
Logger
##SSL
pops
populated
Another
Invocation
plane
##iliation
ContentType
frequency
13305
grep
Compare
##SQLException
50088
##ossary
MapKit
refactored
rendered
macro
150843
tracker
##rains
iteration
raised
##Reconciler
Aborted
##Animation
Quick
Canvas
effects
31521
combination
freeze
51219
Validation
Flags
Integrity
overlap
regarding
slots
incomplete
Visualizer
212146
44122
declaration
investigation
##Merger
candidate
month
amazonaws
SpringXDException
##pletion
GreenHopper
cohort
v201212071202
libjvm
applicable
16777343
log4cxx
v20121207120202
307
479
611
613
712
755
811
ASS
Body
CD
DOM
Err
Just
MAX
Nex
NOP
NONE
PUT
Render
Sig
Wind
bits
dom
ee
e2
fair
hoc
iphon
kee
light
ostream
pin
pause
queued
round
tig
wild
##lt
##lr
##ACS
##iator
##rating
##render
##8c
##mZ
##104
##Da
##IW
##BO
##Qserv
##YS
##FD
##Fault
##KB
##KER
##JR
##ene
##anation
toString
reb
##isation
organiz
##otes
proof
##ellow
##abet
##eman
##osition
modes
doxy
scorm
##Information
buildbot
Deep
Init
getBean
getImage
getBuildPath
leaving
1258
AbstractN
Profile
##Changes
openEditor
318
quiet
clar
##ants
attemp
##MessageProcessor
##nsw
linear
RunAfter
263
396
##175
actu
subset
##ListenerList
overall
sourceforge
extr
389
NoSuch
##543
heav
outputrender
ServiceActiv
##Workflow
##ingleNode
ordering
1003
Platforms
BundleContextImpl
Annotation
Deployer
Perf
footer
GetDataBuilderImpl
SQLException
15707
##AsyncBlobStore
progressive
BeanSerializer
Embed
reasonable
##ubscribe
PartStack
17501
publisher
Trigger
attachments
EXEC
locks
PerformChangeOperation
SOME
affects
##ygon
sorted
Cleanup
##CorePlugin
31519
conditions
calendars
graphics
Temporary
words
MoreExecutors
##Created
4066
20140929
AWSS3AsyncBlobStore
Grade
geom
##Remote
##XmlApplicationContext
2759502
31190
jaxws
##eregister
observed
Otherwise
165829
EXPECTED
##Failure
QSERV
##AlertDialog
friends
BlobToObject
WCAG20
subscribe
##aaaaaaaaaaaaaaaa
DHAVE
float
overwritten
abstraction
VALUE
Contacts
kitchensink
Blueprint
##Synchronizer
AbstractNewProjectWizard
20140714
Nexus
iphonesim
doxygen
attemping
outputrenderers
##WorkflowInterceptor
2759502016
4b
439
636
Audit
Background
Course
CModel
Doxygen
GN
GS
Hook
Hierarch
JK
Keep
Maps
Os
Pri
Sam
Serial
Salesforce
TH
UP
aid
bc
che
dd
e52
e1c
fam
f674
gist
lay
luc
mt
mongodb
ow
opp
rob
sr
series
tGen
xy
yaml
##VV
##Symbol
##Analy
##Astrometry
##ixt
##oon
##UNT
##UND
##Push
##ford
##yond
##vet
##Double
##IVE
##Last
##Btn
##HS
##JMS
##orre
##atur
##atched
##init
##inct
##head
##rott
##arr
##etr
##omp
##unity
beyond
##url
##verting
exclud
exclude
asking
##ringe
##iform
##usable
Thus
##InView
##ailability
createPart
Integer
instr
enforce
##Standard
1376
##ROID
##RODS
1461
##ublish
univers
useless
21791
2579
issu
##TestService
statistic
checkout
##034
##phere
##827
##829184
355
sendMessage
477
##344
##pdf
325
##sched
368
366
##reshed
549
dependent
##ymap
connecting
distort
201506
Eng
grouping
dialogue
Cluster
##ITY
WebView
relations
644
Libraries
##ErrorCode
timj
660
30229
assignments
##ayoutConstraint
##4822
label2
formats
formatted
URLs
v20140
hosts
##gnl
belong
##MENT
separator
navBarHidden
ideal
##riting
BambooFre
polling
##Modes
greater
##Short
Compress
##ResultsS
IPAC
15709
##wned
centroid
##selves
##ginfo
0x000000018
0x0000000100
SWTException
69b86
Incorrect
ANDROID
explore
instrumented
##Bytes
KeeperErrorCode
##c6a62
corrections
0x2b4686
constructors
certificates
photo
createTabGroup
##Encoding
Protection
##Visitor
enhance
##quirements
##BackgroundColor
##OptionsMetadata
32907
compliant
numeric
##reserve
Ignoring
CalibrateTask
Possible
glossary
inferencing
82679
Organiz
bias
##54afa
acknowled
Observe
0x000000019856
horizontal
ea48
Denso
NSLayoutConstraint
velocity
Summer
consequence
Hierarchical
e5254afa
e1c7
##InViewFilter
##829184521
v20140829184521
BambooFreemarkerManager
##ResultsSummary
69b86c6a62
69b86c6a62be
002
2F
2nd
416
610
846
AMQ
Astrometry
DO
Dro
End
Every
Folder
Frame
GROU
Gaussian
IT
Lifecycle
Mapping
Netty
PRE
QE
Queued
R36
Sdss
TU
Tod
UDI
babili
cC
cms
codes
coadd
gone
hem
jet
myst
mdl
odd
plist
risk
sid
social
tail
yellow
##Ns
##Native
##N7process
##Serv
##sy
##Ac
##upp
##cing
##coded
##984
##Elements
##dt
##Measurement
##CD
##CI
##CF
##Caps
##Cert
##Cacher
##baa
##1b
##yy
##Raw
##400
##Link
##Look
##Length
##Bin
##Keys
##qli
##WD
##Watcher
##erun
##ones
##att
inverse
tok
reli
##une
##aserv
##plugin
##chor
conven
stuck
strip
procs
##ership
##igning
exer
assemb
##artment
##alloc
sequ
##ormal
chris
upstream
logon
createImageView
createTextField
getConnection
##Images
processNext
AbstractResource
alter
almost
##duit
##040
abc
refreshed
callSuper
backed
Activ
DefaultMBeanServer
Contin
displayCaps
444
subchunk
ago
##loader
compared
289
Scope
##769
##580
##Tasks
##Classes
##hemeral
##lesh
EventOperation
##ConnectionHandler
Foreman
outputs
437
querying
##330
among
666
##Recogn
##Parameters
PreparedStatement
HttpMethod
##Platform
discovery
heading
popover
30234
30285
BundleCacher
guides
v201102
presence
##ORM
descriptions
##ResourceIT
##Added
##ExecutionManagerImpl
##HttpRequest
##RepositoryView
##coming
26212
restarted
DB2
presented
presentation
grey
##Shift
AUTHOR
defineClass
PartListenerList
skymap
branches
Looks
27645
27642
ignores
overrides
Helvet
##DeploymentIntegrationTests
iterate
sorting
BatchJob
bindId
Callback
effectively
explanation
21053
##SessionInViewFilter
website
undeployed
survey
ArrayList
IOException
jruby
assumes
matrix
alphabet
mdm
SimpleMessageListenerContainer
intermittently
TitaniumUpdatePage
tweets
pkginfo
Automatically
coordinate
aligned
negative
Graphics
##Distro
half
situation
##Privileged
##LoginFilter
launchConfigurations
Deprecate
##curial
13291
##inguish
Windo
keeps
EXECUT
iphonesimulator
GNU
CompressingFilter
R36x
cCXF
hemera
##uppet
DefaultMBeanServerInterceptor
v20110210
Helvetica
356
335
517
620
713
745
Bug
Dq
Directory
Gant
He
HSQL
Iss
Kill
LOST
M3
Named
Our
Put
Perspective
Rout
Top
Title
World
YUI
bg
efficient
four
gain
lim
mil
ops
pf
r8
v4
wide
wcs
xpath
##Vl
##NPM
##aD
##sg
##lint
##ipping
##cache
##crib
##rich
##338
##895
##Ti
##Trace
##PUT
##PRI
##Mouse
##master
##brains
##xies
##LES
##Lane
##Buf
##Go
##wd
##Failed
##Following
##ining
##inning
##ital
##arb
reve
revert
##isions
##utils
thumbn
conn
online
##01e
##015
##rapping
suspect
modification
mapped
doBuild
doPrivileged
Rejected
##izers
##Console
science
##Exec
filepicker
##115
1333
workbench
UIApplication
libdispatch
swipe
278
222
adapt
colour
backwards
##MessageReceiver
APIkit
##ipment
##144
states
551
##ledge
editActions
##1264
##821
267
Comm
354
NativeConstructorAccessorImpl
##347
specs
Images
wrench
0755
##LETE
crashed
544
OpenShift
Enh
validated
whereas
##def
##ITH
##Loaded
StreamDeploymentListener
dirty
Atto
30227
AlloyTemplate
FrameworkInfo
Adapter
Altern
designer
Handling
##olutions
##ecessarily
Installation
fullname
##Read0
sinks
40b4
Perhaps
socketRead0
mostly
##PreparedStatement
counts
boxes
Interpre
Failures
##URE
##c1b
JavaScriptCore
commented
centos
activate
declare
fireEvent
Meta
isolators
describing
8744
8746
Extra
overridden
aggregation
aggregator
locked
meetings
programs
Abs
ORDER
##https
antlr
Validate
20150206
reproduced
CCB
Keyboard
ISR
##shake
datamapper
Grad
27242
whites
innerRun
0x14003
wrappers
Winter
COL
caught
DefaultSingleton
dsl
contributing
Elastic
years
Regex
Confluence
renamed
##DetailsPage
AccessLogFilter
Aggregate
##MasterDetailsPage
independent
Namespace
##CamelContext
##Switch
TiBaseActivity
redundant
ASSERT
actuate
distortion
jetbrains
##artmentLane
limits
075544
DefaultSingletonBeanRegistry
488
599
604
686
702
886
888
Based
Dest
Follow
Following
Js
La
LD
MK
Mqtt
Mongo
Photo
Sy
Src
Snipp
Syntax
TOP
W15
WITH
b9
bur
benchmark
ccc
dark
fn
frag
grammar
hdp
mflow
oct
pump
pending
rerun
sop
tis
vers
##Null
##Sl
##Save
##Sources
##aik
##lared
##AQ
##AW
##the
##hat
##holders
##cal
##c16
##EM
##EW
##panel
##Min
##Cp
##Coverage
##fca
##met
##method
##5e
##509
##vI
##IB
##Boss
##war
##erber
##atas
##rote
##anet
##edit
##ouch
##see
##icol
##unth
forEach
stub
##implement
##oggle
Revert
TiSDK
apns
UIJob
UIAlert
Apps
##omez
requiring
0x79
##acter
swig
locate
217
##EventRun
clause
##132
259
##ipher
optionally
selectable
##077
##345
JSCA
provenance
deserial
webserv
Tested
TestApp
327
##ARD
systemd
360
##aks
Ifx
596
talendforge
283
##elling
FileNotFoundException
Scan
metric
contained
restored
##Disc
##ishapelet
##ATCH
IDs
camp
Forward
429
##ThreadPool
problematic
Shard
MessageProducer
37993
Parameters
##PRODU
emulators
##fileMerger
##CEPT
deletes
MasterAuthorization
##Notes
Objects
decided
##Updates
hadoopDistro
##ProjectBuilder
ContentStore
Permission
transformation
##Install
##Installer
drill
##8700
leads
451
Connections
knowledge
13309
ReflectiveCallable
CompartmentLane
replacement
mulesource
putting
activated
GitOperation
revisit
Legacy
QueryAction
##APNs
##ributedString
capacity
Iterator
AccessController
egomez
keeping
##Order
multishapelet
##Any
inserted
ephemeral
21059
21055
expanded
Dependencies
counters
Expand
RabbitMQ
CLOV
jbosch
Specify
Detected
Undeploy
##ologies
##aho
##Initializer
45384
AlertDialog
##Attribute
analyze
MYD
MYI
critical
responses
##liminary
alternative
Assignment
recommended
Analytics
frm
Neue
18130
##Geom
licens
assessment
17483
1211906
##FetchConnection
##Region
##Destination
ProgressMonitorDialog
FetcherCacheTest
queues
fairly
wildcard
AbstractNio
RunAfters
GSEventRun
ProtectionDomain
mystream
##leshoot
GraphicsServices
##arbage
RejectedAPNs
##aikunth
MasterAuthorizationTest
GitOperationHelper
RejectedAPNsListener
2B
333
435
8d
815
837
AN
Buffer
Ccd
Cascades
EEE
Fast
Gu
Hide
IAM
Jim
LEF
Pull
Pipeline
Petr
Sign
Solution
THE
UND
a2
audit
bbb
cell
ff
gif
iRODS
pip
pipel
qana
tal
went
##Sign
##sed
##hes
##iction
##oice
##run
##8ms
##UAL
##Pipeline
##kl
##Mult
##CY
##Category
##bind
##1ns
##Router
##Ind
##FE
##Find
##Full
##atives
##inger
##avis
##etime
##section
##una
##ational
thrott
##ulations
##abe
##igu
##oreograph
testcase
TiBlob
Information
InfileMerger
apis
learning
neither
canvas
##oved
setBackgroundColor
##provider
2016
1386
##oped
Conversion
swap
##posing
##130
backlog
remember
242
##560
percent
osname
readable
##329
##323
DELETE
##ashes
##scap
##165
Choreograph
themselves
compression
590
metaserv
Opening
##ausing
qservTest
case01
keyring
383
##ChannelException
20150
consume
##InvocationHandler
completes
##783
grab
STAT
differences
underne
##959
testing7
timer
dispatching
##entially
threading
ProcessManager
Https
Attach
##983
discard
##StreamDeploymentIntegrationTests
rootfs
REPRODU
grading
decrypt
decorator
RedisTemplate
parameterized
Creation
separated
ResourceStatistics
terminating
##rief
ClientCnxn
0x2b12
twittersearch
##reduce
networking
Compile
##f42
entering
CFHT
CommonJS
captured
price
Quartz
Refactoring
replication
optimization
SyncTaskExecutor
UTC
oversubscribable
chooser
Flush
##UserNotification
purposes
replacing
experi
technology
15089
LaunchConfigurationTabGroup
##MBP
adapters
Suggested
30589
27241
jaxrs
brings
disappears
Bootstrap
analyzed
contacts
inherits
Assignees
Waiting
##InterceptingMessageProcessor
unrecognized
Tech
elasticsearch
InvokeMethod
##Entities
24593
24590
pairs
orphaned
life
unchecked
Prompt
ClosedChannelException
denied
official
Simplify
##iPhone
semantics
unavailable
GMT
Paul
establish
diagram
f5c1
analyses
Errno
tGenKey
##Analytics
AMQP
TUJ
tokens
##RepositoryViewService
DqRepositoryViewService
LEFT
Choreographer
underneath
0RC
2000
484
538
657
704
844
Apr
Br
Bro
Bar
Diagnostic
DATA
Given
GUID
JRE
Lion
Locale
MM
M5
MQ
Mis
MON
Mount
OPT
Picker
Present
SAX
Tue
TIT
Total
Ubi
Wrong
dnd
focal
footprint
hack
jun
latter
lbl
mch
mvel
oauth
pi
san
sum
solutions
tm
ty
um
uid
vk
venv
wor
wire
##Number
##ai
##iating
##8f
##UG
##Press
##pite
##gable
##Cached
##Capt
##124
##5c
##vanced
##R7
##Range
##Retry
##Back
##Binding
##OUT
##Queued
##FI
##FIX
##JAX
##ats
##enant
##avick
reject
relying
##amine
##omas
##chain
##adha
stamp
##umably
##004
onCreate
deps
interact
##quity
##Conduit
Tiapp
trim
TitaniumNPM
createHTTPClient
10secs
canEdit
newinstall
##gres
1381
lib64
Exchange
AbstractPl
AbstractCollection
AbstractQueued
unw
unli
##duces
INPUT
##EventMatching
##641
advant
##623
Uniform
retina
preferred
##ipole
##1418
EclipseLazy
edited
0459
DefaultCamelContext
393
Controller
##172
read0
readMessage
readBytes
3502
kept
JSSymbol
anywhere
webui
##881
portion
##397
executeRepository
##IND
JavaRecogn
291
Span
##ServiceFactoryBean
##360
distro
distinguish
520
##Collector
Envelope
465
567
##9443
##728
topics
finding
implRead
##DataSource
20121
2012102
2005
SlaveInfo
ccqserv
##Sequence
SpringXml
MessageChannel
##FileManager
deleteby
1008
30213
30288
Containerizer
ACSCorePlugin
brand
decision
RedisClient
##mitted
##Statements
navbar
##Expand
encaps
encoded
thinking
drwxr
27238
##Outbound
fonts
placeholders
##isioning
hardcoded
##Logger
TextViewer
BasePack
DIS
##ODE
##ConfigParser
Restore
27638
Extend
Extender
merging
rubles
##ModelPresentation
27436
badge
minimize
##ReportRun
serialized
ProxyRepositoryFactory
##BeanDefinitionParser
optimized
FILE
ModalContextThread
21057
31524
rabbitmq
31523
31520
##ByName
Many
filled
##Flags
CompositeExpression
Planning
FY18
Validator
boards
charts
experiment
weekly
Operator
advance
15087
24584
adapter1
SecureAction
RESP
ExternalResource
dealing
ArtifactWrapper
Splash
NioClient
15688
SQLE
ds9
Targets
##ReleaseNotes
CharBuf
symbols
12T22
38501e
incremental
ReflectionDispatch
ExecutionInstance
##rupted
Evaluate
##Specific
ns2
##Namespace
##ExistsException
Account
##Provide
hyperlink
v201303
LOCATION
UnitTestImpl
PhaseInterceptorChain
JettyHTTP
##IZATION
environments
DefaultSaveOrUpdate
70122e
simultaneously
##2P3
Introduce
##Assist
##Equals
CustomerService
SConscript
##yMCE
distributions
WVGA854
Browse
exercise
ops4j
AlloyTemplateInstaller
##erberos
MessageProducerSupport
Ubiquity
mchadha
TitaniumNPMRelease
AbstractPlainSocketImpl
AbstractQueuedSynchronizer
##EventMatchingMask
EclipseLazyStarter
executeRepositoryWorkUnit
JavaRecognizer
deletebyquery
BasePackFetchConnection
DefaultSaveOrUpdateEventListener
0ns
4c
432
459
510
5795
716
746
765
904
935
Ben
Box
Babili
DOC
EI
EQ
Gre
JLine
Jolokia
Long
Pausing
RIGHT
Sph
TP
TID
bson
brief
cJMS
diagnostic
gadget
hours
jline
ng
ost
pagination
rapid
ralc
zone
##Site
##uing
##upl
##ufs
##iOS
##check
##oSim
##Tidy
##UC
##Pass
##Pressed
##pass
##gmt
##Cal
##buf
##block
##256
##0u
##IST
##xv
##Board
##Browser
##Oss
##GV
##Gallery
##Hyper
##Fore
##jp
##queue
##WS
##orr
##onfigure
##atio
##rete
##ises
##uling
##ulative
forked
##ads
strateg
props
profiling
##acade
##umulative
##ocer
usable
notified
##ivial
##object
##usc
Stop
Rele
##riever
respective
res003
TiRoot
##029443
traces
##formed
createContents
createAlertDialog
leverage
filejdbc
dispose
155
setActive
##apse
libst
##urrency
alt
0x000
234822
##PIC
parsed
3193
recorder
phys
##844
resulted
prec
prepar
##ipate
##794
##140
##1235
##744
ApplicationWindow
##563
##5658
##078
394
##180
Comment
##1724
BuildResultsSummary
473
I0204
basis
Impact
TestSu
##929
##927
agre
##area
redu
secret
scheduled
indexes
##INS
595
equipment
##154
db2
##194
5476
##Composite
##365
contextid
##581
appeared
##yped
former
##LaunchActivity
469
##ATED
##attery
health
Webapp
differently
##Items
##parison
JobServer
Streams
669
visibility
##570
developing
##Parent
mapreduce
behat
ClassNotFoundException
0x7baa
Anonymous
Checking
##CommandProcessor
tagged
copyright
everywhere
RedisMessageBus
Fixed
##Forced
addresses
addressing
1681264
timeouts
ideas
ideally
Soap
polygon
##CacheListener
##4700
13311
##Shutdown
APSTUD
applying
enterprise
##iev
##Setup
##Logging
Metric
##Configur
orientationModes
17504
##Allow
24473
Performance
##f1c
##f100
##Origin
expects
expecting
Agile
students
##dcard
20150126
SchedulerFailover
MDLQA
##cf00
unsupported
reserve
RC1
##Compiler
Rubles
misc
modifying
shortcuts
##Functions
26398
26396
Central
SingleNode
semicol
annoy
authorize
Plugins
derived
assuming
##Observ
arrays
##Already
incompat
Prototype
COUNT
Crittercism
autocom
conventions
Avoid
shear
MODE
liveviewer
##StorageProvider
Terminal
MSBuild
Small
continuous
practice
##ozilla
##model
TST2
achieve
protected
##PhotoGallery
20141028
##Sky
Original
DeploymentSupervisorCacheListener
tigress
##cribe
Enhance
whitespace
##Pressure
##Captcha
Sphinx
ralcocer
##Hyperlink
##Foreground
res003sy
3193029443
1681264640
3D
499
526
677
694
705
750
725
7n7
938
Audio
BE
Ball
Binding
Boolean
Count
Cert
L3
L2
Limit
Ljava
M2
M6
Manager
March
Marker
NIOS
Qo
Rack
Sl
SR
Size
Templates
Two
UPID
Visit
bio
b326
dates
eliminate
ga
gal
jps
qates
rank
sampl
sax
ud
upper
vol
vaikunth
##Var
##NB
##Ab
##upt
##hF
##hdfs
##rer
##rad
##8ns
##Try
##UX
##Payload
##pc
##dvI
##Med
##Mig
##Menu
##Msg
##fusc
##mer
##bm
##vRK
##z0u
##4C
##Ip
##IUM
##xd
##OF
##GED
##Hint
##ZooKeeper
##JC
##esc
##ante
inclusion
##arm
##arently
##arante
##ety
##icode
rejected
##asion
star
proxies
onerror
##ecode
##ogram
anchor
span
##aniel
suit
interpol
interactive
test1
httpStream
##assist
##udson
##iff
doCall
Stand
Rebuild
research
chdl
##Infer
##Insets
contribution
trick
trivial
createControl
createListView
getH
apidoc
16828
##Received
##Required
workers
18131
AbstractExpression
AbstractDocument
configs
AppCompat
unzip
commits
2314
Used
27268
##soap
##iteAction
2181
quit
##649
viewing
viewed
##2222
adopt
##ff8
##624
Unexpected
pref
##1488
##058
##ificate
##apped
##748
##74368
showed
##ensity
selects
##ruary
3938
##32a
Methods
MethodInvok
wasn
472
basically
##083
##ERS
packet
32bit
##9280
existent
ported
contentassist
subd
##554
363
imageView
##cale
Spike
binaries
contextual
appearing
##ClassRule
XDController
587
obsole
groupId
##727
##2012
495
##ITOR
WebComponent
Supported
##RequestResponse
JobExecution
JobDeploymentListener
StreamConfigParser
occured
667
ordered
##WithRetry
blocked
Prevent
##AMP
incorp
finally
##TypeInfer
Advanced
Versions
reporter
SocketProcessor
##ResourceClasses
##Reading
ResourceClassRule
breaking
TableGenerator
##Instant
##gorithm
##DFFF
FAIL
Compound
15703
Detail
Determine
backups
LOW
macros
parenthes
suggests
suggestions
13918
describes
pids
TaskThread
Enabled
26400
SSLSocketImpl
##Packaging
##bc00
##Started
Without
finishes
dqportal
pressing
replicator
##8889280
##LineTask
31503
Color
##ANIUM
oversubscription
ASUS
drops
##Tools
0x0000000000
##GROUND
datasets
##0cb
FY17
20150222
##Refresh
##RootFilesystem
kinds
ScrollView
##pxVl
##Left
##FlowEditor
##Subject
1148889280
22922
February
DefWindowProc
IOSConfiguration
Mercurial
synchronized
strange
Docs
PhoSim
analyzer
listening
incoming
LettuceConnection
0x7ffdd
alternate
highlighting
##Return
##Retriever
Collections
declarations
Repeat
v2015061418
##Merge
ACLs
LogMessageFatal
24485
dispatchEventImpl
candidates
RootResourceClasses
DefaultMuleMessage
digest
SSH
viol
puller
pulled
ARG1
ARG2
prodinfo
##AllocatorTest
EVENTS
cookie
PersistentVolumeTest
7QdvI
tM0
duraservice
complicated
prerelease
##ltim
##IWid
heavy
##ingleNodeStreamDeploymentIntegrationTests
BeanSerializerBase
QueuedThreadPool
cmsd
##MeasurementTask
##aDpxVl
13335658
LDAP
CompartmentLaneEditPart
##leshooting
Petravick
REPRODUCE
LaunchConfigurationTabGroupViewer
TITANIUM
045956
TiRootActivity
TestSuite
7n7hF
NIOServer
qatester
##z0uIWid
1682874368
AbstractExpressionEvaluator
MethodInvokingMessageProcessor
obsolete
##TypeInferrer
##DFFFaDpxVl
v20150614181235
RootResourceClassesRule
7QdvIxv
1333565899
7n7hFDFFFaDpxVl
1secs
382
494
4c1b
626
623
685
723
766
836
865
9c
936
944
Arg
ADD
AJAX
Cassandra
CBC
Dump
ED
GB
Gemfire
Hive
HVGA
MP
Most
Na
Net
OFF
Py
Sun
SET
Tin
YAML
b8
bci
dan
f0
groovyc
lets
mongo
nil
nom
o2
radius
rproc
tid
wm
##Now
##Sandbox
##a02
##lator
##long
##AF
##eff
##efined
##nf
##native
##9ed
##7E
##8a
##E0
##Talend
##Pagination
##Position
##press
##dr
##fl
##2I
##401
##Direct
##Bit
##Org
##H8
##Qu
##orn
##onar
##ena
##editor
##itched
##alformed
today
##etd
##illed
onChild
##oll
exits
notlong
runTask
runner
sph
##jector
internet
doStart
doInvoke
##izations
Thomas
addr
##InForeground
logout
createPage
getT
enroll
enrich
##Stub
disallow
15090
unt
unread
Resolve
INST
IN2P3
##066
locale
##994
recycle
recipe
##643
##2231
refers
##ff58
##anned
Until
Uninstall
##136
##848
##842
listview
##nson
##145
##093
editpart
246
2401
##berg
##Throwable
showCamera
iOS7
##AccessException
BuildExceptionReporter
goog
##340
emf
reflected
JSFileIndexingParticipant
##08c3
loadBeanDefinitions
Test2
mainView
367
##conds
##383
##380
##151
JavaFramework
construction
qservResult
toolt
distributor
obfusc
##5409
tryOptim
##942
grid
grant
##720
STE
49188
##izedDispatch
stdout
Installed
I1222
##333
customized
StreamReading
Views
SpringSource
MessageHandling
ProcessBuilder
Http11
##PROCESS
##9732a
guarante
regions
el7
accident
presumably
Although
posts
ObjectTo
##ORK
##Only
##Objects
HTMLTidy
drf
27236
closure
fetching
##851
##Fields
##Modal
evaluated
presentations
##KeyEvent
scrollView
delivery
OutOf
31215
architect
##68a
activation
moves
Assoc
Metrics
GitRepository
continues
migrated
13933
27639
8749
Trunk
deprecation
protobufs
24459
8081
MediaModule
Final
ORIG
effective
cancelled
##onymized
##FormContent
peer
##Similar
##installed
Manual
##a2cc
##ohnson
reconciliation
understanding
qualified
##c608c3
IntegrationMBeanExporter
freezes
v8native
MetadataConnectionUtils
VMs
supplied
Archiva
mismatch
July
20140917
CMD
##Delivery
ColumnMasterDetailsPage
fitting
##Initialization
matched
##pertureFlux
Development
communicate
responsible
findClassInternal
copies
191052
Character
ALLOC
autoconfigure
##Intro
##lsx
DiskIndex
##Email
d600
NoNodeException
PARAM
qdisc
qdisp
6961
VirtualFilterChain
Something
doGetBean
##Api
FeaturesServiceImpl
##objc
Transformer
##UniqueVerify
##gmentation
firefly
##control
cleared
##MesosTest
Meet
Estimate
xmld
AllocatorTest
quantal
primitives
Osgi
aidl
846338
PREFIX
bbb9732a
##bindings
STATUS
Techn
MONITOR
Mountain
juno
vkone
advantage
ostype
strategies
annoying
231435
tryOptimizedDispatch
StreamReadingTask
MessageHandlingException
HTMLTidyValidator
846338c608c3
MONITORING
2f4
3x
4d
582
576
617
698
683
689
687
7d
734
7c16
800
805
803
903
955
977
AD
ACC
Answ
Bas
Coord
Counter
CTR
DES
Ep
EL
EGL
ETL
EFD
FsS
Functor
Head
Hash
Icon
Junit
JAX
LT
Large
MEL
Making
Nested
Ok
Owned
PC
POM
Patterns
Serv
Tol
Take
Toggle
Volume
WP
XSD
bt
b3
b5
bold
c2
crypt
dx
eb
ever
fw
flick
fiber
gdb
glob
hi
jdt
kar
lin
lose
lfs
mv
mix
pa
pen
paging
power
puppet
r9
rack
reregister
summ
sizes
sdcard
tadmin
vary
wrote
##new
##ios
##ocha
##ride
##730
##El
##UST
##MO
##Move
##Make
##Multi
##Cr
##Coordinator
##Caller
##Canvas
##100
##5a
##5mesos
##4J
##DR
##During
##LO
##BM
##Box
##Bef
##Our
##Orientation
##Hash
##Feed
##Kill
##enario
##ingEngine
##itate
##itical
toler
javadoc
##utable
##ago
##esting
stri
staff
##abi
##00e
##urns
##olo
deb
atomic
expen
shard
sup
testCreate
##fa9
httpClient
##plex
##inder
doWork
Regression
logcat
logbuf
##External
##Explorer
##St12
##opes
##ryption
libobjc
Exper
AbstractPage
AbstractHandlerMethod
AbstractTextEditor
AbstractConnectionHandler
Probably
##Filters
##FilterAutoConfiguration
##ubble
##ViewController
switched
236
##063
arme
##22543
##629
##Handshake
##137
SDKBuildPath
##840
##MessageFlowEditor
##242
0808
WorkbenchPreferenceDialog
preced
preliminary
##039
xmlsoap
##746
RunBef
pred
WindowManager
WindowProxy
DefaultMaven
deploytype
##1819
##1713
358
MethodAnd
4719
##085
##080
despite
tied
##889
availability
redesign
secured
3615
analitical
Changed
##config
485
##InvocableHandlerMethod
##387
281
##196
Spago
##759
fires
administration
##json
looked
##Display
##772d
distribute
distinct
##arks
528
corrected
DelegatingSubject
##2015
writeObject
##ITION
concurrency
Sep
rightNav
MobileSDK
HTTPConduit
occasion
Shut
blocklib
performs
##373
##FileSystem
##Jobs
indication
Reduce
v201507
##Registration
Advert
ServletInvocableHandlerMethod
inputs
ActionCoordinator
30609
30617
30615
##ducing
SystemButton
81c4
MyProject
##HttpInboundChannelAdapter
##iliar
TableViewProxy
168019
standardization
drivers
##Prefix
frequ
0x2ba
##IndexContributor
13307
uploading
LocalFile
##Shape
##value
##FoundError
duplication
##ydeMBP
Partition
PartService
PartRender
skipped
recording
Loader
8743
IndexBuildParticipant
appropriately
24478
0x184
particularly
AWS
realize
8085
TaskStatus
Optional
OptionDialog
##NS0
lots
##ictable
bindings
November
optimistic
errone
##Formatter
transactional
reservations
subtitle
185051
CompositeChange
PlanExecutionManagerImpl
RCP
##DMatrix
FY19
simplified
histor
Navigator
Architecture
letter
calculated
calculation
snapshots
Undo
##Needed
playing
HystrixContext
TESTS
S3Object
truncated
authorized
658a2cc
synchronize
synchronous
strong
complexity
BuildPathIndexContributor
##OWN
##Redis
Format
LettuceConnectionFactory
##Visible
collapse
deadlock
##CommandsHelper
NioEndpoint
stopping
SQua
20140502
unregist
##TransactionInterceptor
Encoding
Available
MemoryPressure
Serena
shutting
DiskInfo
DHydeMBP
helloworld3
##ArgsCaller
According
4aed
Deliverable
SecurePreferencesRoot
gracefully
ScrollableView
stylesheet
JdbcTemplate
SDSS
foreground
SimpleJobLauncher
LazyBuildParticipant
turns
8953
##DropAdapter
createPickerRow
asynchronously
ReconcileKill
##color
Identify
MultiPageMessageFlowEditor
announce
Retrieve
tRESTRequest
##Dependency
##ScrollView
ContentTypeFilter
getBuildPaths
NettyHttpInboundChannelAdapter
AUTHORIZATION
Issues
AbsListView
pumpEvents
UNDER
QuartzCore
##iPhonePackaging
##gresql
##INDOW
NioClientBoss
SQLError
JLineShell
MetricFilterAutoConfiguration
LOWER
TinyMCE
STEPS
7c16772d
FsShell
logbufsecs
AbstractPagePart
AbstractHandlerMethodAdapter
armeabi
SDKBuildPathContributor
RunBefores
MethodAndArgsCaller
analiticalmodel
1680191488
PartRenderingEngine
658a2cc22543
MemoryPressureMesosTest
ReconcileKillTask
004
337
454
504
635
796
720
753
835
894
829
8020
9fca
AF
Ast
Bring
Cap
Css
Crit
DAT
Eu
Fit
Focus
Gen
GIT
I18n
Jason
Jackson
Kits
LIN
Like
Must
MAIN
Measurement
NL
NLS
PAGE
PDT
Que
SPI
Sant
SFTP
Wrapper
Yes
ZIP
a8
acl
b4
bes
bbox
bank
bump
b0cb
cod
coad
er
eart
eth
fixt
hon
ibm
kaz
manner
mixed
mnet
ps
qr
rw
tz
wik
wsched
xrd
yum
└──
##NG
##Network
##uu
##tl
##tecode
##napshot
##click
##cached
##ooser
##ECT
##Top
##Uri
##pal
##dy
##kg
##Mac
##fers
##b81
##v4
##410
##429
##ILD
##OL
##G7
##Global
##Grad
##wX
##Fin
##Focus
##WW
##erance
##only
##internal
toAddress
##rease
##arrow
##etype
##cef
##seconds
reused
relies
##unch
##eway
##chest
##elesc
##abri
##ocated
ons
deleg
decode
degre
##aint
noted
##tte
anonymized
##ddee
##teceptor
spin
spaw
##rapped
##rames
##ober
##ptions
##ifit
mailing
##usra
doRun
doProcess
Style
##irable
scaled
imex
TiTableView
##Inner
##0214
##Exposure
createBean
getObject
##Stop
setHidden
needing
AbstractDeployer
AbstractReconciler
Profiler
Appro
##athon
##ViewMed
277
##068
##061
##usters
outer
quartz
clusters
##644
##223
attention
Unre
25565
backbone
##TestRunner
##Deleg
##rowException
552
##0313
##ListSection
348
26185
395
texteditor
emails
##529
transient
328
asset
073
subm
subscription
##550
overloaded
##aker
015
compiling
489
481
598
5982
myself
dbcp
280
546
##auses
##Combo
admins
flush
##ymce
##yping
380
connectivity
##notify
##Ident
##546
468
##944
4931
537
customize
ampl
##rought
throughput
protot
MessageID
MessageDialog
ClassPath
##446
releaseChildren
Parallel
Debugging
matcher
##469
Adapt
##Author
urlSession
MasterTest
Generating
persisted
fullBuild
##topic
bars
##comment
ActivityIndicator
keyspace
Duradmin
0x2b54
similarly
##Clover
Compiling
ioslib
##fb6
##EEEE
Configuring
BaseCommandProcessor
27643
##fc7f
##HTML
##ba0
Order
attaching
forums
multifit
assertEquals
callbacks
##IsolatorProcess
pressed
Initialized
##5134
Connectors
##ESSION
killing
joins
gradebook
READY
xsi
datasource
checkboxes
correlation
StepExecution
simpler
picked
randomly
##Monitoring
perfect
V8Object
constructed
USERNAME
opcode
1295409
checkpointing
technologies
Keyguard
##CurrentThread
structures
Fetching
##Targets
##AnalysisAction
##Deliverable
WriteUniqueVerify
CommonReconciler
instantiation
trailing
consumed
##PackageManager
##ancy
observe
HandleExceptionsInMethodIfSupported
material
aborted
basicBuildLoop
minute
serif
Screenshots
41781
Intelli
13941
Foundation
subscribers
##CreationException
Frequency
cards
demonstrate
poor
ACTUAL
MVP
hovering
CSV
CALL
propagate
meaningful
flexible
##URACY
LOCAL
Minification
interactions
##Headers
Improvements
exceeds
asynchronous
25598
PASSED
sqlex
Administrator
participants
##Calendars
Analyze
Freez
evalJS
dom4j
##BOARD
xyz
FrameLayout
convenient
##Google
thumbnail
Interpreted
Destroy
##959ddee
0RC1
sanity
ExtenderThread
WebappClassLoader
incompatible
Rackspace
2f4959ddee
ACCURACY
CTRL
expensive
8953fc7f
earth
degrees
##ViewMediator
1295409059
KeyguardViewMediator
2f4959ddee74
0f
026
338
331
4e
4926
5secs
682
618
688
707
733
729
854
956
AM
ANT
ASC
Bin
Bucket
Catalog
Due
Font
GT
GP
Ind
IBM
Jedis
Lse
Lost
Lik
Language
Mu
Orientation
Ognl
Sys
SAP
SESSION
WAI
Welcome
Xd
apt
baz
brought
dwar
fel
gw
g302
gallery
her
jQuery
jnotify
kr
mot
pt
pan
ruler
solved
tit
till
##Necessary
##NMENT
##Sender
##Sorter
##a31
##sl
##ln
##lf
##lined
##AJ
##Acc
##e31
##iom
##ojson
##7ns
##8internal
##Tag
##Uz0uIWid
##PC
##PH
##Pipe
##PORT
##py
##Me
##Max
##Mvc
##C2
##Cli
##Cursor
##fp
##message
##b11
##b700
##5f
##594
##v3
##zone
##REE
##Dashboard
##0e
##IME
##Built
##Hi
##Xk
##KwX
##onit
##atile
theplugin
##rope
##ctool
towards
##arly
##ce75
##ndown
##icate
react
isol
##changed
converting
##acct
##ab5
bec
##olor
##ableHelper
##013
asks
sus
weird
doService
##ires
##allocation
imp
TiProxy
##Inteceptor
##028
createListSection
cancell
disabling
##11Configuration
1557
setData
userCgroup
##opard
185134
##Impro
AbstractOperations
##ube
##ubmission
##Char
0x0
0xf3
0x125
11e5
##ansing
##046
Resuming
2344
232231
INS
jsca
jspa
##062
##997
executes
##celeromet
Anderson
3161
recreate
arc
classloader
admission
attend
##139
25787
##serting
##MessageProcessorChain
##868
WorkbenchPart
##797
##148
##achon
550
##037
##031
##036
editable
editpdf
##1219
RunRules
ApplicationImpl
##ensions
DefaultIssue
3501
##081
transfers
ti410
mainly
statusUpdate
contentobject
undo
initiated
partial
##LEGED
compound
company
indexOf
##INT
IfBlock
JavaMethodInvoker
FileInputStream
FileUpload
##767
PlainSocketImpl
XML11Configuration
##ymotion
passes
201508
informix
461
##ConnectionFileManager
operating
grunt
##axies
##2014
530
outputType
420
relaunch
wanted
640
NodePackageManager
Separ
##ErrorException
##TableViewer
initialise
Notifications
timodule
Shift
##ESTAMP
behave
behaves
HttpPut
windowslib
##ronom
30233
typical
##466
indicated
##PathChildrenCache
BundleHost
AbstractMessageReceiver
1023
tiappEditor
searchbar
resourceOffers
ellip
840
StartLevel
posted
ActionBar
brid
##ORDER
30611
##ProjectCreation
##NodeImpl
32232
caller
junit4
TableCombo
##Endpoints
termination
drive
27239
BambooValidationInterceptor
ZooKeeperUtils
##IfNecessary
Compilation
payloads
headerTitle
15706
delimited
HandlerWrapper
puts
31207
identity
archiva
orientations
Devices
duplicates
Administration
##alette
approval
alive
marking
##aneous
QuerySession
UnifiedCall
##IFICATION
MavenCli
13934
TIMESTAMP
NumberFormat
Travis
artifactId
capital
deprecate
NOTIFICATION
estimates
24474
clearly
SOCK
##6700
##SearchBar
ReferenceError
okhttp
ExecutorInfo
togg
##AwareInteceptor
Isolator
Verification
##ANG
##Matches
##Detector
Links
diffim
##iago
##Compile
V8Function
confirmed
12113
Specification
FetchProcess
faults
##TargetException
enrolment
OSGI
greatly
Hyperlink
SaveableHelper
26394
##Arch
0x00a
##DIR
##Beans
assumed
JUnitStarter
JUnitTestClass
##Observer
Downloads
##Blocking
SHA1
##a9ed
##going
##Aggreg
TransactionInterceptor
Crash
##ColumnIterator
CHILD
rborn
##clusive
25786
pkg
##SEGV
SIGSEGV
##VILEGED
newInstance0
ReflectionServiceFactoryBean
##Constraints
18132
MODULE
jasper
succeeds
succeeded
preserving
preservation
##Exists
324ce75
LIBPROCESS
circum
dao
approximation
mouseDownSuper
AccessLogValve
2012041819
turning
fallback
producer
qsmaster
areaspec
Specifically
##Renderer
UNPRI
SpelExpression
SpelNodeImpl
favoriteAction
tinymce
##Advisor
silently
unfold
ModuleDeploymentWriter
CxfConsumer
##SSLSocketImpl
##mZKwX
##Dao
extranet
robust
##DoubleClick
GROUP
GaussianFlux
PartListenerList2
Routes
MKMapView
licenses
pipelines
##scaped
##UserNotificationSettings
AbstractCollectionService
20121018
##Expander
physical
QoS
Standalone
CollectionsUtil
7n7hFDFFFaDpxVlmZKwX
Argument
##ff58b
ObjectToBlob
##FormContentFilter
xmldom
HystrixContextRunnable
SQuaRE
Critical
Santiago
##Gradient
##elescope
Lseek
dwarf
g302a9ed
##onita
##celerometer
WorkbenchPartReference
contentobjects
JavaMethodInvokerFactory
FileUploadInterceptor
HttpPutFormContentFilter
StartLevelManager
NumberFormatException
324ce75ff58b
201204181911
UNPRIVILEGED
7n7hFDFFFaDpxVlmZKwXUz0uIWid
0m
000000000
586
774
718
864
839
876
878
9C
918
9ef
AES
BAD
BG7
Cur
CAC
Correct
Category
Cmd
CUST
DS
Der
Done
Domain
DNS
Daniel
Fragment
GH
Hidden
II
Icons
IVI
Jmx
LV
Lock
Mon
MIN
Measure
Mozilla
NIGHT
Off
PK
Paging
Pixel
Pachon
Rich
Router
Sets
TAN
Tried
UPS
WBS
Your
aapp
bat
bucket
bubble
c3
c1
cru
cxx
clipboard
dp
dail
dict
density
ecore
fo
fake
fruit
hides
hiding
killed
lo
loss
mist
natur
opport
ram
rich
rough
sans
tx
tam
u2
ubs
x64
yusra
##Vari
##la
##lay
##hoc
##hib
##eg
##opping
##rF
##8JC
##EB
##Every
##TA
##Tap
##Termin
##Pic
##Picker
##Pane
##dated
##database
##domain
##Mark
##Calib
##from
##bcc
##2D
##2K
##yb
##vv
##vw
##Dict
##IV
##xis
##Locale
##Bl
##ORY
##Guide
##HOD
##XY
##while
##Fill
##Fix
##Flight
##Fragment
##Fruit
##Ws
##orators
##enode
##ilitate
##otent
##ido
##adm
##ading
##elines
##elivery
##ac9
##istency
##ols
##eclared
ship
runJob
runnable
##osure
##ends
modifications
##ushed
doCreate
Strategy
Required
##irm
resolver
ups
contrib
##027
trun
##Expl
getNext
getRaw
1094
enumer
1542
20104
1380
1857
1923
Procedure
uni
unicode
0x02
0xb8
##042
swing
comma
2397
27628
##usted
outcome
##999
##posal
##position
clock
##227
callWithRetry
##ffff
Unt
253
2516
##MessageHandler
##245
eventdata
0821
prep
##ipation
phpunit
Disabling
2450
24585
349
347
##820
DefaultMessageProcessorChain
localStorage
localdomain
##073
installations
##18012
ended
##178
osver
oscp
3503
sendReply
##348
##342
##34EX
generally
4444
JSObject
anyone
##Interval
transferred
webView
TestFlight
##923
handleResult
##ssl
statusLabel
##396
pathInForeground
##166
##1618
applicationSendEvent
##553
executeQuery
##LEND
compress
lsstadm
##197
##191
##766
545
extrem
##Completed
##Comparison
couldn
##ategor
##369
##589
51020
##ClassDef
##353
##778
387
NoClassDef
Enabling
##ATAL
DelegatingConstructorAccessorImpl
STDER
linker
4985
533
##deb
##ContainerImpl
Describe
5786
testing10
649
##PEN
##3700
Parsing
helps
##Place
##FileAction
discover
##JobRepository
30232
mini
moodle1
sectionFruit
regener
searching
849
847
Listeners
##CTION
prompting
##ounting
##DefinitionRepository
crashing
##ushare
StandardTestService
##ALL
16818012
##EditorPart
SelectChannel
##viously
##commer
BambooContainer
0x2b9ed
knows
Tabbed
##ighb
790
##2700
datacle
##Tables
##Show
smart
Detailed
SUB
31212
limiting
BeanFactory
BeanCreationException
referencing
skin
Transition
Leopard
##forward
printed
ignoring
##Alloy
##MetadataPage
computed
signed
##ABLE
Tasks
hdfsjdbc
6379
##bc401
multic
##Policy
20150123
##ById
##a2a
Isol
conditional
AnalysisColumn
185117
engineering
##Toolbar
Returns
quickref
startsWith
0x2b4687
##SlaveRecoveryTest
0x7f9f
MesosContainerizerSlaveRecoveryTest
reloading
reloaded
patches
26397
Linear
liter
##e7b
consuming
jaxb
observers
hanging
JUnit4
METHOD
handleRequestMessage
##LaunchConfigurationTab
##IntegrationTest
0x00007fb6
tESBProvider
ChannelRegistry
produceReply
deadline
DRF
Bitmap
StorageProvider
contributions
contributors
guessing
Team
nearly
MBeanExporter
##MavenPlan
procure
DefaultMuleContext
LIBR
negot
rsync
##Restart
##Provisioning
##EndPoint
SpringApplicationBuilder
##AllocatorProcess
foreach
MergeFrom
60249
26100
Sometimes
descriptor
ChildProcess
##ometric
##SyntaxException
##TERM
WebworkSecurityInterceptorProxy
Furthermore
straightforward
investigating
HEAD
InvocationTargetException
##KBR7
BlueprintContainerImpl
AuditManager
acknowledg
SdssShape
Gradle
##Cpu
campFire
##Multipart
0x2b12bc401
DqRepositoryViewServiceTest
MQTT
precision
preparation
##SkyMap
galaxies
##H8KBR7
accidentally
architectures
##lsxO
Servers
Shutting
v2015070214
##INDOWS
Europe
WrapperManager
kazoo
##abrice
IntelliJ
BG7H8KBR7
NIGHTLY
ubsan
##8JC34EX
oscpu
sendReplyMessage
extremely
NoClassDefFoundError
STDERR
1681801216
##commerce
datacleansing
0x2b12bc401700
v20150702140313
##8JC34EXlsxO
0M
006
0dp
1a
1s
1M
379
336
4f
452
536
632
621
730
806
862
984
976
920
ApertureFlux
Bosch
BORDER
Capt
CEST
Coadd
Cursor
DF
DATE
Es
Fig
Fri
Fits
Fiber
Giles
Glick
High
JH
Jeff
KPI
LA
M4
Mean
Neb
NFS
Occ
Pe
Po
PY
Print
Ren
RAM
Rather
Sur
Snow
TS
Turn
UNI
WQ
Word
WWin
Watermark
Writing
YYY
average
bk
cix
cake
cplot
cnf
dim
dock
ey
escape
fringe
fPIC
gauge
hh
htt
i4
jmethod
mind
natures
narrow
pp
pg
piet
sheet
tbi
ultim
utopic
wa
welcome
wcontrol
xaml
##NK
##apen
##u8
##thed
##trans
##hi
##hq
##hExceptionsInMethodIfSupported
##eK
##create
##category
##rates
##TF
##Tol
##Tract
##TOS
##UER
##Upper
##Phot
##PATH
##Publish
##Coord
##fill
##ball
##105
##5ns
##5f5
##zation
##zure
##Icon
##Lost
##Basic
##OY
##GE
##Hover
##HIG
##Hdfs
##Foo
##KN
##ZN7process
##Jar
##Jdbc
##orated
##inod
##ingDeployer
##edImage
ini
##avel
##etl
rect
reus
ord
orm
##otate
forth
##adt
staging
stays
stars
##lio
beg
##00f1
##ocs
onClick
defer
depth
exposing
##emo
##emesh
runChild
##0107
spot
##raf
##rase
##quis
##iffer
Stable
Reply
Require
##rial
##Convert
##Conversion
##ugh
resolving
TiMap
seg
chk
chance
##Intent
contributed
internally
##022
logfile
createScrollView
getString
getOr
getAST
1050
ensemble
leaves
neighb
cance
newline
##pename
15091
15623
setSelection
setProperty
planned
1382
##ops
##apan
##Rev
libdy
AbstractInstance
AbstractAnalysis
AbstractHttpClient
AbstractConfigurationBuilder
AbstractInterceptingMessageProcessor
AbstractHyperlink
##askell
##ualAction
union
unreserv
0x9
2216
Andy
artic
soapen
##642
viewpage
##MethodFilter
##MethodDispatch
##MethodDispatcher
advert
##621
##6284
##cludes
##845
##867
retain
retries
##finite
##141
##1424
meant
##057
##096
##ListAwareInterceptor
24561
RunAnalysisAction
##cc7
##These
##msLanguage
timezone
##Executer
##56ea
selectors
##076
##0723
##18b
Commit
##1700
osarch
readers
readthed
359
350
3540
simulated
requestLayout
478
JSDebug
##ooth
##ftp
statuses
##aret
##169
##160
applicationData
applicationNext
##ActionController
overflow
Chile
Choice
##context
59c6
##385
##ContextualAction
##153
##158
##150
lsstSim
294
547
OpenSSLSocketImpl
flavor
XMLSchema
manu
Asm
consult
##Idea
##548
validating
##Weight
OnError
DMS
commonjs
Clock
STYLE
493
428
ServiceSupport
ServiceInvoker
430
##ikit
##de1
##Threading
##SClient
WebRequest
2012101
thanks
5782
5788
concern
rights
ViewRoot
variety
##SehExceptionsInMethodIfSupported
throughout
protection
##573
##Without
Blank
NewMobile
##Successful
670
detecting
DefaultActionProxy
DataSource
AbstractMessageListenerContainer
CommandProcessor
CommandConsumer
CheckFatal
accom
##CommandTests
Alt
SimpleId
grader
##be7
MasterAllocatorTest
##Notifications
ObjectStore
ObjectMapper
30610
decimal
decorators
closebox
JSONValidationInterceptor
##StateManager
libraryFolder
##awed
##ExecutionAction
ResourceJava
##HttpMethodFilter
##ForExecutionAction
Permissions
encryption
##THON
##commit
BambooWorkflowInterceptor
country
ConnectionStateManager
TabPassword
GetUrl
evaluating
covering
13308
##Closer
ZooKeeperModule
##redicate
Subprocess
##BarContributionItem
##URRE
smfd
refreshing
attempted
##Transfer
##Transition
delimit
childEvent
##ContentService
ImageDescriptor
56472
13506
31211
ReflectiveMethodExecutor
archives
Empty
##ServerApplication
whiteboard
PHPModelPresentation
ResultsListAwareInterceptor
Reader
Partic
destruct
skipping
EditorManager
##WebMvc
Leo
tempor
cpuacct
elsewhere
27610
92ff
printing
println
##Env
27434
69d
locking
##d5e
Filtered
receiver
##BeanDefinitionDocument
##RIPT
20150122
boundary
##Editing
185011
0x18a
##ElementHelper
##62764
sitemesh
ValidationInterceptor
##Arguments
DialogWrapper
SLAC
picks
ProgressManager
##a4a
##Maintenance
SUIT
spike
##shaker
24594
guidance
mounts
lti
HandleSehExceptionsInMethodIfSupported
##f5c
svnkit
FormEditor
Variables
maintained
Replicator
spago
representing
coff
##atisf
picojson
##mqp
StatisticsAwareInterceptor
NotificationManager
##Navigator
Charset
BindIF
said
24988
obtained
getSamples
shares
##ActiveMQ
DefaultListOperations
EndpointWebMvc
Related
DragSource
getValueInternal
MVR
conflicting
ShutdownSlave
v2014091618
Terminating
##Persister
##Persistent
##PersistingDeployer
##846c
primarily
digits
Ignore
responding
##Define
##ParseException
checksums
flexibility
sqlite3
CFRunLoopRunSpecific
##ScopeImpl
MessageBusSupport
asciidoc
ExtensionRegistry
DefaultSaveEventListener
LightweightDecorator
square
##UploadStrategy
##Reregistration
duraspace
##UlRK
ElementLabelProvider
##EdgeImpl
##Popover
runInCurrentThread
MultiPageEditorPart
Understand
magn
Unsupported
##ScannerImpl
interpret
symlinks
gnu
PaginationAwareInterceptor
scratch
Sigar
ServiceActivator
Embedded
Prior
UPD
cheat
familiar
layers
lucid
owner
opposed
universal
Engine
##EncodingFilter
AbstractResourceMethodDispatch
subchunks
HttpMethodRule
##TraceFilter
UIApplicationMain
JsScopeImpl
UIAlertController
Forwarding
IteratorBlock
AbstractNioSelector
GSEventRunModal
throttled
typename
##FILE
JSSymbolTypeInferrer
SpringXmlConfigurationBuilder
JettyHTTPDestination
BuildResultsSummaryAwareInteceptor
##ForcedSource
##Configurer
##Observed
##AlreadyExistsException
Balloon
FAILURE
CompoundExpression
NIOServerCnxn
9c84
CharacterEncodingFilter
Tololo
Advertising
NavigatorContentService
##iPhonePackagingComponent
I18nInterceptor
Queuing
eth0
##eranceTest
sqlexplorer
Freezing
##Builtins
bridge
circumst
9ef9
HiddenHttpMethodFilter
tamas
192306
##Placeholder
SelectChannelEndPoint
DefaultMuleContextFactory
##MultipartUploadStrategy
Nebula
PYTHON
WQVGA
cixot
i4commerce
jmethodID
pietas
##ToleranceTest
libdyld
AbstractInstancePersistingDeployer
AbstractInterceptingMessageProcessorBase
soapenv
readthedocs
applicationDataDirectory
applicationNextEventMatchingMask
59c600f1
ServiceInvokerInterceptor
WebRequestTraceFilter
ResourceJavaMethodDispatcher
GetUrlForExecutionAction
##BeanDefinitionDocumentReader
EndpointWebMvcAutoConfiguration
v20140916181713
AbstractResourceMethodDispatchProvider
514
532
605
609
675
628
629
627
7E
752
747
833
900
932
Agre
Azure
Bel
Big
Bill
Built
Cpp
Catch
Cron
Clipboard
Datas
Early
FS
Fa
Fabrice
Gather
Groovyc
Hip
IR
ISL
Indicator
Japan
Lorg
Latest
NEW
Pool
Piet
PWD
Qual
Rh
Ran
RMI
SER
SAL
T1
Tah
TBD
Vary
W01
W02
bd
b2
ball
bunch
cActiveMQ
direction
epl
elig
gant
garbage
hour
hive
illegal
iadt
jvalue
law
nov
nline
necessarily
pst
pix
plex
palette
qproc
ranges
sock
saf
trap
tapping
##V1
##Nested
##Sdk
##Summary
##Sphere
##a99
##site
##Acegi
##types
##ii
##can
##count
##c89
##o4j
##3c
##ELL
##TED
##porter
##gard
##glib
##kroll
##Man
##Mail
##Mocker
##Cmd
##Corr
##fe8
##f68a
##bigu
##ze
##R3
##RT
##Rout
##0d
##x16
##LV
##Lettuce
##Latest
##6Option
##6rF
##Bucket
##G1
##Hat
##world
##Year
##Ymp
##Fil
##jC
##qs
##qHIG
##atime
##heless
##room
##edbc00
##string
toUpper
##rel
##avers
##icz
##oma
##ute
##utter
org2
##iders
##char
cond
convers
##00b
onNext
##ola
##ersFirst
exc
##eces
##ands
usages
##ibilities
itunes
##oses
codebase
asm
##tex
##obuf
intermediate
sees
chall
##023
build0
training
createNew
getD
1089
encode
enables
##Problem
setInput
setupt
Concept
libkroll
Protocol
1408
unz
unres
units
unusable
279
2760
registers
##OSX
##991
##995
##ynonym
invokeNative
view1
view2
classworld
##letag
defaultValue
Uncaught
##847
listSection
##240
server1
prepend
indent
##796284
##rowicz
##056
blah
##038
##03f
##126
wouldn
##folio
##ensitive
DefaultChannel
##5678
stream1
devtool
39446
352
##320
NativeStart
447
desirable
326
tier
##ationsIT
methodContext
##398
##394
##STYLE
partially
##161
##1692
##559
pageId
##condition
0103
compose
indexed
4832
defines
filterName
##Theme
equals
##159
##15175
##ellar
548
##ExecutorService
##afds
namely
Auth
downstream
381
##ChannelResolver
distros
467
466
imports
##tester
##940
##946
##ModuleManager
427
4282
##ThreadExecutorService
I1002
relatime
647
648
NodeACS
ModuleType
opensys
concer
cloveretl
ambigu
JobPlugin
Selection
Segmentation
confused
##5700
##57IC
370
HttpMessageReceiver
Attribute
accepts
##JobExecution
1001
30284
##ToS
minify
Redelivery
flowId
Checkbox
searchView
searchBar
##Autores
urls
##beans
MasterInfo
30603
triggering
RedisException
await
17479
##ResourceChange
##NodeJS
Deployed
Deployments
##ReferenceObjects
broke
terminates
simulators
transformers
##EDI
##Prepare
reviewed
##FieldEditor
controlled
ConnectionUtils
operational
restarts
Tables
##Frameworks
##ummy
LocalRepositoryFactory
ZooKeeperJobRepository
Compiler
Failing
##URI
delta
##ContentMerge
BeanPostProcessor
##fd3
sky
recorded
TRANS
markers
Leaving
##Design
##Deserial
consumerKey
##izingMask
##ModelContentMerge
selectionChanged
URISyntaxException
27438
captures
chunked
Synchronized
##Generated
assertions
##63f4
Abort
verifying
##Documentation
RepositoryNode
WSDLException
SHELL
optimizer
Connectivity
##SelectionEvent
##SelectionChanged
SyncTool
##Validation
RegistryClient
##Detection
TableViewSection
Functional
ProgressUI
7184
pasted
Ruble
V8Helper
LIST
##XXX
ACCS
##Repo
surf
surface
Undefined
geometry
##ae9
Center
##d9b81
##Begin
synchronization
TABLES
Poller
bundled
##Callbacks
##Redirect
unclear
MultipleFrameworks
5792
Replication
0x00007f42
Discourse
drawing
leaks
Transactional
redirected
JFlex
1334796284
##Portal
highlighted
400000004b74ceb62c16
##Navigation
ugly
transitions
Binder
26127
somewhat
5789
SIGTERM
##organization
ENC
rmi
xcodebuild
0x7fb68
coordinates
##ERKNS
ACTION
ACTIV
SuperTask
v20140915175
determined
floating
SameThreadExecutorService
KEYBOARD
XYTransform
approximate
mkdirp
SSO
hyperic
treat
MBP
practices
4197
programmatically
asciido
tMatchGroupHadoop
7Qhh
simultaneous
AssertionError
##ReregistersFirst
##ExportWriter
troubleshooting
##BBYmp
expiry
firefox
RepeatedPtrFieldBase
FLUX
##ridge
##Related
g6edbc00
manipulation
keywords
accurate
FaultToleranceTest
Breakpoint
facilitate
hopefully
CompareModelContentMerge
##JRBBYmp
DeepForcedSource
##RemoteNotification
sr4
createPartControl
relationship
##Shortcut
enhancements
OrganizationsIT
QEtester
##Binary
Continue
pfx
##MouseEvent
##FailedException
0x14003e31
burndown
Fastdev
20150826
Attaching
Branch
##ReleaseNotesProvider
libstdc
##7E57IC
unreadable
googletag
OutOfMemory
ALLOCATION
##Introspect
Basically
HashMap
VolumeFrom
##5mesos8internal
frequently
historical
DATAB
Genymotion
SPIKE
fixture
073d9b81
prototyping
became
suspend
cancellation
preservingSelection
daily
doCreateBean
185716
251662764
AnalysisColumnTreeViewer
procurement
LIBRARY
BORDERSTYLE
YYYY
bkq
##ughoff
unreserved
circumstances
7E7E57IC
Below
Pietrowicz
Tahoma
eligible
plexus
##Manage
##qHIG6rF
classworlds
devtoolset
##AutoresizingMask
0x00007f4286
v20140915175720
asciidoctor
7QhhqHIG6rF
CompareModelContentMergeViewer
073d9b81f68a
7E7E57ICGL
0A
058
2GB
377
418
506
634
608
692
691
792
797
743
768
8000
845
870
8ae9
9a
986
9a3
9f5c
Ali
Ang
ACCESS
Ajax
Arial
AContextualAction
B0
Ca
Che
Cellar
DAQ
E4
EOF
FUN
FATAL
Galaxy
Gauge
Gadget
Hoc
Hence
Having
HOST
KAG
Less
M7
MR
Mail
MEM
OOM
Overs
Pay
PAD
Rew
Rank
Sum
Ssi
Tail
Twe
TDI
T4C
Upon
Volumes
Wm
Was
YES
bo
bml
curr
cues
c9d
cumulative
dax
dipole
dummy
eh
f1
fut
fund
fred
finger
frames
gop
gzip
him
held
ic
jdb
md5
nle
pgs
paho
rent
ufp
v3
vec
vinod
xc
xcf
yui
yyy
zIndex
##Vm
##Non
##Som
##Same
##Sqli
##late
##loop
##AH
##tml
##ev
##e67
##c55
##oL
##rTask
##Tim
##T10
##Pe
##Py
##Patch
##PLE
##Persistence
##push
##dac
##gg
##got
##MService
##MVN
##CR
##CON
##mask
##bing
##1030
##1ba
##2c
##2001
##DP
##Docker
##xa
##LR
##Lint
##LICATION
##LINE
##6b8
##OUD
##GR
##History
##XProcess
##XAJ
##when
##Fast
##jj
##qa
##WA
##WM
##WAL
##JDBC
##Johnson
##inter
##leading
##ed63f4
##itled
inactive
##sters
##reated
##etAstrometry
##icing
req
threw
thawed
##chdfs
forever
##acer
##liseconds
cometd
##urs
onread
onLayout
##import
usp
apparently
##osite
spelling
interested
##udget
##ques
masters
doIn
doInter
Stub
Stash
Reactor
##Cons
respected
implic
Three
Thaw
TiEvent
TiComposite
##InTOS
logical
TitaniumProject
##peg
getChildren
getPassword
getProperty
10dp
1087
apikit
lex
##Stat
##119
##114
##110
setter
userLocation
##Refactor
##Reason
19T10
libtool
Expl
processEvent
AbstractBeanDefinitionReader
AbstractJohnson
1409
1481
##ubuntu
Appc
1778
uninstalled
unchanged
0x00000000
idle
##043
##044
##atingHandler
committer
openstack
##ideos
outdated
##celerate
versioning
##db0
startIntegration
##ExceptionHandler
soft
docgen
clon
clinit
##646
##228
hasn
hasht
callListeners
callWindowProc
##anted
collected
framework1
2557
backing
##869
##243
082
##793
##790
559
5555
##098
##095
##0943
##033
##032
##128
##1212
##743
##741
##742
24583
privile
##825
DefaultArtifact
DefaultWorkflowInterceptor
deployer
deployund
2696
##568
##075
##072
##0728
391
##1738
BuildAwareInterceptor
simulate
simulations
sendKeyEvent
emer
##0807
DEVEL
specifies
containerizers
TestBody
##928
handleGet
existed
portfolio
statusbar
##ProcessingFilter
Supp
overhead
##Research
Actually
##resents
##BeanProxy
tableHeader
##ca8b
483
594
sourceId
Scenario
##195
Spaces
##753
##75cf
OpenSessionInViewFilter
CLMVN
##RAWAL
##Compare
##ServiceRegister
##3660
02b11
##Disk
NoTitle
SourceTable
583
523
##547
grouped
##Connections
##ProxyFilter
##AndStore
##781
##723
531
Forum
Forced
##ModuleOptionsMetadata
ServiceRecipe
implies
relatively
slack
removeEventListener
645
ModuleDescriptor
Seems
StreamPlugin
servicesource
Short
NewProject
Http11Processor
##987
removes
Paris
cleanly
##FileStore
##aa8
acceptable
DebugPlugin
##ToBeanProxy
Modification
BundleMonitor
0x7f100
v20121
##GroupComp
Adren
##oordinate
##Authentic
ExceptionMapping
responseText
##aiton
0x2a8
##empotent
posting
postgresql
##66b6
everyone
represents
30605
##actionImpl
saveTo
##OnDevice
MuleConfiguration
separation
ResourceMonitor
32246
32247
##6504
writable
##EditorInput
transformations
##ritten
paypal
861
BambooAcegi
26218
26216
##TabFolder
##eb6
DBMS
LocalMessageBus
SQLState
##InputBuffer
0001
headerView
certs
56481
##bd1ba
31214
limitations
##fd8
4156ea
MapModule
booted
firePost
skitch
introduction
NSArray
BaseLoginFilter
0x00000001984
##ODING
markup
##Configure
##ConfigPanel
originally
GitL
globals
pushing
migrating
15084
13939
13935
27634
Unicode
considering
##Allocation
calibRegistry
overriding
ensuring
27429
pooling
##f1567
finalized
capturing
FilterToBeanProxy
chunkId
##WizardPage
manifests
serializable
Reports
##Reconcile
TiUIView
TiUIMapView
Begin
appended
25588
Quest
insertAudit
SIP
##7f0
##Poll
IncProjectBuilder
optimize
routines
##itudes
##LineTracker
Collect
##Checkout
##Simple
StackFrame
Swig
approaches
dropping
##alleli
combine
Messages
workshopallocation
20150218
GlobalServiceRegister
purch
supply
FTPConnectionFileManager
##TENT
touchEnabled
Operations
upgrades
##shal
##LSST
enrolled
mockup
##Delay
ColumnViewer
INTO
##Library
CameraMapper
25600
semver
traffic
##f3be7
InterfaceImpl
Switching
2927
rotation
##Attributes
##Observable
132744
16472
animationType
tdqReportRun
CALEND
periods
seraph
##DirectoryTest
sprints
7948
NUM
responsive
VisualStudio
Protobuf
ScriptDoc
APPLICATION
SecurityFilter
Assignee
NioWorker
##b7bd1ba
SQS
26132
400000004b74ceb62c18
October
##dney
TitaniumUpdateHandler
Backport
holding
26126
OAuthFilter
##368e67
RemoteIp
LicenseFilter
Serious
Seraph
24489
##585e
##Entry
AbstractHttpFilter
COMM
MVC
TimerThread
DropTarget
circle
##Center
##imitedFile
5226
bootstrapbase
DelimitedFile
numerous
SecurePreferencesWrapper
##sembleCoadd
caret
treated
DebugUITools
substitut
scanning
dexer
ldap
mqttv3
middleware
sensor
producers
situations
##Privilege
Optimize
mysqli
423a
trusty
descriptive
0x7ffff5
AnalysisExecutorSelector
##adding
corporate
trouble
##CLOUD
interesting
27443
expiration
##Advice
DriverManager
restricted
ConstructorResolver
##32884
Successfull
DCR
##Split
aspects
##cccccccc
rewrite
TIMEOUT
CDATA
ServiceActivatingHandler
TemporaryDirectoryTest
##aaaaaaaaaaaaaaaaaaaaaaaaaaaaaaaa
Serializable
25793
AstrometryTask
assembly
greyed
EXECUTION
Winter2014
b9e6
deserialize
IfxSqli
ShardGroupComp
8d7f
##ictionary
##sectionPrivilege
Flushing
experienced
April
UniformInterface
DOCKER
##uples
AnonymousProcessingFilter
semicolon
volatile
IOSConfigurationHelper
##TalendJob
onChildAdded
UntilSuccessful
Http11Protocol
Technical
Epic
globally
rightNavButton
015326
##GoogleLogging
GTEST
gw2001
201210181724
Curator
UPSIDE
##Variable
runJobInTOS
BeanFactoryChannelResolver
LinearLayout
acknowledgement
BG7H8KBR7jC
920a
UNIXProcess
waits
##UERXAJ
canceled
AbstractAnalysisMetadataPage
##de1f1567
69d66b6
##SdkVersion
##afdsa
concerns
##NodeJSCommandsHelper
RegistryClientTest
ENCODING
##Introspector
9f5c585e
KAGRAWAL
c9d75cf
gopivotal
jdbchdfs
pgsql
##ed63f4368e67
doIntersectionPrivilege
Thawing
TiCompositeLayout
AbstractJohnsonFilter
DEVELOP
##ca8bde1f1567
02b11b7bd1ba
NoTitleBar
Adreno
ExceptionMappingInterceptor
BambooAcegiProxyFilter
4156eae6
##f3be7ca8bde1f1567
1327441212
CALENDAR
RemoteIpValve
SeraphLoginFilter
Successfullly
ShardGroupCompactionImpl
gw2001jp
BG7H8KBR7jCUERXAJ
69d66b6f3be7ca8bde1f1567
c9d75cf32884
##ed63f4368e67846c
BG7H8KBR7jCUERXAJ8JC34EXlsxO
69d66b6f3be7ca8bde1f1567ed63f4368e67846c
008
052
0555
1st
2D
482
426
4a6
562
6f
614
612
637
650
653
708
777
778
759
7791
834
850
885
909
988
948
950
929
966
9ba
9f2
Are
BI
Ban
BACK
CV
Dell
DURA
Dcr
EBS
FO
Fails
FFF
Gal
Guid
GEN
Gaskell
Has
Hover
HAL
HATE
HAW
IF
JO
Ke
Kerberos
Land
LANG
Mode
MAC
NET
Pat
PER
QST
RB
RGraph
RSA
Rotate
Sort
Self
Symbol
SMP
TMP
Wed
WEB
XR
a1
aka
a5f5
ba
bcef
budget
cfs
dt
dll
dns
fstream
fds
fragment
functor
ghi
harness
hovers
huge
hdpi
ldpi
mm
m1
mim
mill
mnt
od
pad
pie
pushed
saves
tai
wq
wSc
xl
##Vars
##Nd
##N1
##SM
##Single
##sr
##lo
##ANT
##tIn
##tap
##hopper
##e00
##e927
##nom
##nel
##iates
##current
##cbc
##c6504
##908
##7u8
##317
##8e
##8G
##TION
##Pending
##garet
##M7
##Mag
##MIT
##Media
##Cast
##Cell
##Corre
##CURRE
##fit
##f50
##flight
##manager
##bre
##bec
##b28
##brew
##5e7b
##2a
##4b
##Dq
##xE
##La5
##639
##6b2
##B8
##Ol
##GC
##GY
##Given
##Gvw
##HR
##How
##Hook
##wind
##F6
##Fits
##orad
##orry
##onst
##enge
##level
##rover
##anes
##itt
##itely
infinite
##stalk
##arify
##etings
##etric
##etooth
##cec
##iline
##ento
##enter
##entry
##ament
##amian
orchest
##omment
##atechange
##ptest
forces
##adamian
stating
##access
##ocate
##ural
##uric
deactivated
exha
##ecomment
##ivot
runRef
##osively
spent
modular
##udo
weak
##index
doClick
##oost
##ooled
Str
Reb
##ripe
TiWindow
TiModule
TiFile
TiHTTPClient
TiExceptionHandler
segment
##Injector
contrast
##02a
##029
##Exited
createSearchBar
getService
getResource
getElement
1077
1047
newest
##113
##118
##1168
##outign
1679
1282
1245
libg
processMessage
AbstractData
AbstractRepositoryFactory
configChanges
Produce
1404
1419
1466
unlock
0x12
1135
1196
##041
##0402
##040943
noise
##undred
##ystatechange
2773
registries
invokeMethod
invokeExpl
paralleli
##0000g
##225
classification
attr
Unreserve
Unwind
##ee5e
##services
2523
backoff
##865
##Contact
jobName
jobExecution
indices
indeed
##finished
##798
remind
##055
##127
##121
24587
messageReceived
ResultSet
Comput
##1786
readLine
commander
##346
441c
JSValue
loadScript
##52f
##leguide
TestStub
assigning
##UIPlugin
serviceName
##ssql
##393
##39a3
subf
feas
Suite
undeclared
##167
##163
button2
image2
480
48b9
593
ac5e7b
coursecat
dbade
FileUtils
Scoped
543
##754
OpenGL
CLV
binSize
XMLDocument
##hemy
##354
##770
backgroundGradient
##ChannelRegistry
distorted
##rolled
585
521
validators
569
Closing
##721
STATE
base64
##20122
linking
496
##ModuleRegistry
09c6504
##331
##3333
SlaveRecovery
JobLaunch
JobRepository
rightButton
variance
timob
6630
6666
##571
ClassCast
##969
##961
##371
##ACE
673
detects
ContainerMain
moodleblock
##9700
guard
FrameworkID
stephen
##Registered
Recycle
StringIndexOutOfBoundsException
MesosExecutor
SimpleExecution
responseTimeout
##Partition
Executive
MasterMaintenance
Actions
##Decam
##ducer
closely
Systemd
##Adding
##eedback
##erman
parseInt
exporting
MyClass
##ForResult
alerts
navig
Requested
1680728
barcode
Selecting
27235
##891
867
leadership
45a32
##lectiveCall
ConnectionFactory
poly
26211
26213
##OOP
##OOD
uploads
ZooKeeperContainer
##CreateView
Subscrib
fontWeight
##Should
##Shared
##Shapelet
##SourceId
releasing
15710
scrollable
##c1ff8
ImageOrigin
Outbound
31204
31217
limitation
maxLength
bootst
introduces
introducing
TextArea
Asset
BaseTitanium
Lookup
committed
740
LoadReferenceObjects
roleid
27637
8747
8742
##da1
60c1ff8
quotas
animations
keyboardType
keyboardHidden
##MetadataRepository
Accessibility
avoiding
Public
24475
computing
signup
27430
builtins
partitioner
##ea4
AbstractSingleNodeStreamDeploymentIntegrationTests
Types
epics
RepositoryWorkUnit
##e3a31
optimizations
##RIM
##RIBE
preventing
prevented
proceeding
StackOver
##Extra
##ResponseCache
##andomAccess
dragging
transactions
webserver
choosing
subtle
subtraction
##Determin
increasing
DIRT
FY16
FY15
SLACK
##Docs
Globals
simplest
histogram
ECD
wonder
##MuleContext
offered
regexp
LIKE
##eployjob
opin
##9f6b2
misleading
overlapping
singlet
##AnalysisSql
##Removed
##ae2
guidelines
mountain
certainly
215345
extracted
rotated
##f81738
forwarding
SchemaGenerator
##a5a
translate
FileSystemExportWriter
SHA256
41317
warns
7949
comparing
maintaining
stage1
represented
RetryTemplate
##Visibility
forcedPhot
alternatives
collab
collapsed
Anypoint
utf8
##88362
001827
Margaret
CPUs
26138
26136
a6d800
TitaniumUpdateStartup
shallow
25784
v201506040943
illust
Encrypted
CRMService
medium
tarball
answers
Reload
vendors
Automate
##rosstalk
longitudeDelta
alignment
latitudeDelta
conflicts
Popover
da39a3
psfex
Confirm
ZNSt
renaming
propagated
Smart
graceful
ALWA
DbmsLanguage
PARENT
Possibly
licence
SimpleJobTask
4140
scaling
recommendations
POJOs
CFRunLoopRunIn
exceeded
UNKN
##2PtIn
Administrators
ExtractMetaData
finalizeProjectCreation
rollover
announced
aggregatedStatements
##reports
deepSourceId
deblender
grayed
InverseOffersFilters
Study
ConfigurationElementHandle
MVELExpression
nosuid
ApplicationContextException
e2d2
reboot
InitGoogleLogging
lucene
excluded
issuecomment
20150606
DOCT
Today
Activator
WorldHello
milest
milliseconds
Community
COLOR
COLUM
Snippet
Snippets
ContentStoreImpl
talking
mvel2
##881e927
Benford
Released
##ieved
##cf00c
sampling
udi
##Abort
suitable
subdirectory
##Instantiate
##Bitmap
sphinx
enrollment
INSTALL
tooltip
Meeting
DESC
summar
##LOG
Experiment
precedence
erroneous
##Finish
spawn
Approxim
Destroying
INSERT
ellips
##Archive
jasperreports
CUSTOM
bubbleParent
cruc
opportunity
##ybrid
Untyped
TSF
httptest
getOrCreateView
delimiter
Japanese
Rhino
##6OptionI
DeploymentsPathChildrenCache
Oversubscription
Rewrite
##PatchList
##6b803
onreadystatechange
deployundeployjob
handleGetView
saveToPhotoGallery
COMMAND
9ba6b803
9f2f81738
CVS
HAWQ
JOIN
wSc7u8
xlarge
runReflectiveCall
TiWindowProxy
##outigny
invokeExplosively
252388362
ac5e7b68
dbade881e927
09c6504e3a31
ClassCastException
SimpleExecutionStrategy
MasterMaintenanceTest
1680728064
45a329f6b2
60c1ff8cf00c
2153451692
v20150604094312
da39a3ee5e
ALWAYS
UNKNOWN
9f2f81738d5e
45a329f6b2a4
1ms
3A
4168
5E0
7e
7P
706
764
736
748
7168
899
824
879
823
8040
952
937
997
925
A0
Amqp
CCS
CAM
CXX
Coff
DL
Dav
Did
Draw
END
Facade
Grow
GPS
Hi
H2
Hard
History
Jax
JQL
Kind
MF
Mult
MAN
Malformed
OT
O0
Old
Pur
Pivotal
Ratio
Sources
Socks
Tag
Tch
VS
Wno
Wrapping
Wrapped
X509
Yarn
axis
bog
bill
ci
c6
cable
cool
crosstalk
dc
ec
e76
fa
fz
fq
fro
fuse
fitter
f57
gave
gyp
hg
har
ham
hot
hits
hudson
jquery
jedis
lv
mj
mtime
malloc
mgmt
mocha
mssql
padding
ql
ro
rim
rc2
rc3
tf
tear
tls
uk
v12
vSphere
videos
wer
xa
##VO
##VID
##S1
##S2
##Sig
##Singlet
##Subscribe
##Scale
##SJRBBYmp
##aac
##sDialog
##location
##label
##labs
##lWW
##A0
##A3Z
##uched
##eec
##eux
##e44
##ients
##iSQL
##cdd
##c64
##codes
##camp
##oat
##oRed
##rS
##rim
##rations
##776
##300
##8D
##E6
##EES
##EGROUND
##Escaped
##TYPE
##Tenant
##UB
##UCH
##Users
##UFE
##Ph
##Pom
##Pause
##Paho
##pad
##pkg
##d0c
##gal
##kb
##MC
##Missing
##Mojo
##C9
##Cassandra
##fon
##fel
##f11
##frastructure
##ming
##mix
##ban
##bank
##2003
##2CA
##ynd
##yId
##vT
##vil
##viv
##zhq
##Ic
##xPackage
##6Future
##BA
##Bal
##Bridge
##OAS
##Gc
##Git
##Gre
##GRY
##HL
##XPackage
##Xd0c
##Fit
##FORM
##j0
##junction
##WORK
##Zqs
##orations
##atomic
##inbank
##esk
##esis
##leVV
##lefon
##eda
##ed0
##edList
##ites
##item
##sth
##stat
todo
touched
##reference
##etab
##ceive
##ndFeed
##oub
rework
reached
##omin
##isible
##utes
##ationManager
##otely
forName
forcing
conjunction
##ac11
##009
##003660
##uren
##ersed
excess
expert
examine
##orton
notion
##ibb
##ablePart
##01b
##010
antic
##ayeux
sporad
##ractions
##aveEventListener
##romise
testC
testB
testDb
testWebView
##fa1
modul
##quare
##uspend
##anger
Still
Stopping
Repo
Requirements
##allback
scanner
scopes
imm
Thu
Those
TiThread
TiLaunchActivity
seper
addContent
chl
upcoming
##021
##026
##0203
createAnnotation
createWebView
Ingo
Infrastructure
getters
getLatest
1075
encl
enfor
filepol
cant
bypass
##St11
##Strip
##oving
15Support
setLazy
1302
##oping
1682
1618
##apack
##Review
UIPagination
Exclude
processRequest
processFile
processTestClass
AbstractEndpoint
AbstractRegistry
AbstractTableViewer
1434
1438
1437
1473
1449
Apples
AppxPackage
AppXPackage
##Chat
##Chooser
unset
unaut
unreserve
0x5
0x005
idiom
##047
##0407
Resched
abn
IND
##0618
openssl
##992
##posures
##ointcal
2204
2207
Wefel
hands
parents
##ExceptionConverter
clones
##223333
##MethodError
refs
##ffd
colon
##1356
actionProc
25791
##84A3Z
jobject
prefs
preInstantiate
##ipedia
##asta
##Devel
##14Process
statically
remarks
remotely
##achable
checker
##097
##092
##0914
##0923
##12init
24581
RunAll
##Manager12init
CreatePattern
##eaddr
DefaultClient
DefaultBound
DefaultLanguage
DefaultBeanDefinitionDocumentReader
tasklet
2664
2660
streamName
##177
##173
##171
##17reference
BuildToS
readme
3505
requestb
request1
commandBar
emtp
##HandlerWrapper
JSExport
JSLint
##pdesk
Its
##525
##520
Impl
dese
corrupt
tiBase
Steve
tabpanel
##UIThread
serviceback
methodReturn
##ssi
subflow
subpack
##STAND
partners
##1633
20141030
##akes
tablet
compiles
##ca0
##INITION
##Investigate
##ContextId
##ContextProcessor
##ContextClean
Scr
Schem
##19b
##1901
##1936
##761
5477
5478
##757
OpenItem
##afka
##Comment
namenode
recoverFrom
contextParameter
restri
appearance
##IDs
##Classic
##ClassGenerator
keyArgs
Whenever
##ChannelName
SourcePolling
XDContainer
529
##notations
##542
Closure
##DispatchSupport
DelegatingPreparedStatement
##ProxyManager
heal
studio3
enablement
491
Force
##ModuleDescriptor
writeMap
ServiceRegistry
433
finds
##ContainerModule
WebWork
relating
slide
2001
2004
folderx
##RequestJob
##WorkProcessor
##Workspace
concurrently
repositoryContextId
Libprocess
Streaming
StreamNode
ViewGroup
initializing
timers
##59b
messy
##TemplateModel
visually
##WithGenerated
mapType
blocker
##ConfigurationComponent
apiXml
ClassAd
##3726
##AdapterMac
##ACT
cleaner
princi
rootWin
1004
30294
LaunchManager
locationServices
specifications
Redirect
ContainerInfo
ACSCompile
TIS
TIF
0x7fa
##45W
guest
FrameworkRemoved
Record
Packager
SimpleFlow
##PartService
postFind
##6601
Execute
promptNeeded
ActionContextClean
brack
braces
##ORE
sqlsr
30604
30613
decrease
##Definitions
RedisConnectionUtils
saveWithGenerated
persists
##StateChange
##BeanFactoryInitialization
fullReconcile
passwords
947
942
ResourceTree
32259
32250
32253
32260
32261
32251
breakdown
TypeHandler
##EditorAction
encrypt
driven
##SupportHelper
reviewing
##PluginManager
sessionTimeout
26217
26208
26210
##Outline
##Uncached
##Modules
13306
##RowColumnIterator
##IGNMENT
##FrameworkMessage
uploaduser
LocalCached
LocalUncached
##CreatePlan
##Shard
APTA
##SourcePackage
##ceeded
##WrapperImpl
##ResultSupport
refreshes
##25a
56484
##emarkerResult
DatabaseUtils
31274
31210
BeanWrapperImpl
referring
##fd429
highly
##DoOn
TextView
Macro
MacBook
macadamian
##OfWorkProcessor
GitIndex
revalid
revisions
##fc7
##fc4
jvmTask
##SDKCommands
DashboardView
Provenance
27636
8748
##ndicators
IndexRequestJob
prints
quoted
TiDownload
751
Accelerate
Liveview
MultiRowColumnIterator
##EntityExpander
avoided
PubSub
realistic
FilterDispatcher
SSLTest
##retch
syncing
##bc60
##WizardDialog
integrating
chains
finishBeanFactoryInitialization
AbstractSaveEventListener
##ICAT
##────
25582
255014
Quiz
Queries
ParentLast
pressure
SHLV
cloudpush
optimal
Accepted
Timed
studoc
ConnectException
##SelectionPage
JDBCExceptionReporter
Labels
cancels
FIPS
seemed
TRUE
RouteContextProcessor
31510
##Validate
Atlassian
##LocalNotification
31526
2117
Idea
IsrTask
draggable
folding
##ANCE
##ToolBarContributionItem
eupspkg
alongside
wrapperIS
ShowPreferencePage
sigar
##UserActivity
##dsvc
PSFs
Decam
##Creator
##TitaniumSDKCommands
7950
PageSet
suppress
StatusUpdate
mouseDoubleClick
##MainThread
weeks
CONT
CONTENT
Keybindings
##a6c
4623
geolocation
##b9c
LaunchConfigurationView
LaunchConfigurationsDialog
tester
threadsEv
literal
individually
##d3lWW
##Implementation
SingleFrame
SingleSourcePackage
IOSNodeJSCommandsHelper
UnitOfWorkProcessor
Deleted
DuplicateAction
##d91700
boolE
##OpenEditor
recurs
Removed
##f0b
JiraPreferencePage
arrive
##feather
DispatcherUtils
DispatcherBrowser
DocElementHelper
FieldEditor
concepts
JVMInfo
fluxes
Formatter
FormPage
LettuceExceptionConverter
respons
RedisQueueInboundChannelAdapter
APPX
LOGF
LOGNAME
NPMConfigurationComponent
##KEY
TransactionHelper
WaitDispatchSupport
utm
##MessageDrivenChannelAdapter
RubyProc
SendProcessor
SendTo
unnecessarily
FooTest
personal
StorageMetadata
v20150626
FactoryBeanRegistry
getSingleton
##Activator
CRUCH
SCRIPT
##AAA
0x043
##AnnotationProcessor
ENV
FreemarkerResult
DEFINITION
Evaluation
Evaluator
DynamicToolBarContributionItem
hintText
##Override
##ASTER
##Entries
##DDDD
##ILITY
##ismatched
daemon
respectively
obviously
CALLE
XYZ
ZN2CA
PasswordProvider
ALIGNMENT
FOREGROUND
##FireEvent
InstrumentationProcessor
5138
unix2003
201204181
programming
##PsfDetermin
CCDs
sensible
sensitive
##BeforeReregistration
mysqld
##Heading
independently
cookies
converters
LightweightDispatcher
missed
TiActivitySupportHelper
StartupThreading
##StartupRunnable
busyOpenEditor
##crest
##JsonEscaped
27442
0x7ba9f7f0
##cellaneous
runInUIThread
##SyntaxErrorException
ChunkDisk
##InvalidRows
g6ba0
flatten
JNotifyAdapterMac
Student
investigated
PaginationInfo
LoggerMessageProcessor
months
Signal
##JRLa5
Initiating
getImageDescriptor
PerfEvent
Gradebook
opposite
##VVleVV
##array
issuetab
English
0x2b4686d91700
Todo
AbstractResourceConfigurationBuilder
alphabetical
r8d
Alternatively
0x14003f
MqttPaho
PhotoCal
SyndFeed
octet
##Slider
##panels
percentage
tGenKeyHadoop
Broken
PresentablePart
SAXParseException
pieces
trimmed
201210220122
ContainerizerTest
##WSDL
##ulingRunnable
setActivePart
agreed
reduced
Certificate
##ZooKeeperTest
tricky
getHours
parentheses
9444
NaN
createPageControls
7dC2
FunctorKeys
##plexity
realizeViews
unregister
pumpEventsFor
UNDERSTAND
FsShellCommands
acls
besides
wikipedia
481998
ParallelMultipartUploadStrategy
perfectly
earthImage
BucketMetadata
felix
##XkOl
0x125f4
20150804
CompilationUnit
JUnitTestClassExecuter
Arguments
JmxMBeanServer
##Terminal
getRawChildren
Isolater
##MavenPlanCreatePlan
CoaddPsf
KPIs
WWinPartService
##eKZqs
##ZN7process14Process
##Revisit
221601
JSDebugTarget
AsmClassGenerator
OnErrorThrowable
accompl
ImageDescriptorRegistry
FilteredPreferenceDialog
LightweightDecoratorManager
##UlRKSt11
ServiceActivatorFactoryBean
BalloonFramework
EarlyStartupRunnable
HipChat
##MockerBase
##G1oL
##Filler
AttributeError
RedeliveryErrorHandler
##BinaryStore
7E7E57ICGLGY
0Ajs
B0yId
FUNCTION
Wmismatched
fundament
fingerprint
yyyy
##xaGRY
NSArrayM
DEVELOPER
055506
DURACLOUD
TMPDIR
XRD
fdsafdsa
piece
wqthread
##xEeKZqs
parallelization
stephenfeather
StackOverflow
##AnalysisSqlExecutor
DbmsLanguageTest
CFRunLoopRunInMode
5E0XkOl
7Promise
SocksSocketImpl
bogus
f57fd429
rimraf
##Singletons
##SJRBBYmp45W
##riman
##yndTransformer
##zhqUFE
##Xd0czhqUFE
##lefonica
setLazyTrigger
ReschedulingRunnable
##84A3ZGvw
preInstantiateSingletons
RunAllTests
DefaultClientConnection
BuildToSyndTransformer
emtpy
tiBase64
servicebackbone
OpenItemEditorAction
recoverFromError
SourcePollingChannelAdapter
WebWorkResultSupport
ACSCompileParticipant
FrameworkRemovedBeforeReregistration
postFindLocalClass
ActionContextCleanUp
sqlsrv
LocalCachedExtract
LocalUncachedExtract
APTANA
TiDownloadManager
2550141356
SHLVL
ShowPreferencePageHandler
##TitaniumSDKCommandsHandler
KeybindingsManager
##d3lWWXd0czhqUFE
JiraPreferencePageProvider
DispatcherBrowserFunction
FactoryBeanRegistrySupport
CRUCHG
201204181823
##JsonEscapedString
g6ba0cc7
JNotifyAdapterMacOSX
##JRLa5SJRBBYmp45W
##VVleVVxaGRY
issuetabpanels
MqttPahoMessageDrivenChannelAdapter
7dC2N1
UNDERSTANDING
##ZN7process14ProcessManager12init
##UlRKSt11atomic
##G1oLVVleVVxaGRY
7E7E57ICGLGYJRLa5SJRBBYmp45W
B0yIdG1oLVVleVVxaGRY
##xEeKZqs84A3ZGvw
5E0XkOlxEeKZqs84A3ZGvw
f57fd4291168
B0yIdG1oLVVleVVxaGRYd3lWWXd0czhqUFE
007
055
1k
458
5c
5D
5B
762
779
714
710
798
731
783
773
787
884
812
820
873
8eb
893
978
994
A1
APS
Affect
Bee
Coding
CASE
Dm
Droid
DRO
Draft
Eliminate
FAL
FREE
Give
GPL
Gallery
Garbage
ICD
Jas
June
Kry
KIL
Lag
Limited
Ma
Mot
Mime
Mask
Mather
Manifest
Mgmt
MEDI
MASTER
Nook
NON
NODE
OTH
OBS
Perm
Pipe
PIC
Pipel
Potential
Payload
R6
Raw
She
Section
Snapshot
TOW
WM
Wiki
XP
XPath
Xmx
Z8
a9
a3
a570
bread
brew
boutigny
cProcessor
c8b
c560
categor
cTalendJob
dl
d1
dj
f2
fav
fly
fash
fft
firing
facing
ftl
glib
glog
hub
hundred
jake
jung
jkl
jjj
jpeg
kerberos
lightweight
moz
np
nfs
nesting
ol
ognl
pain
qos
r7
rare
room
sym
sized
sizing
tc
tune
u00
vnd
vice
xh
zzz
##NW
##S3
##Sip
##a94
##sk
##sm
##sst
##sfs
##lines
##AY
##AZ
##uNd
##tect
##table
##title
##h1
##hift
##hips
##efs
##node
##ias
##iest
##cu
##cores
##och
##9b
##3s
##8d
##Estim
##Te
##Tib
##TTP
##Tuple
##Ticket
##UES
##UME
##PO
##PER
##PRE
##d04
##d29
##gc
##gy
##Most
##Mongo
##Cancel
##f33
##front
##mate
##mail
##bidden
##1ms
##2DMatrix
##Rect
##RUN
##RandomAccess
##4d5
##Dam
##Did
##Dorp
##0a1
##x150
##LOOP
##BR
##Break
##BOO
##Battery
##OUR
##OAuth
##OENT
##OuNd
##Here
##Home
##Facade
##Fallback
##Warning
##JNI
##orid
##orola
##inese
##hel
##enberg
##enesis
##ley
##rox
##anas
##edResources
ine
inte
incon
##alt
##alom
told
##rement
##etween
##ndk
##odified
reusable
##amps
##isc
##isons
##isenberg
##termin
thous
##oteaddr
##plate
##chat
forget
consc
stitch
##elib
##accept
deg
deferred
##eck
shap
##andber
notices
##ogs
##osa
##osh
spe
##aniak
interp
##fa2
modinfo
##quester
##quires
doRequestResponse
Story
Staging
Static
Stripe
Reorganization
##iry
##Conn
##ugs
reside
scans
Though
chs
cht
chd
chf
chco
##Integr
##Into
##uregard
##025
Dead
create2DMatrix
Incons
InMemory
getCont
getInstance
getInputStream
getrem
1074
1085
1070
lever
neo4j
fileName
##Props
##Sty
##1104
setRequest
setOn
player
1300
1375
1387
13794
16796
16d1
16x16
##Repl
1284
1218
1283
UIUC
libt
libx
Exceeded
processMouseEvent
Proposed
Profiling
1474
1458
1420
1703
ala
unify
0x01
0x19
0xTib
##html
1195
##activate
Resolving
2377
2357
##ystore
2732
invok
##067
##0612
doesnt
openInputStream
##990
##996
##9986
2109
##PIL
222222
##orders
park
startActivity
##exec
##exception
docbook
cla
ad27
adhoc
##620
##6277
defaultunit
##eek
##133
2526
25792
25769
backspace
##861
##247
##248
##241
issued
##TestSupport
##ookie
##Deactivated
##14132
##0326
##03170
##Lists
##ignore
RunTask
##cc6
##tingStrategy
##ThrowException
utilizing
showPage
deployAndStore
localprovider
##ASES
Completion
##176
BuildProblem
3584
3598
35151
sims
directive
##341
emits
JST
designing
3209
##885
handleOpen
existence
##3913
actor
contentOffset
netns
##1600
##1686
##1665
exceptionPre
Chris
button1
##resolved
##BeanClass
compressed
4879
myhttp
acquire
equation
dbea
dbops
sourceCat
##10fa
##10Activity
##768
5462
5473
CLR3
extending
##Complete
##Complexity
restoring
50f4
case02
platformHeight
##357
##772
distance
expired
20150923
ProjectTemplate
Enroll
##factory
EventHandler
Clarify
##ConnectionImpl
##780
heisenberg
##94104
4239
URIs
##SCRIBE
WebApp
slash
##AGS
2007
059
646
64bit
latency
openshift
##Requests
concrete
targeted
targetNamespace
StreamDefinition
StreamDeployer
##Errors
Remaining
##TableTreeViewer
HTTPScheduler
665
rowtitle
Shif
promote
373
ProcessCcd
##9600
HttpRequest
##448
Attend
##AdapterAssist
accepting
DataCat
30231
30290
flowVars
moodle2
moodleform
CommandBar
gitignore
happy
surefire
Refine
hosted
QservOss
el6
vertic
Algorithm
SimpleBatch
843
##rawler
postage
##667
inputType
Executing
##NotNull
modeEvery
proxying
iPod
repair
Why
##edentials
RedisConnection
##mited
201305
MuleStudio
defect
synonym
synctool
##ObjectPool
3306
astronom
Registration
949
ResourceSet
sinkAs
##ForRequest
##AIL
HTML5
##Instrument
##riebe
closer
CoreSimulator
TalendJob
sessionPass
knowing
restartable
Tabs
autoRedirect
##PSHTTP
##Modified
##270
122130
datat
Interceptor
Internet
##71747
##ef3
##ef0
##efaniak
externally
IPv6
harder
15705
enters
##ContentRetriever
5002
56469
DatabaseContentRetriever
monitorSend
DevKit
PHPBuiltins
##fdc
21811
activator
CFBundle
CFNetwork
CFRUN
destructor
ssd
engines
LOAD
0x0000000184
0x0000000183
Controls
##fcb
##fc2
fixedDelay
##READ
68fe
assistance
ToolBar
##ndication
Trim
Track
tracks
Iterable
exiting
keyboardToolbar
evaluateAnd
evaluateExpression
24476
EXCEPT
Tasklet
prio
filesystems
##e4d
##ReportFileAction
Importing
multit
serializer
##standing
87eb6
cameraGeom
##orporate
AbstractShell
##JSON
inserts
##OperationException
expectations
5051
study
##PropertyAccessor
soapAction
##1028
retryMessage
AnalysisTableTreeViewer
Depending
drools
signing
Flag
0x2b467
##SlaveRestart
CloudHub
extraction
MySQLdb
0x7f25a
Archiver
manages
##Params
ACCEPT
##RepNode
##Repair
ListenerTask
surround
HystrixCassandra
16308
regards
##blend
Grades
##OCK
Hyperic
specialized
##MBER
##Hierarchical
##ArY
##ommod
v20150107
Suggestions
reconnection
reconfigure
bringing
deriv
rotating
rotates
ingestion
##Obs
flakyObserved
arrives
##Algorithm
Testing10Activity
tdqportal
235a99
##131749
translates
MYSQL
PROCESS
PROVID
Developers
tells
wrapping
##AtIndex
0x00007ff
sybase
amqConnectionFactory
GrailsEvents
drawn
leaking
LoggingHandler
GenerateReportFileAction
##avorite
CMakeLists
Maria
##olidate
explains
Demand
Demonst
Migration
26123
Telefonica
##docs
arrows
underscores
##iagnostics
5780
ENOENT
Freemon
##hrs
AddressBook
repeatCount
strictly
24481
Elli
0x7fb7
0x7fbb28
demonstrated
coordination
##ERKSt
COMPLE
COMPIL
lauren
##c5c
DefaultMuleApplication
RESULTS
v201409131749
pointers
repeatedly
propagation
Utility
viable
##05955
sleepy
assessable
61616
6992
abstractions
ldm
##NNN
##owerShell
##523b9c
xrdsvc
WatchKit
##1f9600
##Performed
288x150
##Equal
##Destroy
SQLiteDatabase
0x7ba9f730
essential
essentially
typedefs
Analyzer
FLOW
PLplot
SCons
20141029
ChunkResource
DistributedJob
cleans
##Splash
##34903170
InstanceAlreadyExistsException
##SimulatorLaunchConfigurationDelegate
Retrieval
inheritance
VideoPlayer
##54912
xmi
##ExecutionsController
Discussions
Robert
##v6cu
subclasses
organize
26399
##arrative
##ompile
0x000000019856ce
HierarchicalAllocatorProcess
Dropped
reliable
sequences
altered
guides2
EXECUTOR
##895523b9c
versus
selectableCalendars
ScanSched
##Indent
##abeled
discarded
SpanRegion
201210271747
TP400
##Allowed
##f1c95
autocomplete
interpolate
chdlp
##20120618
DefWindowProcW
ADDED
nomnom
wmgr
Answered
varying
SpagoBI
codel
spinner
##Identifier
ANTLR
krb5
motiv
##121930
Separate
##466ae
Derby
enumerated
uniqu
444444
##ComparisonUI
SUBSCRIBE
##TractPatchList
reusing
##ifferent
segfault
##atisfied
Priority
##PlaceholderConfigurer
pstefaniak
##aversal
setuptools
ModuleTypeConversion
RepositoryNodeDorp
OutOfMemoryError
##5mesos8internal5
DATABASES
9a65
Angular
Caught
MRiz
ehcache
082526
555555
HATEOAS
1196121930
666666
BaseTitaniumLaunchConfigurationTab
opinion
WrappingRunnable
hamcrest
##vivors
##ortonworks
sporadically
abnormal
##091442
healpy
revalidator
SingleFrameMeasurementTask
##f0b466ae
SendToLog
v20150626223333
8eb895523b9c
DROP
FALSE
MEDIA
OTHER
PICKER
Z8v6cu
c8bf1c95
c560f0b466ae
fashion
xhdpi
##OuNdArY
##andbergen
Inconsistent
getremoteaddr
setRequestHeader
1379494104
1679654912
0xTibOuNdArY
ad27bc60
##1413234903170
BuildProblemReporter
dbeauregard
HTTPSchedulerSlaveRestart
##AdapterAssistant
SimpleBatchConfiguration
ResourceSetImpl
sessionPasswd
CFRUNLOOP
87eb6191
v20150107091442
235a991f9600
PROVIDER
0x7fbb28003660
COMPLETED
v20140913174915
RepositoryNodeDorpAdapterAssistant
1379494104625
0d1
1w
1Process
2C
3366
3M7
539
6af
695
625
690
6120
6hrs
7a
739
738
772
737
780
789
727
749
852
816
858
877
872
897
8580
905
915
926
931
980
AB
Arr
ANN
Best
BOO
BUT
BATCH
Bonita
Cat
Cance
Da
Dims
E9
Equ
ESCAPE
Fk
Fatal
Fired
Good
GHS
HH
Hist
Hudson
Jar
Jac
Jni
Kan
KPM
Keys
Kafka
Labs
LCR
MO
Manag
Middle
Mojo
Matrix
MBeans
Moving
Norm
Normal
O2
ORA
OPEN
Pojo
Priebe
RT
RX
Sa
Sol
Saving
TT
T2
Tit
Too
Taps
Tidy
Touch
Telescope
UX
W3
Wire
XWork
XSL
Xrootd
aff
aaa
aether
ahead
bal
bte
bare
bzip
batt
borders
clip
clic
cMessage
cgi
c98
cConfig
cMessaging
cglib
d03f
doub
ease
eature
ground
hd
hired
hung
hoping
ir
iv
ij
jn
jq
kw
kick
len
lapt
lapack
micro
na
nr
nd
nec
p4
ppri
sed
sasl
sdoc
salesforce
sftp
s2PtIn
tun
tape
tXML
tids
tDq
v7
v11
v10
wifi
wise
yield
##Video
##NCE
##Nodes
##Ss
##SAM
##a2700
##sThe
##senter
##lab
##lhdfs
##Audio
##Answ
##uation
##uitive
##tMethod
##iu
##course
##canvas
##oe
##715
##731
##3F
##EUlRKSt11atomic
##T19
##Two
##Tester
##Touch
##UUID
##PDF
##d20
##My
##CN
##Clip
##Cycle
##Coordinate
##mn
##b00
##b48
##body
##yz
##za
##RING
##4f
##Don
##D76
##Datas
##0s
##IM
##IJ
##ICS
##xp
##xj
##Lambda
##Boolean
##Gauge
##Hibernate
##wp
##Factor
##Fringe
##F4J
##jm
##Kron
##Will
##aten
##inations
##hev
##enames
##ropped
##iting
ing
##style
##review
##requirements
##args
##oda
reap
reorder
##isberg
##utler
thist
##ulner
##ewise
##agon
##agine
##agios
##estActivity
consequ
stale
proced
##elog
##like
##uri
##urning
ont
onStart
ongoing
deactivate
atom
##igen
exs
explor
exclusion
##ec34
##image
##imedia
##emodified
shake
appx
appid
appstore
##ogo
itter
##01983
##dd6
##obar
##obian
##enders
##artbe
test3
testApp
testReport
testPsfDetermin
modern
##assess
##quet
##ife
St17reference
References
Reuna
resc
resized
resolves
scoped
imap
imsenter
Throwable
addButton
##Insert
springxd
##02ns
buildFiles
logref
trisberg
##Example
getData
getAs
getDefinition
getFiles
getLine
getStatus
getDynamic
1099
1080
filets
filearea
##oading
##Prot
projectWhen
##11d
##111
##1183
##1149
15mins
15T19
setAttribute
##protect
plaus
1311
1306
1332
1252
1267
1824
UIPerform
UIPopover
Examine
##Importer
invisible
AbstractCall
AbstractTool
AbstractInvoker
AbstractRecipe
AbstractPipeline
Producer
1414
AppC
##askapp
datarel
unass
0x10
0x26
0x045
idempotent
1126
1142
##049
##0429
Workflow
noexec
swinbank
varchar
##06f
##060
##Approx
openPhotoGallery
2158
##henticated
invokeAnd
invokeHandle
invokeDelegate
invokeForRequest
intention
2256
handy
startDate
startAnimation
##ExceptionInterceptor
##ExceptionHelper
clES
##221
##226
##MethodA
phd1
classgen
Unify
##eeks
frameworkId
backButton
##860
##8600e
##249
eventFeature
jobLauncher
WorkbenchRunnable
##TestApp
##TestRoute
##79e
##143
testsources
##achers
##0556
553
##035
##03ns
##0323
fileset
##ListOperations
##appy
##1218
window1
##745
##alendart
2494
##cc9
utilize
showlocation
predic
DefaultPluginManager
deploys
deployable
devkit
##071
pertain
currentActivity
Builds
readonly
simulation
goTo
goals
requesting
textcanvas
470
serves
servic
JSV
JSStyle
##ERN
loadLSST
##528
packets
TestInfo
##92e
##925
##920
tabbed
##ceivers
handleInternal
##scp
##395
##3900
subChunk
##Processing
agree
parties
##iao
afterwards
##ONT
##551
3610
overload
overcommit
##Reset
executeChain
executeChange
resourcesDirectory
Chinese
schedules
buttonNames
makeUnique
##ifiable
Maintenance
myid
objectstore
courseorid
dbserv
sourcepath
FileSource
FileSink
Scala
##193
##19d
##7688
##FactoryImpl
##ExecutorProcess
WindowsP
flav
##ServiceRequest
##ServiceConfiguration
028
Aspect
##359
##77c
##ChannelProvider
527
ProjectPreferences
ProjectConfigPanel
##541
##540
htdocs
firstname
Eventually
EventKit
##785
##9469
changeset
STUD
4989
##ModuleProjectWizard
outputrequirements
ServiceTracker
column1
stdClass
43f5
##ThreadLocal
relates
sln
slides
573
570
##arters
NodeTitaniumSDKCommandsHandler
requireUn
SlaveID
JobParameters
curly
##237
##ilerplate
##ErrorReporter
measured
MobileUsage
HTTPService
Notify
timing
timemodified
DocumentViewer
registerFor
Blend
mapView
##ConfigurationProcessor
Prefer
ProcessImpl
##963
HttpServer
##449
##DeployTargets
##aa4700
##aa6601
##DialogAction
headings
headroom
##StreamParser
30260
typo
jobserver
Modified
Modular
minification
jsonlint
BundleStatus
0x7f4
0x7e3
guava
itemid
Adopt
ellipse
Packages
behaviors
RED
REG
REMO
SimpleiPhonePackagingComponent
principals
841
842
0x2ed
Handshaker
##beit
IDEWorkbench
##ussed
everytime
samplefl
sqlserver
30607
enabledRemoteNotification
decouple
SocketManager
JSONProvider
Goal
##ImageTask
##Projects
GA2
Fixing
##HttpTest
ContentAssist
navButton
##niques
##gorian
RequestHandler
RequestCache
sockets
standardize
functionalityUse
Makefile
860
argumenttermin
26204
26209
##lucent
veg
##ActivityResult
##eb5
Compiled
##SourceViewer
descend
192142
IPv4
##Translator
##olding
applyProperties
scrolls
replaceAll
switches
##fb700
##bd3
participation
bitmap
31206
Arrow
ArtMethod
##queues
BeanProperty
referer
referred
##UDI
toto
##EEN
##EEE
##EEUl
decline
firePart
splitter
PartPane
ROLE
ROUND
sketch
skins
Textmate
NSObject
NSRange
NSAutoresizingMask
NSUserActivity
Transfer
Assum
BaseFuture
DIST
market
Left
Querying
##fixes
orientationchange
##SDKSection
Restrict
525D76
##IFvRK
unknownfile
27633
##Perf
##ributedFiles
Indexing
capable
AppleUS
quoting
coverageRecorder
consideration
##Environment
##umbs
mappings
MultiTenant
EXIT
computation
Obviously
27433
badges
realized
Editing
##oudhub
##f1f4
Doing
DeploymentListener
captcha
minimatch
iterators
SSLHandshake
##xxx
##QueryIT
astrometric
##WizardOpen
Synchronize
associate
##ReconcilingStrategy
4048
4040
sayHello
##True
Upgrad
##tentis
TiAppDeployTargets
TiAppSDKSection
SHOW
##LifecycleManager
optimist
DeleteBuilderImpl
DeleteResourceChange
Calls
Calling
JDBCExceptionHelper
Syncing
##CCD
##796a2700
ConsoleDocument
21058
21052
beginStateChange
##Checker
##CheckSession
Stacktrace
Dockerfile
bounding
##FFF
unsafe
Needs
ASF
subtract
subtask
8811
EMC
##Detail
##BundleXmlApplicationContext
0x183
##GROUP
combined
CompositeReconcilingStrategy
FYI
##Compilation
SLF4J
ReleaseSee
0x2b46796a2700
Declipse
Decoration
Decorations
##Creating
Groups
StoreClient
ProgressManagerImpl
TreeLineTracker
##MuleArtifact
SearchBar
0x7f73
td52
20140903
overlaps
Components
##ship
##HttpClientConnection
ge224
##XmlGenerator
Hyperloop
specialization
##Subprocess
v201502
instantly
protocols
##e7aac
CpRel
photocal
extractData
##Second
##Secret
PreferencePage
4129
DuplicateRegistration
createTableViewSection
assumption
Authority
JUnitCore
TABGROUP
##Attend
##Counts
LoginInformation
##HierarchyWith
Fields
##Bounds
serious
NUMBER
##Redeploy
comparisons
ProcessorDefinition
##Atom
5797
Scripts
ARCH
syndication
inherited
Channels
styleguide
NioServer
caption
##PresentationController
##Converters
##829e
HostConfig
QS1
CPUMonitoring
GroovyTestRoute
##AutoIndent
explaining
CHAR
##FormatFeature
symbolic
##ENTER
log4j2
tweet
tweaks
464a
##BuildPaths
Better
plots
plotting
##ightweightDecorator
##Activated
SCM
##c0d
administrative
navigationlib
Avro
shelf
injection
XrdOss
##Upgrade
##Upstream
AuthenticatorProcess
DiskUsage
demonstrates
orphans
superuser
slider2
preserved
JNIEnv
libev
PopComparisonUI
circular
##Empty
##ImportWriter
Contains
OptionsEditor
MonitoringService
Fullscreen
IMO
aa75
##alchemy
##Evaluate
violation
##Geocoder
overwriting
hsql
Statement
continuously
Footprints
##availability
bands
Offering
386942
MIME
##agerRepair
scalar
Promise
dumped
marshal
ascii
##ValuesWith
VALUES
##Constructors
CgroupsAny
SAMLToken
##Graphics
AssertionFailedException
0x2b46798a
0x2b4679aa4700
sqre
##aphore
editsubmission
officially
ContextHandlerCollection
##Extractor
lacks
UsernameToken
0x7ba9f350
essay
##337792
diction
rhl
rhino
##EPNS
shifts
##ProgressMonitor
focusedComment
ReservationService
ReservationInfo
XrdSsiRes
HttpURLConnectionImpl
photometryKron
getCurrentPosition
primitive
QuickForm
DeepSource
getBuildPathEntries
clarify
BlueprintRepository
Price
famil
##HSM
##Standardize
0x000000019856fd
Summer2015
Everything
MappingMongo
##Accept
##CIM
##Certificate
##Looks
stripcolor
Activities
HSQLDB
NamedResource
reveal
AdapterHTTP
MetaServ
AggregateCounter
NamespaceWatcher
MongoTemplate
fragments
hdp13
octo
versa
0x79ec34
##Discovery
AbstractNioWorker
##runner
RefactoringWizardOpen
establishment
diagrams
Broad
Misc
Miscellaneous
OPTS
OPTION
worse
unwanted
unlimited
branding
OperatorDoOn
BoxCall
ngmix
agreement
##CaptchaService
guarantee
MetricsFilter
OsgiBundleXmlApplicationContext
crypto
##DRF
tolerance
supervisor
doWorkIn
delegates
##Delegating
ClassPathXmlApplicationContext
##Authority
Likely
SysML
titi
DefaultIssueService
PixelFlags
foobar
roughly
##Markup
##Wsdl
0x7f9f5a
##CpuIsolatorTest
Captured
PoC
cakeframework
##Publishing
orders
begins
neighbor
NewMobileModuleProjectWizard
1350601983
destructive
coffee
BindIFZN7process14ProcessManager12init
UnsupportedOperationException
UIAlertControllerView
NavigatorContentServiceContentProvider
Agreement
RMIConnectionImpl
nova
safely
toUpperCase
unzipped
unrespon
TRANSPORT
##Deserializer
surfaced
ACTIVITY
VolumeFromHost
E4Workbench
SsiSession
vecLib
implications
Explore
CLMVNONE
MuleConfigurationXmlGenerator
GitLightweightDecorator
0x7ffff5be
UntilSuccessfulTestCase
Bananas
BACKGROUND
GalSim
Landscape
getElementById
AbstractDataFormatFeature
JobLaunchingMessageHandler
bootstrapping
mountainView
MVELExpressionLanguage
Coffee
mjuric
modulename
filepollhdfs
1682337792
unauthenticated
220433
##Develop
DefaultBoundListOperations
methodReturnType
subpackages
Scrum
##1936513
locationServicesEnabled
brackets
threadsEvEUlRKSt11atomic
FieldEditorPreferencePage
FREEFORM
Laguna
LimitedCpuIsolatorTest
TOWG
##DamagerRepair
thousands
conscrypt
getContributedFiles
##10fa7f
ProjectTemplateSelectionPage
Shifter
EXCEPTION
COMPILER
ModuleTypeConversionPlugin
##vivorship
1weeks
61208600e
JniAbort
PriebeSandbox
XWorkModuleDescriptor
bteh
bzip2
battLevel
c98e7aac
cMessagingEndpoint
hiredis
pprice
tXMLMap
tDqReportRun
thistab
imsenterprise
getAsTemplateModel
getDynamicBuildPaths
filetsjob
plausible
UIPerformChangeOperation
AbstractCallSite
invokeAndHandle
invokeHandleMethod
WorkbenchRunnableAdapter
JSStyleValidator
STUDIO
##ThreadLocalFilter
requireUnresolved
BundleStatusException
sampleflaskapp
enabledRemoteNotificationTypes
RequestCacheThreadLocalFilter
argumentterminating
1921423913
BeanPropertyWriter
ROUNDED
TextmateImporter
NSRangeException
NSAutoresizingMaskLayout
SSLHandshakeException
TiAppDeployTargetsSection
##CheckSessionFilter
ge22410fa7f
CpRelationManager
CPUMonitoringData
##AutoIndentStrategy
PopComparisonUIAction
3869421936513
CgroupsAnyHierarchyWith
0x2b46798a3700
focusedCommentId
MappingMongoConverter
stripcolorcodes
0x79ec3440
RefactoringWizardOpenOperation
OperatorDoOnEach
##DamagerRepairer
61208600e196
092
0NB
1d
2DMatrix
3PID
4a1
4187
5d
6000
633
630
631
732
781
721
760
763
809
882
855
819
828
830
896
898
827
8888
9ad
934
916
933
945
943
985
921
961
A9
Aw
Asc
ADM
ABC
APSHTTP
BR
Book
BIG
BSD
Cy
Cross
Calendart
Ciao
CENTER
Dr
DT
DP
DSQL
DHT
DAX
Different
ET
Eas
Ess
Elements
E0723
FE
Faster
Factor
FONT
Gate
Gel
GLOG
HR
Hortonworks
Ia
IC
III
Jun
JCE
Jersey
JCC
Kr
Lo
Later
MA
Mat
Math
NE
NOO
NORM
Narrative
Nagios
OU
PT
PI
PART
Predicate
PRIM
Ring
Race
RDB
RTL
S17
Sonar
T3
TAR
Tpo
UDF
VIS
WINDOWS
XA
X16
Year
ak
aster
a469
bob
bigger
b61
c4
cnt
c77
cname
cFile
coco
cSet
cJava
die
ddl
dtype
e71
edition
elimin
ebs
fi
f6
fat
face
gs
gains
gutter
hip
ics
jt
jh
jpl
kn
kB
lua
mx
ment
myn
masks
mojo
malformed
mbeans
mosa
nc
omitted
pil
pag
pear
rf
rocks
sd
s1
slic
sump
solves
sCount
sonar
tt
t1
t2
tH
tst
tack
tRecord
ul
uci
van
wc
wst
wget
wps
walk
xargs
##VED
##N6
##NECT
##Sm
##SUI
##SET
##Sets
##SingleNodeStreamDeploymentIntegrationTests
##a96
##a45
##service
##sdk
##sThis
##sung
##locator
##A8
##AO
##uccessful
##tact
##times
##hide
##ny
##nR
##names
##i1
##c62
##c77
##c95
##c700
##cipher
##option
##rator
##rend
##837
##Err
##Ec2
##UP
##PF
##PATCH
##publish
##das
##d36
##d349
##g2
##gib
##Mid
##Measure
##Mutable
##C3
##Can
##CES
##Catcher
##family
##feedback
##mature
##bps
##b15
##baf
##b71
##bucket
##bf1f4
##5M
##5w
##531
##yana
##vs
##v7
##Rename
##Due
##DSL
##0B
##IPS
##IOR
##xistent
##Long
##Linux
##6c
##BJ
##Both
##Between
##Ow
##Ouc
##Owned
##Gz
##GF
##GET
##Have
##HAV
##XPath
##QUE
##with
##width
##You
##Footprint
##jar
##jni
##Kcolor
##Zip
##erpt
##ony
##ati
##ito
##iter
ingress
##rec
##request
##eter
##ilib
reinstall
thinning
##asis
##chart
##chains
conference
stages
structured
stretch
proj
prohib
##eline
##elody
##umps
##lim
##008
##006
##urable
##igee
exclusive
##eclient
##ima
##imed
##imary
shm
appender
##iversion
runCommand
runParticipant
##ibling
##ogether
##lla
anon
##dd4
asl
asc
asp
asyn
spock
##ackBerry
##perly
suds
testbed
dojo
doParse
Stout
Rep
Reimplement
##rizz
Through
TiContext
TiAnalytics
TiConvert
TiFast
addTo
addComponent
chroot
contender
buildId
logIn
loggers
logmessage
Deb
createS
createChildren
createSQLException
createNavigation
createSlider
Inn
Inbound
instruct
institut
instcal
getter
getName
getIndex
getResult
getComponent
getMin
1064
1086
1092
10Subprocess
apr
apm
apiversion
##ardown
projectWe
dismiss
disables
##pens
1503
setters
setVisible
##ractor
userreport
1326
1398
13321
1628
1680
iframe
##Repro
1232
1298
1280
1242
12181
Conn
Condition
Converter
Conduct
Exit
Exec
AbstractFilter
AbstractJob
AbstractStep
Prod
Profiles
Proposal
1750
alarm
autowire
dataLoader
dataroot
unen
unified
uncom
unpack
uncomment
unprotect
0x30f
0xdef
idx
1132
valu
##04ms
abis
commas
2394
27629
moduleName
##06b
openWindow
locators
outstanding
invokeERKSt
##PIPE
Andes
##00000
##ExceptionMapper
clash
functioning
##229
##220
hasi
hasText
hasNext
classname
AndroidSimulatorLaunchConfigurationDelegate
2052
2095
nodev
colours
attributedString
Unique
##135
2528
25585
25116
##8412
backward
##MessageAnd
##MessageDialog
##86a
0816
retro
prepared
indentation
##79170
##149
##14f
meg
##aching
checkWidget
##053
##054
##0511
557
5535
##0924
typeof
##points
Disallow
window2
2462
##mservice
##828700
Defaults
DefaultBuild
DefaultServlet
2679
##569
stream2
##07ns
##183
##1815
Completed
endDate
osgib
readability
directed
request3
emulation
44f9
##087
##08ns
DECIM
loadLocal
transitive
corem
Testcase
reportError
32MB
Displayed
tabgroup
##8855
##ARED
subw
subcom
subfield
##ProcessBase
##STRY
ava
accessors
fieldByName
debug2
##ActionSupport
##ActionBar
3637
##iderHeight
executeInternal
executeServiceRequest
##aken
Chart
buttonPressed
##LEAN
makeWcs
##BeanPostProcessor
imageAs
imageLib
tablecom
Persistence
##ca5700
indexer
##INCT
credit
crmservice
MainSupport
definitely
accelerometer
##38b700
##157
positioned
lsst8
FileStore
##763
##760
OpenS
Openstack
extent
binning
eviction
evictable
XMLParser
XMLHttpRequest
recovering
##363
##36ms
02C
##OTATION
Asked
##351
##geom
connects
formid
formula
SourceRecord
XDEntities
informed
##ColName
validates
563
EventListener
##ATIVE
Clone
completing
IDLE
operate
heartbe
STRING
I1104
##20145
497
##ModuleName
##vertheless
modelfit
queryKey
##Screen
##Screenshot
##de3
##ContainerJob
slashes
##DataButton
##processor
##processing
differentiate
ModuleRegistry
##Requested
SlaveLost
##backs
resultset
measures
measuring
Remember
##TableInfo
confuse
occurr
##597
visits
Shapelet
Shadow
SpringRegistry
Implemented
MessageDelivery
MessageSender
Precondition
Processors
performFinish
HttpCached
AttributedString
windowsphone
discour
##aa72
acceptAction
##StreamModule
converts
popMessageAnd
30292
30293
##PathBuilder
ContainerServerApplication
incub
camelContext
UserAgent
itemclick
##ItemService
FrameworkReregistersFirst
Invest
yoursite
CheckJNI
authenticators
searchRequest
ServletContext
accommod
leftButton
presents
##Autom
Exceptions
REGI
tele
teachers
teardown
0x27
##CTED
Executions
##CENS
I0826
##Notifier
##NotExecutable
nativePath
Objective
executorInfo
sqlcipher
White
##Declared
##Updated
syntact
extensible
ResourceException
32254
32248
easiest
##HttpComponent
##HttpResponse
##ForBuild
##Forward
TableInfo
thinks
##Instr
##Instruction
MakePRI
10240
##RuntimeException
##Prefer
Schedule
TalendDataSource
fetches
##StoreException
##ValueIfNecessary
868
86e0
867a
##cd6
##cd895
4504
ConnectionImpl
26215
##DFS
##luetooth
esp
791
ChangeRootFilesystem
queueing
Intermittent
ZooKeeperConnection
APK
PHD
##QueueStore
##enges
IPython
15704
callsite
##f428
enterpr
56473
##bdc
SUM
SUPP
ipa
31218
##rossie
identifiers
dropbox
afwTable
afwdata
pulls
##Operator
maxim
maxStatements
##93d
DQPortal
splunk
Participant
##DoRequestResponse
##onsider
renderers
renderPage
Configured
introspect
columnset
NSInvalid
resolveValueIfNecessary
CommonSourceViewer
0x0000000186
lookups
marks
assignmentid
QueryTemplate
##fcf
742
Extent
IndexMig
IndexContainerJob
Trac
tracked
1113
24488
Helper
computers
teams
Obtain
27439
27410
metaproj
8099
builtin
Performing
Editors
##ABLED
##f1d8
DeploymentStatus
TaskInfo
##d5f
objenesis
##QueryBuilder
lsstswBuild
##Packet
##67bf
Synchronous
serialVersion
1013
4041
nicely
##ea6700
Beans
triangle
##icted
appendRow
Proxy2
##Trust
##CodeVisitor
Initially
##Components
routine
okay
13705955
initializeDatabase
emailDialog
##Checkpointing
DockerContainerizer
loopback
##a29700
technique
techniques
GenericObjectPool
##Matcher
graphical
choices
increases
##Toolbox
0x00007f
0x1856
Retina
combinations
PlanAwareInterceptor
datasense
RC3
Flat
GlobalAdmin
Moreover
centered
NetworkManager
nonexistent
Navigation
CloudPush
400000004b74ceb62c1e
LICENS
managers
visualize
undeploying
CONCURRE
##a6fb700
processCcdDecam
MemIsolatorTest
hscPipe
##shall
Grid
Grab
geo
mockups
IteratingQueryIT
##d202
##FlowConstruct
CameraGeom
describedAs
splitting
##Initialize
##d3c
instantiated
jaxp
photometric
##eregistry
strerror
disappeared
AVFoundation
arrived
BootLoader
translated
0x147
Reserve
Poll
Polling
##e0b
##DatePicker
telling
##RedHat
annotated
RFCs
5790
efforts
0x00007f100
0x00007f428
Discovered
Splunk
##Visual
inconsist
##KEN
collecting
##101640
13947
caj
QSW
##pgme
13341786
##ircle
imgserv
ParameterFoo
400000004b74ceb62c19
##c7e
cmdline
CHAIN
rebuilding
succes
majority
##OptionsMenu
Backtrace
unreachable
gathering
holds
26128
createPop
signals
##e2b700
##VICE
##ActivePart
rtol
Relaunch
XrdOuc
##PLIC
##PLOY
pluggable
18133
Badge
hashCode
##521093
FetcherTest
hints
supergroup
helloworld2
##Existing
reconnects
Goto
reopened
determines
determining
##Embed
Regard
4a26
d6d349
##AINER
approximately
000000
00000000
Utils
matters
##DefTest
4096
ALERT
Reproduction
390749
reproducing
DbAudit
SDSC
formslib
GeneratedMethodAccessor1
ONLY
bbndk
bandwidth
##URATION
##PatternCheck
substream
LazyLoaded
Maximum
grows
##TriggerReason
swimlanes
marathon
##Cleanup
Market
costs
descriptors
Improved
Improvement
BAMBOO
CgroupsCp
##ApCorr
25590
0x2b4679ca5700
0x2b4679ea6700
missp
squash
##coll
##567e
Identity
0x2b11736277
0x2b1173828700
0x2b1173a29700
0x2b1173e2b700
ExtractNotExecutable
CONFIGURATION
significantly
FetcherCacheHttpTest
August
IE8
PLUG
magic
magento
inspection
12345678
Unsubscribe
semantic
deblend
aspectj
0x31724
accurately
mathjax
0x7fff9
WVGA800
Hitting
edges
rewritten
HibernateTemplate
facility
mp4
##Under
##Undeploy
monthly
##Daemon
NoSuchMethodError
EmbedConnection
publishername
BackgroundThread
Serialization
robin
##orrection
university
belonging
0x000000010039
0x2b468638b700
HierarchicalDRF
Dropping
reliably
sequential
alphabetically
Killing
efficiently
##TiApp
revealed
##Minimal
##CoverageRecorder
UIAlertView
webservices
333333
HttpsURLConnection
experiencing
footprints
rejection
DISPATCH
DISABLED
experimental
v20130320145
altogether
##ypedValue
semicolons
938bf1f4
BEHAV
##Migrate
interpolated
incorporate
0x7ffdd4d5
heavyweight
getTypedValue
obfuscator
guaranteed
ADG
mvcc
paired
penates
SpagoB
coaddition
honored
##ExposureId
Unrecognized
materials
Binary
##According
isolate
##0131424
##Improv
##Improve
arche
toggled
0m0
CmdLineTask
PKIX
PagingResourceIT
RichGauge
dpi
natural
##BlackBerry
##ushareIsolatorProcess
multicasting
##a2a8700
negotiated
FitsRead
Renat
eyes
ultimately
ZooKeeperModuleMetadataRepository
temporarily
UPDATE
##Routing
conversation
createNewProject
indented
NodeACSProject
LISTEN
0x7fb68a6fb700
boilerplate
##etAstrometryTask
##Consider
hashtag
##CompareAction
v201210131424
##Authentication
Question
BIRow
Symbolic
taiMid
##brella
2773K
OpenGLES
barcode101640
ZNSt17
ExtractMetaDataUtils
DOCTYPE
Approximate
crucible
OversubscriptionTest
##PomCheckout
##Balancer
testButler
##angerous
immutable
220736
##ContainerModuleRedeploy
ClassAds
principle
CONTAINER
fundamental
MaskedImage
breadcr
##Estimator
integers
shapes
interpolation
##Integrate
invokes
exceptionPreprocess
0x2b467a2a8700
0x7f25a67bf
MariaDB
DistributedJobService
cleansed
ANNOTATION
Histogram
Middleware
W3C
jnilib
laptop
ndarray
##ClipAs
serviceregistry
Modularize
0x7e3e3
Assumptions
DISTINCT
##PerfEvent
##Seconds
families
##Acceptance
3PIDIT
ADMIN
BIGINT
Cyber
CalendartestActivity
Gelman
IaM
Krughoff
NOOKcolor
NORMAL
PRIMARY
TARGET
cJavaDSL
sumpat
tRecordMatching
wpsdk
##Ec2Validation
runParticipants
##rizzly
TiFastDev
13321521093
autowireConstructor
invokeERKSt9
DefaultServletModuleManager
osgibundle
DECIMAL
loadLocalProvisioning
##ProcessBaseEE
tablecombo
MessageDeliveryException
popMessageAndSend
REGISTRY
867a829e
##cd895b
NSInvalidArgumentException
CommonSourceViewerConfiguration
IndexMigrator
serialVersionUID
1370595579170
CONCURRENT
1334178607
d6d349cd895b
DbAuditImpl
CgroupsCpushareIsolatorProcess
0x2b1173627700
PLUGIN
0x3172430
v20130320145648
938bf1f47688
BEHAVIOR
0x7ffdd4d5c700
v20121013142429
taiMidPoint
##ContainerModuleRedeployer
0x7f25a67bf700
1332152109312
022
013
0b1
2A
2d
2b
3000
450
4c4
4CF
4ef3
5f
6b
639
654
6Future
7f
7b
782
788
771
7a1
8E
8f
822
814
856
807
871
911
912
982
917
992
919
975
958
972
9Container
928
989
960
9090
9fa1
AWT
Bear
BEF
BUG
Bayeux
Cer
COS
Czar
CERT
CODE
Causes
Cookie
DV
Duplic
DSpace
EA
Eric
E0807
Eigen
Fr
Fill
Gold
GCC
HZ
Hdfs
HAVE
HDU
HKEY
I1202
JP
JB
Jub
JPE
JTree
James
J2K
Kv
Ly
L4
LEN
ML
MPI
Meas
Num
NSC
Numer
OO
Ori
Opend
Patch
POS
PING
Pointer
Paged
Presentation
Puppet
PNG
PPC
Psfs
QVGA
QUE
RS
Rate
Rework
Reth
Reregister
R730
Sud
S14
SCH
Sasl
SDoc
SConstruct
Ter
Tre
Tapping
Ui
UG
Var
Via
VIDE
W13
Warn
Whether
WHE
WORK
XCode
Xaml
XHR
Xtentis
YO
YWM
Zip
a0
ari
audio
a245
bor
brace
bise
boun
b60
bd5
b048
b5b
bfcb
c9
city
cgr
cbf
dated
dash
ddc
d9c
d8c
d594
ef
e5
ejs
election
erd
e0556
fu
fp
ful
filing
flight
gv
gson
g68
gogo
grizzly
hyp
hood
haml
ips
ilen
ja
jf
jpm
jointcal
kwar
ln
lr
lru
lives
loose
lazy
lAl
losing
loses
labeled
mh
mb
mass
mood
mdpi
nic
pasting
paged
peek
rss
ratio
sap
satur
tn
tv
templ
tOr
telescope
uatest
ucontext
vulner
wal
wasting
wired
xj
##V2
##Veg
##Note
##So
##Sam
##Shot
##Suggest
##aad
##after
##a75
##a54
##a44
##slave
##lport
##layout
##AE
##uary
##uous
##tree
##tools
##hash
##hade
##e86
##eph
##e07
##e27
##ned
##nery
##iations
##call
##cial
##oActions
##oBI
##902
##7p
##324
##8s
##Tid
##Temp
##Templates
##Poss
##PLD
##Perspective
##pOT
##pInfo
##d65
##d851
##gt
##gC
##gb
##gent
##Marker
##Matrix
##C7
##CATED
##Crawler
##Circle
##fn
##fz
##fos
##foo
##f03
##fbe
##f747
##f9986
##move
##mvc
##bon
##bad
##bur
##bdb
##b94
##1D
##152
##5B
##5Coord
##2E
##200
##2point
##yers
##ytes
##ved
##z5
##RESS
##4E
##432
##DA
##Dat
##Dig
##0ns
##074
##Io
##IAL
##xus
##Layer
##LAGS
##Binder
##Oh
##Ok
##HO
##Has
##Html
##Xi
##XT
##QK
##watch
##write
##YG
##F8
##Fails
##Func
##Final
##jos
##KT
##qn
##WP
##Would
##Wire
##WOR
##Wrap
##Walk
##WINDOWS
##Zone
##ZNK
##Just
##JECT
##erImpl
##ercial
##orating
##onAny
##ato
##atable
##innery
##held
##heets
##rog
##anal
##items
##itizen
inch
invent
##alar
##alic
##ston
toBlob
##reens
##arent
##etj
##etext
##illert
##entaiton
orca
##ominal
##ulates
##ots
##eways
##ples
##estr
forgot
##adition
stm
stated
proguard
##ac4
##lipt
##liers
##liance
##live
compens
##0011
##0004
##ura
onMessage
deals
depart
exposes
exassess
##ec5
##ec52
##imate
##ldown
##ainers
##oreCheckSessionFilter
shif
shorter
shuff
shipped
##andas
noteb
appname
runChildren
runtimes
##ableEditor
##ableApplicationContext
##017
##osm
##ddb
codeThe
codecs
asserting
spare
spacing
##ttpd
##acks
##pera
##obl
##enda
interim
testP
testIs
##fae
##quate
##quote
##quarters
##ifference
##usby
doConnect
doFetch
##angles
##oops
Repl
##rier
##rique
scales
imagine
TiMapView
TiResponseCache
seq
addJsonEscapedString
##InInterceptor
##InContainer
##InMaven
##Includes
##0282
##02563
buildAnd
log4
loglive
tradition
Deactivated
TitaniumRelease
createBuild
createAtt
Injector
Includes
getX
getClass
getActivity
getTime
getAll
getResponse
getPackage
1084
nexus
filed
fileStream
##Produce
##Profiles
##Product
bytecode
##StAX
##Stmt
##1113
##11172
1574
setImage
setValue
setText
setContent
setModel
setupl
setItems
1324
1379
1331
errorWhen
##ryan
1619
16330
##Requester
1274
1256
1219
1277
1249
UIModule
UITableView
libback
libsw
involving
processInternal
processProperties
AbstractSe
AbstractButton
AbstractMule
AbstractTrack
AbstractEditPart
AbstractRefresh
AbstractTheme
AbstractProxyManager
AbstractFlowConstruct
I03
I0513
I0523
1448
AppKit
AppMain
requis
unfortunately
0xa
0x32
0x78
0x014
0xa6c
1121
usecase
##04b
2381
27237
jss
jsch
invoker
moduleThe
outliers
2100
##ights
androidJar
2299
2253
2247
AndExpression
##ponder
arises
sopera
##exist
docViewer
##64b
##645
viewCOS
##22a
##2202
##22ms
##Methods
##MethodSecurityInterceptor
changelog
AndroidModule
20dp
nodeId
nodeType
ads
##anners
col1
Unix
Unavailability
##134
actionBar
25583
##84c
##849
##84ms
backtrace
##866
##Contains
retarget
##Deblend
##147
##1420
##141c
positive
checkNested
##0370
##ledContributionItem
Disposition
filesWhen
##Listbox
##ListImport
##129
##1208
##74ns
##7472
Runner
04e0b
##cccb
##eadership
##atesoft
showUnd
ApplicationDeployer
winston
iOSBuilder
priv
Activate
##ensed
##ensive
DefaultExecutor
DefaultButton
DefaultInterceptorChain
DefaultProjectBuilder
DefaultLettuce
DefaultArchive
DefaultVisual
updateValue
updateLabel
streamfoo
##07a
##0706
##MLT
##MLayout
pertest
perman
39m
Comments
Complet
mesosphere
oss
Buildbot
BuildPlan
readout
3552
simtype
MethodRequest
request2
textbox
47dd
serving
##34e3
reflects
JSType
JSIndex
JSTree
##088
DEPRE
DEPLOY
aptana256
##5273
Implicit
##Interrupt
packing
webpage
TestWatcher
TestClassic
3213
clicksource
tips
07188
servicelocator
registryKey
portType
##earched
##Building
##BuildManager
actInd
contentView
Such
avail
avds
partner
systemButton
reduc
redirection
##others
##issue
361
3659
3689
3660
overly
##Resolve
analog
executeRun
schedstat
compact
crc
crittercism
includeInContainer
allowEditing
myFunction
objectAtIndex
ErrorHandlerWrapper
acquired
##151a
dbdev
2817
2810
Javac
JavaBuilder
FileOutputStream
Scatter
##19K
2983
devicefamily
WindowsBuilder
##Completion
Plans
evid
XMLHandler
XMLErrorReporter
##3681
##58ns
Autoc
restful
qservDev
50f9986
##ClassName
case04
numberOf
##773
##7752f
3893
distutils
distcheck
distZip
expans
XDT
XDDI
XDStreamParser
ProjectPlugin
##notification
validations
htm
56587
EventLoop
AUT
Clou
##NTIME
stackSize
##ConnectionPool
##ConnectionCatalog
operable
##ProxyItem
##ProxyDelegate
##AndOffer
##949
##725
##72ns
STSClient
I1107
Forbidden
##ModuleRequest
##ModuleTests
ServiceDiscovery
4355
43c5
##ETER
##deps
##de550
##LoadJob
##LoadBalancer
Instances
##ThreadFactory
Simon
Simply
##DataSet
##Assemb
##UtilImpl
200448
UnknownElement
5799
5779
64000
##RequestHandler
ami
amdef
amyers
##parse
JobManager
Sequence
##PED
Remark
##izationModel
possibilities
LibrarySupport
DocumentBuilderImpl
##598
##590
##596
consoleLog
##aysis
1271
##57f
##30d
##30ns
Logout
LogZooKeeperTest
##ConfigurationMuleArtifact
MessagePublishing
ClassCodeVisitor
##965
##endered
HttpProxy
Attack
##raceful
##9835
##9850
Parity
pointed
##Streams
##itsio
popular
popProgress
10003
30286
assignfeedback
##465
##ToFile
##48a4a
specifics
Redo
Redund
Redesign
##ClientHttpRequest
labelled
ContainerBase
BundleLoadJob
sectionVeg
##ientID
UserQuery
CommandInfo
Anvil
step1
stepExecutions
Recomm
googleAp
Checks
searches
Strings
resource2point
ellipt
accum
leftNav
##CommandLine
Alf
Already
MesosTest
Listen
0x2fd
lastRow
##53e
HandledContributionItem
postProcess
##66c
colorter
ActionComponent
CloverProgress
fc151a
sqlalchemy
Who
decoder
decorate
SocketConnection
SocketConnector
SocketHttpClientConnection
##83e
##OnTimeout
additions
20130326
MuleEvent
MuleHierarchical
##Help
17498
blobs
##ResourceAction
WorkerContext
planetj
parsePage
parseNext
parseAvailable
941
ResourceDelta
sysv
sysTid
sysdeps
MyListbox
Deploying
sinkChannelName
##olvable
##HttpApi
##ForAtom
ContentBased
##Expired
transforms
barImage
##Instances
SelectEditPart
##ContributionManager
##Preview
reviewer
reviewbot
869
863
86a7
BambooStAX
processingPut
##TextArea
##TextCanvas
##FieldImpl
RuntimeError
##lectiveRouter
occurring
26219
##OutInvoker
##47ace
espr
intercepting
nextEventMatchingMask
ChangeDetection
13310
##27c
##RowProxyItem
ServerCommandLine
datestr
maven2
##eb0
Interval
takeScreenshot
gradlew
##CreateCommand
##ACKAGE
invalidate
PHOT
SafeCentroid
SafeClipAs
##SourceProvider
##azily
0006
externalized
FailOnTimeout
##URCE
##Transient
layouts
##ControllerAdvice
1727752f
56466
DatabasePersistence
putStream
monitored
##VERE
BeanRecipe
BeanDeserializer
Devkit
reasonably
totally
##rapbook
Ready
CFS
CF101
skyp
Configurable
EditorStack
EditorArea
Textfield
Assess
Assume
##ottlen
demos
CommonDropAdapter
CommonNavigator
0x00000001000
0x0000000185
0x00000001022
##OfOffset
markdown
##49fc
actionsFor
##ReaderImpl
GitExecutable
SEVERE
revised
##DefaultAction
csj
##SDKEntity
RestControllerAdvice
##ESBJob
routeMessage
##lessly
##IFEST
ExplorerThe
27632
USB
IndexServiceImpl
IndexEdgeImpl
IndexedList
printf
Iterate
751b
##69c
##69aa72
merely
##MetadataRunnable
##MetadataProperties
WizardFolder
division
##EntityIndex
##InstanceState
24479
EXPLIC
27431
ContextBuilder
ContextClassLoader
EditPDF
##ABRT
##ABILITY
##OrRequested
DoProxyDelegate
prefixes
8083
SOURCE
##xxxx
##QueryTest
##StackPresentation
##return
6184
7300b
ImportMavenPlanCreatePlan
multib
execFile
1018
Cleaning
asserts
assertModuleRequest
TiUITableView
AbstractSpag
Typically
trip
##ICAL
##ICoreCheckSessionFilter
appends
##Traversal
configurator
##SocketChannel
##testing
##c21600
##ComponentFactoryImpl
WSDLManagerImpl
WSDLServiceConfiguration
WSDLReaderImpl
SHARED
ReferenceRecipe
cloudapp
namespacePrefix
##VersionString
##VersionCreated
##VersionHistory
##PropertyException
ConsoleManager
FIX
##vantages
20110407
21054
31522
Distinct
killall
Atom
##ULD
boundaries
rawtypes
##b8397
##Bytecode
Manually
activeTab
GenericDispatcher
unsatisfied
recognise
TDQItemService
fillRows
AutoConfigurationBuilder
overscan
meantime
filenames
provisioned
CustomFieldImpl
DispatchMessage
differs
##bbfd8
wordpress
sigt
Flux
RabbitMessageBus
mutable
##UserManager
reproduces
Decide
LocatorFeature
##ucene
Evolution
Functions
400000004f45c7530fe9
savedInstanceState
##ksj
##Initiation
14311172
SearchEdgeImpl
0x7f7f
400000004b74ceb62c1a
400000004b74ceb62c1c
400000004b74ceb62c1b
LIMIT
UTF8
MesosContainerizerLaunch
PatternTest
touchstart
technically
regionFit
cfitsio
Exporting
16313
EEMS
##AnalysisExecutor
ColumnAnalysisSqlExecutor
Consistency
great3s
mounted
##b1848
##Flow1
##ahoo
26395
CPUS
S3StorageProvider
0x002
EntityCrawler
EntityVersionCreated
Suggestion
resetting
resetHeading
reconfig
bookmark
consumption
IOSProvisioning
extracting
calibrateTask
##PackageLaunchConfigurationDelegate
moments
toolbars
ingested
Authorizer
HandleExceptionInterceptor
JDK1
##Attach
##b2387
scheduleLocalNotification
AVPlayer
AVAIL
JiraManager
arrange
DocMarkup
PRs
FileSystemImportWriter
January
##a7c55
instruction
FlowJob
SessionHandler
AntRunner
PROP
PROJECT
ctor
populateContents
sprintf
transferring
wrapThrowable
2826
chrome
##Columns
2023
synd
sydney
##alesce
Discovery
ChannelImpl
SecurityHandler
RetryInvocationHandler
coalesce
drawer
inconsistency
leaked
##HeaderMapper
styling
2348855
collector
WaiterApplicationContextExecutor
13943
13944
##Serialized
redirects
Marathon
aliasHint
dsCount
26133
explained
##auth2
##f6d
##Retrie
##haul
##ivileged
Blocking
TitaniumUpdateWizardDialog
absent
Backup
subscribed
gathered
autocorrect
##Intel
StyledTextRenderer
carry
carried
carbon
EncPLD
Attempted
##CreationServiceImpl
CRIT
SIGABRT
##AAAA
administrators
RemoteTestRunner
FreemarkerManager
Neither
injected
enums
Relative
##Debugging
##DebugOnDevice
cutout
##3fdd4
##ERKSs
consists
superclass
Revocable
reopening
3998
3783
##ImportPage
CALIB
IMAP
ZNSt5
0000002563
JOB1
trees
xxxx
Calibration
cyber
##zzz
Statements
440d
##ERVIC
bb14
flexSpace
3865
scalable
##Chunked
##TriggerBean
recommendation
fdfb
shapeHSM
weights
redeployed
SharedChannelProvider
TransportHttp
Optimizer
PsfFlux
DefinitionHandler
SubmitTicket
costing
Chained
ChainAwareInterceptor
ChainExecutionManagerImpl
ChainInitiation
##ErrorHandlingExecutionTemplate
Secondary
serializeFields
PASSWOR
StartupManagerImpl
busybox
Introduction
##SpringSessionInViewFilter
HDP
Private
horizontally
SQLiteQueryBuilder
##PhotoCal
##Reloading
##Optimizer
inspectERKSs
##TransportPipe
aggregatedDefinitions
ISOMLayout
interpreter
ParseUtil
accuracy
##AvailableAndOffer
unavailability
TestCaseAwareInterceptor
QuotaInfo
ReservationEndpoints
CxfEndpoint
gnup
##FTPClient
preferably
39779e
customerservice
Mockups
nosm
noshade
scrum
DOMParser
##BOUND
rebuilt
organizations
ProfileFilter
clarification
heavily
footerTitle
bc99
##PushNotifications
excludes
25797
20150610
Organizer
GROUPS
SdssCentroid
##NativeStack
##Acquire
##CFType
assembled
NamedThreadFactory
thumbnails
MqttClient
b935
hdp20
mflows
tisdk
##SaveOrUpdate
##metic
##implemented
IfxStatement
Scanning
DependenciesHandler
ANetAstrometryTask
Guava
20150825
##783b1848
tmatesoft
umbrella
UniformFileStore
JSSymbolCollector
SpringXmlConfigurationMuleArtifact
##OutboundEndpoint
##BeanDefinitionParserDelegate
Accounts
JettyHTTPHandler
Greg
##ISTENT
libstlport
##ievement
##f1c82
AudioPlayer
sampler
saxon
adopted
##5541420
parenthesis
TITANIUMWINDOWS
DumpNativeStack
OFFLINE
PyOpen
b8d8
nominal
##Organization
##ollar
enricher
tooltips
Associated
GitRepositoryManager
Headquarters
cryptic
ebbc
flicker
linen
mixing
penrique
##Multiple
##Credentials
ChangedFile
occasional
occasionally
RetrieveWsdl
coadds
xrdssi
TiTableViewRowProxyItem
##rowExceptionInterceptor
##EEEEERK
ASCII
JedisConnectionFactory
Likewise
OgnlRuntime
XdEc2Validation
##PHP
impacted
DefaultIssueManager
ActionBarActivity
capitalization
0000000000
LockSupport
loan
naturally
##databaseModule
##fromothers
##FragmentScannerImpl
##ac9a4
getNextTasks
3875541420
ParsingEngine
regenerated
StandardTestServiceProvider
TabbedStackPresentation
multicast
literals
JUnit4Idea
4f01
DFSClient
Figure
Highlight
dimension
rectangle
##quisition
##quisite
ReplyTo
retained
Chilean
XMLSchemaValidator
201210181
CommandProcessorSwitch
DialogWrapperPe
##PersistentVolume
SigarLog
NIOServerCnxnFactory
WQVGA400
WQVGA432
Quality
SERVER
excerpt
challenge
getDictionary
Conceptual
##ynonymSearch
FunctionalTestCase
TransactionalErrorHandlingExecutionTemplate
BinderUtils
Tweet
futex
##Something
cloning
privileges
DefaultArtifactDeployer
Suppose
##EditorInputFactory
SQLStateConverter
firePostSelectionChanged
##WizardPage1
NioWorkerPool
FlushingSpringSessionInViewFilter
CuratorFramework
CALENDARS
PatientID
mimetype
16791183
##0000gp
UnreserveAvailableAndOffer
reminders
Computing
coursecatlib
ScopedHandler
XMLDocumentFragmentScannerImpl
##OODLE
Subscribe
scrollableView
singletons
illustrate
EncrypteddatabaseModule
COLUMNTIME
ReleasedVersionHistory
ellipsis
7e0c
Hardware
MANIFEST
WrappedOutputStream
c6bbfd8
##oRedoActions
##8Duration
##Phase
anticipate
TiThreadPerform
##Striping
CreatePatternWizardPage1
deselect
apiXmlNode
saveWithGeneratedOrRequested
##EntityExpanderResolver
##OverrideMethodSecurityInterceptor
PerfEventIsolatorTest
SyndFeedImpl
pumpEventsForFilter
accomplished
StackOverflowError
7PromiseINS
Kryo
favour
zzzcoll
##skip
inefficient
inconven
2357K
startActivityForResult
WebAppContext
astronomical
ToolBarManager
TrimContributionManager
TaskletStep
derivatives
Demonstrate
0d1cccb
Fk5Coord
MojoExecutor
Solar
XSLT
s2PtInBox
##Answer
procedures
outputrequirementslib
REMOVED
MultiTenantComponentFactoryImpl
DecorationScheduler
AuthorityOverrideMethodSecurityInterceptor
GroovyTestRoute20120618
XrdSsiRespInfo
unresponsive
ACTIVITYTYPE
plausiblelabs
386942193651348
4a1b2387
PIPE
RingBuffer
RDBMS
cSetHeader
mbeanserver
tHDFS
##N6Docker
##yanax
##OwnedINS
10SubprocessEE
ConverterForAtom
081651
coremotion
formidable
syntactically
DockerContainerizerTest
Flatten
0x00007f42870
inconsistencies
SpagoBICoreCheckSessionFilter
##Improvements
cJavaDSLProcessor
4c4b
7a1f1c82
9ContainerEEEEERK
9fa1a7c55
Bearer
BayeuxService
Cerro
Jubula
JPEG
JTreeMap
NumPy
Orientaiton
Opendir
QUEUE
RethrowExceptionInterceptor
Various
VIDEO
WHEN
YOU
a24502a
borrow
bisect
b5b69aa72
cgrp
cbfn
ddcb8397
d8c48a4a
d59449fc
erdinger
e05563fdd4
gvfs
g68783b1848
jpmml
kwargs
lAlO
mhusby
tOracle
uatest2
xjc
##oBIAction
##Walker
notebook
testIsContains
##InMavenRepo
buildAndLaunch
createAttributedString
InjectorImpl
setModelListener
setuplib
libbacktrace
libswt
AbstractSelectiveRouter
AbstractTracked
AbstractRefreshableApplicationContext
AbstractThemeableEditor
AndroidModulePackageLaunchConfigurationDelegate
checkNestedControl
##ListImportStrategy
04e0b571
showUndoRedoActions
DefaultButtonModel
DefaultLettucePool
DefaultArchiveDeployer
DefaultVisualizationModel
BuildPlanCreationServiceImpl
MethodRequestor
JSTypeUtil
JSTreeWalker
DEPRECATED
aptana2569
07188c21600
50f9986f
##ConnectionCatalogString
ServiceDiscoveryHelper
amdefine
MessagePublishingErrorHandler
ClassCodeVisitorSupport
popProgressDialog
googleApis
resource2point0
CloverProgressIndicator
fc151a46
201303261815
MuleHierarchicalBeanDefinitionParserDelegate
##HttpApiProvider
ContentBasedRouting
SelectEditPartTracker
BambooStAXListImportStrategy
##TextCanvasModel
esprima
ChangeDetectionListener
SafeCentroidExtractor
1727752f34e3
EditorAreaHelper
CommonNavigatorManager
IndexedListSerializer
##MetadataPropertiesPanel
WizardFolderImportPage
EXPLICIT
7300b201
ImportMavenPlanCreatePlanAction
AbstractSpagoBIAction
201104070004
great3sims
DocMarkupPlugin
populateContentsInMavenRepo
234885548
EncPLDatabase
##DebugOnDeviceLaunchConfigurationDelegate
ChainInitiationObserver
PASSWORD
inspectERKSsRK
ReservationEndpointsTest
UniformFileStoreEditorInputFactory
SpringXmlConfigurationMuleArtifactFactory
RetrieveWsdlMetadataRunnable
JUnit4IdeaTestRunner
DialogWrapperPeerImpl
getDictionaryAs
1679118336
UnreserveAvailableAndOfferedResources
ReleasedVersionHistoryCFType
c6bbfd8ac9a4
saveWithGeneratedOrRequestedId
zzzcollzzz
0d1cccbde550
ConverterForAtom10
9fa1a7c55a75
b5b69aa72944
e05563fdd4b6
07188c21600d
099
009
018
017
0As
0aa
0242
0d29
1e
1GB
2px
2cec
30000
3343
492
4f0
4c7
4da1
516
519
5f3
681
6da
6fc4
6eb5
6Prefer
7C
784
709
735
8e
892
875
880
881
890
8187
8728
9E
902
913
924
9aa
946
953
983
970
969
9983
9deb
AA
AT
Ach
Air
AAAA
B2
BRO
Barn
BET
Bey
BOD
Bird
Battery
Boost
Called
Cause
Categories
Courses
Citizen
DD
Dw
Dat
Dan
Dig
Dim
DRA
DND
DDL
Dhttp
DONE
DMLT
Dskip
Eg
F2
FRA
GL
GSS
GOO
Gtrans
HA
HIT
HAML
Iain
IMS
Ibuild
ILaunchConfiguration
Jon
JCl
KV
KT
KAR
KVM
Lw
Loop
Ligh
Life
ME
MC
Mag
Mus
Might
Mach
Mario
Moved
MUC
Mocha
MOODLE
NC
Nob
NAM
Naming
Ow
OF
Pan
Pot
Pure
Panel
PIX
PEP
Position
Pivot
PowerShell
RA
R5
Rad
RET
Risk
Roll
RPC
S2
SY
Syn
Social
Scale
Sorry
SERVIC
Td
TM
TER
Tuples
UD
Ve
VC
Vy
Vend
Vagrant
V120
Voice
Wu
Wun
Wover
WANT
aler
air
a350
a628
a984
a240
aef0
aksj
ble
bul
bir
blow
bbd
bf45
b347
bonita
bcc6
bac4
b57f
bottlen
c7
c8
cart
cout
c34
c45
cale
casting
cURL
cvc
cumbers
casc
c54a
cropped
d5
dere
dangerous
ej
eee
eleg
e57
egress
effic
escap
erase
fun
f00
fib
f93
ffc
f222
f9850
gp
gf
g2
gate
gem
hate
hum
hybrid
heter
hillert
ii
jac
jks
johnson
kern
kvm
lz
lab
latch
love
loops
m3
mq
mems
mfs
nn
nast
necess
nqn
om
ore
ought
pb
pse
p12
pings
pivotal
pooled
rates
rails
rpath
rfc
reregist
renders
son
sits
tb
ten
tee
tenant
tapped
tuples
veth
v7a
whe
wit
wid
warned
wxj
xhtml
ya
yourse
zh
zipal
zipped
##Void
##VAL
##Visit
##Net
##None
##Normal
##S6
##SO
##Sample
##Samples
##Series
##Svc
##SingleNode
##Sixt
##SISTENT
##ael
##a15
##a21
##a68
##a60
##a0402
##sensitive
##las
##A1
##Arr
##Ant
##uy
##uent
##tw
##tuple
##tolog
##two
##hic
##hrr
##hood
##e82
##element
##e828
##iw
##ipt
##cest
##cac
##cap
##c03
##c000
##c36
##counter
##categories
##cfc2
##oas
##oating
##rides
##9C
##904
##905
##3w
##306
##314
##312
##356
##8k
##8W
##8aa
##Eclipse
##ELD
##ELS
##T12
##UEST
##Unable
##Pull
##Python
##Pair
##pop
##python
##date
##d01
##dca
##d27
##gv
##gan
##guide
##gla
##kas
##kio
##Mix
##Many
##fg
##ffer
##fits
##mes
##mode
##module
##mitter
##bch
##b99
##b89
##b353
##1d
##122
##184
##108
##592
##5hrr
##211
##ye
##yProject
##yaml
##vd
##zc
##zQ
##zen
##RB
##Rate
##4a
##4m
##DG
##Drag
##Duplicate
##Diff
##IR
##ICE
##IZE
##I6OptionI
##Indicators
##x1
##Learn
##6a
##BZ
##Boo
##Boot
##BLE
##Because
##Op
##Old
##GLE
##Grammar
##Graceful
##Hm
##HINE
##XK
##wr
##YM
##FC
##F0
##Follow
##Fixed
##K4
##Kq
##WO
##JY
##Jira
##orough
##onDig
##initial
##leased
theory
##route
##ingDamagerRepairer
##ano
##anford
##edite
inn
inference
invert
inserting
##alg
##alf
##aligned
##alliance
##studio
##status
##rep
##reem
##rehen
##reme
##avy
##aring
##etic
##ce2
##ppable
##avage
##ams
##amy
##isks
thorough
##assth
isCamera
isNotNull
##agent
##agraph
##platform
##cher
##chools
##ada
convey
##elled
##acility
##ab6
##abytes
ofType
onFocus
onActivityResult
##olite
##olocator
death
degrad
##igns
##ithread
exponent
excel
exhib
exposures
##ec2
##ecf5
##ecreated
##emand
##ained
##andon
##andler
apparent
runAnalysis
runLe
##ogene
spinning
##acknowled
##jection
##ramp
##kelet
sucess
suffer
interf
interrupted
##artic
testCase
##fa8
##quisit
mappers
doLoad
doAstrometry
doSave
doPoll
doPhotoCal
Stage
Structure
Reverse
Repositories
Reopen
Requires
fromChar
##iras
resizing
scrolled
imscp
Things
TiObject
TiMobile
sear
seam
chose
##InMain
##Inflight
internalCreate
buildBin
##erequisite
##Except
##Expected
Themes
##upy
createApp
createTextArea
Inform
Includ
Inside
Ingest
Incom
Inspect
getContext
getType
getPart
getFull
getOrientation
10G
10ms
1044
1061
leo
neut
newjob
project1
##Static
##1157
1546
151665
setMessage
setHeader
setnew
##racting
1307
1338
1372
1347
1321
1611
1646
16px
##gister
##Requirements
1200
1286
1205
1226
1228
12b1
1800
1999
1945
19923
Concurrent
libName
processA
AbstractPlugin
AbstractRest
AbstractExceptionMapper
1499
1484
1433
Appear
AppStore
##mlj0
una
unint
unorder
unfinished
unimplemented
unacknowled
0xb
0x98
0x48
0xbf
1100
1162
1109
Resolution
##ImplTest
commercial
##undles
INCON
jsf
jslint
##06a1
openURL
outlined
outgoing
##99ef
2102
2192
21380
invokeListener
invokeAction
executables
intuitive
##dba
##dbca
##db648
handshake
parses
paragraph
##ichael
recall
recreated
reconsider
startX
startHandshake
quads
clr
##64d
##6428
##22c4
hasChild
phases
classload
callActivity
adg
##ff4
##ff44
##antor
defaultItem
Unmod
Uncheck
##ee4
##ee99ef
##13ff44
actionPerformed
2522
2513
2552
2558
25secs
##84b
##841
##86ms
##244
##ipating
##Delet
##7984
##7924
##ressions
##aches
checkError
blkio
##09ns
filesWe
editcategory
##7450
##7483
##74c64
##tings
pydev
utilized
showDatePicker
##pher
prer
deployModule
26131
26380
##5635
updateDetails
streamname
##070
##07ff
currentWindow
##ASON
thereby
##1877
##18dbca
##oolbox
Complex
##AccessEdit
##1726
##32ns
##3269
MethodNot
MethodValue
textArea
sendBlock
sendBlocking
##3463
emma
448
44ee
JSCode
JSCore
DEC
DEL
DENI
##ERVER
##ERIC
loadFrom
##52321
packed
packager
transmit
corners
corrupted
webhdfs
TestService
clickable
0783
handleDeploy
handleSelect
documenting
serviceprovider
mainLoop
mainwin
status1
statushand
##3958
##394700
acts
##Applications
accesslib
initiate
nettle
redo
redes
##558
##55ns
3604
3675
3669
pageChange
pageSize
executeAnalysis
##akjs
##content
makeDocs
tableData
compet
compaction
comprehen
##ca2
MainWin
Allocated
5922
myJob
myproject
myEmail
acces
##389
dbJDBC
2807
Java8
JavaLog
sourceAs
##ellonDig
Filepicker
SciP
Scalar
##190
##19ns
##10c
##10f7
Spock
##765
5432
5494
##758
##750
##afish
##261
##266
##Commit
##Common
Plo
Plus
Plug
XMLGre
##367
##TPUT
##eselect
##TaskSee
##lesheet
platformWidth
Asmt
##35a
3853
backgrounds
backgroundSelected
formal
exporter
SourceCatalog
5855
##LaunchContainerizer
informing
4613
4687
46d5
5654
EventFeature
##ATEST
endpointPrefix
dialogues
html5
##789
##78ns
##7896
CLIP
heur
gralloc
##72e828
##726428
STRE
I1118
I1108
4901
49a7
camcol
5355
writeFits
4202
42a6
##de4
0938
imply
WebSocket
##95e
relocation
##33fc7
2003
643
NodeExists
ModuleOptions
concaten
amend
JobDeployer
JobSub
Sever
StreamServer
Viewing
ViewConfiguration
Remarks
variant
variants
initializer
##ropy
screenOrientation
timecreated
6631
tmpFile
tmpfs
Documented
DocumentBuilder
consoleString
storeclient
Share
dont
SpringJUnit4ClassRunner
blockquote
Implementing
3752
ProcessImageTask
##960
##966
##9659b
##370
helpdesk
##FileQueueStore
deleteFiles
elem
convertTo
100dp
302a
30291
##AMellonDig
##ToString
##ToRegister
##ToAb
minSdkVersion
selectedCalendar
jsonPath
BundleException
cmid
Authenticate
0x7fa9
##453
gitolite
##ItemWriter
##ItemClick
v201105
FrameworkExited
##50f
##50b
Recent
buggy
##InfoRepository
searchable
elab
Packet
Packaged
Alter
##ernary
REASON
SimpleGet
##PartResult
lastname
##UNCH
graded
##be5
##be47ace
colored
tagging
nativeFireEvent
bright
iPython
##ORS
CloverInstr
fc72e828
30618
decom
setups
##MEWORK
RedisContainer
MuleContext
MuleArtifact
8192
81fd
automation
automate
deflate
##ObjectStore
completions
3302
extensive
Standardize
hadoop12
astropy
##eed908
##80b
##ertain
simpleIF
40dc
TypeOutInvoker
##Force
transformed
foo1
standardized
##Installed
##scripts
functionalityImplement
driving
##ritable
##RuntimeMessage
CorePlugin
CoreGraphics
Scheduling
##85b9
##85b48
45c9
##ScriptSource
##Indexer
##IndexCleanup
26214
26207
##Unaccept
##Modify
##271
##eba
DBS
Intermediate
Interrupted
##ReplyTo
af9c
Compat
##BarItem
descent
0003
##ADA
externallib
##URSE
IPs
smarter
publicly
certification
##Transacted
##f4343
applyProperty
##fb0
##fbbec
ImageDecorator
56476
56463
990
DatabaseDescriptor
ipn
ipc
ipac
31219
Artic
##queued
duplicator
##68eed908
improving
41b6
AdminServerApplication
##UpdateFails
MapView
DQDelete
activating
clustered
UnableToRegister
ROW
NSF
NSException
Translucent
Assuming
##70f2
##90b
resolveDestination
BaseController
##ructuredText
reversed
continually
continued
455a
aopalliance
##IFICAT
beanutils
consumerSecret
allocations
owned
13937
27630
TIMODO
Extended
##Permissions
USE
Trust
AppleH
AppleProfile
AppleIntel
1119
1110
111ea
evaluateIndicators
merger
##FromProxy
##FromSlave
##FromFactoryBean
ensures
0x103
0x1F6
clearer
8082
80eb
Homebrew
prefixed
TaskLaunchContainerizer
Filters
Filtering
chunker
##e4b4
Important
multiline
multimedia
multithread
association
Withers
infos
execSQL
Reporting
chaining
finishPressed
MediaPlayer
1019
1015
1012
8704
TiUIListView
Beach
Finally
##Annotations
9892
9898
98a32
insertRow
##012344
epoch
##tests
replicas
replicating
RepositoryException
Initialization
pipeProtocol
CallVoid
initializeBean
FILES
##URLSession
killTask
killtree
rolled
instruments
Shouldn
importantly
peak
peaks
Entering
2112
##Extend
snip
unsubscribe
unsuccessful
notifying
destroying
##isedt
graphic
##df3
Geo
DispatchEvent
IDEA12
Linked
##c6deb
0x187
0x185
0x1855
spacesThis
dataservice
##bb6
conversions
wrapperView
repeating
Designer
priorit
##ConsumerDoRequestResponse
mutated
##Username
Decline
VMW
purge
purging
##USE
##USR
##5174c64
##e8567e
##e8ee99ef
##e8c6deb
constantly
##SlaveMessage
ProgressBar
71b353
##a43269
suppose
MySQLSyntaxErrorException
18129
generalized
0x7f2
0x7f0
0x7f23
0x7fe3
4069
9707
Overall
Override
letters
constructs
misaligned
touchtest
CONST
surpr
maybeClose
calculating
##MBeanException
##CurrentTransaction
Business
faulty
faultCode
16384
encountering
mockito
##a3a
##a3cfc2
WriteRead
InputStream
Consistent
PIDs
##a1846
##b105
##Lib4
##OptionDialog
jmxEnabled
mediaTypes
Centos
jrf
22924
22930
##d3a
books
##e710f7
RFD
4125
4120
observation
##f8f6
Removal
13276
aborts
##Also
##feec52
animationStyle
PropertySet
translation
0x1400
periodically
PROXY
4134
figured
fluxToAb
slower
annotate
13464
Scripting
polls
0x00007fff
4178
drawings
##d6b
collaps
cronlib
classicProject
keystores
Win2
utile
policyfile
COURSE
ca23
Foundry
##mq5hrr
1241
Crud
Credential
cdh5
cdh4
NotificationCompat
rbenv
##ERTY
25788
Instrumenter
v20150629
v201506012344
26129
tweaking
greenhopper
v201203
##f9c95
##CreationTest
SCORM
SCADA
##organiz
answered
sheets
Addressing
ExecutionException
##Points
Automatic
##lsst
##MavenPomCheckout
shutil
hashmap
demonstration
hinting
pojos
##Members
##Overrides
mono
monkey
slider3
slider4
preserve
Matching
##AVEN
Restarting
Pressing
complaining
Doesn
Popup
ThemeingDamagerRepairer
determination
Behat
MSB8
simplifying
aaad
d670f2
##e1e
ClassicProject
PARSE
##roubleshooting
InstrumentationConfig
fastdev
frontend
##eescript
foreign
invocations
0x6ab
programmer
LazyInitializer
growing
##224cc
3089
QAtesting
lifetime
SharedFilesystemIsolatorTest
producing
VirtualFile
##spT
##DatabaseMetaData
17481
17485
Point2I
PersistentVolumeWithout
reverseGeocoder
encrypteddatabase
ReconcileTasks
achieved
masked
thresholds
##SpringXD
Prerequisite
tiny
##7process6Future
##BBox
accessibilityLabel
expires
complication
Workshop
IE7
b630
silly
##hhhh
12345
adjusted
##umbnail
Learned
manipulating
##CounterRepository
insensitive
fb92e
tsv
##n7kl
Breakdown
##PanelMenu
##Customer
rewriting
Expectation
##22e11
487c
REQUEST
established
HibernateObject
JRXML
Roby
Robin
tRESTResponse
rounded
extras
4b44
4b85b9
Samsung
THAT
THIS
cheats
excluding
createPartHelper
belongs
ITIL
##CertPathBuilder
##Lookup
convenience
sequentially
Continuous
##Platforms
BatchJobExecutionsController
Bugs
Health
Heavy
Routing
Topic
reveals
doBuildFiles
ElasticSearch
buried
##CoverageManager
deserialization
licensing
8dec
FastDev
SignTool
cells
pipelining
##Significant
HttpsConsumerDoRequestResponse
WaitingInMain
484b
worry
##Backend
unlike
##CollectorIntegrationTest
ccqserv101
encapsulated
##OutboundChannelAdapter
4c24
Box2I
cJMSConnectionFactory
gadgets
##07818dbca
reduces
formerly
0x7baa8
##Original
SingleNodeApplication
##Observers
udid
##Trying
apidocs
incorporated
##Instantiation
violations
Naive
OFFSET
PyDev
SunCertPathBuilder
##Director
##BitSet
onChildLeft
sphgeom
INSTANCE
Http11ConnectionHandler
Associate
803be47ace
FunctorKey
Okay
racks
##Ellipse
tolerate
stripped
erroneously
AFAI
Astronom
beside
xrdoss
submenu
submits
amplifier
0x2b549469
Syslog
aptan
isolated
##Aggregation
CACHE
II8G
mistake
0x2b4687394700
IntelliJIdea
1a97
Especially
EsEntityIndex
LAUNCH
Occurred
Peak
dimensions
eye
##BasicAuth
TiMapAnnotation
article
articles
CommitDialog
DMS5
ViewRootImpl
GroovycSupport
##MailServer
ambiguity
ambiguous
BeanPostProcessors
BeanPostProcessorChecker
##Management
9a3a1846
9a3224cc
Cheb
HOSTNAME
Lesson
Summit
ThreeSixt
lexer
0x0000000000000000
committers
NUMERIC
substitution
4a6c5c
GENER
MACHINE
RB1
million
##f50b8
orchestration
exhausted
subfolder
feasible
##961e8567e
MesosExecutorGraceful
polyfill
ECDHE
wondering
forcedPhotCoadd
collaboration
milestone
David
Kindle
##Signal
##e4422e11
##MissingFromSlave
##ac110011
excessive
[...]
