<unk>	0
<s>	0
</s>	0
.	-2.73752
▁the	-3.57239
▁to	-4.01443
/	-4.04402
,	-4.14145
▁	-4.19072
:	-4.21945
▁a	-4.52377
-	-4.63027
▁in	-4.67893
▁and	-4.72548
▁is	-4.80515
_	-4.87221
▁of	-4.93983
▁for	-4.95877
s	-5.19568
)	-5.19721
'	-5.20111
▁be	-5.20855
(	-5.21771
▁(	-5.25453
▁"	-5.43663
▁on	-5.43924
▁that	-5.46699
▁not	-5.4879
"	-5.49381
▁{	-5.51875
▁with	-5.57539
▁it	-5.60437
▁-	-5.61154
java	-5.65063
}	-5.69047
▁should	-5.69952
ing	-5.79846
▁'	-5.87317
▁*	-5.91257
▁this	-5.91536
▁as	-5.93198
code	-5.93314
▁org	-5.95342
▁from	-5.96972
▁I	-5.99414
▁we	-6.01418
▁at	-6.04261
▁are	-6.06832
▁an	-6.08198
▁The	-6.16103
▁will	-6.1807
▁[	-6.2084
]	-6.22553
▁=	-6.22884
://	-6.23281
▁when	-6.25569
▁have	-6.30368
▁if	-6.32184
▁can	-6.32424
t	-6.32489
▁file	-6.32935
>	-6.3356
▁new	-6.35727
e	-6.36669
▁or	-6.39584
d	-6.42457
▁This	-6.43323
▁project	-6.47478
▁by	-6.48113
▁Titanium	-6.53716
\	-6.56031
▁use	-6.5782
▁Ti	-6.62534
eclipse	-6.63737
▁all	-6.6389
▁error	-6.64105
▁but	-6.64503
▁<	-6.65349
',	-6.69295
▁need	-6.69373
com	-6.69792
▁user	-6.70704
▁Studio	-6.71637
UI	-6.73002
=	-6.75451
▁{{	-6.78666
▁code	-6.79208
▁#	-6.80114
x	-6.81725
▁build	-6.82057
2	-6.82281
()	-6.83027
▁which	-6.83875
▁using	-6.8467
▁add	-6.8534
▁test	-6.85767
▁/	-6.85948
▁:	-6.86792
;	-6.87923
}}	-6.89168
▁has	-6.9028
▁you	-6.9037
▁app	-6.90593
▁module	-6.90628
▁--	-6.92802
▁var	-6.9439
);	-6.95535
▁Add	-6.971
▁data	-6.97104
a	-6.97128
▁one	-6.9822
core	-6.98796
▁get	-6.99012
▁does	-7.00409
▁would	-7.00411
▁name	-7.00535
▁0	-7.01285
->	-7.01761
id	-7.01954
▁|	-7.01977
▁set	-7.02048
▁run	-7.02331
▁version	-7.02423
run	-7.02629
▁Android	-7.02758
▁only	-7.02878
::	-7.0369
org	-7.04121
▁no	-7.04146
▁support	-7.0427
).	-7.05065
▁into	-7.0511
php	-7.06437
▁http	-7.06448
="	-7.0724
▁so	-7.07657
▁2.	-7.09563
js	-7.09821
▁com	-7.10006
▁like	-7.10597
▁some	-7.10775
▁create	-7.11352
▁We	-7.11637
",	-7.12508
ed	-7.13013
▁Create	-7.13888
▁1.	-7.14922
1	-7.14939
▁iOS	-7.15059
internal	-7.15742
▁>	-7.16108
▁there	-7.1613
*	-7.16627
c	-7.1796
▁do	-7.18288
▁up	-7.19909
lib	-7.2047
▁SDK	-7.2069
▁work	-7.20919
▁h	-7.2183
▁default	-7.2324
▁});	-7.2441
▁line	-7.24676
▁Result	-7.24857
▁was	-7.25565
?	-7.27182
▁same	-7.27227
▁files	-7.2769
▁message	-7.28157
▁It	-7.29035
▁tests	-7.29183
▁used	-7.29668
log	-7.30307
('	-7.30317
able	-7.30558
▁type	-7.30745
({	-7.31453
b	-7.31754
The	-7.32153
▁issue	-7.32383
▁also	-7.32458
3	-7.32476
appcelerator	-7.35164
▁https	-7.3558
▁then	-7.36319
f	-7.36636
▁more	-7.36839
▁following	-7.37156
▁make	-7.38063
▁$	-7.39124
▁java	-7.3931
xml	-7.39369
▁log	-7.39945
▁win	-7.40886
4	-7.41932
http	-7.42758
▁list	-7.43662
▁function	-7.44134
▁any	-7.44309
▁In	-7.45821
▁result	-7.46103
xd	-7.46266
▁other	-7.46637
▁time	-7.47038
7	-7.48099
▁see	-7.48849
▁after	-7.48887
▁view	-7.49067
▁3.	-7.50599
▁job	-7.50908
▁Expected	-7.50932
▁1	-7.51727
▁configuration	-7.52385
▁page	-7.52445
ui	-7.54316
▁out	-7.54595
▁A	-7.5492
+	-7.55206
▁}	-7.55708
▁If	-7.56245
g	-7.56504
titanium	-7.57709
▁class	-7.57883
▁//	-7.57944
ly	-7.58172
▁value	-7.58511
p	-7.58717
to	-7.59374
▁Steps	-7.59418
0	-7.59952
m	-7.60015
apache	-7.60659
name	-7.60954
n	-7.61299
▁Actual	-7.62115
▁change	-7.62721
▁they	-7.62818
▁could	-7.63488
▁2	-7.64086
▁call	-7.64833
ERROR	-7.64972
en	-7.65211
▁command	-7.6532
▁+	-7.66587
8	-7.66854
();	-7.67297
▁button	-7.67583
add	-7.68534
▁Windows	-7.6868
This	-7.68775
▁show	-7.69824
▁server	-7.69945
▁option	-7.70075
▁device	-7.70292
py	-7.70713
5	-7.71054
test	-7.71287
▁image	-7.71448
build	-7.71651
▁content	-7.7203
When	-7.72151
▁case	-7.72383
▁process	-7.72487
v	-7.7343
API	-7.74046
▁may	-7.74475
▁service	-7.74525
Titanium	-7.74671
▁how	-7.75373
▁first	-7.75687
▁current	-7.758
▁way	-7.75921
▁example	-7.75951
▁When	-7.7598
▁system	-7.76136
▁update	-7.76138
▁reproduce	-7.76447
modules	-7.76522
▁just	-7.77479
|	-7.77597
android	-7.77615
▁created	-7.77898
▁them	-7.78036
springframework	-7.78065
▁@	-7.78434
▁running	-7.7846
▁stream	-7.78655
▁modules	-7.78816
▁install	-7.78914
r	-7.78973
▁text	-7.79825
▁window	-7.79916
▁click	-7.80423
▁directory	-7.80453
▁information	-7.8082
▁report	-7.80892
Users	-7.80909
▁attached	-7.81073
▁available	-7.82422
▁CLI	-7.82635
▁UI	-7.82841
▁fails	-7.83034
lang	-7.8324
▁needs	-7.83315
▁path	-7.83447
github	-7.83475
data	-7.83488
I	-7.83826
node	-7.84287
▁API	-7.8443
▁config	-7.84631
▁doesn	-7.84641
▁about	-7.85091
▁check	-7.85144
▁source	-7.85627
talend	-7.8583
▁analysis	-7.86668
html	-7.86833
▁task	-7.87055
▁these	-7.87074
▁launch	-7.87092
▁now	-7.87377
aptana	-7.87593
▁table	-7.8772
▁XD	-7.87832
▁try	-7.88399
C	-7.89337
A	-7.89408
h	-7.89653
▁where	-7.89876
noformat	-7.90706
▁connection	-7.9075
get	-7.9125
6	-7.9134
▁my	-7.91401
create	-7.91468
▁each	-7.92071
),	-7.92759
▁changes	-7.92962
▁two	-7.93527
▁open	-7.9372
▁Run	-7.93794
▁instead	-7.93923
▁than	-7.94113
▁**	-7.94165
▁dialog	-7.94219
▁different	-7.9441
spring	-7.94879
▁container	-7.95141
▁being	-7.95561
▁Project	-7.96181
▁application	-7.96321
▁event	-7.96651
▁our	-7.96798
▁See	-7.96914
▁return	-7.98158
▁re	-7.98287
app	-7.98353
▁folder	-7.98835
▁select	-7.99022
5.	-7.99029
▁Test	-7.99148
▁allow	-7.99182
▁what	-7.9923
Impl	-7.99686
▁exception	-7.9988
▁DM	-8.00045
Workbench	-8.0028
▁want	-8.00487
▁!	-8.00587
course	-8.00667
▁menu	-8.0108
▁field	-8.01225
Exception	-8.01254
i	-8.0147
▁still	-8.01519
▁because	-8.01788
▁method	-8.02049
▁3	-8.021
▁C	-8.02182
We	-8.02308
▁tab	-8.02843
y	-8.03211
open	-8.0322
▁existing	-8.03561
▁title	-8.03709
▁currently	-8.04378
▁properties	-8.04897
▁For	-8.05046
Ti	-8.05303
▁studio	-8.05517
▁column	-8.06245
9	-8.06305
▁well	-8.06405
▁property	-8.06694
▁Update	-8.06705
▁File	-8.07212
#	-8.07392
▁results	-8.07433
▁problem	-8.07712
Application	-8.08008
▁before	-8.08276
▁added	-8.08321
▁without	-8.08433
▁while	-8.08515
▁remove	-8.08774
▁number	-8.08861
▁include	-8.08918
▁screen	-8.09074
▁users	-8.09613
▁already	-8.10033
▁</	-8.10057
▁via	-8.10089
invoke	-8.10124
▁i	-8.1032
<	-8.10511
▁don	-8.10839
▁plugin	-8.10962
or	-8.11067
▁based	-8.11078
▁both	-8.11368
▁android	-8.1137
$	-8.11526
▁object	-8.11623
▁package	-8.11807
▁Error	-8.12119
in	-8.1239
▁master	-8.12407
1.	-8.12529
▁Open	-8.12588
▁installed	-8.12933
▁documentation	-8.12989
▁right	-8.13232
▁editor	-8.13545
▁space	-8.13818
▁here	-8.14601
▁Support	-8.14828
▁4	-8.15015
▁access	-8.15322
▁top	-8.15468
Test	-8.15596
▁query	-8.16013
2.	-8.16294
▁database	-8.16343
https	-8.16443
▁4.	-8.16704
▁order	-8.16725
▁Implement	-8.16844
▁start	-8.16957
▁back	-8.17555
▁through	-8.17598
▁its	-8.18366
▁works	-8.1885
▁instance	-8.19049
▁such	-8.19386
▁resources	-8.19625
▁issues	-8.20116
▁failed	-8.20331
INFO	-8.20368
lsst	-8.2087
▁request	-8.21381
▁testing	-8.21432
mule	-8.22241
o	-8.22718
▁As	-8.2288
▁etc	-8.23221
view	-8.23322
S	-8.23937
ir	-8.24195
3.	-8.242
mesos	-8.24365
▁multiple	-8.24474
▁Node	-8.24512
▁under	-8.24515
▁output	-8.24622
▁display	-8.24855
▁sure	-8.25375
▁...	-8.25474
▁between	-8.2548
▁over	-8.26149
▁implementation	-8.26377
▁component	-8.26654
cpp	-8.26721
▁node	-8.26755
▁Click	-8.26868
er	-8.27324
▁slave	-8.27325
▁Reproduce	-8.27382
▁possible	-8.27585
▁must	-8.28109
D	-8.28391
local	-8.2878
▁script	-8.28869
▁feature	-8.29109
▁framework	-8.29566
▁part	-8.29702
▁during	-8.29996
▁provide	-8.30259
');	-8.30425
▁appears	-8.30442
swt	-8.30496
In	-8.30674
Main	-8.30676
▁single	-8.30738
▁look	-8.30775
index	-8.31068
▁platform	-8.31976
▁context	-8.32437
▁There	-8.32446
info	-8.33113
▁fail	-8.33469
Native	-8.33625
▁options	-8.33766
master	-8.33852
src	-8.34162
▁events	-8.34181
click	-8.34314
▁values	-8.34397
▁errors	-8.34547
▁selected	-8.34572
▁xd	-8.34634
▁location	-8.3472
▁S	-8.34754
▁release	-8.34825
▁required	-8.35231
▁console	-8.35307
▁link	-8.35642
▁even	-8.35902
▁Service	-8.36231
▁correctly	-8.36759
("	-8.36965
▁down	-8.36965
▁HTTP	-8.37056
▁Qserv	-8.37063
reflect	-8.37265
admin	-8.37268
▁found	-8.37509
▁classes	-8.37677
www	-8.37737
▁id	-8.37771
T	-8.37816
Abstract	-8.38239
▁tiapp	-8.38337
▁section	-8.38423
▁E	-8.38813
▁find	-8.39041
▁wizard	-8.39142
▁related	-8.39516
▁admin	-8.39755
error	-8.39814
MethodAccessor	-8.40157
util	-8.40228
▁done	-8.40366
and	-8.40431
▁Note	-8.40554
runtime	-8.41217
addEventListener	-8.41669
▁non	-8.41774
▁your	-8.41857
▁generated	-8.42295
▁uses	-8.42699
▁end	-8.42875
mod	-8.43216
▁No	-8.43256
▁m	-8.43485
▁To	-8.43498
qserv	-8.43595
▁specific	-8.43898
▁level	-8.44098
▁fields	-8.44124
▁course	-8.44339
ti	-8.44366
▁import	-8.44551
▁Remove	-8.44651
createWindow	-8.4476
▁items	-8.44854
▁XML	-8.44889
▁missing	-8.44899
▁displayed	-8.45113
▁info	-8.45346
▁fix	-8.45368
jira	-8.45464
▁document	-8.45607
▁item	-8.45616
home	-8.45619
▁repository	-8.45831
▁appear	-8.45845
▁Source	-8.45942
▁seems	-8.45942
As	-8.45955
▁icon	-8.46038
▁ticket	-8.46216
user	-8.46442
E	-8.46769
▁those	-8.47007
▁status	-8.47192
($	-8.47286
▁LSST	-8.47306
After	-8.47347
:'	-8.47578
▁correct	-8.47587
module	-8.47798
">	-8.47952
▁methods	-8.47955
docs	-8.48033
Currently	-8.48544
▁another	-8.48643
▁However	-8.48953
▁key	-8.49099
▁index	-8.49143
bin	-8.49162
▁deployment	-8.49173
▁messages	-8.49578
▁require	-8.49619
▁runtime	-8.49674
▁something	-8.49706
usr	-8.49755
framework	-8.49793
▁mode	-8.50167
▁emulator	-8.50335
localhost	-8.51103
▁&	-8.5117
▁names	-8.51563
api	-8.51564
</	-8.51876
tests	-8.52237
ve	-8.52258
▁projects	-8.52265
async	-8.52335
▁true	-8.52411
Steps	-8.5252
▁within	-8.5282
▁were	-8.53251
▁size	-8.53252
ACS	-8.53261
▁cannot	-8.53441
▁shows	-8.53485
▁width	-8.5365
▁since	-8.53722
▁defined	-8.53888
▁height	-8.54093
▁endpoint	-8.54165
▁shown	-8.54215
▁Build	-8.54352
▁again	-8.54402
▁design	-8.54592
▁take	-8.54668
▁web	-8.55286
▁filter	-8.55651
▁string	-8.55698
▁state	-8.55797
file	-8.55966
▁custom	-8.56
▁client	-8.56124
▁delete	-8.56159
▁last	-8.56207
▁creating	-8.56463
▁interface	-8.56697
config	-8.57502
▁send	-8.5751
▁1)	-8.57526
▁b	-8.57624
&	-8.57685
▁_	-8.58131
debug	-8.58138
widgets	-8.58175
▁Spring	-8.58291
▁deploy	-8.58397
▁point	-8.58558
▁backgroundColor	-8.58592
▁Fix	-8.58646
▁App	-8.58698
▁inside	-8.58725
▁functionality	-8.58747
▁supported	-8.58926
▁tasks	-8.58994
▁metadata	-8.59136
▁"/	-8.59155
▁behavior	-8.59204
▁generate	-8.5954
▁always	-8.59574
▁simple	-8.59603
▁contains	-8.59674
▁BlackBerry	-8.59703
▁needed	-8.5976
▁URL	-8.5977
▁New	-8.59935
M	-8.60039
title	-8.60086
▁sample	-8.60276
▁Mobile	-8.60307
▁e	-8.60317
ight	-8.6041
▁qserv	-8.6044
on	-8.60511
▁working	-8.60513
▁Alloy	-8.60859
▁per	-8.61017
▁go	-8.61184
png	-8.61485
▁read	-8.61619
▁HSC	-8.61878
▁local	-8.61933
j	-8.61952
clover	-8.62339
process	-8.62476
re	-8.62561
▁removed	-8.62582
▁titanium	-8.62688
▁null	-8.6278
▁stack	-8.62781
▁port	-8.62833
▁2)	-8.62856
for	-8.62897
▁expected	-8.63027
":	-8.6325
▁Please	-8.63263
this	-8.63389
▁JS	-8.63474
very	-8.6389
L	-8.6404
▁setup	-8.64522
▁sun	-8.65002
:\	-8.65173
▁t	-8.65371
▁handle	-8.65396
▁updated	-8.65816
P	-8.66026
▁latest	-8.66084
the	-8.66097
!	-8.66303
▁components	-8.66539
▁flow	-8.66684
moodle	-8.6676
▁empty	-8.67001
▁left	-8.67411
▁cases	-8.67529
Add	-8.67635
▁throw	-8.67711
▁root	-8.67836
▁input	-8.67838
▁bug	-8.67885
▁JSON	-8.67961
▁environment	-8.68071
net	-8.68151
mobilesdk	-8.68488
stream	-8.68585
display	-8.68637
▁c	-8.68679
EclipseApp	-8.68684
▁ti	-8.69109
see	-8.69204
▁unit	-8.69437
▁Data	-8.69476
If	-8.69501
▁alert	-8.69941
▁think	-8.69957
▁group	-8.69968
▁screenshot	-8.70228
Create	-8.70446
▁save	-8.70643
▁element	-8.7067
browse	-8.71131
▁integration	-8.71141
▁load	-8.71167
▁either	-8.71277
▁HTML	-8.71307
main	-8.71443
▁Make	-8.71494
▁reference	-8.71531
▁enabled	-8.71645
▁deployed	-8.71798
start	-8.72675
atlassian	-8.72751
▁mobile	-8.72796
▁Use	-8.73492
type	-8.73625
editor	-8.73667
▁old	-8.73865
Method	-8.74052
@	-8.74344
▁Check	-8.74476
▁label	-8.7454
4.	-8.74566
F	-8.74627
):	-8.74654
Run	-8.75044
▁better	-8.75296
▁given	-8.75349
wiki	-8.75364
▁Also	-8.75377
▁versions	-8.75381
▁search	-8.75501
▁Module	-8.75544
▁implement	-8.75673
▁setting	-8.7575
▁browser	-8.75773
json	-8.75801
[	-8.75966
▁warning	-8.7598
▁fine	-8.7625
Event	-8.76306
▁store	-8.76437
▁types	-8.76799
▁configure	-8.76945
python	-8.7697
▁schema	-8.76989
▁debug	-8.77238
text	-8.77343
▁un	-8.77555
Unknown	-8.77706
▁processing	-8.77717
▁Install	-8.77759
▁Change	-8.78015
▁sink	-8.78136
▁"--	-8.78139
▁action	-8.78279
▁below	-8.78351
▁Clover	-8.78443
▁resource	-8.78566
▁template	-8.79164
▁above	-8.79179
Default	-8.79212
▁format	-8.79235
B	-8.79443
▁properly	-8.79641
Eclipse	-8.79694
▁second	-8.79779
▁know	-8.79861
▁images	-8.80035
▁simulator	-8.80071
{	-8.80092
▁services	-8.80094
dirt	-8.80114
Build	-8.80201
true	-8.80241
▁parameter	-8.80371
▁building	-8.80532
▁jobs	-8.80602
es	-8.80634
:*	-8.80746
▁cause	-8.80865
▁specify	-8.80979
++	-8.81138
version	-8.81283
▁updates	-8.81338
▁failure	-8.81664
db	-8.817
▁B	-8.82325
▁lsst	-8.82336
▁description	-8.82432
▁step	-8.82491
launcher	-8.82502
▁exist	-8.82575
▁side	-8.82767
▁least	-8.82779
▁adding	-8.82791
▁doc	-8.82845
l	-8.8302
▁changed	-8.83068
▁color	-8.83101
▁many	-8.83242
▁similar	-8.83325
quinox	-8.83515
▁valid	-8.83768
▁Java	-8.83801
▁ESB	-8.83815
▁settings	-8.84104
▁Mule	-8.84158
jar	-8.8425
▁spring	-8.84362
probably	-8.84374
▁separate	-8.84424
▁User	-8.84905
Thread	-8.84986
▁false	-8.85054
server	-8.85085
▁calls	-8.85133
▁Select	-8.85465
▁dependency	-8.85775
▁connector	-8.85914
Library	-8.85926
▁called	-8.86372
▁sdk	-8.8642
▁Web	-8.86821
6.	-8.86885
▁***	-8.87013
▁additional	-8.87154
▁next	-8.87205
Display	-8.87274
Worker	-8.87388
GA	-8.87389
▁batch	-8.8761
▁enable	-8.87708
set	-8.87713
▁10	-8.87752
▁target	-8.87887
quote	-8.87943
no	-8.88086
▁REST	-8.88193
▁dependencies	-8.88691
u	-8.88761
▁response	-8.88931
cm	-8.89102
▁move	-8.89158
▁match	-8.89194
sh	-8.89217
▁Mesos	-8.89313
▁You	-8.8939
▁logs	-8.89427
▁functions	-8.89724
▁background	-8.89812
Launcher	-8.89826
▁me	-8.89864
▁copy	-8.8989
base	-8.89983
▁regression	-8.90086
▁definition	-8.90167
▁Talend	-8.90202
▁But	-8.90514
▁creation	-8.90754
▁long	-8.90768
▁Allow	-8.9094
execute	-8.91027
ll	-8.91127
▁automatically	-8.91392
▁causes	-8.91399
▁M	-8.91656
...	-8.91728
developer	-8.91897
▁scripts	-8.91931
dev	-8.92525
▁5	-8.9256
▁Job	-8.92571
▁shell	-8.92725
Starter	-8.92862
▁specified	-8.92919
▁5.	-8.93182
----------------	-8.93424
▁actually	-8.93452
MESSAGE	-8.93678
▁main	-8.93682
▁R	-8.93716
▁successfully	-8.93909
▁View	-8.9396
1)	-8.94022
▁place	-8.94078
properties	-8.94349
X	-8.94505
ability	-8.9473
▁returns	-8.94837
▁write	-8.95049
Action	-8.95073
up	-8.95302
adaptor	-8.95411
▁necessary	-8.95458
▁longer	-8.95477
▁clean	-8.95512
sdk	-8.95731
▁installation	-8.95896
▁variable	-8.95925
w	-8.9628
mobile	-8.96316
▁Aptana	-8.96439
▁performance	-8.96486
▁large	-8.96552
dir	-8.96582
▁help	-8.96661
▁exists	-8.96871
▁features	-8.96889
▁due	-8.97072
cc	-8.97087
▁queries	-8.97166
See	-8.97189
▁plugins	-8.97285
▁included	-8.97537
▁most	-8.97608
▁good	-8.97648
▁All	-8.97733
▁plan	-8.97986
▁git	-8.98098
Error	-8.98112
▁until	-8.98136
▁DQ	-8.98211
project	-8.9825
▁3)	-8.98448
▁details	-8.98449
win	-8.98641
▁So	-8.98716
▁box	-8.98789
▁once	-8.98903
▁self	-8.99087
▁mysql	-8.99169
io	-8.99174
▁]	-8.99652
▁Results	-8.99684
class	-8.99688
▁On	-8.99711
".	-8.99723
client	-8.99802
▁invalid	-9
▁objects	-9.00083
▁library	-9.00116
▁requires	-9.0016
▁close	-9.0042
▁post	-9.00502
▁includes	-9.00528
▁provided	-9.00687
▁password	-9.00806
▁Explorer	-9.00878
▁attribute	-9.0096
▁too	-9.01241
▁memory	-9.01336
▁every	-9.01339
▁P	-9.01381
▁focus	-9.0146
▁mule	-9.01651
▁thread	-9.01938
▁commands	-9.01953
▁OS	-9.02044
▁execution	-9.02191
job	-9.02452
▁syntax	-9.0251
▁v	-9.0262
▁distribution	-9.02641
string	-9.02816
▁contain	-9.02827
▁Not	-9.02834
jdbc	-9.02975
▁standard	-9.03183
▁model	-9.03195
▁full	-9.03299
▁->	-9.03457
appc	-9.03494
▁builds	-9.03514
▁pass	-9.03623
include	-9.03661
Widget	-9.03739
▁Server	-9.03753
platform	-9.03755
DM	-9.03765
▁public	-9.03766
▁few	-9.04122
▁against	-9.0414
▁present	-9.04144
▁extension	-9.04145
▁useful	-9.04257
ther	-9.0444
model	-9.04446
▁happens	-9.04454
▁Failed	-9.04464
▁dashboard	-9.04533
action	-9.04821
iphone	-9.04951
▁logging	-9.05003
▁started	-9.05097
▁named	-9.05136
hpp	-9.05264
Service	-9.05269
▁switch	-9.05339
▁us	-9.05344
▁own	-9.05405
▁off	-9.05556
▁db	-9.05659
▁operation	-9.05666
▁columns	-9.05686
▁cache	-9.05691
▁usage	-9.05907
▁rather	-9.05915
"/>	-9.06124
▁pattern	-9.06141
▁mesos	-9.06331
▁url	-9.06487
▁flag	-9.06487
▁Content	-9.06543
HSC	-9.06633
▁proxy	-9.06633
init	-9.06795
▁block	-9.06802
▁tag	-9.06967
▁Xcode	-9.06997
▁put	-9.07125
▁7	-9.07232
▁assist	-9.07247
▁steps	-9.07385
having	-9.0742
▁parameters	-9.07456
▁address	-9.0768
▁JavaScript	-9.07799
▁returned	-9.07821
▁An	-9.07838
▁tool	-9.08004
▁windows	-9.08062
Class	-9.08123
arg	-9.08189
▁DB	-9.08359
▁external	-9.08498
▁allows	-9.08518
▁did	-9.08529
is	-9.08541
new	-9.08657
▁several	-9.0877
▁drop	-9.09049
▁Currently	-9.09106
image	-9.0921
▁define	-9.09419
▁bar	-9.09446
▁getting	-9.09475
▁prompt	-9.095
Studio	-9.09575
▁examples	-9.09637
▁tables	-9.10109
▁X	-9.10241
▁D	-9.1027
value	-9.10322
▁registry	-9.10434
▁story	-9.10613
▁fixed	-9.10801
▁core	-9.10934
▁development	-9.10947
▁wrong	-9.11118
View	-9.11316
▁structure	-9.11319
▁Window	-9.11642
▁count	-9.11728
jface	-9.11739
▁implemented	-9.11946
▁Improve	-9.11954
▁validation	-9.11991
▁replace	-9.12061
▁meas	-9.12067
▁control	-9.12095
▁reports	-9.12201
▁basic	-9.12292
windows	-9.12343
service	-9.12372
▁directly	-9.12396
▁workspace	-9.12449
sql	-9.12477
4)	-9.12522
$1.	-9.12602
Listener	-9.12609
▁CSS	-9.12627
tmp	-9.12781
▁base	-9.12826
▁date	-9.13017
message	-9.13023
Connection	-9.13094
▁deleted	-9.13115
▁},	-9.13303
Manager	-9.13426
rdparty	-9.13569
▁Re	-9.13737
▁complete	-9.13834
▁auto	-9.1384
▁PHP	-9.13854
It	-9.13909
R	-9.13999
▁Method	-9.14033
function	-9.14073
▁edit	-9.14088
level	-9.14336
▁review	-9.14345
▁cluster	-9.14462
▁Dashboard	-9.14566
▁Launch	-9.14582
resources	-9.14823
▁manually	-9.14909
▁bottom	-9.14953
▁loading	-9.15503
Configuration	-9.15594
▁executor	-9.15641
▁String	-9.15667
▁clover	-9.15719
▁s	-9.15865
▁packaging	-9.16222
▁had	-9.16271
Window	-9.16284
access	-9.16298
▁W	-9.16384
▁Provide	-9.16462
▁entry	-9.16513
▁map	-9.16761
▁though	-9.1679
▁am	-9.16905
container	-9.16995
red	-9.17031
▁header	-9.17053
▁things	-9.1708
▁requirements	-9.17144
osx	-9.17589
▁give	-9.17622
source	-9.1763
impl	-9.17682
select	-9.17732
▁Runtime	-9.1775
▁global	-9.17772
▁common	-9.17814
stack	-9.17978
▁endpoints	-9.17984
▁INFO	-9.18177
update	-9.18246
▁upgrade	-9.18346
▁login	-9.18364
While	-9.18383
▁export	-9.18483
2)	-9.18647
▁templates	-9.18724
all	-9.1882
▁comments	-9.18855
support	-9.19025
▁6	-9.19078
▁configured	-9.19149
▁Python	-9.19175
App	-9.19184
▁channel	-9.19189
▁doing	-9.19273
createButton	-9.19368
▁developer	-9.19446
▁icons	-9.19501
▁team	-9.19542
time	-9.19609
String	-9.19854
File	-9.19917
integration	-9.19924
▁branch	-9.20044
▁much	-9.20081
▁never	-9.20169
▁solution	-9.20191
▁means	-9.20244
▁queue	-9.20408
}}.	-9.20651
▁whe	-9.20656
▁Moodle	-9.20829
▁trigger	-9.20865
▁row	-9.21035
not	-9.21162
Android	-9.21403
▁Preferences	-9.21687
▁around	-9.217
se	-9.21788
▁network	-9.21822
▁remote	-9.21921
▁/>	-9.21924
▁requests	-9.21952
it	-9.22016
▁made	-9.221
");	-9.22107
▁authentication	-9.22141
Description	-9.22185
blob	-9.22227
ios	-9.22235
▁storage	-9.22253
▁itself	-9.22283
▁Device	-9.22368
▁keep	-9.22435
▁initial	-9.22492
▁likely	-9.22493
▁lib	-9.22681
▁SAM	-9.22726
▁appropriate	-9.22732
▁actual	-9.22741
▁debugging	-9.228
▁site	-9.22893
▁Appcelerator	-9.23042
▁elements	-9.23069
▁ms	-9.2309
▁OK	-9.23106
default	-9.23165
DEBUG	-9.23474
▁std	-9.23528
▁account	-9.2362
▁ID	-9.23694
▁problems	-9.23853
events	-9.23871
▁including	-9.23974
▁particular	-9.24072
false	-9.24094
});	-9.24115
▁measurement	-9.24151
▁Problem	-9.24198
▁enter	-9.24203
port	-9.24423
▁security	-9.24426
▁coverage	-9.24548
▁Object	-9.24577
event	-9.2464
▁transport	-9.24676
▁download	-9.2471
junit	-9.24903
▁iPhone	-9.25023
definition	-9.25026
▁provider	-9.25271
git	-9.25327
Delegating	-9.25488
▁That	-9.25573
▁refer	-9.2578
Expected	-9.25892
report	-9.25972
white	-9.25975
▁Document	-9.26289
=$	-9.26499
k	-9.26544
▁real	-9.26662
do	-9.26721
Id	-9.2678
with	-9.26801
▁tools	-9.27026
▁layout	-9.27034
▁containers	-9.27084
Type	-9.27219
▁selection	-9.27489
Cannot	-9.2749
▁discussion	-9.27559
foo	-9.276
▁preferences	-9.27667
across	-9.28005
which	-9.28196
jobs	-9.28294
var	-9.2835
as	-9.28414
▁machine	-9.28497
▁preference	-9.28524
▁Go	-9.28629
▁And	-9.28773
edu	-9.28831
▁pre	-9.28872
▁ERROR	-9.29015
▁theme	-9.29083
Node	-9.29216
profiler	-9.2922
▁links	-9.29312
▁improve	-9.29645
▁original	-9.29792
▁native	-9.29819
▁clear	-9.2993
google	-9.29946
path	-9.29966
▁else	-9.2999
▁broken	-9.29993
15	-9.29995
if	-9.30095
▁Configuration	-9.30108
osgi	-9.30189
▁docs	-9.30404
div	-9.30503
▁sent	-9.30767
Name	-9.31042
9)	-9.31091
▁hard	-9.31103
3)	-9.31111
▁2015	-9.31179
curator	-9.31264
line	-9.31377
▁visible	-9.31437
▁style	-9.31447
▁lot	-9.31453
install	-9.31626
▁management	-9.31627
call	-9.31779
Container	-9.31869
W	-9.31916
▁avoid	-9.32222
▁route	-9.32227
▁const	-9.32363
▁perform	-9.32395
▁parent	-9.32478
fff	-9.32592
▁L	-9.32984
▁Unable	-9.33065
▁future	-9.33122
based	-9.33243
▁bit	-9.33316
▁total	-9.33405
mulesoft	-9.33519
▁times	-9.33544
▁tap	-9.33917
▁rows	-9.33971
▁T	-9.34007
▁V	-9.34064
▁nice	-9.34189
▁upload	-9.34224
▁maven	-9.34361
▁crash	-9.3456
Context	-9.34571
▁disk	-9.34574
Documents	-9.34744
0)	-9.34848
▁Eclipse	-9.34855
out	-9.34866
":"	-9.349
▁previous	-9.3508
Using	-9.35099
Filesystem	-9.35208
▁Replace	-9.35241
▁continue	-9.35251
Linux	-9.35362
▁Maven	-9.35478
16	-9.35558
database	-9.35559
▁tabGroup	-9.35617
▁stop	-9.35771
▁rule	-9.3607
▁repo	-9.36099
projects	-9.36161
7)	-9.36233
▁variables	-9.36267
Workspace	-9.36403
Actual	-9.36743
▁Investigate	-9.3687
To	-9.37081
▁success	-9.37157
▁python	-9.37165
▁nodes	-9.3719
▁depend	-9.37355
▁isn	-9.37392
▁Debug	-9.37434
▁array	-9.37452
▁built	-9.37597
▁Should	-9.37654
▁processor	-9.37733
concurrent	-9.37789
plugin	-9.37842
▁Log	-9.37883
Factory	-9.37886
▁x	-9.37902
▁host	-9.37921
▁Code	-9.38034
▁scroll	-9.38071
iOS	-9.3844
Handler	-9.38489
▁comment	-9.38511
▁occur	-9.38534
read	-9.3854
▁Command	-9.38561
▁Exception	-9.38605
▁Linux	-9.38662
▁profile	-9.38749
▁indicator	-9.3883
my	-9.38887
▁keyboard	-9.38914
▁Set	-9.38962
▁associated	-9.39083
▁reason	-9.3926
▁8	-9.39563
▁transform	-9.39906
▁Package	-9.39907
▁parser	-9.39926
▁restart	-9.39955
▁execute	-9.39966
▁seem	-9.40091
▁strategy	-9.40276
▁static	-9.40446
▁keys	-9.40514
BuildManager	-9.4061
▁These	-9.40636
▁refresh	-9.40732
▁namespace	-9.40775
▁internal	-9.41044
▁curl	-9.41049
';	-9.4105
▁instances	-9.41161
▁characters	-9.41186
▁ensure	-9.41188
so	-9.41273
table	-9.41297
▁shared	-9.4142
▁handling	-9.41513
ref	-9.41516
▁crashes	-9.41527
▁Container	-9.41572
";	-9.41693
▁Move	-9.41696
K	-9.41808
▁activity	-9.41915
corp	-9.41969
▁showing	-9.42032
64	-9.42047
▁Admin	-9.42111
▁O	-9.42143
H	-9.42356
▁small	-9.42408
url	-9.42472
▁scope	-9.42504
▁CI	-9.42522
▁bundle	-9.42558
▁form	-9.42564
▁packages	-9.42629
studio	-9.4264
hadoop	-9.42693
▁optional	-9.42723
like	-9.42785
▁runs	-9.42811
libprocess	-9.42855
></	-9.42876
slave	-9.42937
▁occurred	-9.43114
builder	-9.43242
▁Here	-9.43319
▁disabled	-9.43336
There	-9.43408
▁meeting	-9.43439
▁From	-9.43524
common	-9.43724
▁connect	-9.43749
application	-9.43799
▁Master	-9.43825
▁w	-9.43872
▁sub	-9.43953
▁important	-9.43973
▁HDFS	-9.44053
launch	-9.44066
▁verify	-9.44166
edit	-9.44302
ally	-9.44314
check	-9.44372
▁perspective	-9.44444
▁samples	-9.44588
18	-9.4462
▁Refactor	-9.44831
▁operations	-9.44852
os	-9.44852
▁yet	-9.4486
key	-9.4492
▁starting	-9.44974
redis	-9.45212
simply	-9.45288
▁Simulator	-9.45421
context	-9.45474
For	-9.45672
▁multi	-9.45699
▁libraries	-9.45786
▁nothing	-9.45806
▁area	-9.45937
▁hadoop	-9.46037
txt	-9.4609
deploy	-9.46161
▁==	-9.46218
▁listed	-9.46297
▁Some	-9.46384
▁progress	-9.46521
▁builder	-9.46524
▁three	-9.4653
std	-9.46583
▁Edit	-9.46612
▁SDKs	-9.46639
▁apps	-9.46645
▁One	-9.46677
▁Upgrade	-9.46763
zip	-9.4692
▁FAILED	-9.46925
groovy	-9.46975
▁Running	-9.47093
▁trace	-9.47102
▁u	-9.47113
V	-9.47347
▁determine	-9.47348
Object	-9.47586
▁session	-9.47646
al	-9.47708
Framework	-9.47891
payload	-9.47941
▁alloy	-9.4797
Project	-9.47976
▁assignment	-9.48024
▁LSE	-9.4831
64/	-9.48331
▁strings	-9.48357
▁Need	-9.48405
▁happen	-9.48648
▁argument	-9.48687
▁void	-9.48782
shell	-9.48812
▁occurs	-9.48845
▁Batch	-9.48997
▁however	-9.49175
▁agent	-9.49206
content	-9.49234
▁worker	-9.49343
▁MESOS	-9.494
▁redis	-9.49539
>(	-9.49672
▁demo	-9.49892
▁scheduler	-9.49897
▁APIs	-9.49924
10	-9.49969
")	-9.49993
▁going	-9.49996
handle	-9.50045
▁r	-9.50051
Job	-9.50051
▁everything	-9.50054
▁driver	-9.5011
▁popup	-9.50181
▁prototype	-9.5036
▁got	-9.50424
▁creates	-9.50653
device	-9.50974
Data	-9.50983
.<	-9.51018
▁guide	-9.51103
▁Example	-9.51176
▁final	-9.51182
ooKeeper	-9.51207
▁picker	-9.51219
▁Import	-9.51292
▁mak	-9.51331
▁Editor	-9.51336
▁opened	-9.51399
▁pop	-9.51613
▁incorrect	-9.5163
▁choose	-9.51694
▁4)	-9.51804
FROM	-9.5184
Launch	-9.51849
schema	-9.5187
▁infrastructure	-9.51957
▁passed	-9.5198
▁NCSA	-9.51992
▁later	-9.52
▁thrown	-9.52043
▁consider	-9.5211
▁Q	-9.52204
▁Message	-9.52225
▁closed	-9.52372
▁stored	-9.52376
▁o	-9.52437
▁checked	-9.52442
▁Default	-9.52454
));	-9.52725
▁easy	-9.52865
ID	-9.5292
▁apply	-9.5292
];	-9.52938
▁persistent	-9.53003
▁spaces	-9.53165
JS	-9.53255
▁Image	-9.53261
G	-9.53792
Label	-9.53875
><	-9.541
▁expression	-9.54186
:1	-9.54197
cli	-9.54198
TIMOB	-9.54444
▁czar	-9.5446
▁afw	-9.545
▁__	-9.54571
▁connections	-9.54609
from	-9.54618
▁deprecated	-9.54766
▁note	-9.54768
▁Try	-9.54811
forum	-9.54882
map	-9.5499
8)	-9.55007
plugins	-9.55018
▁TiApp	-9.55056
▁ones	-9.55165
▁JIRA	-9.55191
▁Since	-9.55264
▁Start	-9.55361
▁mapping	-9.55475
▁lines	-9.55555
▁developers	-9.5564
▁startup	-9.55673
workspace	-9.55683
▁break	-9.55762
▁convert	-9.55794
one	-9.55876
▁maintenance	-9.55902
▁mechanism	-9.55975
▁0,	-9.56098
▁Shell	-9.56122
▁Now	-9.56187
▁consumer	-9.56353
Repository	-9.56356
With	-9.56365
Tab	-9.56448
tools	-9.56484
▁production	-9.5651
▁enough	-9.56554
▁JDBC	-9.56719
▁Mac	-9.56756
▁Clean	-9.56912
▁detail	-9.57134
cache	-9.5719
null	-9.57376
▁logic	-9.57384
▁launching	-9.57409
▁SQL	-9.57693
EN	-9.57742
▁What	-9.57747
ble	-9.58048
▁Firefly	-9.58631
javascript	-9.58652
▁p	-9.5871
▁Design	-9.58739
▁Resources	-9.5881
▁CXF	-9.58858
▁pull	-9.58967
commit	-9.59014
endpoint	-9.59091
▁contents	-9.5915
▁sources	-9.59177
▁Enable	-9.592
password	-9.59296
▁preview	-9.59361
Desktop	-9.59371
▁whole	-9.59453
ion	-9.5956
5)	-9.59625
ting	-9.59719
ious	-9.59733
Message	-9.5975
▁algorithm	-9.59794
▁completion	-9.59877
expression	-9.59944
▁TISTUD	-9.59965
▁duplicate	-9.60014
▁src	-9.60051
▁camera	-9.60061
confluence	-9.60366
▁approach	-9.60373
=/	-9.60406
▁writing	-9.60491
▁corresponding	-9.60498
Local	-9.60549
▁please	-9.60551
▁FY	-9.60623
label	-9.60651
▁handler	-9.60814
NullPointer	-9.60835
Process	-9.6087
▁Stream	-9.60919
▁launched	-9.60944
▁active	-9.60976
▁rest	-9.61075
Resource	-9.61094
▁points	-9.61208
Index	-9.61257
▁moodle	-9.61306
assign	-9.61328
▁Application	-9.61394
17	-9.61417
▁easily	-9.6144
▁notification	-9.6144
▁payload	-9.61551
▁Publish	-9.61861
▁Right	-9.61905
▁tested	-9.61908
▁conversion	-9.61933
Module	-9.62006
New	-9.62088
output	-9.62147
▁installer	-9.62214
LSST	-9.62303
=0	-9.62431
▁why	-9.62516
▁recent	-9.62536
latest	-9.62585
▁MDL	-9.62597
▁Notice	-9.62669
▁Cause	-9.62741
▁Bamboo	-9.62896
▁Emulator	-9.63023
▁6.	-9.63182
▁Description	-9.63326
an	-9.6341
▁hdfs	-9.63434
ROOT	-9.63489
TRY	-9.63548
createView	-9.6362
▁entity	-9.6363
6)	-9.63669
▁containing	-9.63932
▁\	-9.6396
STACK	-9.64465
▁docker	-9.64511
▁servers	-9.6459
apple	-9.64713
trigger	-9.64758
▁disable	-9.6479
▁};	-9.6484
at	-9.64919
▁processes	-9.64924
▁?	-9.65077
▁double	-9.65142
▁Can	-9.65301
▁Locator	-9.65339
property	-9.65443
▁publish	-9.65635
▁Docker	-9.65661
▁Then	-9.65731
","	-9.65798
▁AND	-9.65827
▁Un	-9.65879
be	-9.6591
2/	-9.65949
Handle	-9.66199
:5	-9.66212
SWT	-9.66238
▁platforms	-9.66251
mysql	-9.66257
▁Redis	-9.66332
▁email	-9.66376
▁arguments	-9.66398
▁failing	-9.66493
:>	-9.66521
▁checkbox	-9.66555
list	-9.66556
▁anything	-9.66585
▁Google	-9.66617
0(	-9.66643
▁updating	-9.66645
▁written	-9.6665
=1	-9.66717
services	-9.66801
▁orientation	-9.66823
▁capture	-9.66931
▁IP	-9.66977
target	-9.67072
▁attempt	-9.67193
1,	-9.67306
▁applications	-9.6738
▁feedback	-9.67509
Command	-9.67605
▁devices	-9.67743
2:	-9.67822
▁displays	-9.67827
▁executed	-9.67831
▁child	-9.6788
▁token	-9.67932
▁notice	-9.67946
▁push	-9.67986
▁views	-9.67993
▁character	-9.68032
ation	-9.68055
▁With	-9.68133
▁domain	-9.6817
-8	-9.68239
▁Updates	-9.68277
▁f	-9.68375
▁extra	-9.6842
:2	-9.68422
processor	-9.68442
On	-9.68694
Media	-9.68701
▁streams	-9.68759
▁provides	-9.6876
▁20	-9.68821
▁detect	-9.68841
▁DuraCloud	-9.68939
/3	-9.68949
▁buttons	-9.69159
Platform	-9.69172
▁press	-9.69242
▁headers	-9.69271
▁epic	-9.69277
▁PSF	-9.69295
▁Only	-9.69391
▁undefined	-9.69457
▁accept	-9.69468
only	-9.6947
▁editing	-9.69477
▁understand	-9.69514
▁notes	-9.69568
▁interfaces	-9.69578
1/	-9.69593
self	-9.69683
▁warnings	-9.69705
▁consistent	-9.69827
▁||	-9.69847
▁tried	-9.69918
▁Could	-9.70233
tasks	-9.70246
▁won	-9.70247
changing	-9.70338
▁parse	-9.70347
runner	-9.70377
▁catalog	-9.70514
▁WSDL	-9.70519
▁follow	-9.70614
createLabel	-9.70919
afw	-9.70991
library	-9.70992
us	-9.71072
Info	-9.71076
▁along	-9.71234
▁paths	-9.71338
store	-9.71475
▁saved	-9.71531
▁cleanup	-9.71572
▁200	-9.71622
▁validate	-9.71716
▁hook	-9.71983
▁bad	-9.71991
▁great	-9.72006
▁At	-9.72068
package	-9.72138
▁software	-9.72149
usergrid	-9.72253
▁flags	-9.72276
dhyde	-9.72297
▁compile	-9.7233
color	-9.72384
▁Resource	-9.72422
acs	-9.72426
q	-9.72456
pull	-9.72505
▁They	-9.72554
▁outline	-9.72565
yml	-9.72683
basic	-9.72776
parse	-9.72812
=>	-9.72879
Update	-9.73069
▁Slave	-9.7309
▁behaviour	-9.73136
▁further	-9.73155
▁collection	-9.73175
▁Rapid	-9.73178
▁embedded	-9.7318
script	-9.7318
▁lost	-9.73183
▁relevant	-9.73229
Resources	-9.73328
ContributionItem	-9.73354
N	-9.73402
▁proper	-9.73439
▁Delete	-9.73473
▁position	-9.73474
▁screenshots	-9.73521
▁configurable	-9.73698
▁entries	-9.73728
='	-9.73745
removing	-9.73878
doc	-9.7396
▁addition	-9.74037
manager	-9.74039
▁ok	-9.74044
▁who	-9.74077
ENT	-9.74078
▁language	-9.7413
▁opens	-9.74178
='.$	-9.74195
page	-9.74297
metadata	-9.74423
▁Type	-9.74501
send	-9.74531
show	-9.74544
▁involves	-9.74608
reference	-9.74713
From	-9.7472
▁Ubuntu	-9.74724
though	-9.74732
load	-9.74825
▁TDQ	-9.74858
▁Store	-9.75011
▁quota	-9.75069
▁Repository	-9.7526
tab	-9.75349
());	-9.75403
O	-9.7541
▁expose	-9.75427
▁allocator	-9.75434
▁deal	-9.75489
▁obs	-9.75498
▁seen	-9.75619
▁commit	-9.75646
RY	-9.75752
HOME	-9.75791
▁modal	-9.75866
▁List	-9.75895
▁Version	-9.7601
▁targets	-9.76071
z	-9.76163
▁statistics	-9.76196
▁attributes	-9.76242
▁SUI	-9.76252
transport	-9.76274
▁00-00	-9.7633
▁hit	-9.7638
flow	-9.76445
▁general	-9.76692
▁-->	-9.767
Support	-9.76878
algorithms	-9.76889
state	-9.76958
▁sync	-9.77062
delete	-9.77155
---------------	-9.77247
Real	-9.7732
▁OR	-9.77322
▁sort	-9.77347
▁username	-9.77369
▁wiki	-9.77422
▁parsing	-9.77502
▁resolve	-9.77616
▁Database	-9.77676
Proxy	-9.77696
beans	-9.77701
▁G	-9.77715
▁failures	-9.77766
▁high	-9.77797
▁timeout	-9.77839
▁listener	-9.77892
▁modify	-9.77908
▁font	-9.78043
bamboo	-9.78067
remove	-9.78119
meas	-9.78124
1',	-9.78249
▁NPE	-9.78412
▁zip	-9.78515
▁completed	-9.78559
▁'/	-9.78615
▁rename	-9.78627
emulator	-9.78655
▁.	-9.78657
(),	-9.78726
users	-9.78745
rest	-9.7881
▁seconds	-9.78865
createAndRun	-9.78934
WHERE	-9.78937
▁certain	-9.78969
▁indicators	-9.79046
){	-9.79115
dist	-9.79124
▁configurations	-9.79148
▁numbers	-9.79174
▁Hadoop	-9.79232
▁9	-9.79375
▁summary	-9.79441
Need	-9.79468
1);	-9.79535
▁references	-9.796
system	-9.7965
▁Route	-9.79724
▁Sink	-9.79747
')	-9.79797
st	-9.79855
▁Do	-9.79879
use	-9.79894
().	-9.79957
▁ios	-9.80035
▁systems	-9.80089
Request	-9.8017
▁people	-9.80227
PlatformUI	-9.80276
▁STS	-9.80284
▁logged	-9.80348
▁2.0	-9.80352
11	-9.80358
▁let	-9.80502
▁migration	-9.80594
▁starts	-9.80622
▁MobileWeb	-9.80668
▁loaded	-9.80701
▁Invalid	-9.80706
▁J	-9.80725
▁breakpoint	-9.80823
▁wait	-9.8083
▁definitions	-9.80914
▁bean	-9.80935
▁operator	-9.81081
▁Query	-9.81131
▁board	-9.81169
▁Services	-9.81279
▁turn	-9.8133
▁category	-9.81366
▁finish	-9.81391
▁mod	-9.81403
channel	-9.81408
▁goes	-9.81515
▁manifest	-9.81566
▁blank	-9.81575
▁moving	-9.81617
(){	-9.81625
alloy	-9.81688
console	-9.8169
WARN	-9.8175
▁bring	-9.8181
▁Help	-9.81841
▁unique	-9.81961
ec	-9.8197
Th	-9.81997
filter	-9.82
Re	-9.82013
Map	-9.8212
query	-9.82479
dp	-9.82549
▁protobuf	-9.82704
▁outside	-9.82722
▁detected	-9.82748
▁Copy	-9.82761
▁debugger	-9.82768
▁SSL	-9.8279
▁Phone	-9.82966
ant	-9.83071
down	-9.83155
▁raw	-9.83169
▁others	-9.83258
astro	-9.83299
sun	-9.83318
▁upon	-9.83338
▁student	-9.83346
▁Date	-9.83354
▁limit	-9.83485
Alloy	-9.83518
demo	-9.83521
▁come	-9.83582
▁Deploy	-9.83591
hsc	-9.83592
exception	-9.83615
connection	-9.83704
▁looking	-9.8373
bit	-9.83772
Utils	-9.83784
▁handled	-9.83903
▁print	-9.84068
▁role	-9.84144
close	-9.84177
▁connected	-9.84181
▁described	-9.84225
▁improvement	-9.84243
▁My	-9.8425
IP	-9.84343
▁pick	-9.8444
Windows	-9.84459
Implement	-9.84663
window	-9.84756
▁video	-9.8501
▁Number	-9.85013
▁receive	-9.85036
▁easier	-9.85128
FileSystem	-9.85129
ClassLoader	-9.85162
▁far	-9.85188
readPoolExecutor	-9.85258
web	-9.85271
▁eups	-9.8546
zookeeper	-9.85614
▁100	-9.85618
▁moved	-9.8575
bar	-9.85844
▁classpath	-9.85885
No	-9.86008
▁Port	-9.86055
▁reading	-9.86136
▁listing	-9.86264
▁fact	-9.86266
▁F	-9.86377
dq	-9.86378
UnifiedBuilder	-9.86391
ProgramData	-9.86394
▁Map	-9.86433
▁directories	-9.86514
BeanFactory	-9.86531
▁jar	-9.8655
▁Instead	-9.86577
▁expect	-9.86787
documentation	-9.86788
▁tags	-9.86818
▁Release	-9.86883
linux	-9.86981
▁allowed	-9.87029
▁slaves	-9.87062
▁checking	-9.87065
▁filesystem	-9.87159
write	-9.87184
▁installing	-9.87233
▁matching	-9.87242
Replace	-9.87351
looks	-9.87378
▁grade	-9.87398
▁Acceptance	-9.87457
bility	-9.87539
▁Base	-9.87627
▁groups	-9.8767
▁socket	-9.87671
SITEID	-9.87691
Reference	-9.87758
▁xmlns	-9.87761
▁NOT	-9.87788
XD	-9.87912
▁portal	-9.87975
▁cancel	-9.88038
▁represent	-9.8804
Open	-9.88056
▁Process	-9.88087
:'#	-9.88123
▁xml	-9.88521
▁assume	-9.88617
▁defaults	-9.88716
▁ACS	-9.88774
▁metrics	-9.88875
▁individual	-9.88981
▁explicitly	-9.89038
▁cursor	-9.89206
mutex	-9.89252
▁fixes	-9.89386
▁terminal	-9.89404
▁POST	-9.89464
assignment	-9.8948
▁says	-9.89554
20	-9.89554
▁visit	-9.89555
▁exceptions	-9.89659
▁dynamic	-9.89727
▁maybe	-9.89751
▁foo	-9.89762
▁generic	-9.89863
Y	-9.89926
ee	-9.8998
rinceton	-9.90058
when	-9.9019
="${	-9.9035
▁deleting	-9.904
▁goal	-9.90428
of	-9.90527
▁naming	-9.90559
▁distributed	-9.90602
▁received	-9.90649
▁Level	-9.90769
nested	-9.90823
▁Cloud	-9.90844
▁repositories	-9.90938
▁manager	-9.90944
▁registered	-9.90965
SNAPSHOT	-9.91007
▁libprocess	-9.91017
ws	-9.91248
item	-9.91368
esb	-9.91397
thread	-9.9146
▁Step	-9.91511
▁supports	-9.91645
request	-9.91658
▁sense	-9.91748
▁improvements	-9.91786
▁together	-9.9179
▁splash	-9.91953
2']	-9.9201
▁selecting	-9.92074
▁overview	-9.9226
▁sql	-9.9227
▁Connection	-9.92328
containerizer	-9.92335
lsstsw	-9.92376
▁System	-9.92392
TRACE	-9.92419
Remove	-9.92438
▁drag	-9.92534
▁JDK	-9.92571
▁scons	-9.92636
▁track	-9.92705
int	-9.92781
IN	-9.92786
▁10,	-9.9302
▁callback	-9.93082
▁places	-9.93112
xsd	-9.93112
Helper	-9.93131
▁Board	-9.93161
Filter	-9.93163
fb	-9.93198
Base	-9.9321
SI	-9.9328
▁compatible	-9.93299
▁TESB	-9.93332
▁amount	-9.93421
▁successful	-9.93426
Java	-9.93543
Source	-9.93591
analysis	-9.93609
▁Look	-9.93639
▁fetcher	-9.93686
Database	-9.93753
▁reported	-9.93764
Task	-9.93766
▁shutdown	-9.93827
▁best	-9.93878
▁GET	-9.93916
▁shortcut	-9.93945
de	-9.94066
▁Failure	-9.94082
SQL	-9.94178
XML	-9.94218
▁IDEA	-9.94362
▁retrieve	-9.94406
▁entire	-9.94423
body	-9.94472
▁override	-9.94475
-4	-9.94637
▁Sprint	-9.94644
▁detailed	-9.94661
▁toolbar	-9.94676
▁'#	-9.94743
▁fully	-9.94849
▁oracle	-9.94866
▁pages	-9.94911
▁OpenStack	-9.94944
▁&&	-9.94989
size	-9.95128
▁question	-9.95131
description	-9.95148
height	-9.95178
security	-9.95181
▁containerizer	-9.95216
▁pool	-9.95219
▁opening	-9.95221
cxf	-9.95239
const	-9.95244
▁register	-9.95279
▁max	-9.95645
▁lead	-9.95691
command	-9.95813
files	-9.9603
▁Debugger	-9.9605
▁Once	-9.96128
Version	-9.96129
book	-9.96144
TYPE	-9.96145
▁algorithms	-9.9615
-1	-9.96158
▁Enter	-9.96181
▁refactor	-9.96184
object	-9.96199
▁Name	-9.96252
65	-9.96308
▁kind	-9.96338
▁PR	-9.96459
▁Wizard	-9.96474
▁How	-9.96495
▁dev	-9.96529
Internal	-9.96577
soap	-9.96588
▁Show	-9.96593
▁ignore	-9.96597
Appcelerator	-9.96615
▁folders	-9.96753
▁attachment	-9.96777
▁prevent	-9.96977
host	-9.97061
back	-9.97081
▁isolator	-9.97141
▁deploying	-9.97217
32\	-9.97296
awt	-9.97323
▁Karaf	-9.97325
00	-9.97431
▁generation	-9.97464
▁explorer	-9.975
▁special	-9.97506
▁Tizen	-9.9754
▁tell	-9.97629
/#	-9.97674
socket	-9.97688
comment	-9.97711
▁OSGi	-9.97716
▁imported	-9.97719
date	-9.97789
],	-9.9789
webservice	-9.9798
▁Apple	-9.98029
▁##	-9.98093
▁Review	-9.98119
end	-9.9815
▁scenario	-9.98155
13	-9.98168
▁moment	-9.98202
▁Request	-9.98213
Stream	-9.98508
▁short	-9.98536
▁volume	-9.9857
▁license	-9.98631
▁contribute	-9.98687
12	-9.98711
▁fire	-9.98729
hibernate	-9.98738
▁thing	-9.98749
▁FTP	-9.98765
%20	-9.98804
format	-9.98836
▁Ideally	-9.98837
▁packaged	-9.98842
▁16	-9.98872
())	-9.9892
▁Deployment	-9.98962
8:	-9.99098
▁binary	-9.99146
▁perhaps	-9.9915
▁manage	-9.99166
--	-9.99176
▁closing	-9.99188
▁TiStudio	-9.99193
▁Metadata	-9.99243
▁Integration	-9.99353
loader	-9.99374
▁FITS	-9.99378
▁RUN	-9.99393
▁boost	-9.99477
Hello	-9.99493
DIR	-9.99512
▁permissions	-9.99557
unknown	-9.99638
stout	-9.99733
▁outbound	-9.9999
Issue	-10.0003
li	-10.0003
AppData	-10.0023
Install	-10.0075
▁patch	-10.0075
Config	-10.0087
▁bin	-10.0094
auto	-10.0095
▁Documentation	-10.0097
management	-10.0108
gradle	-10.0111
▁cloud	-10.0143
▁say	-10.0146
▁api	-10.0146
▁record	-10.0158
▁mobileweb	-10.0167
Use	-10.0173
▁Tests	-10.0174
▁capabilities	-10.0177
▁JMS	-10.0178
using	-10.0179
2,	-10.0179
▁instructions	-10.0179
▁caus	-10.0181
▁Search	-10.0183
▁controller	-10.0184
User	-10.0193
button	-10.0199
▁Apache	-10.0203
▁pom	-10.0222
:54)	-10.0224
▁hidden	-10.0224
▁MySQL	-10.0227
▁idea	-10.0232
▁less	-10.0232
▁artifact	-10.0235
▁Export	-10.0241
▁loader	-10.0243
proxy	-10.0243
athChildrenCache	-10.0248
▁parallel	-10.0255
▁estimate	-10.0255
ms	-10.0259
▁affect	-10.026
▁restore	-10.026
▁1.0	-10.0265
▁away	-10.0271
▁WARN	-10.0272
reviews	-10.0283
Content	-10.0291
▁EC	-10.0292
▁d	-10.0295
()}}	-10.0304
▁applied	-10.0323
J	-10.0331
▁completely	-10.0336
▁credentials	-10.0344
▁npm	-10.0348
▁unexpected	-10.0348
▁noticed	-10.0353
style	-10.0365
utils	-10.0381
▁frameworks	-10.0382
▁known	-10.0389
▁he	-10.039
?)	-10.0401
And	-10.0412
work	-10.0412
All	-10.0417
▁exit	-10.0421
▁reset	-10.0434
▁VM	-10.0441
queue	-10.0446
▁SL	-10.0455
▁Issue	-10.0457
▁lock	-10.0464
▁confusing	-10.0477
▁immediately	-10.0477
▁xrootd	-10.048
▁datamart	-10.0483
DB	-10.0483
▁SELECT	-10.0486
▁TAC	-10.0489
▁Report	-10.0493
▁transfer	-10.0498
▁Link	-10.0503
Runnable	-10.0503
factory	-10.0503
▁triggered	-10.0505
▁Files	-10.0512
▁Rename	-10.0514
▁fill	-10.0516
▁launches	-10.0524
▁blocks	-10.0529
▁replaced	-10.054
▁compiler	-10.0562
method	-10.058
▁suggest	-10.0581
Row	-10.0583
camel	-10.0584
child	-10.0592
Parser	-10.0596
▁calling	-10.0598
▁reader	-10.0603
▁12	-10.0603
▁vs	-10.0604
▁7.	-10.0611
▁H	-10.0615
▁Suggest	-10.062
▁product	-10.0623
WCAG	-10.0631
FutureTask	-10.0632
▁Work	-10.0639
▁tries	-10.0646
▁populate	-10.0647
▁Verify	-10.0652
▁introduced	-10.0655
▁annotation	-10.0658
param	-10.0662
▁Camera	-10.0663
Set	-10.0685
▁})	-10.0686
▁Git	-10.0686
▁difference	-10.0687
TestCase	-10.0702
▁11	-10.0705
▁migrate	-10.0709
▁inbound	-10.0714
▁./	-10.0721
generating	-10.0722
▁certificate	-10.0724
▁Access	-10.0728
▁effort	-10.0738
MESOS	-10.0741
▁fit	-10.0744
opt	-10.0777
0',	-10.0777
▁Stack	-10.0779
▁prefix	-10.0781
▁rely	-10.0782
Debug	-10.0784
Click	-10.0786
codehaus	-10.079
▁agents	-10.0793
▁sections	-10.08
▁int	-10.0806
▁recognized	-10.0808
▁often	-10.081
▁describe	-10.0813
▁sometimes	-10.0814
▁fetch	-10.082
fs	-10.0823
▁rules	-10.0826
My	-10.0835
▁direct	-10.0836
connect	-10.0845
post	-10.0847
▁Setup	-10.0847
▁specification	-10.0858
▁Write	-10.0875
▁ask	-10.0876
▁follows	-10.088
▁leave	-10.088
ip	-10.0883
▁LiveView	-10.0884
▁500	-10.0887
▁Configure	-10.0895
▁json	-10.0902
▁implementing	-10.0904
panel	-10.0905
blackberry	-10.0906
▁become	-10.0906
▁word	-10.0907
86	-10.0915
▁RFC	-10.0917
Controller	-10.0919
▁filters	-10.0922
Metadata	-10.0937
▁big	-10.095
EventQueue	-10.0952
▁extend	-10.0953
tap	-10.0959
▁explain	-10.0963
▁jars	-10.0963
▁checks	-10.0968
▁channels	-10.097
databind	-10.0976
▁tabs	-10.0982
▁Define	-10.0983
▁merge	-10.0992
quite	-10.0998
▁backup	-10.1004
▁taken	-10.1006
▁refactoring	-10.1009
inbound	-10.1013
72	-10.1018
Log	-10.1029
▁resolved	-10.103
images	-10.1035
current	-10.1044
Builder	-10.1052
Path	-10.1053
▁chain	-10.1061
specific	-10.1062
repository	-10.1063
backgroundColor	-10.1063
nsure	-10.1072
vertical	-10.1078
apps	-10.1079
▁google	-10.1084
2);	-10.1092
▁profiles	-10.1113
25	-10.1116
▁slow	-10.112
▁major	-10.1123
▁extensions	-10.1127
▁inform	-10.1133
testing	-10.1135
dd	-10.1139
▁wrapper	-10.1141
location	-10.1149
push	-10.1159
▁More	-10.116
▁yes	-10.1162
field	-10.1166
▁URI	-10.1167
▁older	-10.1172
▁Get	-10.1176
▁becomes	-10.1178
▁detection	-10.1186
>{	-10.1186
▁%	-10.1188
Client	-10.1202
batch	-10.1202
▁labels	-10.1206
most	-10.1212
Code	-10.1216
Pattern	-10.1224
▁Settings	-10.1227
▁l	-10.1228
▁indicat	-10.1241
▁released	-10.1242
iPhone	-10.1245
WARNING	-10.1245
didn	-10.125
▁statement	-10.125
▁indexing	-10.1261
Assert	-10.1265
classes	-10.1267
▁reduce	-10.1275
Socket	-10.1275
▁WS	-10.1289
▁Framework	-10.1289
▁executing	-10.129
case	-10.1291
▁async	-10.1297
▁Week	-10.1301
▁ignored	-10.1311
:8080/	-10.1321
▁Camel	-10.1321
▁home	-10.1323
▁sets	-10.1324
▁counter	-10.1328
▁Integrate	-10.1338
streams	-10.1347
▁split	-10.135
▁modified	-10.136
root	-10.1364
username	-10.1377
▁generates	-10.1377
▁N	-10.1382
fd	-10.1386
▁notifications	-10.1387
▁wants	-10.1388
site	-10.1393
views	-10.1396
ff	-10.1396
imp	-10.141
▁reflect	-10.141
▁indicate	-10.141
length	-10.1417
Once	-10.1423
▁scale	-10.143
▁ListView	-10.1439
etc	-10.1446
intellij	-10.1452
pipe	-10.1459
▁minimum	-10.1459
▁formatting	-10.146
bb	-10.1467
▁proposed	-10.147
▁Guide	-10.1477
▁Overview	-10.1478
ba	-10.1478
▁Context	-10.1488
▁CA	-10.1491
▁Switch	-10.1491
▁submission	-10.1494
79	-10.1494
84)	-10.1496
▁browsers	-10.1496
▁dir	-10.1502
box	-10.1509
folder	-10.151
▁requested	-10.1512
Model	-10.1517
\\	-10.1519
cd	-10.1528
▁destroy	-10.153
▁Template	-10.1535
tree	-10.1538
▁rabbit	-10.1541
Note	-10.1543
side	-10.1543
▁)	-10.1544
}<	-10.1549
▁clicked	-10.1565
Standard	-10.1576
▁condition	-10.1578
▁Modules	-10.1586
npm	-10.1596
Server	-10.1601
▁redirect	-10.1608
▁investigate	-10.1612
▁de	-10.162
::__1::	-10.1624
▁third	-10.1626
▁encountered	-10.1628
ever	-10.1633
▁ending	-10.1634
▁workaround	-10.1634
▁marked	-10.1634
import	-10.1637
▁(/)	-10.1638
Qserv	-10.1639
▁bulk	-10.1639
▁PDF	-10.1643
▁parts	-10.1644
runWith	-10.1655
▁Attempt	-10.1662
SafeRunn	-10.1671
▁attempting	-10.1672
fa	-10.1677
▁pipe	-10.1681
▁recover	-10.1684
U	-10.1688
▁Reference	-10.169
:4	-10.17
▁>>	-10.1701
▁loop	-10.1707
▁AS	-10.171
token	-10.1713
ac	-10.1714
▁Table	-10.1719
▁forward	-10.1721
▁artifacts	-10.1727
ingStrategy	-10.1727
▁Platform	-10.1728
configure	-10.1736
▁html	-10.1742
▁tree	-10.1743
▁offer	-10.1745
▁assert	-10.1751
width	-10.1759
▁Configurations	-10.176
Operation	-10.1771
▁13	-10.1773
▁force	-10.1775
stop	-10.179
group	-10.1795
dylib	-10.18
▁difficult	-10.1803
▁authorization	-10.1804
▁Javascript	-10.1804
Events	-10.1805
▁utility	-10.1808
▁accessible	-10.1809
__	-10.1812
:110	-10.1813
▁Packaging	-10.1813
.</	-10.1823
▁prompted	-10.1824
▁Builder	-10.1827
▁javascript	-10.1829
▁duradmin	-10.1837
▁normal	-10.1839
▁hide	-10.1839
cf	-10.1847
▁Getting	-10.1848
▁private	-10.1848
▁Have	-10.1856
▁actions	-10.1857
▁Research	-10.1858
▁possibly	-10.1861
▁14	-10.1861
▁documented	-10.1868
▁min	-10.1882
make	-10.1888
▁bugs	-10.19
▁compare	-10.1914
▁Include	-10.1935
Get	-10.1942
UTF	-10.1953
▁region	-10.1967
").	-10.1969
GROUPS	-10.1978
▁little	-10.1982
▁program	-10.1983
▁Save	-10.1986
▁SOAP	-10.1992
recipes	-10.1994
springsource	-10.1994
▁DataSense	-10.1995
79)	-10.1996
▁DurAdmin	-10.1998
▁astrometry	-10.1998
▁JMX	-10.2001
scripting	-10.2002
ce	-10.2003
▁recovery	-10.2006
▁Rabbit	-10.2007
..."	-10.2008
Table	-10.2017
rc	-10.2017
▁1,	-10.2018
▁thus	-10.2019
trace	-10.2031
'.	-10.2039
▁3.0	-10.2047
▁KitchenSink	-10.2051
▁quick	-10.2058
decam	-10.2058
▁TiApplication	-10.2075
Start	-10.2089
▁Close	-10.2091
▁threads	-10.2099
▁soon	-10.21
▁aggregate	-10.2118
Processor	-10.2121
▁importing	-10.2122
uuid	-10.214
▁navigate	-10.2147
IsolatorTest	-10.2156
▁analytics	-10.2158
▁worked	-10.216
▁live	-10.216
▁twice	-10.2164
▁anymore	-10.2167
▁believe	-10.2169
▁regular	-10.2172
▁temporary	-10.2172
Bundle	-10.2175
▁followed	-10.2175
RC	-10.2179
samples	-10.2183
▁1',	-10.2187
▁Assist	-10.2189
Util	-10.219
▁sprint	-10.2193
SDK	-10.2206
commands	-10.2207
▁blackberry	-10.2211
▁functional	-10.2213
▁Duplicate	-10.2217
▁Console	-10.2242
▁jdbc	-10.2265
▁breaks	-10.2269
4.1.0.	-10.228
▁Tap	-10.2296
▁inline	-10.2297
▁Screenshot	-10.2315
ModuleDeployer	-10.2324
jenkins	-10.2325
FILL	-10.2345
clean	-10.2348
▁May	-10.2352
▁minutes	-10.2363
▁remaining	-10.2374
▁engine	-10.2377
19	-10.2377
▁SI	-10.238
▁Jul	-10.2384
▁5.0	-10.2387
▁Socket	-10.2389
AndroidRuntime	-10.239
(['	-10.2394
▁tomcat	-10.2396
▁according	-10.2397
Notification	-10.2397
▁history	-10.24
▁Text	-10.2407
▁Login	-10.2412
▁Tab	-10.2414
compile	-10.2423
▁none	-10.2431
▁offers	-10.2432
▁effect	-10.2432
document	-10.2435
▁catch	-10.2436
▁2014	-10.2436
TableViewRow	-10.244
guide	-10.2457
find	-10.2457
▁involve	-10.2471
▁lists	-10.2473
▁Variable	-10.248
▁remain	-10.248
Contents	-10.2481
▁snippet	-10.2484
form	-10.2492
ity	-10.2494
2.7/	-10.2507
maven	-10.2515
native	-10.2516
Http	-10.2517
▁concept	-10.2517
▁edge	-10.2527
dispatch	-10.2534
▁unnecessary	-10.2535
▁identify	-10.2536
▁discovered	-10.2537
▁saving	-10.2539
▁documents	-10.2543
▁hand	-10.2546
▁hardware	-10.2546
▁red	-10.2547
Cam	-10.2549
▁OCS	-10.2552
▁github	-10.2553
▁subsequent	-10.2553
▁lower	-10.2556
▁implementations	-10.2586
▁Plan	-10.2588
▁remains	-10.2589
link	-10.2594
cloud	-10.26
▁Archive	-10.2602
userid	-10.2604
br	-10.2606
▁Jobs	-10.2616
▁Started	-10.2622
▁passing	-10.2622
▁Samples	-10.2624
30	-10.2629
▁proposal	-10.2634
▁processed	-10.2641
▁Index	-10.2646
▁bytes	-10.2646
▁streaming	-10.2648
upload	-10.2652
▁expressions	-10.2655
▁requirement	-10.267
status	-10.2677
▁Path	-10.2677
▁chart	-10.2683
Line	-10.269
SELECT	-10.2712
▁Local	-10.2715
USER	-10.2716
Navigate	-10.272
assets	-10.272
▁LOE	-10.2727
ca	-10.2727
jrxml	-10.2728
▁Activity	-10.2729
▁propose	-10.273
▁affected	-10.2737
▁Blackberry	-10.2739
▁aliases	-10.2739
▁previously	-10.2752
▁extract	-10.2756
▁03-	-10.2757
▁larger	-10.2757
▁snapshot	-10.2757
▁BPM	-10.2759
args	-10.2763
▁sends	-10.2763
▁complex	-10.2766
▁Client	-10.2767
▁covers	-10.2767
HyperS	-10.2774
▁invoke	-10.2782
▁revocable	-10.2783
off	-10.279
▁iPad	-10.2792
▁binding	-10.2794
57	-10.2799
▁usual	-10.2802
3.4.0.	-10.281
▁gemfire	-10.2825
Package	-10.2826
setup	-10.2827
▁[--	-10.2828
nt	-10.2862
▁30	-10.2864
▁dbconnection	-10.2867
▁Thread	-10.2873
▁range	-10.2874
▁archive	-10.2878
▁aperture	-10.2884
▁produce	-10.2885
List	-10.2887
nav	-10.2888
change	-10.289
▁Properties	-10.2892
we	-10.2895
memory	-10.2907
▁tickets	-10.2908
▁week	-10.2908
mail	-10.2917
▁displaying	-10.2926
options	-10.293
head	-10.2933
▁Tomcat	-10.2935
▁defining	-10.2935
▁provisioning	-10.2937
▁compatibility	-10.2943
ATION	-10.2944
issues	-10.2946
▁initialization	-10.2947
▁attach	-10.2955
▁saying	-10.2955
Simple	-10.2965
examples	-10.2971
ad	-10.2981
▁insert	-10.2983
BuilderImpl	-10.2984
▁gradle	-10.2996
:3	-10.2998
but	-10.3019
TextField	-10.3019
▁aren	-10.302
▁procedure	-10.3046
example	-10.3048
Provider	-10.3053
:39	-10.3055
▁layer	-10.307
category	-10.307
th	-10.3076
agent	-10.3078
▁cycle	-10.3079
▁mean	-10.308
▁pid	-10.3083
▁lookup	-10.3102
Interceptor	-10.3106
Clover	-10.3108
-3	-10.3108
▁transformer	-10.3112
▁CMake	-10.3114
docker	-10.3115
xrootd	-10.3117
legacy	-10.3118
ubuntu	-10.3119
False	-10.3119
':	-10.3124
▁free	-10.3129
▁relative	-10.3141
▁alias	-10.3142
▁submit	-10.3147
▁unless	-10.3148
▁pixel	-10.3151
▁kill	-10.3151
▁policy	-10.3152
▁located	-10.3159
Talend	-10.3164
▁GA	-10.3166
la	-10.3169
▁Event	-10.3169
▁Flow	-10.3169
▁Sample	-10.3169
Component	-10.3177
▁improved	-10.3179
▁forced	-10.3182
▁returning	-10.3183
way	-10.3198
50	-10.3199
rime	-10.3202
NAME	-10.3204
block	-10.3206
ListView	-10.3209
packages	-10.321
▁Creating	-10.3227
****************	-10.3233
background	-10.3251
Dispatch	-10.3255
response	-10.3257
▁reload	-10.326
ndEvent	-10.3261
▁Trace	-10.3264
▁black	-10.3266
Mobile	-10.3269
73	-10.3292
93	-10.3294
▁../../	-10.3294
▁selector	-10.3294
:/	-10.3295
▁shall	-10.3302
Adapter	-10.3302
tool	-10.3306
▁15	-10.3309
▁couple	-10.3312
▁term	-10.3312
Network	-10.3317
da	-10.3319
KeeperException	-10.3327
salnikov	-10.3327
▁figure	-10.3329
▁white	-10.3332
▁Schema	-10.3334
hdfs	-10.3334
Before	-10.3343
▁CPU	-10.3344
▁${	-10.3344
▁expand	-10.3347
▁boot	-10.3348
ING	-10.335
▁nor	-10.3358
▁exposed	-10.3367
▁courses	-10.3367
▁ruble	-10.3369
▁Chrome	-10.3371
▁Time	-10.3373
▁especially	-10.3375
▁g	-10.3378
▁duplicated	-10.3381
▁Download	-10.3382
▁href	-10.3388
▁center	-10.3398
▁effective	-10.3399
▁advanced	-10.3405
32	-10.3408
▁logger	-10.3421
▁correction	-10.3427
le	-10.3429
▁hover	-10.3432
▁EE	-10.3441
COS	-10.3445
▁Testing	-10.345
ra	-10.3453
%2	-10.3477
14	-10.3496
▁calibration	-10.3496
▁mount	-10.3496
dc	-10.3509
ssl	-10.3525
▁prior	-10.3528
▁integrate	-10.353
▁exchange	-10.353
CommonReconcil	-10.3531
bash	-10.3533
▁Environment	-10.3536
▁simplify	-10.3537
Geolocation	-10.3538
▁eventually	-10.3539
▁AVD	-10.3539
▁secondary	-10.3539
Query	-10.3539
▁copied	-10.3544
▁mentioned	-10.3545
▁plans	-10.3545
Loop	-10.3546
IllegalArgument	-10.3551
▁transaction	-10.3554
▁confirm	-10.3554
▁low	-10.3554
▁Firefox	-10.3557
▁chunk	-10.3559
automated	-10.3565
▁activities	-10.3566
Deployment	-10.3572
▁Consider	-10.3573
21	-10.3574
▁slider	-10.3577
apply	-10.3589
▁1.1	-10.3592
▁Display	-10.3606
▁tracking	-10.3614
ide	-10.3618
▁3.3.0	-10.3625
*:	-10.3627
▁Read	-10.3629
▁Convert	-10.3642
Report	-10.3644
1"	-10.3653
▁standalone	-10.3658
▁ran	-10.3659
▁attempts	-10.3661
▁Status	-10.3663
▁zookeeper	-10.3663
▁animation	-10.3666
▁databases	-10.3677
▁pane	-10.3688
▁bamboo	-10.3689
23	-10.3691
component	-10.3696
▁depends	-10.3699
▁U	-10.3711
Delegate	-10.3717
Feature	-10.3719
exec	-10.3734
▁stage	-10.3742
left	-10.3743
Please	-10.3745
cenqua	-10.3747
AnalysisExecutor	-10.3748
Aptana	-10.3749
-2	-10.375
layout	-10.3751
▁5)	-10.3753
▁helpful	-10.3753
ab	-10.3753
▁potentially	-10.3756
mobileweb	-10.3756
JUnit	-10.3756
quiz	-10.3757
jpg	-10.3758
▁butler	-10.376
singlenode	-10.3761
enabled	-10.3766
Image	-10.3767
▁reuse	-10.3771
Enable	-10.3774
ea	-10.3774
▁inconsistent	-10.3775
Redis	-10.3775
▁Press	-10.3778
▁TIMOB	-10.3784
▁GUI	-10.3787
▁picture	-10.3793
Each	-10.3798
▁Migrate	-10.3807
createTab	-10.3818
transform	-10.3823
configuration	-10.3834
sink	-10.3842
resource	-10.3848
▁scenarios	-10.3853
▁Custom	-10.386
Tests	-10.3868
role	-10.3876
▁Executor	-10.3879
▁experience	-10.3882
Executors	-10.3884
▁disappear	-10.3892
ring	-10.3916
▁phase	-10.3916
▁compose	-10.3919
▁constructor	-10.3923
▁IDE	-10.3927
ptr	-10.393
▁(/	-10.3936
▁Created	-10.3937
ful	-10.3947
▁exec	-10.3953
27	-10.3958
Roaming	-10.3965
ARG	-10.3965
▁widget	-10.3968
▁therefore	-10.397
▁DSL	-10.3974
▁NULL	-10.3974
0,	-10.3977
analytics	-10.3977
Number	-10.3981
▁Kitchen	-10.3983
▁Preview	-10.3985
▁fired	-10.399
▁teacher	-10.3992
input	-10.3997
Some	-10.4009
*,	-10.401
llinois	-10.4011
▁fault	-10.4016
▁ingest	-10.4018
▁permission	-10.4022
questions	-10.4031
▁Global	-10.404
▁community	-10.4044
:332	-10.4052
▁matches	-10.4054
evaluate	-10.4064
Received	-10.4069
▁machines	-10.4078
aws	-10.4086
Applications	-10.4089
HTTP	-10.4091
▁Auto	-10.4097
52	-10.4101
▁bind	-10.4108
sample	-10.412
ecause	-10.4123
▁Current	-10.4123
Value	-10.4124
▁3.3.0.	-10.413
mp	-10.4136
Executor	-10.4136
Building	-10.4138
▁Don	-10.414
=[	-10.414
}"	-10.4143
▁Connector	-10.4143
pattern	-10.4144
31	-10.4145
column	-10.4148
section	-10.415
Synchronizer	-10.4151
question	-10.4153
Properties	-10.416
▁seeing	-10.4175
▁assign	-10.4178
▁decide	-10.4182
observable	-10.4184
▁ip	-10.4185
EventLoop	-10.4188
▁statements	-10.4189
after	-10.4191
▁sign	-10.4199
simulator	-10.4201
▁roles	-10.4201
Layout	-10.4203
▁except	-10.4205
▁past	-10.4206
▁pic	-10.4206
KS	-10.4207
▁otherwise	-10.4211
▁assigned	-10.4213
▁landscape	-10.4213
▁integrated	-10.4213
pre	-10.4216
/#!/	-10.4217
▁Does	-10.4225
▁obvious	-10.4226
▁cpu	-10.4245
▁triggers	-10.4247
▁scrolling	-10.4256
save	-10.4262
▁Portal	-10.4263
▁hold	-10.4263
acted	-10.4269
▁stable	-10.4273
IDE	-10.4276
▁TODO	-10.4278
Based	-10.4282
enable	-10.429
:6	-10.429
89	-10.4297
▁referenced	-10.4301
blog	-10.4302
▁Developer	-10.4303
35	-10.4308
▁sam	-10.4311
▁First	-10.4312
Change	-10.432
eg	-10.4321
▁meta	-10.4326
1:	-10.4327
▁50	-10.4342
▁porting	-10.4354
▁perf	-10.4354
▁architecture	-10.4358
Problem	-10.4373
renderer	-10.4378
▁cut	-10.4379
IO	-10.4395
subaru	-10.4414
ParentRunner	-10.4414
▁Therefore	-10.4416
CFG	-10.4416
▁workflow	-10.4417
▁Additionally	-10.4422
▁higher	-10.4426
▁Menu	-10.4427
▁stories	-10.443
rcp	-10.4433
▁limited	-10.4435
▁stuff	-10.4435
shared	-10.4446
▁SUCCESS	-10.4448
addTab	-10.4449
Mule	-10.4451
▁Scheduler	-10.4456
ous	-10.4465
57)	-10.4466
▁incorrectly	-10.4466
:21	-10.4478
▁monitoring	-10.449
▁Task	-10.4491
:179	-10.4503
ffff	-10.4509
▁Screen	-10.4515
▁Oracle	-10.4518
----------	-10.4524
amazon	-10.4543
▁Is	-10.4552
▁100%	-10.4556
generate	-10.4556
▁frame	-10.4556
▁{"	-10.4564
▁reporting	-10.4565
▁delegate	-10.4576
▁impact	-10.4579
af	-10.4579
▁touch	-10.4583
▁measure	-10.4587
▁Bundle	-10.4592
▁Jira	-10.4595
▁period	-10.4596
▁controls	-10.4597
▁localhost	-10.4615
▁init	-10.4617
▁processors	-10.4626
▁js	-10.4627
▁contact	-10.4628
Plugin	-10.4631
▁Browser	-10.4632
network	-10.4633
takes	-10.4636
▁poll	-10.464
auth	-10.4646
jboss	-10.4647
fjammes	-10.4647
▁communication	-10.4652
▁potential	-10.4653
BundleLoad	-10.4657
URL	-10.466
$7.	-10.4663
▁repeated	-10.4663
▁normally	-10.4664
▁initially	-10.4664
▁published	-10.4666
Example	-10.467
feedback	-10.4672
▁considered	-10.4672
▁Registry	-10.4673
▁terminated	-10.4674
timestamp	-10.4675
▁Inc	-10.4676
▁portrait	-10.4677
recursive	-10.4677
INF	-10.4678
▁random	-10.4682
EventT	-10.4686
hello	-10.4691
▁Restart	-10.4692
▁Memory	-10.4708
▁zero	-10.4719
▁ccd	-10.4721
▁<?	-10.4726
Mesos	-10.4735
nd	-10.4744
▁prevents	-10.4745
3,	-10.4748
▁btn	-10.4753
▁listView	-10.4765
pageid	-10.4768
▁evaluate	-10.4774
▁registration	-10.4784
▁locations	-10.4784
▁Dialog	-10.4785
:26	-10.4805
▁2.2	-10.4817
▁watch	-10.4822
▁grades	-10.4822
▁css	-10.4825
▁scheme	-10.4831
rd	-10.4838
▁404	-10.4841
pex	-10.4853
Exposure	-10.4854
▁partition	-10.4855
▁purpose	-10.4856
manifest	-10.486
▁Installer	-10.4862
▁textfield	-10.488
▁sequence	-10.488
▁calendar	-10.4882
▁buffer	-10.4884
▁swimlane	-10.4885
tcp	-10.4887
▁legacy	-10.489
solid	-10.4892
instance	-10.4893
ge	-10.4896
SQLException	-10.4898
▁typing	-10.4899
▁Usergrid	-10.49
driver	-10.4906
▁Expose	-10.491
obs	-10.4911
▁whatever	-10.4914
]:	-10.4915
Copyright	-10.4915
▁leak	-10.4916
▁exited	-10.4917
idea	-10.4918
▁retrieved	-10.4918
▁PID	-10.4919
▁Modify	-10.492
▁beta	-10.492
Right	-10.4921
filesystem	-10.4921
ONLY	-10.4921
▁meaning	-10.4924
▁merged	-10.4924
▁OAuth	-10.4926
▁calibrate	-10.4933
▁lifecycle	-10.4936
▁warn	-10.4939
▁RC	-10.494
Lock	-10.4942
▁Basic	-10.4944
0]	-10.4949
40	-10.495
▁terms	-10.495
▁Prepare	-10.4957
▁net	-10.4965
search	-10.4966
▁Value	-10.4974
▁rate	-10.4977
Same	-10.4993
▁cat	-10.4998
▁Home	-10.4999
▁schedule	-10.4999
▁Call	-10.5004
▁allocated	-10.5011
▁ready	-10.5012
▁undeploy	-10.5012
▁backend	-10.5014
space	-10.5026
▁products	-10.5028
▁cgroups	-10.5032
exceptions	-10.5033
▁flaky	-10.5034
▁Consumer	-10.5036
▁regex	-10.5037
deployments	-10.5042
Commands	-10.5061
▁comparison	-10.5074
▁overwrite	-10.5076
▁pipeline	-10.5081
right	-10.5081
:61	-10.509
Q	-10.5091
▁cli	-10.5097
▁Analysis	-10.5097
LDM	-10.51
▁Part	-10.5115
▁spec	-10.5124
XX	-10.5128
$4(	-10.5129
▁chosen	-10.5131
▁somewhere	-10.5133
Select	-10.5133
▁acceptance	-10.5134
0;	-10.5135
▁explicit	-10.5136
_0_1.	-10.5139
An	-10.5139
▁desired	-10.5143
▁JDT	-10.5144
▁iTunes	-10.5144
▁regardless	-10.5144
▁instrumentation	-10.5145
by	-10.5145
▁acs	-10.5162
Release	-10.5163
▁exported	-10.5163
▁pretty	-10.5165
stackoverflow	-10.5165
registry	-10.5166
▁encoding	-10.5166
outbound	-10.5166
▁['	-10.5166
▁cleaned	-10.5167
czar	-10.5167
▁Passing	-10.5171
▁Rent	-10.5173
PATH	-10.5174
▁reactor	-10.5176
csv	-10.5177
▁ssh	-10.5182
me	-10.5183
▁40	-10.5187
Template	-10.5192
Response	-10.5195
▁produces	-10.5195
:10	-10.5197
37	-10.5201
[]	-10.5202
▁upgraded	-10.5204
ur	-10.521
▁[.]	-10.5221
▁wrap	-10.5237
▁body	-10.524
▁al	-10.5242
env	-10.5247
▁constants	-10.5254
))	-10.5257
handler	-10.5258
ent	-10.5277
ED	-10.5278
▁cross	-10.5284
01	-10.5288
Access	-10.529
▁Examples	-10.53
▁Workspace	-10.5301
download	-10.5308
Key	-10.5308
▁themes	-10.5309
==	-10.531
Definition	-10.531
▁talk	-10.5315
▁Class	-10.532
▁automatic	-10.5331
53	-10.5336
PersistentVolume	-10.5347
▁mock	-10.5348
|--	-10.5353
▁Processor	-10.5356
char	-10.5362
▁collect	-10.5363
▁Interface	-10.5366
Co	-10.5367
▁recognize	-10.5369
backup	-10.537
▁members	-10.537
Not	-10.5372
mode	-10.5373
▁technical	-10.5375
connector	-10.5375
ModalContext	-10.5379
LeaderSelector	-10.5379
▁evaluation	-10.538
▁oversubscribed	-10.5384
▁allocation	-10.5385
++11	-10.5385
Current	-10.5388
▁discussed	-10.5392
▁VARCHAR	-10.5395
▁equivalent	-10.5396
▁estimation	-10.5401
▁finished	-10.5401
▁repos	-10.5406
HTML	-10.5407
▁Any	-10.5407
media	-10.5411
:9393/	-10.5416
warn	-10.5421
▁forum	-10.5421
▁mark	-10.5427
AsyncMessage	-10.543
executor	-10.5431
▁customer	-10.5431
Help	-10.5432
▁unused	-10.5433
sam	-10.5442
▁NDK	-10.5442
▁world	-10.5444
▁entities	-10.5448
▁helloworld	-10.5448
extensions	-10.5449
Loader	-10.5458
80	-10.5458
▁Develop	-10.547
▁Case	-10.547
▁navigation	-10.5476
▁Added	-10.5477
▁unknown	-10.5477
▁twitter	-10.548
▁linked	-10.5488
▁loads	-10.5491
▁flows	-10.5493
04	-10.5496
▁Starting	-10.5502
▁Page	-10.5514
61	-10.552
issue	-10.5525
▁os	-10.553
▁party	-10.5545
▁compute	-10.5546
Call	-10.5549
exingParticipant	-10.5551
task	-10.5554
Core	-10.556
▁handles	-10.5564
▁Simple	-10.5566
▁/**	-10.5571
▁slot	-10.5578
▁routes	-10.5582
css	-10.5585
:{	-10.5589
wizard	-10.5603
nio	-10.5606
▁arrow	-10.5614
>}}	-10.5622
▁solve	-10.5625
▁Out	-10.5628
▁guess	-10.5632
/3.0/#!/	-10.5635
▁GWT	-10.5635
▁monitor	-10.564
▁identified	-10.5643
▁textAlign	-10.5646
▁impossible	-10.5646
▁panel	-10.5646
▁def	-10.5651
prompt	-10.5651
▁suggested	-10.5654
▁repeat	-10.5657
FileInd	-10.5657
▁ActiveMQ	-10.566
▁baseline	-10.5666
▁Paste	-10.5669
▁connectors	-10.5673
ImageView	-10.5674
▁ports	-10.5678
▁abort	-10.5678
▁Management	-10.5679
▁identical	-10.5679
qualifier	-10.5679
Length	-10.5679
lambda	-10.568
▁stand	-10.5681
success	-10.5684
▁virtual	-10.5685
static	-10.5686
borderStyle	-10.5687
▁choice	-10.5688
▁initialized	-10.5689
▁byte	-10.5689
▁invoked	-10.569
preview	-10.569
wsdl	-10.5691
Retry	-10.5694
▁boolean	-10.5695
▁2.6	-10.5696
$5.	-10.5701
▁managed	-10.5701
▁happening	-10.5711
Supported	-10.5723
▁NOTE	-10.5726
▁cron	-10.5748
TEST	-10.5751
▁patterns	-10.5752
▁receives	-10.576
▁javax	-10.5762
24	-10.5772
Work	-10.5787
Document	-10.5793
reconcile	-10.5803
▁collections	-10.5803
▁filename	-10.5806
▁editors	-10.5807
System	-10.5808
▁1000	-10.5808
▁1:	-10.5815
move	-10.5815
{{	-10.5825
visit	-10.5828
▁18	-10.5831
▁records	-10.5837
▁introduce	-10.584
1_	-10.5844
▁enum	-10.5847
Token	-10.5876
RuntimeException	-10.5877
count	-10.5885
▁hooks	-10.589
bc	-10.589
++)	-10.589
▁visual	-10.5891
▁replicate	-10.5892
▁calculate	-10.5898
px	-10.5899
▁radio	-10.5904
▁taps	-10.5905
▁intermittent	-10.5906
▁recently	-10.5908
▁proceed	-10.5908
▁newer	-10.5909
Header	-10.5911
▁Option	-10.5912
▁OSX	-10.5913
xce	-10.5914
▁Setting	-10.5916
▁rendering	-10.5918
▁parity	-10.5918
▁invoking	-10.5919
▁maximum	-10.5921
Configure	-10.5924
▁Replicate	-10.5926
▁Boot	-10.5927
_1	-10.5927
▁Will	-10.5931
▁criteria	-10.5932
currently	-10.5936
▁Would	-10.5937
▁offset	-10.5937
▁day	-10.5941
▁length	-10.5947
▁READ	-10.595
Switch	-10.5951
▁viewer	-10.5953
conf	-10.5953
parsing	-10.5957
black	-10.5961
lock	-10.5965
meta	-10.5966
▁safe	-10.5967
▁compiled	-10.5973
▁locator	-10.5977
▁clone	-10.5978
▁uploaded	-10.5979
▁questions	-10.5983
jms	-10.5983
▁snippets	-10.5991
▁deletion	-10.5995
Maybe	-10.5996
:25	-10.5996
sys	-10.5997
▁stout	-10.5998
Check	-10.6001
logdata	-10.6006
libs	-10.6008
▁discuss	-10.6011
amp	-10.6015
StreamDeployment	-10.6022
wm	-10.6024
img	-10.6029
▁Notes	-10.6037
testdata	-10.6038
Text	-10.6039
▁Errors	-10.6039
▁cover	-10.6045
aa	-10.6056
St	-10.6057
▁consumers	-10.6059
ef	-10.6064
Status	-10.6067
▁toast	-10.6068
▁ES	-10.6069
▁blob	-10.6076
▁reasons	-10.6078
▁integer	-10.608
▁stops	-10.6085
▁tableView	-10.609
▁plain	-10.6091
login	-10.6097
▁(1)	-10.6098
▁3.5.0	-10.6103
▁POJO	-10.6104
:0,	-10.6113
▁suggestion	-10.6116
▁matter	-10.6119
▁*/	-10.6124
TEXT	-10.6126
un	-10.6127
▁provid	-10.6133
▁Or	-10.6134
At	-10.6144
remote	-10.615
cxx	-10.6162
:"	-10.6164
▁earlier	-10.6169
URLClassLoader	-10.6169
▁TSS	-10.617
ConnectionUtils	-10.617
▁upgrading	-10.617
HAVE	-10.6171
EventListener	-10.6173
Developer	-10.6173
▁significant	-10.6173
▁DECam	-10.6186
▁protocol	-10.6187
▁webview	-10.6189
▁TASK	-10.6191
▁converted	-10.6192
$2.	-10.6193
▁50%	-10.6193
parser	-10.6193
▁Thanks	-10.6194
▁reserved	-10.6199
actions	-10.6203
related	-10.6204
some	-10.6205
custom	-10.6206
▁downloaded	-10.6207
}})	-10.6208
▁phone	-10.6209
▁produced	-10.6209
▁echo	-10.622
netty	-10.6226
dashboard	-10.6228
including	-10.6232
est	-10.6234
pdf	-10.6238
▁pixels	-10.6241
metrics	-10.6245
▁Even	-10.625
▁gcc	-10.6255
▁Field	-10.6266
▁nightly	-10.6267
Details	-10.6269
05	-10.6273
▁annotations	-10.6275
▁sudo	-10.6288
▁By	-10.6299
tdq	-10.6306
▁MULE	-10.6307
▁person	-10.631
*)	-10.6314
▁installs	-10.633
▁card	-10.6335
▁BB	-10.6343
portDocGenerator	-10.6344
▁demonstrate	-10.635
ment	-10.6361
IT	-10.6362
0/	-10.6364
▁00	-10.6364
▁Other	-10.6381
▁accounts	-10.6384
▁Core	-10.6387
5-	-10.6389
▁Tool	-10.639
90	-10.6392
▁Config	-10.6392
dm	-10.6393
▁benefit	-10.6396
▁transition	-10.6405
▁stay	-10.6413
release	-10.6414
▁onto	-10.6415
▁border	-10.6426
▁sites	-10.643
:67	-10.6431
▁Users	-10.6434
▁mention	-10.6439
record	-10.6441
▁rebuild	-10.6442
values	-10.6444
▁confusion	-10.6446
▁arbitrary	-10.6446
▁colors	-10.6447
▁sufficient	-10.6447
▁hence	-10.6453
icrosoft	-10.6454
center	-10.6455
▁consistently	-10.6456
▁Behavior	-10.6458
▁minor	-10.6458
array	-10.6459
.*	-10.6466
tag	-10.6467
Google	-10.6468
▁usability	-10.6471
▁contexts	-10.6471
▁Group	-10.6474
▁capability	-10.6476
55	-10.6478
▁Attached	-10.6484
Nothing	-10.6485
▁TCP	-10.6492
▁share	-10.6493
▁ctrl	-10.6498
▁Tuple	-10.6499
▁hierarchy	-10.65
▁trunk	-10.65
Generate	-10.6505
:42)	-10.6512
Runner	-10.6512
-9	-10.6514
25)	-10.6516
▁Authentication	-10.6517
screencast	-10.6521
▁Plugin	-10.6522
▁IN	-10.6524
KEY	-10.6524
▁libmesos	-10.6525
cmake	-10.6528
Analysis	-10.6533
AL	-10.6534
▁suite	-10.6538
tiapp	-10.6541
▁Follow	-10.6554
▁Token	-10.6559
yarn	-10.6561
updated	-10.6562
▁screens	-10.6564
▁Email	-10.6565
groups	-10.6571
▁{{<	-10.6571
83	-10.6574
=<	-10.6576
149)	-10.6577
▁64-	-10.6579
settings	-10.658
▁listeners	-10.6581
top	-10.6583
Body	-10.6587
▁fs	-10.6591
▁sandbox	-10.6598
msd	-10.6598
res	-10.66
▁reads	-10.6601
].	-10.6603
ic	-10.661
:8	-10.661
▁Adding	-10.6618
▁releases	-10.6622
Page	-10.6623
Auto	-10.6624
▁care	-10.6628
Button	-10.6649
nodejs	-10.6669
--------------	-10.6676
▁Insert	-10.6679
▁lsstsw	-10.6683
▁stores	-10.6688
▁auth	-10.6692
▁Ad	-10.6694
▁watermark	-10.6696
▁persist	-10.6704
▁prompts	-10.6706
full	-10.6706
▁increase	-10.6708
Program	-10.6722
:57	-10.6726
profile	-10.673
tistud	-10.673
OOTB	-10.6732
▁spatial	-10.6732
▁Production	-10.6733
="#[	-10.6734
BundleManager	-10.6735
:17	-10.6736
▁TypeError	-10.6741
70	-10.6741
▁obtain	-10.6742
▁EUPS	-10.6744
gen	-10.6745
▁applies	-10.6746
49	-10.6748
▁enabling	-10.6748
▁Either	-10.675
▁GitHub	-10.6751
-2011	-10.6751
that	-10.6753
just	-10.6753
02	-10.6756
Activity	-10.6758
▁quality	-10.676
▁performed	-10.6763
XXX	-10.6763
▁Bit	-10.6766
pid	-10.6773
enrol	-10.6775
co	-10.6775
Publish	-10.6776
Callback	-10.6782
▁nature	-10.6787
▁visualization	-10.6787
pool	-10.679
cb	-10.6791
should	-10.6791
▁manual	-10.6792
▁serve	-10.6793
▁exports	-10.6793
▁3.4	-10.6795
▁Alert	-10.68
optional	-10.6806
empty	-10.6806
▁Wcs	-10.6807
▁waiting	-10.6808
▁SVN	-10.681
PORTRAIT	-10.6812
such	-10.6812
▁groovy	-10.6813
▁AST	-10.6813
▁delay	-10.6814
objectId	-10.6817
Master	-10.6818
svn	-10.6819
▁camel	-10.6823
▁possibilit	-10.6826
▁Function	-10.6828
ipad	-10.6829
▁indicates	-10.6831
▁downloading	-10.6837
▁iphone	-10.6837
▁Find	-10.6841
▁chunks	-10.6842
Running	-10.6848
Time	-10.685
22	-10.6854
ch	-10.6855
Generator	-10.6856
fe	-10.6863
▁struct	-10.6871
:13	-10.6875
▁shot	-10.6875
▁caching	-10.6887
196)	-10.689
▁linux	-10.6897
03	-10.6905
Selector	-10.691
compute	-10.6912
bundle	-10.6914
1\	-10.6918
▁(2)	-10.6927
▁reopen	-10.6927
▁constant	-10.6943
▁rid	-10.6945
▁convention	-10.6946
['	-10.6947
▁objectId	-10.6949
▁signal	-10.6959
colors	-10.6961
▁fork	-10.6963
▁failover	-10.6971
▁ACL	-10.6974
▁giv	-10.6976
▁Internal	-10.698
complete	-10.6981
▁(!	-10.6985
▁administrator	-10.6988
how	-10.7005
-11	-10.7011
Import	-10.7011
return	-10.7014
▁minimal	-10.7021
▁keystore	-10.7022
▁bundles	-10.7026
▁receiving	-10.7028
▁accordingly	-10.7032
▁DRP	-10.7032
▁quickly	-10.7032
▁dropdown	-10.7035
▁official	-10.7038
▁abstract	-10.704
▁stopped	-10.704
▁ExamplesTest	-10.7041
▁exactly	-10.7042
▁Feature	-10.7042
▁subtasks	-10.7042
▁contract	-10.7043
feature	-10.7044
HttpClient	-10.7044
▁RESULT	-10.7048
09	-10.7049
▁happened	-10.7054
▁skip	-10.7055
▁draft	-10.7057
initialize	-10.7059
▁children	-10.707
▁Complete	-10.7073
▁BY	-10.7074
Python	-10.7077
ViewProxy	-10.7079
▁shut	-10.7084
▁Finish	-10.7087
▁race	-10.7088
BuildParticipant	-10.7092
▁days	-10.7093
▁leading	-10.7095
replace	-10.7097
:36	-10.7103
help	-10.7105
vagrant	-10.7112
Logger	-10.7113
flask	-10.7118
duracloud	-10.7118
Since	-10.7118
undefined	-10.7119
Date	-10.7119
Script	-10.712
stats	-10.7127
MB	-10.7129
================	-10.7132
▁providers	-10.7139
pthread	-10.7144
LOCATION	-10.7144
avd	-10.7146
Channel	-10.7157
▁cxf	-10.716
▁breakpoints	-10.7162
▁Statistics	-10.7167
ns	-10.7168
otFoundException	-10.7171
utf	-10.7176
▁Component	-10.718
▁mail	-10.7186
astrom	-10.7202
▁K	-10.7202
▁classic	-10.7208
▁closes	-10.7209
:12	-10.7218
94	-10.7219
▁SHA	-10.7219
▁CE	-10.7229
▁invocation	-10.723
Deploy	-10.7232
▁coming	-10.7236
▁Rule	-10.7239
07	-10.7245
▁3.0.0.	-10.7247
▁respect	-10.7249
▁quit	-10.7255
▁append	-10.7266
▁Drag	-10.7269
36	-10.7273
▁tcp	-10.7276
▁sce	-10.7283
▁IE	-10.7286
▁General	-10.7292
▁equal	-10.7296
▁origin	-10.7309
MCS	-10.7319
▁plot	-10.7321
▁exact	-10.7326
▁pointer	-10.7329
▁dataset	-10.7331
basicBuild	-10.7333
▁near	-10.7334
Multiple	-10.7337
▁YARN	-10.7339
te	-10.7341
▁begin	-10.7342
▁Butler	-10.7342
▁dropped	-10.7342
▁terminate	-10.7344
▁developed	-10.7344
▁CentOS	-10.7348
ticktock	-10.7348
▁resolution	-10.7348
▁consistency	-10.7349
▁smaller	-10.7349
WAIT	-10.7349
▁gain	-10.7357
▁singlenode	-10.7359
▁offline	-10.7359
▁locally	-10.7361
▁supporting	-10.7361
▁co	-10.7362
▁came	-10.7363
4,	-10.7365
▁policies	-10.7368
Store	-10.7368
6:	-10.7369
▁3.4.0.	-10.7371
:125	-10.7374
▁Distribution	-10.7375
▁pair	-10.7377
60	-10.7379
▁Handle	-10.7381
▁durastore	-10.7381
interface	-10.7381
▁supposed	-10.7382
▁Both	-10.7383
address	-10.7383
▁proposals	-10.7385
▁/*	-10.7385
directory	-10.7388
▁j	-10.739
▁Site	-10.7391
▁lack	-10.7392
▁namespaces	-10.7393
▁backport	-10.7394
font	-10.7399
▁integrity	-10.74
▁isolation	-10.74
▁maintain	-10.7402
▁Security	-10.7403
:35)	-10.7405
▁Safari	-10.7407
plain	-10.7407
▁Revisit	-10.7408
any	-10.7409
You	-10.741
Property	-10.7416
beta	-10.7418
."	-10.7421
Dashboard	-10.7422
restore	-10.7425
convert	-10.7426
compare	-10.7428
LANDSCAPE	-10.7428
Shell	-10.7429
persistence	-10.743
anaconda	-10.7431
derby	-10.7431
▁Send	-10.7434
IOS	-10.7434
Feb	-10.7441
▁publishing	-10.7447
Converter	-10.7447
▁NodeJS	-10.7459
▁consequence	-10.7459
exe	-10.7459
rs	-10.746
Out	-10.7461
▁helper	-10.7461
URI	-10.7463
▁Apply	-10.7466
▁duration	-10.7469
▁bus	-10.7477
Transaction	-10.7482
Port	-10.7485
orientation	-10.7487
fc	-10.7488
tesb	-10.7488
▁instrument	-10.7506
▁Next	-10.7507
plan	-10.7509
force	-10.7531
▁removal	-10.7533
Notes	-10.754
▁8.	-10.7541
NS	-10.7544
▁pointing	-10.7552
courseid	-10.7553
▁Response	-10.7557
Reporter	-10.7563
▁filtering	-10.7574
▁Generate	-10.7576
▁fixing	-10.7578
▁fits	-10.7579
ily	-10.758
▁representation	-10.758
▁y	-10.7586
MessageProcessor	-10.7592
here	-10.7594
turned	-10.7609
▁DI	-10.761
▁develop	-10.7619
grade	-10.762
Bean	-10.7621
▁combo	-10.7631
▁grow	-10.7637
▁September	-10.7642
kagrawal	-10.7642
▁DMCS	-10.7644
78	-10.7646
▁<<	-10.7646
▁behind	-10.7648
▁verification	-10.7648
▁reproducible	-10.7648
dedicated	-10.7649
▁entirely	-10.765
▁dynamically	-10.765
▁UDI	-10.7655
▁Desktop	-10.7655
!)	-10.7656
▁sec	-10.7657
▁compilation	-10.766
▁Bulk	-10.766
20/	-10.7661
▁RESTful	-10.7663
45	-10.7668
▁separately	-10.7673
▁TLS	-10.7675
▁covered	-10.7677
▁mouse	-10.7677
▁Accept	-10.768
▁numpy	-10.7682
▁Tooling	-10.7682
▁resize	-10.7683
Follow	-10.7684
Without	-10.7685
▁broker	-10.7687
scheduler	-10.7689
discussion	-10.769
sf	-10.7695
▁router	-10.7696
repo	-10.7698
▁addressed	-10.7698
▁executions	-10.7702
register	-10.7712
▁categories	-10.7714
▁bias	-10.7715
▁overlay	-10.7718
▁Groovy	-10.7721
IDEA	-10.7726
production	-10.7727
theme	-10.7729
▁TOS	-10.7729
Flow	-10.7731
▁partitioning	-10.7735
▁designed	-10.7742
simple	-10.7743
development	-10.7743
▁eg	-10.7747
▁Upload	-10.7748
jackson	-10.7753
Beta	-10.7753
GET	-10.7753
Xml	-10.7755
blue	-10.7756
jmx	-10.7758
▁suffix	-10.7764
*.	-10.7767
One	-10.777
non	-10.7771
▁fullscreen	-10.7778
▁../../../	-10.7783
deleted	-10.7797
1;	-10.7799
:11	-10.7799
filename	-10.7799
▁languages	-10.78
▁libc	-10.7805
▁Tools	-10.7809
▁Grails	-10.7812
▁2:	-10.782
▁catalogs	-10.7821
SHA	-10.7821
%	-10.7822
▁""	-10.7825
ncs	-10.7828
Schema	-10.7829
▁Ruby	-10.7832
▁Provider	-10.7834
▁ways	-10.7847
06	-10.7853
Element	-10.7856
▁graph	-10.7858
▁statistic	-10.7865
:14	-10.7878
▁ftp	-10.788
PS	-10.7912
39	-10.7918
▁computer	-10.7919
▁handlers	-10.7924
▁Fail	-10.793
▁React	-10.7931
▁4.3	-10.7933
can	-10.7934
▁reservation	-10.7934
87	-10.7942
▁TI	-10.795
▁configur	-10.7956
ookeeper	-10.7963
dataquality	-10.7965
/1.1	-10.7968
▁{}	-10.7968
▁HTCondor	-10.7971
WebResource	-10.7971
▁regarding	-10.7972
▁primary	-10.7972
▁SpEL	-10.7973
▁anyway	-10.7976
ie	-10.7977
▁business	-10.7977
listener	-10.7979
Microsoft	-10.7981
▁continuous	-10.7982
▁refactored	-10.7983
Make	-10.7984
=2	-10.7984
▁sound	-10.7984
uncaught	-10.7987
▁adapter	-10.7988
▁wish	-10.7989
▁declared	-10.7989
Space	-10.7993
▁Unfortunately	-10.7998
▁GC	-10.8002
▁inherit	-10.8008
▁specifically	-10.8008
▁UTF	-10.8011
▁Workaround	-10.8012
83)	-10.8019
▁front	-10.8021
▁plus	-10.8021
▁strict	-10.8023
/1.0.0.	-10.8023
Queue	-10.8024
RSS	-10.8027
▁Missing	-10.8028
override	-10.803
3/	-10.803
▁logo	-10.8034
82	-10.804
▁heading	-10.8049
▁rotate	-10.805
▁cgroup	-10.8051
▁uninstall	-10.8052
▁Summary	-10.8053
▁con	-10.806
▁2.1	-10.8064
▁restarting	-10.8066
▁Commands	-10.8067
resolve	-10.8071
▁retry	-10.8073
longjohn	-10.8077
▁Single	-10.808
logging	-10.8082
stringify	-10.8082
sandbox	-10.8089
▁paste	-10.809
First	-10.8091
Deferred	-10.8091
Close	-10.8091
▁slots	-10.8093
Working	-10.8097
▁switching	-10.8102
Search	-10.8107
Result	-10.8113
▁bool	-10.8113
▁({{	-10.8115
ng	-10.8119
▁cleaning	-10.8121
devel	-10.8133
progress	-10.8134
@2	-10.8135
evt	-10.8139
:9000	-10.8152
▁BUILD	-10.8158
▁pops	-10.8163
Read	-10.8163
▁dq	-10.8166
▁operators	-10.8167
roles	-10.8168
▁overlap	-10.8177
▁Ant	-10.8184
▁,	-10.8187
▁thought	-10.8213
storing	-10.8231
▁investigation	-10.8235
▁combination	-10.8241
▁sessions	-10.8242
▁abstraction	-10.8243
59	-10.8245
▁Details	-10.825
▁Agent	-10.8256
▁dist	-10.8257
▁timestamp	-10.8259
ast	-10.8264
BeanDefinition	-10.8264
▁placeholder	-10.8267
▁stats	-10.8269
▁KS	-10.8274
▁Cancel	-10.828
08	-10.8285
sync	-10.8285
▁executors	-10.8288
▁----	-10.8296
commons	-10.8297
▁applicable	-10.8298
scorm	-10.8298
aspx	-10.8301
(255)	-10.8302
▁desktop	-10.8304
▁retrieval	-10.8304
▁beginning	-10.8304
▁levels	-10.8305
▁faster	-10.8309
EventThread	-10.831
▁Ctrl	-10.8311
▁delivered	-10.8311
▁DataMapper	-10.8312
9:	-10.8316
▁overall	-10.8316
▁SWIG	-10.8318
▁planning	-10.8319
scale	-10.8323
▁Amazon	-10.8326
▁toggle	-10.8336
▁hangs	-10.8336
▁50,	-10.8336
▁Sync	-10.8337
menu	-10.8337
▁Jenkins	-10.8339
▁launcher	-10.8339
▁Model	-10.8341
war	-10.8341
▁Ticket	-10.8344
▁Endpoint	-10.8346
▁Target	-10.8348
\/	-10.8353
+0	-10.8353
export	-10.8356
▁tak	-10.8363
join	-10.8369
▁Additional	-10.8372
Registry	-10.8382
Provide	-10.8385
▁Filter	-10.839
focus	-10.8395
▁Control	-10.8398
77	-10.84
dex	-10.8409
▁words	-10.8412
ftp	-10.8413
▁"#	-10.842
Failed	-10.8421
entry	-10.8423
ypically	-10.8425
macosx	-10.8427
LiveView	-10.843
▁generator	-10.8431
fontSize	-10.8431
portal	-10.8434
Write	-10.8435
Ruby	-10.8436
▁routing	-10.8436
xc	-10.8437
Show	-10.8437
Now	-10.8441
▁QA	-10.8448
▁char	-10.845
▁volumes	-10.8452
▁Distribute	-10.8453
point	-10.8463
▁Car	-10.8465
▁activemq	-10.8468
▁leader	-10.8473
TiHttpClient	-10.8474
>::	-10.848
▁formatter	-10.8482
ld	-10.8483
ndk	-10.8484
▁[0	-10.8487
rying	-10.8491
▁AURA	-10.8495
forge	-10.8509
256	-10.851
▁Projects	-10.8511
Cache	-10.8512
53)	-10.8512
▁2013	-10.8526
▁identifier	-10.8528
params	-10.854
▁menus	-10.855
▁standards	-10.8551
▁2012-04-1	-10.8551
▁CC	-10.8552
▁pdf	-10.8554
Lib	-10.8555
▁Footprint	-10.8561
3_	-10.8566
control	-10.8574
▁PATH	-10.8582
sIn	-10.859
▁hang	-10.8597
▁21	-10.8597
>/	-10.8599
▁Be	-10.8604
▁DEBUG	-10.8606
71	-10.8607
Next	-10.8607
locator	-10.8607
▁InverseOffer	-10.861
operation	-10.8611
Spring	-10.8616
▁Logs	-10.8622
Fix	-10.8623
Invocation	-10.8632
▁respond	-10.8632
glossary	-10.8643
el	-10.8643
▁highlight	-10.8643
▁Events	-10.8645
<>()	-10.8647
▁confirmation	-10.8648
▁Salesforce	-10.8649
▁useless	-10.8653
Slave	-10.8654
Of	-10.8654
▁worth	-10.8655
▁Github	-10.8656
▁intended	-10.8658
▁observed	-10.8658
▁somehow	-10.8658
▁Thus	-10.8661
▁subset	-10.8663
▁Integrity	-10.8664
sec	-10.8664
▁wrapped	-10.8664
Implementation	-10.8665
▁WCS	-10.8669
defined	-10.8671
▁transports	-10.8672
▁sorted	-10.8673
▁reasonable	-10.8675
▁writes	-10.8675
▁accepted	-10.8676
▁rendered	-10.8678
▁destination	-10.8679
rt	-10.8679
▁interval	-10.8679
OUT	-10.8679
:50	-10.8683
▁involved	-10.8684
:260	-10.8684
-0	-10.8686
▁raise	-10.8688
Move	-10.8688
Sync	-10.8694
Endpoint	-10.8695
▁coding	-10.8698
▁entered	-10.8702
▁prepare	-10.8706
classic	-10.8707
▁portion	-10.8708
Field	-10.8718
▁Label	-10.8722
▁NPM	-10.8723
drop	-10.8727
Admin	-10.8728
:135	-10.8729
artifact	-10.8729
▁QS	-10.8735
header	-10.8736
submission	-10.8737
ds	-10.8738
.1.	-10.874
screen	-10.875
Item	-10.8751
:40	-10.8753
▁effects	-10.8761
▁Classic	-10.8761
▁beans	-10.8762
▁treat	-10.8764
▁factory	-10.8764
invalid	-10.8769
scripts	-10.877
▁Monitoring	-10.8774
angular	-10.8778
refresh	-10.878
▁7.1	-10.8781
assert	-10.8782
▁affects	-10.8785
tar	-10.8786
Transformer	-10.8786
family	-10.8787
BUILD	-10.8788
39)	-10.8789
Mysql	-10.879
standalone	-10.879
registration	-10.8791
▁hostname	-10.8792
Editor	-10.8794
▁green	-10.8794
notify	-10.8794
zero	-10.8798
used	-10.8799
True	-10.8803
▁submissions	-10.8805
▁3.0.0	-10.8807
▁"$	-10.8811
▁ImageView	-10.8818
29	-10.8822
:111	-10.8824
INT	-10.8826
66	-10.8827
▁2.1.2	-10.8828
SpringXD	-10.8828
Changing	-10.8832
note	-10.8833
▁clients	-10.8835
95)	-10.8843
▁Pattern	-10.8844
instr	-10.8849
▁22	-10.885
buildFile	-10.8854
▁accessibility	-10.8858
26	-10.886
BC	-10.8865
268)	-10.8868
Lettuce	-10.8868
▁Unit	-10.887
48	-10.887
▁1.2	-10.8878
there	-10.8889
put	-10.8901
▁assignments	-10.8902
43)	-10.8904
sWe	-10.8906
managing	-10.8909
▁---	-10.8919
▁tesb	-10.8922
67	-10.8936
Maven	-10.8938
State	-10.8944
Xcode	-10.8945
▁coordinate	-10.8946
▁discussions	-10.8947
▁schedulers	-10.8949
▁61	-10.8957
completion	-10.8965
▁marker	-10.8966
Address	-10.8976
▁tutorial	-10.8978
▁Abstract	-10.8978
▁emit	-10.8981
▁render	-10.8984
getFile	-10.8984
Consumer	-10.8985
5/	-10.8988
works	-10.8991
[1]	-10.8992
▁Demo	-10.8994
▁param	-10.8996
Windo	-10.8998
lokeshchoudhary	-10.9
▁Criteria	-10.9
StructuredViewer	-10.9
DebugUIPlugin	-10.9
▁presence	-10.9
▁overwritten	-10.9
CoreFoundation	-10.9002
StateException	-10.9002
▁saw	-10.9002
Reserved	-10.9003
FrameworkMethod	-10.9004
▁README	-10.9007
▁slightly	-10.9007
▁<!--	-10.9008
▁sh	-10.9011
▁greater	-10.9012
Invoke	-10.9015
▁destroyed	-10.9017
deps	-10.9017
▁gone	-10.9019
▁measurements	-10.902
▁Denso	-10.9021
▁frequency	-10.9022
nl	-10.9024
▁JK	-10.9024
less	-10.9024
▁asked	-10.9025
itting	-10.9027
▁galaxy	-10.9029
▁Doxygen	-10.9029
▁100,	-10.9033
SSL	-10.9035
369)	-10.9036
Incorrect	-10.9038
▁processCcd	-10.9041
▁compared	-10.9042
▁assets	-10.9042
trac	-10.9043
Calendar	-10.9044
▁401	-10.9051
▁()	-10.9051
Control	-10.9051
▁evolution	-10.9052
Updating	-10.9054
▁@@	-10.9056
:41	-10.9056
84	-10.9064
containers	-10.9068
▁presented	-10.9069
via	-10.9072
OS	-10.9074
▁quotes	-10.9076
void	-10.9079
▁median	-10.9082
▁5.1	-10.9082
cat	-10.9085
sbin	-10.9086
standard	-10.9089
▁iterate	-10.9091
OK	-10.9103
permission	-10.9109
▁Manage	-10.911
▁Deprecate	-10.911
types	-10.9112
tuple	-10.9115
xternalize	-10.912
notification	-10.9124
▁initialize	-10.9127
both	-10.9132
▁Detect	-10.9134
▁TabGroup	-10.9135
▁intercept	-10.9139
6/	-10.9141
16)	-10.9142
regex	-10.915
unix	-10.9152
Dispatcher	-10.9156
cfg	-10.9164
REST	-10.9166
Only	-10.9167
▁topic	-10.9167
decl	-10.9175
dml	-10.9179
next	-10.9179
scons	-10.9185
▁certificates	-10.9187
▁JAVA	-10.9199
geom	-10.9202
egg	-10.9206
▁plane	-10.9206
features	-10.9214
ccc	-10.922
>"	-10.9222
▁media	-10.9227
sim	-10.9229
execution	-10.9237
▁!=	-10.9244
Web	-10.925
▁res	-10.9252
▁Place	-10.9258
hide	-10.9259
▁Disable	-10.9259
▁controllers	-10.9262
▁adb	-10.9266
Expression	-10.9277
'},	-10.9283
▁keeps	-10.9287
▁replica	-10.9301
JSON	-10.9303
▁corner	-10.9316
.)	-10.933
2679	-10.9336
95	-10.9343
LOG	-10.9345
▁quiz	-10.9353
▁light	-10.9354
design	-10.9361
▁deliver	-10.9362
ORDER	-10.9369
▁redundant	-10.937
handleMessage	-10.9372
▁intermittently	-10.9375
ntainerRegistrar	-10.9377
▁Assignment	-10.9377
▁speed	-10.9378
▁mis	-10.9379
PlainSocket	-10.9379
▁ideal	-10.9383
IntegrationTests	-10.9383
▁Cluster	-10.9385
▁Revert	-10.9386
-1.0.0.	-10.9391
▁CCB	-10.9391
▁buildbot	-10.9393
erhaps	-10.9395
▁chat	-10.9395
98	-10.9395
▁serialization	-10.9397
▁his	-10.94
▁JVM	-10.9401
md	-10.9402
▁branches	-10.9402
▁declare	-10.9405
$3.	-10.9406
▁Keep	-10.941
00007	-10.9412
▁stacktrace	-10.9412
▁3.5.0.	-10.9416
▁signature	-10.9417
=64	-10.9417
▁args	-10.942
▁Fetch	-10.9426
▁413	-10.9428
▁Refer	-10.9429
poll	-10.9431
0.	-10.9433
▁Enterprise	-10.9433
mdm	-10.9438
archive	-10.9438
▁bound	-10.944
Location	-10.944
▁descriptions	-10.9441
babili	-10.9447
uri	-10.9448
▁Full	-10.9454
number	-10.9457
▁Learn	-10.9458
▁Initial	-10.9461
bf	-10.9466
CE	-10.9467
▁modes	-10.9468
▁CalibrateTask	-10.9468
▁None	-10.9471
▁Column	-10.9471
abi	-10.9474
▁textField	-10.9474
▁Found	-10.9475
helper	-10.9476
split	-10.9477
▁syslog	-10.9478
Statistics	-10.9479
▁ref	-10.948
]"	-10.9481
De	-10.9488
58	-10.9489
am	-10.949
▁browse	-10.9494
::_	-10.9502
▁flux	-10.9502
counter	-10.9506
▁HTTPS	-10.9511
tss	-10.9513
copy	-10.9518
existing	-10.9519
01_	-10.9519
▁3.0.2	-10.9521
▁De	-10.9521
translations	-10.9524
proto	-10.9527
▁mvn	-10.9531
▁specs	-10.9531
▁aware	-10.9533
lesson	-10.9535
TISTUD	-10.9538
Invalid	-10.9539
dynamic	-10.954
shutdown	-10.954
jersey	-10.9541
verbose	-10.9542
activemq	-10.9543
JAVA	-10.9544
▁Trigger	-10.9554
hostname	-10.9557
▁Address	-10.956
intro	-10.956
Classes	-10.9562
▁attachments	-10.9563
▁anonymous	-10.9564
▁redesign	-10.9565
has	-10.9572
▁Doc	-10.9579
Theme	-10.958
▁dead	-10.959
:24	-10.9598
subscribe	-10.96
Logging	-10.9601
row	-10.9604
▁corrections	-10.9613
▁meetings	-10.9615
▁'+	-10.9617
▁Win	-10.9627
▁member	-10.9632
▁env	-10.9634
ive	-10.9641
▁Implementation	-10.9643
▁n	-10.9648
▁leav	-10.9652
-1.	-10.9658
Remote	-10.966
38	-10.9668
Block	-10.9671
ccording	-10.9671
▁Dur	-10.9672
▁timed	-10.9675
▁#3	-10.9678
▁AMI	-10.9695
chat	-10.9696
Driver	-10.97
grep	-10.97
▁threshold	-10.9713
▁freeze	-10.9721
bind	-10.9732
TDQ	-10.974
33	-10.9744
Case	-10.9752
42	-10.9753
jbosch	-10.9755
▁World	-10.9755
chris	-10.9755
Lazy	-10.9755
eb	-10.9755
_000\	-10.9756
▁retrieving	-10.9756
AbstractBundle	-10.9758
▁knowledge	-10.9758
▁edits	-10.9758
▁bootstrap	-10.9758
▁ubuntu	-10.9762
:20,	-10.9762
▁almost	-10.9763
▁website	-10.9765
▁describing	-10.9768
▁Al	-10.9769
▁longitude	-10.977
▁navBarHidden	-10.977
▁half	-10.977
▁Multi	-10.977
▁Host	-10.977
▁APIkit	-10.9771
▁ordering	-10.9771
▁mask	-10.9772
ss	-10.9772
Containerizer	-10.9774
ness	-10.9775
▁exercise	-10.9777
▁Visualize	-10.9777
created	-10.9777
▁SAML	-10.9778
▁TABLE	-10.9779
▁backwards	-10.9779
▁YUI	-10.9781
APP	-10.9781
▁avd	-10.9782
istenerContainer	-10.9782
▁PUT	-10.9789
▁Duration	-10.979
▁decided	-10.979
▁2.7	-10.9791
Indicator	-10.9792
▁refreshed	-10.9793
▁restarted	-10.9797
result	-10.9798
▁Introduce	-10.98
▁Library	-10.981
▁extended	-10.9812
▁XY	-10.9814
rong	-10.9814
▁===	-10.9814
▁hav	-10.9815
:15	-10.9817
▁Wait	-10.9818
▁Coverage	-10.9822
▁Possible	-10.9827
▁shift	-10.9828
▁renamed	-10.9829
▁priority	-10.9829
▁upstream	-10.9835
▁Double	-10.9836
▁animated	-10.984
Connector	-10.9849
▁****	-10.9856
secure	-10.9858
68	-10.9859
aikunth	-10.986
▁iterator	-10.9862
▁constructors	-10.9867
▁Submit	-10.9869
Entity	-10.9873
engine	-10.9878
▁leveldb	-10.9879
▁Dynamic	-10.9882
3]	-10.9884
controller	-10.9885
▁registering	-10.9886
▁META	-10.9886
▁solver	-10.9887
▁authenticate	-10.9888
alert	-10.9893
createTableView	-10.9897
gist	-10.9898
4-	-10.99
▁TableView	-10.9908
Sample	-10.991
FILE	-10.9915
2]	-10.9916
/<	-10.9918
fr	-10.9921
prefix	-10.9927
perf	-10.9929
coverage	-10.9934
velocity	-10.9934
contains	-10.9935
▁spreadsheet	-10.9937
facebook	-10.9941
protobuf	-10.9942
formatter	-10.9943
Similar	-10.9943
rabbit	-10.9944
slaveId	-10.9945
viewers	-10.9945
cron	-10.9945
▁karaf	-10.9945
classpath	-10.9948
fits	-10.9952
Another	-10.9957
-68	-10.9962
eups	-10.9969
▁notify	-10.9972
Documentation	-10.9975
cpus	-10.9975
▁cached	-10.9976
▁[[	-10.9981
▁super	-10.9982
||	-10.9987
▁transformation	-10.9991
zk	-10.9994
▁Definition	-10.9994
▁Info	-11
▁logon	-11.0003
▁states	-11.0006
▁3.4.1	-11.0013
▁junit	-11.0015
Authorization	-11.0019
Runtime	-11.0019
items	-11.0023
▁Network	-11.0025
et	-11.0033
old	-11.004
5,	-11.0041
WebView	-11.005
Preferences	-11.0064
▁TextField	-11.0065
▁25	-11.0068
▁listen	-11.0071
▁candidate	-11.0079
!"	-11.008
▁shape	-11.0083
:185	-11.0086
47	-11.0099
▁alternative	-11.0102
▁formats	-11.0104
▁construct	-11.0108
/1	-11.0109
▁tooling	-11.0111
▁jetty	-11.0116
43	-11.0136
▁Split	-11.0141
▁dialogue	-11.0143
▁Connect	-11.0144
Timeout	-11.0146
▁HD	-11.0154
CONFIG	-11.0154
hadoopDistro	-11.0155
▁technology	-11.0155
▁themselves	-11.0155
▁underneath	-11.0155
STYLE	-11.0155
▁middle	-11.0155
▁RabbitMQ	-11.0155
INPUT	-11.0155
:1407)	-11.0155
Encoding	-11.0155
▁replicator	-11.0155
▁Which	-11.0162
▁Cascades	-11.0162
▁provenance	-11.0162
▁explanation	-11.0162
▁iRODS	-11.0162
▁bindId	-11.0163
▁mapped	-11.0164
71)	-11.0165
CommonJS	-11.0169
▁among	-11.017
▁Winter	-11.0171
guides	-11.0171
▁dirty	-11.0172
▁odd	-11.0173
▁semantics	-11.0173
▁Psf	-11.0174
sThe	-11.0175
▁util	-11.0176
▁expanded	-11.0177
▁raised	-11.0178
▁Cleanup	-11.0184
▁Assignees	-11.0185
▁early	-11.0187
▁Drop	-11.0188
▁TiSDK	-11.0189
▁Array	-11.019
fill	-11.0194
▁12.04	-11.0196
97)	-11.0197
▁Shutdown	-11.0197
▁Atto	-11.0197
▁distortion	-11.0197
▁commented	-11.0198
▁mostly	-11.0198
▁URLs	-11.0199
▁encrypted	-11.02
▁Finished	-11.0206
▁GreenHopper	-11.0207
▁submitted	-11.0209
MM	-11.0209
attempt	-11.021
:66	-11.021
▁years	-11.0213
launching	-11.0214
▁chooser	-11.0217
LogMessage	-11.0221
▁dump	-11.0221
xxx	-11.0223
▁pure	-11.0224
▁boxes	-11.0225
▁restored	-11.0226
▁Hit	-11.0243
▁populated	-11.0249
fetch	-11.025
structure	-11.0253
▁MDM	-11.0256
▁IDs	-11.0257
ies	-11.0258
▁charset	-11.026
▁approximate	-11.0265
part	-11.0268
▁Existing	-11.0269
Statement	-11.027
▁Return	-11.0272
▁wide	-11.0275
contributing	-11.0278
widget	-11.0282
product	-11.0283
▁disappears	-11.0284
▁Put	-11.0288
▁2.5	-11.0292
provider	-11.0293
ST	-11.0296
ruble	-11.0302
85	-11.0305
▁networking	-11.0305
▁17	-11.0306
global	-11.0306
annotation	-11.0307
▁Works	-11.0318
Apple	-11.0319
▁composite	-11.0319
▁ago	-11.032
)"	-11.0329
schedule	-11.0337
xerces	-11.034
accept	-11.034
▁Choose	-11.0345
createTabGroup	-11.0345
▁derive	-11.0346
▁analyze	-11.0349
assist	-11.035
strategy	-11.0352
Launching	-11.0356
MAX	-11.0357
gemfire	-11.0358
region	-11.0359
PAC	-11.0359
destroy	-11.0359
▁blocking	-11.0359
anonymous	-11.036
MULE	-11.036
gz	-11.0374
ar	-11.038
▁\\	-11.0383
DispatchThread	-11.0385
dsl	-11.0387
boot	-11.0389
▁{{/	-11.0391
Mode	-11.0393
max	-11.0393
hooks	-11.0399
libevent	-11.04
▁Entity	-11.0401
▁Extend	-11.0405
▁symbol	-11.0414
▁Proxy	-11.0416
▁intent	-11.0421
▁differences	-11.0427
▁anaconda	-11.0432
:29	-11.0442
man	-11.0444
86/	-11.045
renderers	-11.0453
13)	-11.0463
\":\"	-11.0465
▁xcode	-11.0466
share	-11.0471
▁Refresh	-11.0475
Hi	-11.0476
▁tMatchGroup	-11.0482
▁validator	-11.0483
InputStream	-11.0487
▁outputs	-11.0487
TR	-11.0491
xr	-11.0493
US	-11.0494
Mapper	-11.0495
▁replac	-11.0511
▁jump	-11.0513
▁typical	-11.0513
try	-11.0518
▁assertion	-11.0519
▁../	-11.0522
▁coadd	-11.0523
lt	-11.053
▁completes	-11.0532
ecla	-11.0542
▁Extra	-11.0545
▁correspond	-11.0546
▁executable	-11.0549
▁leverage	-11.0563
Ccd	-11.0568
▁scripting	-11.0569
▁Information	-11.0569
egomez	-11.0571
▁eliminate	-11.0571
Helvetica	-11.0571
displayCaps	-11.0571
▁qdisc	-11.0571
FOR	-11.0571
JSSymbol	-11.0571
WizardDialog	-11.0571
ygoteInit	-11.0571
▁stuck	-11.0571
SConscript	-11.0571
▁piece	-11.0572
▁merging	-11.0573
▁unavailable	-11.0573
your	-11.0573
▁analyses	-11.0575
%3	-11.0576
unsigned	-11.0577
▁anywhere	-11.0578
▁stamp	-11.0579
▁overridden	-11.0579
▁Oct	-11.058
tion	-11.058
▁interact	-11.0581
▁verified	-11.0581
▁rm	-11.0584
▁lose	-11.0585
▁reverse	-11.0586
▁suspect	-11.0588
▁JSCA	-11.0589
▁disposed	-11.059
▁proof	-11.059
▁four	-11.0592
▁querying	-11.0593
▁requir	-11.0594
▁activated	-11.0595
▁inserted	-11.0596
▁locate	-11.0596
▁latitude	-11.0596
▁CCD	-11.0598
:20	-11.0598
▁IAM	-11.0599
ted	-11.0602
▁replicated	-11.0603
▁Load	-11.0605
▁drill	-11.0605
▁negative	-11.0606
.'&	-11.0608
▁aligned	-11.0609
▁dependent	-11.0612
▁setTimeout	-11.0613
▁matrix	-11.0615
Do	-11.0618
schemas	-11.0621
▁explore	-11.0624
▁10%	-11.0625
slaves	-11.0627
▁authenticated	-11.0627
▁guid	-11.0627
3-	-11.0632
▁CHECK	-11.0633
plist	-11.0633
▁symbols	-11.0634
▁optionally	-11.0634
▁Fire	-11.0636
▁polling	-11.0639
▁[]	-11.0648
▁pairs	-11.0651
▁contained	-11.0654
coming	-11.0655
▁Evaluate	-11.0655
▁validated	-11.0664
▁models	-11.0666
▁Scope	-11.0678
▁filtered	-11.0687
▁1.9	-11.0687
limit	-11.069
▁sharing	-11.0692
abili	-11.0694
▁64	-11.0696
Aborted	-11.0698
▁sorting	-11.0699
canEdit	-11.0701
▁("	-11.0701
handled	-11.0705
▁messaging	-11.0712
▁placeholders	-11.0716
usage	-11.0718
▁Post	-11.0719
▁incomplete	-11.0719
template	-11.0721
="0"	-11.0722
allocated	-11.0723
▁ends	-11.0725
▁grab	-11.0728
Allow	-11.0729
▁TO	-11.073
wrapper	-11.0733
temp	-11.0738
available	-11.0741
▁gather	-11.0741
▁boards	-11.075
insert	-11.075
GB	-11.075
▁La	-11.0751
▁wp	-11.0752
▁Space	-11.0757
without	-11.0759
sa	-11.0769
gather	-11.077
transformer	-11.0772
Dir	-11.0773
rules	-11.0785
yaml	-11.0786
jruby	-11.0786
▁cpus	-11.0787
FAILED	-11.0787
cl	-11.0789
mapping	-11.079
▁copying	-11.0793
karaf	-11.0794
StorageProvider	-11.0795
Choose	-11.0795
▁deployments	-11.08
Home	-11.0801
distrib	-11.0802
maybe	-11.0803
91	-11.0803
Creating	-11.0809
Policy	-11.0816
▁limits	-11.0818
▁Second	-11.0819
Locale	-11.0822
▁msg	-11.0823
None	-11.0827
2_	-11.0827
statements	-11.083
Point	-11.083
▁fair	-11.0839
reparedStatement	-11.084
▁Button	-11.0847
tooling	-11.085
wp	-11.0862
▁cast	-11.0864
email	-11.0864
Namespace	-11.0865
▁ipad	-11.0868
xb	-11.0878
Recognize	-11.088
▁1.8	-11.0881
Fetch	-11.0898
▁>=	-11.0901
methods	-11.0906
gets	-11.091
Column	-11.0917
▁miss	-11.0923
▁practice	-11.0924
/@	-11.0925
Go	-11.0928
▁colour	-11.0933
:59	-11.0934
vm	-11.0943
▁JAR	-11.0948
▁decision	-11.0948
▁replacement	-11.0952
▁iteration	-11.0956
▁Operation	-11.0959
ize	-11.0961
▁Problems	-11.0961
▁interaction	-11.0962
▁#2	-11.0962
2;	-11.0963
sub	-11.0965
▁Images	-11.0967
per	-11.0972
▁clause	-11.0975
▁exclude	-11.098
▁ra	-11.0988
:23	-11.0999
errors	-11.0999
74	-11.1001
PREFIX	-11.1006
VERSION	-11.1006
▁Sphinx	-11.1006
(\*):	-11.1006
▁equipment	-11.1006
SOME	-11.1006
RIGHT	-11.1007
▁everywhere	-11.1007
ProcessBase	-11.1008
▁respective	-11.1008
Determine	-11.1009
▁latter	-11.1013
▁learn	-11.1013
▁xhr	-11.1013
▁shear	-11.1014
:121)	-11.1016
Common	-11.1018
▁independent	-11.1018
▁recommended	-11.102
orientationModes	-11.102
▁Avoid	-11.1022
▁eclipse	-11.1022
▁Nexus	-11.1023
▁remember	-11.1024
▁beyond	-11.1025
▁Hook	-11.103
BuildException	-11.1034
▁caught	-11.1034
▁grading	-11.1038
▁Rubles	-11.1039
▁Confluence	-11.1042
▁Otherwise	-11.1042
▁Jim	-11.1043
:7	-11.1046
▁science	-11.105
▁compliant	-11.1052
▁tESBConsumer	-11.1052
▁jenkins	-11.1055
76	-11.1059
▁DuraStore	-11.1061
▁Storage	-11.1062
▁aggregation	-11.1064
▁provisioner	-11.1066
Guide	-11.1069
/3.3.0.	-11.1073
▁discovery	-11.1074
▁edited	-11.1075
Grails	-11.1075
▁whereas	-11.1078
▁scatter	-11.1079
▁readable	-11.1088
Style	-11.1089
▁Validate	-11.1098
▁backlog	-11.1101
▁HTTPClient	-11.1102
▁purposes	-11.1107
▁Software	-11.1109
▁Turn	-11.1109
▁Neu	-11.1111
]$	-11.1117
▁shapelet	-11.1119
rb	-11.1119
▁temp	-11.1125
▁Just	-11.1129
print	-11.1132
▁conventions	-11.1135
Function	-11.1144
Ide	-11.1154
▁--------------	-11.1162
▁focused	-11.1165
▁pulling	-11.1167
▁ids	-11.1171
Installing	-11.1173
▁central	-11.1177
Delete	-11.1179
▁shortcuts	-11.1181
1222	-11.1183
:114	-11.1183
▁chapter	-11.1184
platforms	-11.1186
▁backed	-11.1188
.,	-11.119
▁inner	-11.1196
▁60	-11.1199
["	-11.1202
df	-11.1204
▁expects	-11.1207
▁students	-11.1207
bean	-11.1208
hardcoded	-11.1209
▁2'	-11.1211
cgroup	-11.1226
authenticate	-11.1227
dependency	-11.1229
▁concurrent	-11.123
parent	-11.1233
▁TEST	-11.124
iphonesimulator	-11.1241
▁4.0.0.	-11.1242
Bamboo	-11.1243
subprocess	-11.1244
RUN	-11.1245
)*	-11.1245
Regex	-11.1248
spreadsheet	-11.1248
quick	-11.1248
btn	-11.1251
How	-11.1252
:173	-11.1256
▁24	-11.1258
duration	-11.1259
Clean	-11.1263
Settings	-11.1274
▁enrol	-11.1274
▁dispatch	-11.1276
▁mechanisms	-11.1278
placed	-11.1288
▁blue	-11.1291
Un	-11.1292
templates	-11.1295
OR	-11.1301
cheat	-11.1305
▁cd	-11.1305
▁3.4.0	-11.1307
="/	-11.1308
DefaultLi	-11.1311
(27	-11.1314
validate	-11.1315
▁resulted	-11.1322
Classic	-11.1322
Options	-11.1324
▁overrides	-11.1326
sudo	-11.1337
97	-11.1338
▁feel	-11.1339
▁hint	-11.1343
▁modification	-11.1344
▁Child	-11.1345
Writer	-11.1348
▁distro	-11.135
▁Offer	-11.1353
▁Observe	-11.1359
Param	-11.1369
▁IO	-11.137
▁consume	-11.1372
▁Perform	-11.1378
Removing	-11.1381
ually	-11.1383
▁arg	-11.1388
▁(@	-11.1389
:33	-11.1389
:51	-11.14
664)	-11.1405
By	-11.1411
▁1.8.2	-11.1412
▁unzip	-11.1417
def	-11.1417
ex	-11.1422
▁counts	-11.1422
▁cost	-11.1434
▁unchecked	-11.1437
▁achieve	-11.1441
:<	-11.1441
▁License	-11.1441
-2014	-11.1444
▁Detail	-11.1446
▁belong	-11.1447
▁swipe	-11.1448
Edit	-11.145
101	-11.1452
▁strange	-11.1456
▁encounter	-11.1456
▁distinguish	-11.1459
20150614181235\	-11.146
AppCompat	-11.1461
fasterxml	-11.1461
ExternalResource	-11.1461
qatester	-11.1461
TestSuite	-11.1461
▁proxies	-11.1462
findClass	-11.1463
ActivityThread	-11.1463
sourceforge	-11.1463
12)	-11.1463
fecycleProcessor	-11.1463
▁complicated	-11.1464
prerelease	-11.1465
▁adapt	-11.1466
▁revisit	-11.1467
▁Reduce	-11.1467
▁LDAP	-11.1468
▁rapid	-11.1468
▁notified	-11.1469
▁cJMS	-11.1469
▁capacity	-11.1469
▁problematic	-11.1469
▁MDLQA	-11.1469
▁neither	-11.1469
▁March	-11.147
Advanced	-11.1472
oversubscription	-11.1473
gtest	-11.1474
▁war	-11.1474
▁basis	-11.1474
MeasurementTask	-11.1475
=".$	-11.1477
▁Course	-11.1478
▁Agile	-11.1478
81	-11.1478
CF	-11.1479
▁Browse	-11.148
▁disconnected	-11.1482
▁Expand	-11.1482
▁23	-11.1484
▁Prototype	-11.1488
▁Simplify	-11.1488
▁highlighting	-11.1493
▁Paul	-11.1497
Servlet	-11.1498
▁CLOV	-11.1499
▁'--	-11.1504
osname	-11.1504
ought	-11.1504
75	-11.1505
▁series	-11.1507
▁exitOnClose	-11.1508
▁grammar	-11.1508
▁ISR	-11.1512
▁whitespace	-11.1512
▁maps	-11.1513
▁Specify	-11.152
▁plug	-11.1523
SUB	-11.1524
spec	-11.1529
reateBuilderImpl	-11.1535
Transport	-11.1536
▁EXPECTED	-11.1538
▁Validation	-11.1538
▁Loading	-11.1547
Forked	-11.1549
TableViewSection	-11.1549
nc	-11.1549
▁suggestions	-11.1554
▁Rest	-11.1557
▁demand	-11.1562
EE	-11.157
▁enforce	-11.157
messages	-11.1572
▁Username	-11.1574
undeploy	-11.1574
▁!!!	-11.1577
▁tableview	-11.1579
httpStream	-11.158
▁downloads	-11.1583
▁Clear	-11.1585
ral	-11.1586
▁Remote	-11.1591
▁appeared	-11.1592
go	-11.1595
▁"<	-11.1598
▁research	-11.1599
▁Warning	-11.16
▁clang	-11.1602
folders	-11.1603
▁reproduced	-11.1608
▁3.5	-11.161
implement	-11.162
8/	-11.1621
▁join	-11.1624
raw	-11.1626
▁3.5.1	-11.1627
▁scisql	-11.1627
▁8.0	-11.1636
▁photometry	-11.1637
modified	-11.1638
-75	-11.164
▁servlet	-11.1646
▁tuple	-11.1647
finalize	-11.1648
OutputStream	-11.165
62)	-11.1651
exists	-11.1651
9_	-11.1657
▁connecting	-11.1658
62	-11.1659
vector	-11.1661
snapshot	-11.1664
▁Illegal	-11.167
Oracle	-11.1672
▁impl	-11.1675
▁Logging	-11.1686
bd	-11.1687
▁mess	-11.169
existent	-11.1695
Types	-11.1695
deployed	-11.1699
tizen	-11.1701
CustomerService	-11.1705
RELEASE	-11.1708
king	-11.1708
...)	-11.171
discuss	-11.1711
ate	-11.1711
WITH	-11.1718
generated	-11.1718
logger	-11.172
Illegal	-11.1722
Docker	-11.1723
▁True	-11.1726
bool	-11.1728
▁Ref	-11.1732
green	-11.1733
either	-11.1736
compiler	-11.174
'),	-11.1741
wrap	-11.1741
results	-11.1751
Strategy	-11.1753
▁Connections	-11.1761
▁grouping	-11.1764
▁mem	-11.1775
required	-11.1781
car	-11.1782
im	-11.1783
▁arrays	-11.1793
Simulator	-11.1795
▁MB	-11.1796
bad	-11.1798
▁5.4	-11.1798
records	-11.1815
▁hosts	-11.1817
MessageHandler	-11.1826
bus	-11.1827
9-	-11.1829
Buffer	-11.183
▁SE	-11.1831
▁macro	-11.1834
Compiler	-11.1834
▁solutions	-11.1844
even	-11.1855
28	-11.1856
last	-11.1862
▁play	-11.1862
option	-11.1875
==========	-11.1878
-------------	-11.1878
▁risk	-11.1878
99)	-11.1884
cmd	-11.189
▁aggregator	-11.1891
▁hash	-11.1891
merge	-11.1898
▁scan	-11.1905
-40	-11.1905
Modules	-11.1908
PHP	-11.1908
="1.0"	-11.1921
:70	-11.1932
▁PM	-11.1933
▁exceed	-11.1935
Darwin	-11.1937
▁00:20:16.97	-11.1937
▁Gemfire	-11.1937
▁kept	-11.1937
ReflectiveCall	-11.1937
▁strategies	-11.1937
▁REPRODUCE	-11.1937
StartLevel	-11.1937
Errno	-11.1937
▁13:05:18.29	-11.1937
presumably	-11.1939
MBeanServer	-11.1941
ChannelAdapter	-11.1941
▁XSD	-11.1941
▁life	-11.1942
▁tESB	-11.1943
▁PhoSim	-11.1945
▁Petravick	-11.1945
▁Spike	-11.1946
▁profiling	-11.1948
▁cCXF	-11.1948
▁Keyboard	-11.1949
TL	-11.1951
endpoints	-11.1951
▁customized	-11.1952
HandleException	-11.1952
▁finishes	-11.1955
▁tagged	-11.1955
▁brief	-11.1956
▁Jan	-11.1956
▁Conversion	-11.196
▁wizards	-11.196
_1_	-11.1961
▁primitives	-11.1962
Hyperlink	-11.1963
▁cmsd	-11.1964
▁reflected	-11.1964
SpringSource	-11.1965
Integration	-11.1967
▁critical	-11.1968
▁Aug	-11.1968
ls	-11.1968
▁2014050	-11.1969
▁Central	-11.1975
▁Video	-11.1977
"]	-11.1979
▁locked	-11.1981
▁declaration	-11.1983
▁Where	-11.1985
▁Estimate	-11.1987
▁cleared	-11.1988
▁instrumented	-11.1988
ok	-11.1992
▁Script	-11.1994
▁recorder	-11.1995
Generated	-11.1998
▁repro	-11.1998
▁editActions	-11.1999
RedisQueue	-11.2002
▁float	-11.2002
▁Specific	-11.2004
▁freezes	-11.2008
UIKit	-11.201
:249	-11.2019
▁revert	-11.202
▁Let	-11.2024
▁candidates	-11.2027
▁appicon	-11.2028
▁doxygen	-11.2028
▁differently	-11.2032
▁Docs	-11.2032
▁fast	-11.2036
▁Take	-11.2038
▁expecting	-11.2041
Selection	-11.2042
▁2012-201	-11.2044
0808	-11.2045
▁act	-11.2046
▁tract	-11.2047
Save	-11.2047
▁mapview	-11.2049
6,	-11.2055
forms	-11.206
▁tdq	-11.2061
6-	-11.2065
▁se	-11.2069
▁reach	-11.207
▁customers	-11.207
▁"[	-11.2071
▁MI	-11.2071
▁Match	-11.2079
▁sconsUtils	-11.2089
▁extends	-11.209
Items	-11.2104
▁newinstall	-11.2105
deployment	-11.2108
▁slide	-11.2109
▁suggests	-11.211
!');	-11.211
▁2.4	-11.2111
63)	-11.2113
854	-11.212
▁{{--	-11.2137
▁3.1.0.	-11.2142
failure	-11.2148
bold	-11.2151
▁protobufs	-11.2154
age	-11.216
browser	-11.216
86_64	-11.2162
-135	-11.2163
92	-11.2165
icon	-11.2166
▁badge	-11.2167
▁LOG	-11.217
worker	-11.2171
▁commits	-11.2171
topic	-11.2174
▁Platforms	-11.2174
::__	-11.2176
running	-11.2181
Blob	-11.2181
▁retain	-11.2182
party	-11.2192
ite	-11.2197
2014	-11.2198
▁hdp	-11.2203
Export	-11.2203
are	-11.2207
▁VMs	-11.2209
public	-11.221
:34	-11.2212
consumer	-11.2213
hose	-11.2213
total	-11.2216
:35	-11.2216
tester	-11.2219
Warning	-11.2219
MobileWeb	-11.2219
32-	-11.2219
inferencing	-11.222
▁regions	-11.2221
cassandra	-11.2222
Automatically	-11.2222
leader	-11.2223
fullscreen	-11.2224
fetcher	-11.2224
Deliverable	-11.2224
choice	-11.2225
Email	-11.2225
▁cycles	-11.2225
dentify	-11.2225
vendor	-11.2227
mvn	-11.2228
survey	-11.2228
summary	-11.2229
partitioned	-11.2229
:58	-11.2231
serialize	-11.2231
▁Pass	-11.2235
gif	-11.2239
ListSection	-11.2241
Hide	-11.2245
Idea	-11.2246
emit	-11.2252
▁8.1	-11.2253
bytes	-11.2257
▁Notification	-11.2273
WP	-11.2274
▁vector	-11.2275
▁workers	-11.2276
:105	-11.228
68)	-11.2283
:498	-11.2293
cross	-11.2295
▁Key	-11.2304
▁dark	-11.2304
▁Comment	-11.2306
▁Media	-11.2309
"],	-11.231
exports	-11.2311
▁jms	-11.2318
aking	-11.2322
▁areas	-11.2327
▁appearing	-11.2328
ProjectWizard	-11.2328
']	-11.233
ime	-11.2334
executors	-11.2336
▁embed	-11.2338
▁alternate	-11.2341
ap	-11.2342
Directory	-11.2349
QL	-11.2353
▁fall	-11.2354
selected	-11.2354
▁conflict	-11.2355
OptionsMetadata	-11.2358
jun	-11.2363
▁advantage	-11.2365
▁lambda	-11.2365
Size	-11.2365
Annotation	-11.2367
▁recursive	-11.2367
▁Collection	-11.2367
▁Standard	-11.2374
▁INF	-11.2376
▁fiber	-11.2379
▁calculation	-11.238
hi	-11.2382
Deployer	-11.2383
▁Diagnostic	-11.2388
Count	-11.2388
Bar	-11.239
▁checksum	-11.2392
▁queues	-11.2404
▁External	-11.2404
▁year	-11.2408
▁Dev	-11.2408
▁zoom	-11.2408
▁exposure	-11.241
▁recipe	-11.2413
Last	-11.2413
▁Methods	-11.2416
▁Prompt	-11.2427
▁observe	-11.2428
▁Merge	-11.2428
▁metric	-11.2431
▁Password	-11.2433
CSS	-11.2435
▁Serena	-11.2437
▁copies	-11.2437
▁obsolete	-11.2437
LOWER	-11.2437
Thomas	-11.2437
▁TinyMCE	-11.2437
▁drwxr	-11.2437
▁EFD	-11.2437
Verification	-11.2437
Legacy	-11.2437
DMatrix	-11.2438
▁complexity	-11.2438
▁Junit	-11.2438
jaxrs	-11.2439
▁truncated	-11.2439
standardization	-11.2441
................	-11.2443
Link	-11.2445
▁YAML	-11.2445
▁erroneous	-11.2445
▁Repeat	-11.2445
▁Large	-11.2445
▁surface	-11.2445
▁reconciliation	-11.2446
386	-11.2446
▁recycle	-11.2447
Try	-11.2447
▁AJAX	-11.2447
▁JavaScriptCore	-11.2447
MultiPa	-11.2447
▁indication	-11.2448
▁analyzer	-11.2451
UAL	-11.2452
▁synchronous	-11.2455
▁Total	-11.2455
▁binaries	-11.2456
▁inverse	-11.2456
▁1.5	-11.2457
▁deprecation	-11.2457
▁secured	-11.2457
▁fitting	-11.2461
0"	-11.2461
▁ad	-11.2462
▁appropriately	-11.2465
▁utilities	-11.2467
▁2016	-11.2469
▁JobServer	-11.2469
▁ISO	-11.2471
▁hours	-11.2471
Empty	-11.2473
▁($	-11.2477
▁calculated	-11.2478
▁secure	-11.2478
▁canvas	-11.2478
▁activate	-11.2478
▁Y	-11.248
um	-11.2481
▁Lion	-11.2483
math	-11.2487
▁AMQP	-11.2489
etChildren	-11.2489
▁IPv	-11.2491
▁encoded	-11.2492
▁Long	-11.2494
Lifecycle	-11.2497
&)	-11.2499
▁AUTHOR	-11.2499
▁zone	-11.2502
▁TiBlob	-11.2502
▁addresses	-11.2507
▁Parameters	-11.2508
20140829184521/	-11.2509
frameworks	-11.2517
▁bounds	-11.252
Composite	-11.2522
▁NO	-11.2524
▁About	-11.253
Up	-11.2532
000	-11.2535
▁reservations	-11.2535
▁Original	-11.2538
▁captured	-11.2539
▁parsed	-11.2544
▁Facebook	-11.2544
lying	-11.2545
▁multipart	-11.2545
:84	-11.2547
▁#1	-11.2549
analyzed	-11.255
▁datasets	-11.255
▁Pull	-11.2555
▁understanding	-11.2564
▁th	-11.2569
▁mac	-11.2571
erson	-11.2574
require	-11.2574
uses	-11.2574
Services	-11.2575
reports	-11.2577
▁Queue	-11.2578
▁Bad	-11.2578
▁ACLs	-11.2583
▁applying	-11.2586
▁Push	-11.259
Git	-11.259
▁06:0	-11.2591
▁pending	-11.2592
▁TitaniumKit	-11.2598
Listeners	-11.2603
nderlying	-11.2604
▁Point	-11.2608
▁photo	-11.2608
▁2,	-11.2609
TMLTidyValidator	-11.2614
while	-11.262
▁Documents	-11.2632
▁trail	-11.2632
activity	-11.2637
'}}	-11.2643
ers	-11.2647
-130	-11.265
▁charts	-11.2653
▁former	-11.2653
▁ideas	-11.2655
99	-11.2658
:53)	-11.2659
twitter	-11.2659
▁Free	-11.266
▁distributions	-11.2661
▁4.0	-11.2662
qr	-11.2667
▁ON	-11.2669
69)	-11.2671
step	-11.2678
principal	-11.2678
Tuple	-11.2679
PickerRow	-11.268
fire	-11.2682
Registered	-11.2685
ending	-11.2685
▁exits	-11.2685
timeout	-11.2688
▁Pr	-11.2691
CLI	-11.2695
▁power	-11.2706
▁2.1.3	-11.2709
URAC	-11.2717
alone	-11.2719
:44	-11.2719
something	-11.2721
▁Native	-11.2722
CXF	-11.2722
jaxws	-11.2724
additional	-11.2728
Session	-11.2729
1-	-11.2729
Children	-11.2733
JavaScript	-11.2734
LOST	-11.2734
Integer	-11.2736
▁dialogs	-11.2736
ser	-11.2737
throw	-11.2739
▁StorageProvider	-11.2741
allocator	-11.2741
catalina	-11.2743
EVENT	-11.2744
Ubuntu	-11.2744
KitchenSink	-11.2747
Output	-11.2748
detection	-11.2748
▁kinds	-11.2748
amqp	-11.2748
These	-11.2749
TODO	-11.275
storage	-11.2751
composite	-11.2751
routing	-11.2751
chapter	-11.2751
servlet	-11.2753
▁fontSize	-11.2755
▁MD	-11.2756
DataSource	-11.2757
kw	-11.2757
Could	-11.2758
▁32	-11.276
functional	-11.276
▁RAM	-11.2763
▁implicit	-11.2765
1>	-11.2765
May	-11.2766
▁jmx	-11.2767
▁Options	-11.2767
indicators	-11.2769
Parameter	-11.277
registered	-11.2772
Files	-11.2774
Batch	-11.2777
▁thinking	-11.2779
▁factor	-11.2781
Started	-11.2782
blocks	-11.2784
Trigger	-11.2785
▁relie	-11.2787
▁persistence	-11.2788
Password	-11.2791
▁$.	-11.2795
ver	-11.2798
▁2.3.	-11.28
▁svn	-11.2804
▁pause	-11.2806
Parse	-11.2809
started	-11.2816
:</	-11.2819
▁health	-11.2834
▁Root	-11.2836
▁drivers	-11.2846
▁wsdl	-11.285
:152	-11.2852
▁hello	-11.2857
▁SP	-11.2858
▁State	-11.2863
▁Id	-11.287
▁+------------	-11.2876
-8)	-11.2881
▁diagnostic	-11.2887
:19	-11.2901
▁situation	-11.2905
▁TUJ	-11.2905
SE	-11.2906
▁Action	-11.2908
▁duplication	-11.2917
};	-11.2932
other	-11.2941
▁6)	-11.2947
▁Resolve	-11.2949
▁Dec	-11.295
▁diff	-11.2951
5.0.0	-11.2952
▁checkout	-11.2956
Temp	-11.2957
▁deprecate	-11.2959
▁optimization	-11.2961
February	-11.2963
▁Minification	-11.2963
▁attention	-11.2963
▁technologies	-11.2963
▁transient	-11.2963
▁manner	-11.2963
ANDROID	-11.2963
▁Jason	-11.2963
fokkezb	-11.2963
▁Rackspace	-11.2963
▁CSV	-11.2964
▁contextual	-11.2964
:1383)	-11.2965
▁estimator	-11.2965
Tree	-11.2965
▁gradebook	-11.2965
86)\	-11.2966
▁simultaneously	-11.2966
▁approximation	-11.2966
dispatchEvent	-11.2967
":{"	-11.2971
FileManager	-11.2971
▁relationship	-11.2972
▁administration	-11.2972
▁gracefully	-11.2973
▁skipped	-11.2974
dot	-11.2976
▁rejected	-11.2976
<>::	-11.2979
ephemeral	-11.298
▁myself	-11.2981
Engine	-11.2982
▁Syntax	-11.2982
NLS	-11.2982
▁ever	-11.2983
Per	-11.2983
▁numeric	-11.2985
▁convenient	-11.2985
▁annoying	-11.2985
▁availability	-11.2986
▁subclass	-11.2988
▁consumed	-11.299
▁SDSS	-11.2991
▁STEP	-11.2993
▁DELETE	-11.2995
▁separator	-11.2995
▁qualified	-11.2995
▁meet	-11.2996
▁checkboxes	-11.2997
▁distributor	-11.2998
▁rootfs	-11.3
▁upper	-11.3005
▁Mercurial	-11.3006
▁authorized	-11.3008
▁distinct	-11.3009
:199	-11.3009
▁dqportal	-11.3009
▁Phase	-11.3012
▁mapper	-11.3013
ettuce	-11.3019
44	-11.302
DC	-11.3021
▁Twitter	-11.3024
▁declarations	-11.3025
define	-11.3026
llowing	-11.3026
logs	-11.3028
▁popover	-11.303
▁metaserv	-11.303
▁backgroundImage	-11.3033
▁Execution	-11.3038
▁grid	-11.3039
▁developing	-11.304
▁Distributed	-11.3041
▁hsqldb	-11.3042
▁responses	-11.3042
▁marking	-11.3042
▁fatal	-11.3044
you	-11.3044
▁Artifact	-11.3045
▁took	-11.3053
▁OpenShift	-11.3055
▁organization	-11.3056
▁Mar	-11.3066
▁InverseOffers	-11.3068
▁Picker	-11.307
▁hoc	-11.3071
▁Instance	-11.3071
▁Libraries	-11.3076
▁fullname	-11.3077
▁recording	-11.3077
▁-------------	-11.3078
LIB	-11.3084
:264	-11.3085
▁WARNING	-11.3086
▁BAM	-11.3089
▁2012	-11.309
▁ws	-11.3091
▁indexes	-11.3092
▁Foo	-11.3093
▁transparent	-11.3095
▁wcs	-11.3095
MessageBus	-11.3096
Constructor	-11.3099
▁simpler	-11.3099
▁Quota	-11.3103
200,	-11.3107
▁Tree	-11.3107
▁AP	-11.311
40)	-11.3111
:43	-11.3111
▁swig	-11.3117
▁liveview	-11.3118
▁Most	-11.3128
▁Deliverable	-11.313
▁Plugins	-11.3132
▁pro	-11.3133
▁Processing	-11.3133
▁snapshots	-11.3137
2-	-11.3142
▁configs	-11.3144
Hibernate	-11.3145
▁wasn	-11.3151
Rules	-11.3151
min	-11.3151
Operations	-11.3152
▁macros	-11.3156
▁10-2	-11.3162
TableView	-11.3165
mem	-11.3168
▁moves	-11.3169
Evaluator	-11.3172
PoolExecutor	-11.3175
86)	-11.3176
▁inputs	-11.318
Wizard	-11.3182
Background	-11.3186
apidoc	-11.3191
mdl	-11.3198
ARD	-11.3201
▁cards	-11.3203
ized	-11.3203
▁CF	-11.3204
▁designer	-11.321
match	-11.3212
▁wrappers	-11.3217
QA	-11.3218
gc	-11.3231
attached	-11.3234
Reader	-11.3235
callback	-11.3243
Cloud	-11.3243
MP	-11.3248
nature	-11.3248
▁3.1.1	-11.3248
video	-11.3249
Extension	-11.3253
▁conditions	-11.3255
:48	-11.3259
▁drive	-11.3263
Spec	-11.3263
▁fonts	-11.3267
▁redeploy	-11.3268
failed	-11.3268
PAGE	-11.3269
▁DOM	-11.3275
63	-11.3275
▁mismatch	-11.3279
since	-11.3281
disable	-11.3283
[3]	-11.3284
kroll	-11.3285
:[	-11.3296
JNI	-11.3296
sed	-11.3296
▁inject	-11.3298
cancel	-11.3298
completed	-11.3299
Prepare	-11.3299
LEFT	-11.33
Science	-11.3302
enterprise	-11.3302
operator	-11.3303
Persistence	-11.3303
DEFAULT	-11.3304
navigation	-11.3306
ResultSet	-11.3306
iPad	-11.3307
multi	-11.3311
listView	-11.3312
xa	-11.3313
ave	-11.3313
1104	-11.3313
▁403	-11.3314
ajax	-11.3315
?).	-11.3316
▁interceptor	-11.3318
apk	-11.3318
Orientation	-11.3325
ons	-11.3327
▁''	-11.3327
▁emails	-11.3334
▁adopt	-11.3335
7,	-11.334
▁environments	-11.3341
FileStore	-11.3345
▁finding	-11.3348
:16	-11.3348
myjob	-11.3354
Find	-11.3369
/{	-11.337
Pool	-11.3375
▁IOS	-11.338
▁performs	-11.3382
Agent	-11.339
cgroups	-11.3391
=3	-11.3398
unch	-11.34
pp	-11.3402
Can	-11.3407
bundles	-11.341
▁star	-11.3414
▁sinks	-11.3416
▁30,	-11.3422
▁2012-10-2	-11.3424
3"	-11.3426
▁pin	-11.343
▁Line	-11.3433
links	-11.3433
▁friendly	-11.3437
cluster	-11.344
▁clusters	-11.3441
Duplicate	-11.3442
requirements	-11.3447
Console	-11.3451
▁2.8	-11.3457
Async	-11.346
▁profiler	-11.3465
▁answer	-11.3469
▁Non	-11.3473
▁classloader	-11.3479
td	-11.3479
ative	-11.348
SearchBar	-11.3481
favoriteAction	-11.3484
▁contribution	-11.3487
▁Channel	-11.3497
kill	-11.35
ty	-11.3507
Look	-11.3508
▁physical	-11.3514
WAI	-11.3516
▁partial	-11.3516
MODE	-11.3517
▁extreme	-11.3519
UserCgroup	-11.3519
TIMEOUT	-11.3519
BeanSerializer	-11.3519
AlloyTe	-11.3519
mplateInstaller	-11.3519
▁preparation	-11.3519
▁OSGI	-11.3519
ChannelResolver	-11.3519
FormatException	-11.352
multifit	-11.352
":0,"	-11.3521
▁efficient	-11.3521
Slider	-11.3521
▁approval	-11.3523
informix	-11.3524
forEach	-11.3524
▁SAP	-11.3524
Understand	-11.3524
▁],	-11.3525
▁Handling	-11.3525
▁benchmark	-11.3525
▁ACT	-11.3527
▁randomly	-11.3528
▁November	-11.3528
▁operating	-11.3528
▁connectivity	-11.3528
▁MVP	-11.3529
grunt	-11.353
▁Duradmin	-11.353
20,	-11.3531
createHTTPClient	-11.3532
▁Terminal	-11.3533
▁throughput	-11.3534
will	-11.3536
▁13:3	-11.3538
▁bash	-11.3539
Collector	-11.3539
0723	-11.3539
om	-11.3539
▁Must	-11.354
▁MEL	-11.3541
▁revision	-11.3544
▁Archiva	-11.3545
▁refused	-11.3546
▁persisted	-11.3548
gpr	-11.3548
▁playing	-11.3549
:137	-11.3551
Custom	-11.3552
▁poor	-11.3552
▁aggregated	-11.3552
ritical	-11.3554
Reflective	-11.3554
▁compil	-11.3557
▁incompatible	-11.3561
34	-11.3561
▁cap	-11.3561
▁basically	-11.3561
▁1.8.0.1	-11.3563
▁duraservice	-11.3564
▁behaves	-11.357
▁particularly	-11.3571
▁similarly	-11.3572
▁Profiler	-11.3573
▁collapse	-11.3573
▁replication	-11.3575
1]	-11.3576
▁FrameworkInfo	-11.3578
▁occured	-11.3578
▁ruler	-11.3581
day	-11.3583
▁[57	-11.3586
Replicator	-11.3587
▁Enhance	-11.3588
▁behave	-11.3589
▁twittersearch	-11.359
ApplicationImpl	-11.359
▁preferred	-11.3591
:30	-11.3592
▁Describe	-11.3593
▁Du	-11.3595
54	-11.3597
17)	-11.3599
▁fresh	-11.3601
▁blocked	-11.3602
Merge	-11.3605
▁ScrollableView	-11.3605
▁Analytics	-11.3613
MySQL	-11.3614
▁ArrayList	-11.3615
▁indicated	-11.362
▁undeployed	-11.3621
Register	-11.3624
▁scheduled	-11.3624
▁CREATE	-11.3626
▁Containerizer	-11.3627
setting	-11.3628
▁GUID	-11.3632
▁01-	-11.3637
▁AndroidManifest	-11.3641
▁pipelines	-11.3646
▁horizontal	-11.3646
▁vertical	-11.3647
objc	-11.3647
▁filepicker	-11.3654
▁communicate	-11.3655
Found	-11.3655
Typed	-11.3662
Configuring	-11.3666
DA	-11.3668
▁converting	-11.3669
▁Installation	-11.3669
▁relaunch	-11.3677
▁Improvements	-11.3678
)?	-11.3681
▁today	-11.3682
▁MessageBus	-11.3686
Adding	-11.3689
(*)	-11.3695
okhttp	-11.3699
Car	-11.3699
Projects	-11.3705
0000	-11.371
▁behat	-11.3711
▁Output	-11.3712
▁2015.	-11.3715
▁Directory	-11.3716
ctivityIndicator	-11.3716
▁usable	-11.3719
▁alpha	-11.3724
▁IS	-11.3724
▁Given	-11.3724
▁jdk	-11.3725
▁Future	-11.3727
▁distribute	-11.3727
ue	-11.373
▁tadmin	-11.3737
▁Science	-11.3739
Changed	-11.3741
ts	-11.3746
area	-11.3764
8,	-11.3764
▁commons	-11.3773
▁tizen	-11.3774
▁q	-11.3776
▁transfers	-11.3778
▁partitioned	-11.3782
41	-11.3783
▁tier	-11.3784
▁Program	-11.3786
Unit	-11.3789
▁quote	-11.3801
438)	-11.3807
first	-11.3809
duplicate	-11.3809
mpact	-11.3809
▁Similar	-11.381
serif	-11.3811
▁Maps	-11.3814
ql	-11.3818
variable	-11.3822
jdk	-11.3823
Match	-11.3824
TabGroup	-11.3827
Global	-11.3829
▁Common	-11.3829
mark	-11.383
language	-11.3832
corporate	-11.3832
]]	-11.3833
▁Deployer	-11.3834
NB	-11.3835
Containers	-11.3836
▁163	-11.3842
testcase	-11.3843
▁el	-11.3844
TIME	-11.3847
▁backups	-11.3849
FileN	-11.3857
take	-11.3858
external	-11.3868
jetty	-11.387
▁GB	-11.3871
animate	-11.3873
binding	-11.3877
SWTException	-11.3877
509	-11.3878
RestTemplate	-11.3879
QE	-11.388
96	-11.3881
▁APP	-11.3883
finish	-11.3883
maintenance	-11.3884
disk	-11.3884
migration	-11.3887
tBackgroundColor	-11.3888
NONE	-11.389
wildcard	-11.389
transaction	-11.389
fontFamily	-11.3891
community	-11.3891
hidden	-11.3891
▁reconcile	-11.3894
Design	-11.3894
nebula	-11.3894
nightly	-11.3895
alpha	-11.3897
NodeJS	-11.3897
offset	-11.3898
scisql	-11.3899
▁19	-11.3906
Given	-11.391
stage	-11.3911
▁Automate	-11.3913
▁Progress	-11.3915
single	-11.3918
Setup	-11.3919
TI	-11.3922
▁deletes	-11.3926
▁::	-11.3932
curl	-11.3934
▁online	-11.3938
say	-11.3939
="1	-11.394
▁sys	-11.3943
ans	-11.3947
ressureMesosTest	-11.3948
Required	-11.3951
sts	-11.3955
%5	-11.3955
Host	-11.3958
▁blocker	-11.3959
Group	-11.396
▁Tiapp	-11.3961
:47	-11.3963
8.0	-11.3972
JR	-11.3974
reliminar	-11.3976
nline	-11.3989
▁dot	-11.3989
74)	-11.399
▁conditional	-11.3994
tags	-11.3996
▁Register	-11.3997
15)	-11.3999
67)	-11.4004
repos	-11.4007
▁JUnit	-11.4014
columns	-11.4018
▁experiment	-11.4025
▁recommend	-11.4033
66)	-11.4034
▁attend	-11.4039
▁1.7	-11.4042
▁succeed	-11.4044
3%	-11.4047
▁structures	-11.4048
▁sit	-11.4056
▁encapsulate	-11.4057
▁Administrator	-11.4061
▁ls	-11.4065
getBean	-11.4065
Monitoring	-11.4067
::::	-11.4074
100	-11.408
▁Every	-11.4084
▁1'	-11.4086
$2	-11.4089
▁Bug	-11.4091
▁caches	-11.4093
MODULE	-11.4103
▁drops	-11.4104
Privilege	-11.4107
ubsan	-11.4107
20150702140313\	-11.4107
Sigar	-11.4107
campFire	-11.4107
ClientCnxn	-11.4107
▁galaxies	-11.4107
▁expensive	-11.4107
▁straightforward	-11.4107
yusra	-11.4107
▁spike	-11.4107
▁visibility	-11.4107
LIKE	-11.4107
▁ORIG	-11.4107
CLOVER	-11.4107
▁Specifically	-11.4108
▁mainView	-11.4108
timj	-11.4109
WrapperManager	-11.4109
JDBCException	-11.4109
38)	-11.411
-2.2.0.	-11.411
▁supply	-11.411
▁Profile	-11.4112
▁asynchronously	-11.4113
▁nearly	-11.4114
RESP	-11.4114
Testing	-11.4115
Formatter	-11.4116
▁WBS	-11.4116
▁SQuaRE	-11.4117
▁Gradle	-11.4117
▁Santiago	-11.4117
ported	-11.4117
▁25%	-11.4117
▁Coord	-11.4117
Level	-11.4117
▁jQuery	-11.4118
Proc	-11.4119
▁Depend	-11.4119
▁contributors	-11.4119
retina	-11.4119
▁referencing	-11.4122
▁viewing	-11.4123
Secure	-11.4123
▁adjust	-11.4124
each	-11.4124
2:08.	-11.4125
▁patches	-11.4125
Recycle	-11.4126
EQ	-11.4127
▁loss	-11.4128
▁digest	-11.4129
▁focal	-11.4129
▁Regression	-11.4129
▁IBM	-11.413
▁supplied	-11.413
▁confluence	-11.413
▁GIT	-11.4134
▁clicks	-11.4136
TP	-11.4138
▁reloaded	-11.4138
▁printed	-11.414
▁Bootstrap	-11.4141
▁asynchronous	-11.4141
▁advance	-11.4142
=-	-11.4142
▁Hierarchical	-11.4142
▁resume	-11.4144
Send	-11.4145
IOException	-11.4147
▁ship	-11.4147
64)	-11.4154
▁PDT	-11.4155
▁GMT	-11.4155
▁Jackson	-11.4155
▁tRESTRequest	-11.4155
▁timodule	-11.4156
▁July	-11.4158
dec	-11.4159
▁contributions	-11.416
▁passes	-11.416
▁guessing	-11.4165
▁serialized	-11.4166
:38	-11.4167
▁instantiate	-11.4168
▁Performance	-11.4169
▁announce	-11.4172
▁trivial	-11.4178
adm	-11.418
▁opacity	-11.4181
▁Solution	-11.4182
▁Something	-11.4184
▁reused	-11.4187
▁Validator	-11.4192
pages	-11.4192
▁Sim	-11.4193
▁Active	-11.4194
▁posted	-11.4196
▁formatted	-11.4199
▁assumed	-11.4201
▁Analyze	-11.4203
Sending	-11.4211
▁Two	-11.4217
▁2450	-11.4217
▁1.0.1	-11.4219
▁adapters	-11.4219
▁Exchange	-11.422
▁Available	-11.4222
▁coded	-11.4223
GH	-11.4223
▁payloads	-11.4224
▁alter	-11.4228
▁PO	-11.4228
▁Folder	-11.4232
AS	-11.4235
▁400	-11.4237
tabs	-11.4238
▁Boolean	-11.4238
Args	-11.4238
','	-11.4239
▁interactions	-11.4241
▁ALL	-11.425
▁Notifications	-11.4254
rerun	-11.4255
order	-11.4257
▁Summer	-11.426
Con	-11.4261
ne	-11.4266
▁Transport	-11.4266
dom	-11.4266
TESTS	-11.4268
Three	-11.4269
▁modifications	-11.4272
▁AlertDialog	-11.4279
▁ruby	-11.4279
2.7.	-11.4281
▁ca	-11.4281
▁Color	-11.4283
▁subject	-11.4285
Input	-11.4286
▁Connectors	-11.4292
Reflection	-11.4294
▁fd	-11.4299
:606	-11.43
▁Orientation	-11.4317
:127	-11.4317
DrivenEndpoint	-11.4321
Toolbar	-11.4323
cast	-11.4326
▁estimates	-11.4329
:74)	-11.4331
▁newline	-11.4332
////////////////	-11.4339
▁absolute	-11.4341
▁Links	-11.4344
▁NullPointer	-11.4344
▁Co	-11.4347
▁3.4.1.	-11.4351
:266	-11.4358
▁queued	-11.437
▁Items	-11.4373
▁myjob	-11.4378
▁Http	-11.4381
▁Splash	-11.4387
▁positions	-11.4402
reateAlertDialog	-11.4402
environment	-11.441
0-	-11.4411
▁wanted	-11.4411
▁63	-11.4414
Every	-11.4416
▁2011-10-2	-11.4419
▁Pre	-11.4426
▁2.1.2.	-11.4434
validator	-11.4437
107)	-11.4438
dDispatch	-11.4441
ps	-11.4447
enter	-11.4447
MuleMessage	-11.4448
Dialog	-11.446
1'	-11.4462
LabelProvider	-11.4468
because	-11.4468
()"	-11.447
▁threading	-11.4471
element	-11.4471
Refactor	-11.4476
BlackBerry	-11.4482
▁searching	-11.4485
Exec	-11.4486
-13	-11.4486
▁"-	-11.449
may	-11.4491
Small	-11.4501
showCamera	-11.4504
prototype	-11.4506
▁MV	-11.4508
▁separated	-11.4509
skip	-11.4512
friendly	-11.4512
incorrect	-11.4513
ASSERT	-11.4513
LL	-11.4513
POST	-11.4514
Unable	-11.4515
possibly	-11.4516
banner	-11.4518
META	-11.4519
commandline	-11.4519
elastic	-11.4519
UUID	-11.4519
append	-11.4522
advanced	-11.4522
Related	-11.4523
Define	-11.4526
paste	-11.4529
▁26	-11.4531
lti	-11.4532
Images	-11.4533
▁Apps	-11.4534
TestApp	-11.4535
Tools	-11.4536
same	-11.4539
▁"20150	-11.4543
NOTE	-11.4544
▁bits	-11.4549
parameters	-11.4552
Refresh	-11.4552
TID	-11.4554
▁schemas	-11.4554
repositories	-11.4556
unique	-11.4557
ry	-11.4558
EL	-11.4563
▁executes	-11.4563
▁Crittercism	-11.4576
48)	-11.4578
Bad	-11.459
CH	-11.4605
').	-11.4606
_0	-11.4607
269:	-11.4615
▁3.0.	-11.4616
DR	-11.4622
steps	-11.4623
Should	-11.463
▁MBean	-11.4641
manu	-11.4652
recover	-11.4652
obj	-11.4655
Dynamic	-11.4668
▁nav	-11.4668
ES	-11.4672
Or	-11.4673
wait	-11.4673
Connect	-11.4678
▁Controller	-11.4681
:471	-11.4682
▁sheet	-11.4685
▁outcome	-11.4686
Controls	-11.4691
Stack	-11.4693
TypeI	-11.4695
▁decorator	-11.4696
-2.5.	-11.4697
▁ROOT	-11.4697
▁reveal	-11.4698
Scope	-11.4698
▁expos	-11.4701
3660	-11.4716
▁1.3	-11.4723
▁Play	-11.4723
20140916181713/	-11.4732
▁favor	-11.4732
▁Daniel	-11.4732
▁Tololo	-11.4732
▁flexibility	-11.4732
NIOServerCnxn	-11.4732
▁scratch	-11.4732
NioClient	-11.4732
STATUS	-11.4732
duraspace	-11.4732
▁mandatory	-11.4732
LogMessageFatal	-11.4732
▁Jeff	-11.4732
▁Furthermore	-11.4732
▁guidance	-11.4732
▁facilitate	-11.4732
webkit	-11.4732
▁accidentally	-11.4732
fPIC	-11.4732
cfht	-11.4732
▁unfold	-11.4732
mongodb	-11.4732
▁NFS	-11.4732
libraryFolder	-11.4732
▁silently	-11.4732
▁encryption	-11.4732
Trunk	-11.4733
▁blog	-11.4733
soapenv	-11.4733
gs	-11.4733
▁investigating	-11.4733
▁elsewhere	-11.4733
▁establish	-11.4733
xaml	-11.4733
▁weird	-11.4734
BORDER	-11.4734
▁hiding	-11.4735
dalvikvm	-11.4736
RSA	-11.474
Devices	-11.474
:73	-11.474
▁dis	-11.4741
▁enhanced	-11.4741
▁dipole	-11.4742
▁precision	-11.4742
▁Administration	-11.4742
stylesheet	-11.4742
pfx	-11.4743
none	-11.4743
▁identity	-11.4743
▁termination	-11.4744
▁engineering	-11.4745
46	-11.4745
chk	-11.4746
▁discover	-11.4747
Src	-11.4748
▁maintained	-11.4749
▁trac	-11.4749
▁4.2.1	-11.4749
▁simulated	-11.4749
▁obtained	-11.475
>&	-11.475
Completed	-11.475
jspa	-11.4751
▁synchronize	-11.4751
_2#	-11.4754
▁Further	-11.4755
▁Leopard	-11.4756
▁SUIT	-11.4756
cnf	-11.4756
730	-11.4756
▁throughout	-11.4758
▁5.1.1	-11.4761
▁phd	-11.4762
▁helps	-11.4764
▁Manual	-11.4765
▁observers	-11.4766
▁constructed	-11.4766
▁round	-11.4766
▁internally	-11.4769
▁unrecognized	-11.477
▁heap	-11.477
▁Debugging	-11.4771
▁listening	-11.4773
▁ACC	-11.4773
▁Technical	-11.4775
▁Under	-11.4776
▁symlinks	-11.4777
▁Updated	-11.4778
▁construction	-11.4779
▁accurate	-11.4779
▁anyone	-11.4785
:52	-11.4785
▁flexible	-11.4786
-20	-11.4787
▁gray	-11.4788
▁++	-11.4789
▁succeeds	-11.4791
▁allocate	-11.4791
he	-11.4793
/12	-11.4793
cplot	-11.4794
▁Supported	-11.4794
▁TAN	-11.4796
ModuleDeployment	-11.4796
▁APSTUD	-11.4797
▁lbl	-11.4798
Color	-11.4799
▁interactive	-11.48
▁checksums	-11.4802
▁pressed	-11.4802
▁delivery	-11.4804
▁constraints	-11.4807
Xd	-11.4809
▁anchor	-11.481
▁killing	-11.4812
▁Visit	-11.4812
BO	-11.4816
▁dataId	-11.4819
Cancel	-11.4824
▁hope	-11.4832
▁6+	-11.4834
ErrorHandler	-11.4842
▁Andy	-11.4844
▁styles	-11.4849
▁familiar	-11.485
▁Intent	-11.4851
2\	-11.4855
▁3.4.0-	-11.4856
readA	-11.4859
VV	-11.486
▁Stop	-11.486
Future	-11.4862
"><	-11.4862
:524	-11.4863
▁Reason	-11.4867
Target	-11.4879
lo	-11.4879
▁incorporate	-11.4879
NO	-11.488
▁Delet	-11.4882
Snow	-11.4882
▁terminating	-11.4883
▁recreate	-11.4887
AlertDialog	-11.4889
Intent	-11.4891
▁Pro	-11.4904
▁Widget	-11.4906
▁EXPECT	-11.4907
:511	-11.4919
▁Title	-11.492
now	-11.4921
▁installations	-11.4923
▁refreshing	-11.493
▁QSERV	-11.4936
▁mix	-11.4942
▁Style	-11.4947
aop	-11.4948
▁Features	-11.4948
▁animate	-11.4955
▁Toolbar	-11.4959
▁layers	-11.4959
82)	-11.496
▁architectures	-11.4963
sThis	-11.4964
▁rank	-11.4973
weight	-11.4979
addressing	-11.4982
Part	-11.4983
▁datasource	-11.4989
inc	-11.4991
mainly	-11.4994
AWS	-11.4994
price	-11.4995
▁27	-11.4995
▁Last	-11.5
EC	-11.5004
▁Sub	-11.5005
▁Shared	-11.5013
12-1	-11.5013
▁Optimize	-11.5015
▁prompting	-11.5016
missing	-11.5018
enrolled	-11.5021
76)	-11.5022
LocalFile	-11.5031
▁Routes	-11.5031
ul	-11.5036
▁Up	-11.5039
▁Manager	-11.504
▁DataSource	-11.504
▁Undo	-11.5045
more	-11.5049
▁readers	-11.5057
▁decl	-11.506
▁SNAPSHOT	-11.5062
review	-11.5063
sources	-11.5064
▁chang	-11.5076
▁-----------	-11.5078
Chain	-11.5082
parameter	-11.5096
2"	-11.5097
extension	-11.5097
RootFilesystem	-11.51
byte	-11.5103
fail	-11.5104
▁Location	-11.5105
Environment	-11.5106
▁flavor	-11.5107
terminate	-11.5109
▁Calendar	-11.5111
▁stat	-11.5111
FTP	-11.5112
▁soap	-11.5115
hook	-11.5117
▁75	-11.5117
detail	-11.5117
collection	-11.512
▁duplicates	-11.5127
through	-11.5128
navigator	-11.5129
▁checkpoint	-11.5131
ListOperations	-11.5131
▁Issues	-11.5133
customer	-11.5134
cp	-11.5135
▁selectors	-11.5136
patch	-11.5138
exit	-11.5139
Fault	-11.5139
:344	-11.5143
-72	-11.5146
Learn	-11.5148
▁Objects	-11.5149
▁Attach	-11.515
similar	-11.5152
tweets	-11.5155
scroll	-11.5156
Usage	-11.5157
▁Snippet	-11.516
jasper	-11.5165
atomic	-11.5165
intent	-11.5166
cocoa	-11.5169
ut	-11.5172
successful	-11.5172
4]	-11.5173
MyProject	-11.5174
statistics	-11.5175
going	-11.5176
TITANIUM	-11.5179
:42	-11.518
led	-11.518
loop	-11.5184
Dev	-11.5184
QSERV	-11.5184
overview	-11.5185
Folder	-11.5189
matches	-11.519
extend	-11.519
Research	-11.519
▁150	-11.5192
func	-11.5192
jvm	-11.5193
PORT	-11.5194
guid	-11.5194
▁jira	-11.5195
correct	-11.5195
catch	-11.5199
Upload	-11.5201
where	-11.5204
▁subscription	-11.5209
listen	-11.5215
Dur	-11.5216
▁-1	-11.5218
Review	-11.5222
restart	-11.5223
External	-11.5228
:292	-11.5232
])	-11.5233
7-	-11.5233
▁65	-11.5235
▁fi	-11.5241
:133	-11.5247
contextid	-11.5257
ev	-11.5259
notes	-11.5262
▁sizes	-11.5264
ensure	-11.5267
▁TableViewRow	-11.5275
▁Alt	-11.5277
-70	-11.5278
:138	-11.5278
88	-11.528
▁viewed	-11.5282
gcc	-11.5287
6_	-11.529
mq	-11.5291
▁migrat	-11.5297
:206	-11.5299
linear	-11.5305
Push	-11.5312
aware	-11.5314
Return	-11.5322
:9)	-11.5324
Views	-11.5326
▁diagram	-11.5326
▁4.2	-11.533
dl	-11.5334
SlaveRecovery	-11.5335
TiAPI	-11.5336
decimal	-11.534
26)	-11.534
▁footprint	-11.5343
wizards	-11.5349
AT	-11.535
▁constraint	-11.535
▁comma	-11.535
51:21	-11.5353
▁relate	-11.5357
▁keyword	-11.5357
rows	-11.5358
▁sorter	-11.536
Foo	-11.5363
▁(1	-11.5364
publish	-11.5369
▁Measurement	-11.5372
don	-11.5374
▁gauge	-11.5377
lf	-11.5384
▁segment	-11.5385
▁stub	-11.5386
▁<>	-11.5389
▁simultaneous	-11.5395
▁QoS	-11.5398
Tahoma	-11.5398
OPEN	-11.5398
OrganizationsIT	-11.5399
▁JFlex	-11.5399
▁Pietrowicz	-11.5399
▁desirable	-11.5399
▁geometry	-11.5399
▁palette	-11.5399
toUpper	-11.5399
SPIKE	-11.5399
▁procurement	-11.5399
IntelliJ	-11.5399
Sandbox	-11.5399
Destination	-11.5399
▁garbage	-11.5399
▁cancellation	-11.5399
▁SuperTask	-11.5399
▁intermediate	-11.5399
▁burndown	-11.5399
hyperic	-11.5399
▁unclear	-11.5399
DataDirectory	-11.5399
FTPConnection	-11.5399
RAW	-11.54
UserNotification	-11.54
chromium	-11.54
minify	-11.54
DeepForcedSource	-11.5401
▁16%	-11.5401
5-08	-11.5401
▁unreadable	-11.5401
▁thanks	-11.5401
▁watcher	-11.5401
UnitTestImpl	-11.5402
▁prototyping	-11.5402
▁3.3.2	-11.5402
gnu	-11.5403
▁partially	-11.5403
▁consist	-11.5403
▁Europe	-11.5403
":["	-11.5405
BasicNew	-11.5405
▁Leo	-11.5406
":[],	-11.5407
▁disallow	-11.5408
▁Bosch	-11.5409
▁Glick	-11.5409
▁Foreman	-11.5409
TRIBUT	-11.541
▁planned	-11.541
CommandBar	-11.541
▁confused	-11.541
▁chance	-11.5411
▁SLAC	-11.5412
▁Pachon	-11.5412
▁said	-11.5412
▁posts	-11.5412
FileInputStream	-11.5413
▁fake	-11.5414
▁highlighted	-11.5415
▁simplified	-11.5415
VM	-11.5416
TestRunner	-11.5416
▁psf	-11.5417
▁digits	-11.5418
▁MQTT	-11.5424
▁correlation	-11.5424
2009-0	-11.5424
▁sectionFruit	-11.5424
▁unsupported	-11.5426
▁Scroll	-11.5427
▁subchunks	-11.5429
▁generally	-11.5431
QueryAction	-11.5436
▁staff	-11.5438
▁headerTitle	-11.5439
10)	-11.5439
▁downstream	-11.544
ON	-11.5441
▁uncheck	-11.5442
Changes	-11.5442
glify	-11.5442
▁encode	-11.5444
▁detector	-11.5445
▁Rather	-11.5446
▁confirmed	-11.5446
DE	-11.5446
▁reconnect	-11.5447
▁Modification	-11.5451
▁Mountain	-11.5454
▁subtitle	-11.5454
▁workshop	-11.5454
▁Specification	-11.5455
▁ExecutorInfo	-11.5458
▁pasted	-11.546
▁Sep	-11.5461
perform	-11.5463
9.	-11.5463
▁optimized	-11.5464
-69	-11.5467
▁wrote	-11.5471
▁TOP	-11.5471
▁422	-11.5472
▁Preference	-11.5476
▁inspect	-11.5476
▁ModuleDeployer	-11.5478
▁internet	-11.5479
51662764-5050-1-	-11.5479
0807	-11.548
▁solved	-11.548
▁End	-11.5481
CALL	-11.5481
▁Development	-11.5482
▁firefly	-11.5483
▁Transition	-11.5484
'#000'	-11.5485
Clock	-11.5486
▁copyright	-11.5489
▁mind	-11.5489
▁learning	-11.5492
iety	-11.5493
▁reviewed	-11.5493
▁acquire	-11.5494
▁Like	-11.5496
▁assertions	-11.55
Ad	-11.55
▁combine	-11.55
yes	-11.5501
▁markers	-11.5503
▁restrict	-11.5503
▁coordinates	-11.5504
▁meant	-11.5506
targets	-11.5506
pr	-11.5507
▁Word	-11.5508
Language	-11.551
▁matcher	-11.5511
▁ideally	-11.5521
▁stays	-11.5525
So	-11.5526
▁transitions	-11.5528
▁cc	-11.5533
▁ChannelRegistry	-11.5535
asking	-11.5539
▁scaled	-11.5544
MatchGroupHadoop	-11.5545
STAND	-11.5547
rowen	-11.5549
▁Undeploy	-11.5551
editing	-11.5551
-10	-11.5552
▁bars	-11.5558
=0;	-11.5559
▁knows	-11.556
SQS	-11.5563
▁fetching	-11.5564
▁limiting	-11.5564
▁codebase	-11.5565
FS	-11.5567
Collection	-11.5567
cial	-11.5568
HttpServer	-11.5568
Execution	-11.5569
▁stderr	-11.5573
0\	-11.558
▁Compile	-11.5585
Kit	-11.5585
▁skymap	-11.5588
▁mounts	-11.5589
16-2	-11.559
▁Unknown	-11.5596
▁4,	-11.5597
SystemButton	-11.5599
▁imageView	-11.56
▁'10	-11.5613
Mapping	-11.5615
▁'../	-11.5617
▁contacts	-11.562
tables	-11.5621
-144	-11.5624
▁Refactoring	-11.5633
▁------	-11.5637
▁Fixed	-11.5639
getValue	-11.5642
frame	-11.5643
Pro	-11.5644
▁Reader	-11.5647
Instance	-11.5648
▁hack	-11.5649
▁grader	-11.5649
▁narrow	-11.5653
▁Strategy	-11.5667
definitions	-11.5668
Put	-11.567
▁1.0.0	-11.5677
▁author	-11.5708
-8"	-11.5711
▁Enabled	-11.5711
▁fixture	-11.5712
EventDispatch	-11.5713
ter	-11.5726
-15	-11.5728
▁Crash	-11.5732
=0,	-11.5733
:501	-11.5734
▁Authorization	-11.5742
▁alone	-11.5743
▁stopp	-11.5746
**	-11.5754
:18	-11.5758
Sink	-11.5758
▁accepts	-11.5759
$1	-11.576
▁Transformer	-11.5762
▁libevent	-11.5764
does	-11.5766
▁1.6	-11.5766
▁captures	-11.5768
88)	-11.5771
▁Limit	-11.5773
▁counters	-11.5777
\",\"	-11.5779
tis	-11.5782
picker	-11.579
:115	-11.5792
play	-11.5794
coord	-11.5804
▁family	-11.5813
▁3.2.3.	-11.5818
-0.1.	-11.5818
WS	-11.5818
uid	-11.5819
attribute	-11.582
1-4	-11.5822
chunk	-11.5827
Contacts	-11.5827
calendar	-11.5828
before	-11.5831
Download	-11.5831
isolator	-11.5831
Route	-11.5833
already	-11.5833
▁ignor	-11.5834
([	-11.5836
▁Experiment	-11.5839
pip	-11.584
gress	-11.584
▁responsib	-11.5841
▁Property	-11.5841
913	-11.5852
large	-11.5852
partition	-11.5859
Procedure	-11.5862
utline	-11.5862
HashMap	-11.5864
dependencies	-11.5866
Rename	-11.5868
groupId	-11.5868
around	-11.5869
-140	-11.587
▁2012-03-1	-11.5873
diffim	-11.5874
"?>	-11.5876
BD	-11.5876
blur	-11.5879
▁isolators	-11.588
27)	-11.588
Groovy	-11.5883
▁tokens	-11.5884
tabGroup	-11.5885
Box	-11.5886
▁Uninstall	-11.5888
▁ex	-11.5888
ck	-11.589
Investigate	-11.5891
VALUE	-11.5892
license	-11.5893
terminal	-11.5893
[2]	-11.5894
oracle	-11.5895
boost	-11.5896
jolokia	-11.5896
▁Installed	-11.5898
minimize	-11.5898
history	-11.5898
these	-11.5898
General	-11.5899
subject	-11.59
revocable	-11.59
messaging	-11.59
sconsUtils	-11.5901
TitaniumKit	-11.5904
Most	-11.5905
reamConfigParser	-11.5905
▁bee	-11.5907
nferre	-11.5909
Existing	-11.5909
▁[0,	-11.5909
Captcha	-11.5911
prod	-11.5912
mystream	-11.5912
▁z	-11.5913
▁Ou	-11.5914
:238	-11.5916
ldap	-11.5918
Registrar	-11.5921
diff	-11.5922
Expect	-11.5923
2',	-11.5923
▁Grade	-11.5931
:428	-11.5932
Integrate	-11.5934
libc	-11.5934
msg	-11.5938
safe	-11.594
/*	-11.5945
What	-11.5948
More	-11.5949
41)	-11.5951
Creation	-11.5955
Inbound	-11.5958
Login	-11.5959
xpath	-11.5965
"></	-11.5965
▁centroid	-11.5973
hh	-11.5979
:44)	-11.5985
Deployed	-11.5986
dialogs	-11.5986
0-9	-11.5991
DMS	-11.5994
AbstractNio	-11.5994
bugs	-11.5998
gt	-11.5998
mnet	-11.5999
▁gadget	-11.6002
40%	-11.6003
Security	-11.6018
AbstractMessage	-11.6021
lfs	-11.6021
Wcs	-11.6024
Array	-11.6026
Insert	-11.603
rel	-11.6036
▁expir	-11.604
kit	-11.604
WW	-11.605
▁5.2	-11.6054
-240	-11.6055
▁propagate	-11.6056
▁Ruble	-11.6059
▁Assignee	-11.6059
usp	-11.606
▁trouble	-11.6061
▁concern	-11.6061
00]	-11.6062
downloads	-11.6065
▁captur	-11.6067
UnitTest	-11.6069
ExportWriter	-11.6071
daf	-11.6072
▁subsystem	-11.6075
Hub	-11.6081
ary	-11.6083
▁minute	-11.6085
ingest	-11.6086
▁occasional	-11.6086
="1"	-11.6088
▁owner	-11.6089
8-	-11.609
▁Account	-11.6094
▁simulate	-11.61
▁webserv	-11.6104
▁responsive	-11.611
50)	-11.611
gopivotal	-11.6112
Clipboard	-11.6113
Envelope	-11.6113
▁Gadget	-11.6113
▁advertise	-11.6113
JOIN	-11.6113
ACCESS	-11.6113
UniformInterface	-11.6113
▁April	-11.6113
▁PASSED	-11.6113
fdsafdsa	-11.6113
▁middleware	-11.6113
▁ugly	-11.6113
ACTION	-11.6113
MoreExecutors	-11.6113
▁unusable	-11.6113
▁DBMS	-11.6114
MessageDialog	-11.6114
▁Stash	-11.6114
▁Backport	-11.6114
SESSION	-11.6114
DebugPlugin	-11.6114
▁traffic	-11.6114
▁subtraction	-11.6114
DriverManager	-11.6115
▁realistic	-11.6115
▁0.0	-11.6115
▁circumstances	-11.6115
createScrollView	-11.6116
MBP	-11.6116
kitch	-11.6116
dummy	-11.6116
▁3.2.0	-11.6117
CLV	-11.6117
▁ensur	-11.6118
DAQ	-11.6119
NewProjectWizard	-11.6119
▁greyed	-11.612
▁protection	-11.612
▁interested	-11.612
▁marshal	-11.6121
=512	-11.6122
▁tableHeader	-11.6122
▁succeeded	-11.6123
SkyMap	-11.6123
▁sanity	-11.6124
▁hierarchies	-11.6124
▁Swig	-11.6124
▁Vary	-11.6125
▁everyone	-11.6126
▁introduction	-11.6126
Serializer	-11.6126
▁necessarily	-11.6126
▁peer	-11.6127
ModuleDescriptor	-11.6127
createPicker	-11.6128
▁scanner	-11.613
▁spelling	-11.6132
▁bucket	-11.6132
▁uninstalled	-11.6132
▁defines	-11.6134
:10,	-11.6135
▁Jetty	-11.6135
▁collected	-11.6136
jdbchdfs	-11.6136
KAG	-11.6138
▁staging	-11.614
▁October	-11.614
=${	-11.614
▁changesets	-11.6145
▁Team	-11.6145
▁approaches	-11.6147
▁enhancements	-11.6147
▁Null	-11.6149
▁Detailed	-11.6151
▁aspects	-11.6152
▁dates	-11.6152
▁Bar	-11.6152
▁validating	-11.6152
▁Chile	-11.6154
▁recorded	-11.6155
▁globally	-11.6156
▁welcome	-11.6156
▁EVENTS	-11.6156
▁6.6	-11.6158
▁banner	-11.6158
▁DNS	-11.6159
▁average	-11.6159
▁searchbar	-11.6164
AND	-11.6166
▁AstrometryTask	-11.6166
[0]	-11.6167
▁examine	-11.6167
▁producer	-11.6167
▁attempted	-11.6171
▁statusLabel	-11.6172
▁gallery	-11.6172
▁Retrieve	-11.6173
▁2.1.0	-11.6177
▁protected	-11.6178
fbb	-11.6179
$4.	-11.6181
cues	-11.6181
▁signed	-11.6185
▁SFTP	-11.6187
▁:-)	-11.6187
▁UUID	-11.6189
▁QuerySession	-11.6189
▁Watch	-11.6189
/4.1.0.	-11.619
▁footer	-11.619
▁mini	-11.619
▁Ignore	-11.6192
▁simulations	-11.6192
▁Stable	-11.6193
▁acceptable	-11.6193
▁situations	-11.6193
▁law	-11.6196
hExceptions	-11.6197
▁ram	-11.6198
▁Modal	-11.6201
UIView	-11.6202
tick	-11.6204
▁Hive	-11.6206
Binding	-11.621
filters	-11.6211
▁Pop	-11.6213
:${	-11.6213
▁prefer	-11.6219
▁Cassandra	-11.6221
▁typed	-11.6222
▁Max	-11.6227
▁keywords	-11.6228
transports	-11.6234
▁Icon	-11.6238
▁customize	-11.624
Par	-11.6241
▁emulators	-11.6242
ModuleDefinition	-11.6245
8.	-11.6246
band	-11.6249
onnectionFactory	-11.6251
▁drawing	-11.6252
▁optimistic	-11.6252
Se	-11.6252
▁Returns	-11.6255
▁Leav	-11.6257
▁existed	-11.6257
▁foreach	-11.6258
▁primar	-11.6262
▁terminates	-11.6263
▁Measure	-11.6265
▁matched	-11.627
▁leaks	-11.6272
78)	-11.6274
=17	-11.6276
▁Back	-11.628
▁wire	-11.6282
ma	-11.6282
▁weekly	-11.6283
:22	-11.6284
▁builders	-11.6284
▁3.6	-11.6288
fred	-11.6291
▁determined	-11.6293
▁Creation	-11.6293
▁statuses	-11.6295
HandlerService	-11.6298
▁42	-11.6299
▁yellow	-11.63
▁CFHT	-11.63
xcode	-11.6308
pe	-11.6313
▁kernel	-11.6316
▁Binding	-11.6318
▁cohort	-11.6321
▁descripti	-11.6322
Uri	-11.6331
hive	-11.6336
enymotion	-11.6337
PM	-11.6338
▁Mark	-11.6346
▁ch	-11.635
▁aptana	-11.6352
pin	-11.6355
con	-11.6357
▁xpath	-11.6359
▁Related	-11.6359
▁elastic	-11.6362
▁rough	-11.6365
loading	-11.6365
startIntegration	-11.6366
▁selectable	-11.6368
▁Dependencies	-11.6369
}/	-11.6371
▁127.0.0.1	-11.6375
dropping	-11.6375
SDKUpdater	-11.6376
Extra	-11.6377
▁topics	-11.6383
?"	-11.6389
▁DEFAULT	-11.6397
DqRepo	-11.6398
(2010	-11.6401
▁-[	-11.6405
long	-11.6407
▁Screenshots	-11.6409
:27	-11.641
▁triggering	-11.6411
▁cmd	-11.6412
▁TIF	-11.6424
▁javadoc	-11.6431
▁Automatically	-11.6432
session	-11.6433
functions	-11.6434
▁authorize	-11.6439
AX	-11.6442
social	-11.6443
Protocol	-11.6447
ViewController	-11.6454
-0.26.0	-11.6457
▁utilize	-11.6458
▁Servers	-11.6461
mount	-11.6461
AD	-11.6462
ARY	-11.6466
controls	-11.6467
+------+	-11.6468
▁deployer	-11.6475
Don	-11.6477
:134	-11.6478
pack	-11.6483
▁posting	-11.649
reserve	-11.6501
eybindings	-11.6504
▁br	-11.6505
4:	-11.6506
510	-11.6507
▁[2015-0	-11.651
▁Templates	-11.651
inner	-11.6512
▁subprocess	-11.6514
▁vers	-11.6515
▁dragg	-11.6521
51	-11.6527
▁14.04	-11.6534
▁MS	-11.6537
▁16:5	-11.6537
▁proto	-11.654
LettuceConnect	-11.6542
ticket	-11.655
sController	-11.6551
ell	-11.6555
addr	-11.656
Summary	-11.6569
_3	-11.6569
uring	-11.6572
delta	-11.6574
▁'<	-11.6578
instead	-11.658
provisioner	-11.658
▁'\'	-11.6582
:406	-11.6583
interval	-11.6587
UP	-11.6588
▁Of	-11.6591
receiver	-11.6592
▁hyperlink	-11.6592
▁Format	-11.66
Device	-11.6604
Reproduce	-11.6604
Option	-11.6606
▁jackson	-11.6607
▁Beta	-11.6611
Artifact	-11.6614
character	-11.6615
consumerKey	-11.6627
ang	-11.6628
else	-11.6628
Charset	-11.663
224	-11.663
▁codes	-11.6631
▁Hav	-11.6632
Pipe	-11.6632
YYYY	-11.6633
Hoc	-11.6636
18:	-11.6638
Shift	-11.6639
▁flask	-11.6641
HTTPS	-11.6641
Added	-11.6642
Marker	-11.6645
▁["	-11.6646
entities	-11.665
▁distros	-11.665
catalog	-11.6651
organization	-11.6652
cohort	-11.6652
▁Correct	-11.6655
adb	-11.6657
ruby	-11.6658
render	-11.6658
Restore	-11.666
editpdf	-11.6661
▁2.3	-11.6661
CMD	-11.6661
inclusion	-11.6662
submit	-11.6664
▁KEY	-11.6665
binary	-11.6665
tomcat	-11.6665
Gesture	-11.6666
helloworld	-11.6666
secret	-11.6666
protocol	-11.6667
private	-11.6667
kernel	-11.6667
Drop	-11.6667
over	-11.6668
EXPECT	-11.6668
▁St	-11.6668
Just	-11.6669
sharing	-11.6669
DQ	-11.6669
sleep	-11.6669
skymap	-11.667
liveview	-11.667
detect	-11.6672
domain	-11.6673
phpunit	-11.6674
perhaps	-11.6674
startup	-11.6681
▁Exposure	-11.6682
▁roll	-11.6683
Wrapper	-11.6684
leveldb	-11.6687
Algorithm	-11.6688
TOS	-11.6688
▁Product	-11.6689
▁Th	-11.6694
HG	-11.6699
SVN	-11.67
syslog	-11.67
Reconciler	-11.6702
oauth	-11.6705
conn	-11.6713
622)	-11.6714
1423	-11.6717
Apply	-11.6719
wards	-11.6722
AST	-11.6722
▁borderStyle	-11.6723
TitaniumStudio	-11.6724
toAddress	-11.6728
SIP	-11.6729
597	-11.6741
2",	-11.6742
Also	-11.6746
▁params	-11.6751
▁#[	-11.6752
standing	-11.6755
Basic	-11.6756
HandleS	-11.676
▁pref	-11.6761
▁IT	-11.6763
2388	-11.6771
'100%'	-11.6771
'],	-11.6772
Center	-11.6772
▁strip	-11.6773
controllers	-11.6775
fields	-11.6778
▁utiliz	-11.6779
dnd	-11.6781
DEV	-11.6781
toString	-11.6781
▁0.0.0.0:	-11.6782
/>	-11.6783
:9	-11.6786
:195	-11.6797
▁differ	-11.68
tor	-11.68
ErrorCode	-11.6807
Mac	-11.6811
▁classification	-11.6814
sCurrently	-11.6817
▁Watermark	-11.6825
▁resolv	-11.6826
▁symlink	-11.6827
:81	-11.6829
▁limitation	-11.6831
07)	-11.6832
▁tweak	-11.6837
Equals	-11.6837
▁JRE	-11.6839
▁0.5	-11.684
Attend	-11.6841
0182	-11.6842
▁opt	-11.6854
7-25	-11.6854
urn	-11.6855
▁PC	-11.6857
▁broke	-11.6857
▁couldn	-11.6859
UNDER	-11.6861
▁interpret	-11.6867
:80	-11.6867
AC	-11.6869
LOW	-11.687
DbmsLanguage	-11.6877
Arial	-11.6878
liminate	-11.6879
362-5050-5982-00	-11.6882
quartz	-11.6882
COUNT	-11.6882
ALWAYS	-11.6882
▁Kerberos	-11.6882
▁Margaret	-11.6882
DURACLOUD	-11.6882
▁precedence	-11.6882
CONTENT	-11.6882
Foreground	-11.6882
606-0	-11.6882
▁contrast	-11.6882
octet	-11.6882
▁enrollment	-11.6882
▁Accessibility	-11.6882
▁straight	-11.6882
:8080:>	-11.6882
Bitmap	-11.6882
/3.5.0/	-11.6882
SLACK	-11.6882
▁DIRT	-11.6883
STATE	-11.6883
▁fallback	-11.6883
▁frequently	-11.6883
▁overlapping	-11.6883
▁beaver	-11.6883
CRUC	-11.6883
▁misleading	-11.6883
then	-11.6883
▁deadlock	-11.6883
▁historical	-11.6884
▁distance	-11.6884
ConsoleReader	-11.6884
▁apparently	-11.6884
▁spent	-11.6884
▁subdirectory	-11.6885
▁indeed	-11.6885
▁milliseconds	-11.6885
▁overriding	-11.6885
gmock	-11.6886
▁Dcr	-11.6886
CLR	-11.6886
SessionImpl	-11.6886
mvc	-11.6886
▁[1]	-11.6886
▁held	-11.6886
binSize	-11.6887
Oversubscription	-11.6887
▁choosing	-11.6887
▁troubleshooting	-11.6887
Draft	-11.6887
▁Replica	-11.6888
Owned	-11.6888
doGet	-11.6889
▁Lookup	-11.6889
▁guidelines	-11.689
RedisTemplate	-11.689
▁underscore	-11.689
▁Rewrite	-11.6891
▁somewhat	-11.6891
Choice	-11.6891
▁recognise	-11.6891
▁Rank	-11.6891
▁immediate	-11.6892
▁Reactor	-11.6894
▁tGenKey	-11.6894
▁HVGA	-11.6894
▁noise	-11.6894
▁harness	-11.6894
▁ensemble	-11.6894
▁cumulative	-11.6894
▁portfolio	-11.6894
▁Perspective	-11.6894
▁synchronization	-11.6894
▁Gauge	-11.6895
serviceName	-11.6895
▁zIndex	-11.6895
▁Photo	-11.6896
CommonReconciler	-11.6897
PNG	-11.6897
▁foreground	-11.6899
WebKit	-11.69
▁retries	-11.6901
arious	-11.6902
-5	-11.6902
▁respected	-11.6903
▁restricted	-11.6903
▁audit	-11.6903
dbdev	-11.6904
$0(	-11.6905
xlarge	-11.6905
TiModule	-11.6905
▁Extract	-11.6906
Classpath	-11.6907
roleid	-11.6908
fo	-11.6909
▁dispose	-11.6909
▁iadt	-11.691
▁announced	-11.691
70)	-11.691
▁Azure	-11.6911
▁clipboard	-11.6911
▁bridge	-11.6911
▁SSO	-11.6912
▁Tried	-11.6912
▁Discourse	-11.6913
▁conversation	-11.6913
▁paging	-11.6913
:5050/	-11.6915
▁recommendations	-11.6916
▁vendors	-11.6917
▁Bill	-11.6918
▁booted	-11.6918
▁offered	-11.692
:128)	-11.692
▁slice	-11.6921
▁collapsed	-11.6922
Watcher	-11.6925
▁runnable	-11.6926
▁prevented	-11.6927
▁Refine	-11.6928
▁letter	-11.6928
▁Nebula	-11.6928
▁Fabrice	-11.6928
▁interesting	-11.6929
▁variance	-11.693
▁controlled	-11.6931
▁Basically	-11.6932
▁TAB	-11.6932
▁Adapt	-11.6937
▁certs	-11.6938
>/<	-11.6941
▁killed	-11.6943
epl	-11.6945
▁TestFlight	-11.6946
▁pr	-11.6947
▁maintaining	-11.6947
▁Super	-11.6949
▁IVI	-11.695
▁limitations	-11.695
65)	-11.6952
▁concerns	-11.6952
Authentication	-11.6953
▁producers	-11.6954
▁Monitor	-11.6955
drawable	-11.6955
▁experienced	-11.6956
▁MessageID	-11.6958
Versions	-11.6959
ECDH	-11.696
▁CTRL	-11.6963
▁Blank	-11.6963
▁Travis	-11.6963
▁puppet	-11.6964
▁borderColor	-11.6964
▁TBD	-11.6964
▁*****	-11.6965
▁2.3.3	-11.6966
▁Administrators	-11.6968
came	-11.6971
▁routines	-11.6974
▁512	-11.6974
Viewer	-11.6976
JSParser	-11.6979
▁company	-11.6982
▁DCR	-11.6985
:92)	-11.6987
▁(3)	-11.6989
▁aborted	-11.699
▁rewrite	-11.6991
700	-11.6991
acadamian	-11.6991
▁Yes	-11.6993
Execute	-11.6995
▁DiskInfo	-11.6998
▁Systemd	-11.6999
3.1.0.	-11.6999
▁Spaces	-11.6999
▁domains	-11.7001
watch	-11.7004
ResourceIT	-11.7005
▁subsystems	-11.7006
nil	-11.701
▁Isolator	-11.701
)}}	-11.7011
closed	-11.7011
▁Permission	-11.7015
▁Catch	-11.7022
▁skin	-11.7023
▁k	-11.7023
ance	-11.7025
▁Category	-11.7026
▁sop	-11.703
direct	-11.7031
RYd	-11.7032
▁navbar	-11.7033
8%	-11.7034
69	-11.7037
▁REQ	-11.7037
▁unicode	-11.7038
EI	-11.7043
let	-11.7044
▁stars	-11.7045
▁simulators	-11.7048
▁SET	-11.7048
▁Catalog	-11.7054
1410)	-11.7055
▁MP	-11.7055
▁practices	-11.7061
▁Authenticator	-11.7062
-18	-11.7064
▁Per	-11.7069
500	-11.7074
▁hovers	-11.7077
▁str	-11.7081
shallow	-11.7086
▁Continue	-11.7086
▁--------	-11.7089
▁Parser	-11.7094
▁transactions	-11.7096
Tasks	-11.7102
▁hanging	-11.7103
▁realm	-11.7105
contents	-11.7106
▁daf	-11.7109
47)	-11.711
▁Extension	-11.711
▁Capture	-11.7113
essageFlowEditor	-11.7115
Tap	-11.7116
▁9.	-11.7117
-48	-11.7119
▁caller	-11.712
▁indexed	-11.7122
▁compar	-11.7125
geM	-11.7125
rsync	-11.7128
▁rights	-11.7132
▁sprints	-11.7133
▁Actually	-11.7134
_7	-11.7137
TreeViewer	-11.714
stable	-11.714
jax	-11.7146
▁crashing	-11.7147
phone	-11.7149
▁rubles	-11.7149
outputType	-11.7151
:109)	-11.7153
▁%(	-11.7156
(1)	-11.7159
ExtractMetaData	-11.7159
▁Restore	-11.716
obert	-11.7162
▁forums	-11.7164
▁Focus	-11.7164
pb	-11.7165
04)	-11.7167
22)	-11.7169
▁Attend	-11.717
▁2013-09-2	-11.7176
num	-11.7176
:610	-11.7179
▁licenses	-11.7189
bat	-11.7192
▁Forum	-11.7198
▁OOM	-11.7198
▁outer	-11.7198
▁Router	-11.7199
=1,	-11.7203
GC	-11.7203
NotFound	-11.7206
AggregateCounter	-11.7206
***	-11.7207
router	-11.7208
18)	-11.7209
▁Item	-11.721
▁apk	-11.7213
▁specifie	-11.7215
{}	-11.7216
pt	-11.7217
▁assum	-11.723
:0	-11.7232
-46	-11.7232
:150	-11.7234
Any	-11.7234
▁toward	-11.7236
aaaaaaaaaaaaaaaa	-11.7239
▁Timeout	-11.7244
TimeoutException	-11.7247
player	-11.7249
="200"	-11.7252
▁subtle	-11.7253
▁distrib	-11.7256
▁Operations	-11.7257
cla	-11.7258
▁GH	-11.7266
▁toString	-11.7268
JobExecution	-11.727
:60	-11.7272
▁cleanly	-11.7274
ISL	-11.7276
56	-11.7276
430	-11.7287
2015	-11.729
qReportRun	-11.7294
36)	-11.7295
-7	-11.7298
▁warns	-11.7301
arserPoolFactory	-11.7303
#999	-11.7304
cer	-11.7304
pro	-11.7307
ready	-11.731
:37	-11.7311
Convert	-11.7313
TiApp	-11.7316
222	-11.7318
▁utils	-11.7319
▁Produce	-11.7319
ViewServiceTest	-11.7326
▁verbose	-11.733
▁met	-11.7332
names	-11.7333
▁SF	-11.7335
em	-11.7341
also	-11.7347
▁widgets	-11.7352
Upgrade	-11.7352
pass	-11.7353
testGet	-11.7353
▁dml	-11.7363
▁2.0.1	-11.7365
Fail	-11.737
▁Seg	-11.7372
Record	-11.7375
reloading	-11.7375
ware	-11.7382
▁gen	-11.7384
Attribute	-11.7386
:374	-11.7395
upgrade	-11.7396
props	-11.7398
▁128	-11.74
Is	-11.7403
▁4.1.0.	-11.7405
:55	-11.7408
buffer	-11.7411
JST	-11.7412
ling	-11.7413
Initial	-11.7415
▁rich	-11.742
ESB	-11.7421
condition	-11.7422
▁cable	-11.743
▁integrat	-11.7431
:577	-11.7431
keystore	-11.7435
volume	-11.7436
categories	-11.7438
expected	-11.7438
▁..."	-11.7439
Enabling	-11.7439
ups	-11.744
▁relat	-11.7442
Navigator	-11.7445
Auth	-11.7446
arch	-11.7446
Setting	-11.745
interceptor	-11.7451
Complete	-11.7451
▁Pivot	-11.7453
▁sha	-11.7458
SR	-11.7463
cpu	-11.7464
▁2011-11-	-11.747
branch	-11.7473
Net	-11.7477
good	-11.7477
backbone	-11.7477
reply	-11.7479
persistent	-11.748
:431	-11.748
Memory	-11.7481
libraries	-11.7483
Develop	-11.7483
TABLES	-11.7484
tracker	-11.7486
lsstSim	-11.7487
▁Me	-11.7488
delay	-11.7489
LINE	-11.749
Selected	-11.749
normal	-11.7491
Ref	-11.7492
/]	-11.7494
ScrollView	-11.7494
qsmaster	-11.7494
transactional	-11.7496
world	-11.7497
Observe	-11.7497
Here	-11.7497
:124	-11.7497
labs	-11.7499
Safari	-11.75
shapelet	-11.75
Post	-11.75
Summer	-11.75
JOB	-11.75
CFHT	-11.75
Quota	-11.75
transparent	-11.75
yellow	-11.75
stderr	-11.7501
NDK	-11.7502
increment	-11.7502
Full	-11.7503
Notice	-11.7503
placeholder	-11.7503
charset	-11.7503
▁bump	-11.7504
allocation	-11.7505
Revisit	-11.7505
JVM	-11.7508
Vx	-11.7508
▁udi	-11.7511
begin	-11.7514
webview	-11.7514
wdb	-11.7514
▁yarn	-11.752
Win	-11.7527
NioWorker	-11.7532
alive	-11.7535
sAs	-11.7537
Camel	-11.754
NoSuch	-11.7552
ids	-11.7553
isolators	-11.7556
jsca	-11.7557
Enabled	-11.756
aaa	-11.756
91)	-11.7567
ignore	-11.757
Reconcile	-11.7574
MasterTest	-11.7575
▁units	-11.7575
tickets	-11.7576
Shared	-11.7576
Functions	-11.7579
▁10.	-11.7585
Explorer	-11.7586
ics	-11.7588
groovyc	-11.7589
▁implie	-11.7602
▁upgrades	-11.7602
Available	-11.7609
ssessable	-11.7611
▁RE	-11.7612
permissions	-11.7612
})();	-11.7614
tory	-11.7616
FY	-11.762
que	-11.7621
▁wouldn	-11.7628
hr	-11.7628
:316	-11.763
▁Sam	-11.7636
51)	-11.764
mentation	-11.7645
▁literal	-11.7647
built	-11.7649
▁Associate	-11.7652
▁percentage	-11.7652
644	-11.7655
:615	-11.7655
▁licence	-11.7658
:351	-11.7659
▁delimiter	-11.7659
active	-11.766
rent	-11.7661
DI	-11.7662
WindowProxy	-11.7662
▁decrease	-11.7665
Stub	-11.7667
profiles	-11.7667
▁tooltip	-11.7671
allow	-11.7672
▁Propose	-11.7675
▁mockup	-11.7676
ta	-11.7676
parsers	-11.7679
End	-11.7681
▁interest	-11.7683
▁cell	-11.769
SingleFrame	-11.7693
=8	-11.7695
Boss	-11.7695
imply	-11.7697
maps	-11.7698
▁80	-11.7698
218	-11.7699
▁17:0	-11.7703
▁0.	-11.7706
▁swap	-11.771
Render	-11.7711
javax	-11.7712
▁alphabetical	-11.7712
▁incremental	-11.7712
Left	-11.7712
▁Epic	-11.7714
Interval	-11.7715
cixot	-11.7715
MEDIA	-11.7715
Banana	-11.7715
NoTitleBar	-11.7715
czhqUFE	-11.7715
stephenfeather	-11.7715
▁HipChat	-11.7715
▁bogus	-11.7715
▁illustrate	-11.7715
▁opinion	-11.7715
EXECUT	-11.7715
StyledText	-11.7715
▁Chris	-11.7715
▁Geocoder	-11.7715
▁tESBProvider	-11.7715
JSDebugTarget	-11.7715
▁tGenKeyHadoop	-11.7715
▁fundamental	-11.7715
▁FIPS	-11.7715
▁broadcast	-11.7716
LoginInformation	-11.7716
Uniform	-11.7716
CompilationUnit	-11.7716
▁concrete	-11.7716
WizardPage	-11.7716
DragSource	-11.7716
▁Wefel	-11.7716
earthImage	-11.7716
ACSCorePlugin	-11.7716
▁parallelization	-11.7716
▁parentheses	-11.7716
▁ClassAd	-11.7716
▁Gradebook	-11.7716
OpenStrategy	-11.7716
BB	-11.7716
ClassDef	-11.7716
▁Liveview	-11.7716
▁instantiation	-11.7717
▁fitter	-11.7717
▁formula	-11.7717
PAD	-11.7717
▁Tail	-11.7718
▁Still	-11.7718
▁tricky	-11.7718
▁NoNode	-11.7718
▁KPIs	-11.7719
DashboardView	-11.7719
sections	-11.7719
▁Certificate	-11.7719
AntRunner	-11.7719
▁enablement	-11.772
▁consuming	-11.772
▁discard	-11.772
Resolver	-11.7721
CreatePattern	-11.7723
LaunchManager	-11.7723
pl	-11.7723
▁remarks	-11.7723
▁mixed	-11.7723
▁Stud	-11.7723
ActionController	-11.7725
▁messy	-11.7725
▁concurrently	-11.7725
▁breakdown	-11.7726
▁subflow	-11.7726
▁statically	-11.7726
6:20	-11.7728
▁folding	-11.7728
▁Migration	-11.7728
▁XRD	-11.7728
▁alignment	-11.7728
▁huge	-11.7728
▁cookie	-11.7729
▁daily	-11.7729
▁TSF	-11.7729
▁descriptor	-11.7729
▁Hence	-11.7729
sw	-11.7729
ffffff	-11.7729
2800	-11.773
▁independently	-11.773
Wiki	-11.7731
▁scaling	-11.7731
programmatically	-11.7731
▁HAL	-11.7731
Initialization	-11.7731
▁1.0.9	-11.7731
Already	-11.7731
▁ImageOrigin	-11.7731
▁agreed	-11.7732
RepositoryNode	-11.7732
▁optimal	-11.7733
Embedded	-11.7735
▁tapping	-11.7737
-0.21.0	-11.7737
▁Counter	-11.7737
SQLState	-11.7738
▁scheduling	-11.7738
▁fluxes	-11.7738
fireEvent	-11.7739
NoNodeException	-11.7739
Aggregate	-11.7739
▁grayed	-11.7739
▁logical	-11.774
▁propagated	-11.774
▁Discuss	-11.7741
▁infinite	-11.7745
3:	-11.7746
▁slack	-11.7747
▁EBS	-11.7747
mocha	-11.7747
▁Cellar	-11.7747
▁separation	-11.7747
Expired	-11.7749
▁besides	-11.7749
▁chunkId	-11.775
Patterns	-11.775
▁outdated	-11.775
Aop	-11.775
▁OFF	-11.775
Clone	-11.775
▁searchView	-11.7752
jquery	-11.7755
comments	-11.7755
▁Exclude	-11.7757
ItemTemplate	-11.7759
GPS	-11.7759
▁75%	-11.7762
FsShell	-11.7763
-6	-11.7763
▁remotely	-11.7764
itunes	-11.7764
▁refreshes	-11.7765
▁extracted	-11.7765
▁Benford	-11.7766
▁participant	-11.7767
0.24.0	-11.7768
▁mime	-11.7768
▁JSValue	-11.7769
▁excluded	-11.7769
tgz	-11.7769
▁canceled	-11.777
▁committed	-11.777
▁quoted	-11.7771
Scanner	-11.7772
SingleNode	-11.7774
▁Synchronized	-11.7776
▁closely	-11.7777
-25	-11.7778
▁FunctorKeys	-11.7779
▁Queries	-11.7781
▁sourceId	-11.7781
▁overflow	-11.7782
▁chunked	-11.7782
BAD	-11.7786
200	-11.7787
Ub	-11.7787
▁grey	-11.7787
▁country	-11.7789
▁SdssShape	-11.7794
▁openstack	-11.7796
▁cleaner	-11.7797
▁scrollView	-11.7798
▁polygon	-11.7798
added	-11.7798
▁revisions	-11.7801
StreamDefinition	-11.7802
▁Unexpected	-11.7804
▁direction	-11.7807
192	-11.7809
ak	-11.7809
▁Packager	-11.781
▁conflicts	-11.7811
▁transferred	-11.7812
▁investigated	-11.7817
▁autocomplete	-11.7818
▁JSObject	-11.7821
▁tinymce	-11.7823
Downloads	-11.7823
computing	-11.7826
▁cancelled	-11.7826
▁CCDs	-11.783
Font	-11.7831
▁envelope	-11.7836
▁validators	-11.7837
▁resolver	-11.784
▁300,	-11.7844
cap	-11.7845
ions	-11.7846
listSection	-11.7851
▁Instrumentation	-11.7853
76-	-11.7854
▁posix	-11.7856
▁17:05:4	-11.7856
▁Block	-11.7858
Closed	-11.7861
▁??	-11.7862
-43	-11.7865
▁JobExecution	-11.7865
op	-11.787
▁stdout	-11.7871
:149	-11.7872
:100	-11.7873
▁satisfy	-11.7875
7/	-11.7875
streamName	-11.7875
modinfo	-11.7876
renaming	-11.7877
▁Astrometry	-11.7879
processing	-11.7882
▁archiva	-11.7884
▁SingleNode	-11.7884
▁clones	-11.7887
ALL	-11.7889
@3	-11.7891
▁Icons	-11.7893
▁ccqserv	-11.7894
Payload	-11.7896
Scheduler	-11.7896
▁pooling	-11.7899
▁pay	-11.79
turning	-11.7901
gistryClientTest	-11.7902
,5,	-11.7905
▁ioslib	-11.7908
3172	-11.7914
▁Hover	-11.7915
▁rabbitmq	-11.7918
▁implication	-11.7925
115	-11.7926
▁Center	-11.7926
▁Repo	-11.7928
▁Db	-11.7931
▁ObjectStore	-11.7932
=4	-11.7935
▁JOB	-11.7936
closing	-11.7937
▁([	-11.7938
Outbound	-11.7938
3>	-11.7939
▁Mapping	-11.7944
▁Policy	-11.7944
▁US	-11.7946
▁operate	-11.7947
sp	-11.7947
commonjs	-11.7948
▁Br	-11.7951
▁sleep	-11.7952
▁Gesture	-11.7956
ordered	-11.7957
▁Fault	-11.7962
:207	-11.7964
'"	-11.7966
Sql	-11.7967
---------+------	-11.7969
▁concepts	-11.797
▁Annotation	-11.7972
>>	-11.7972
essageL	-11.7972
scan	-11.7974
SimpleM	-11.7974
:354	-11.7977
ow	-11.798
▁<=	-11.7987
86_64/	-11.7987
▁Views	-11.7992
:46	-11.7992
/1.0	-11.7997
▁comp	-11.8
Opening	-11.8001
AbstractBean	-11.8005
▁Usage	-11.8005
▁principal	-11.8007
▁span	-11.8007
ServicesEnabled	-11.8013
FE	-11.8017
▁Background	-11.802
suitable	-11.803
builds	-11.8033
▁SR	-11.8034
live	-11.8038
-209	-11.8038
▁QE	-11.8039
-14	-11.8041
▁Async	-11.8041
▁filejdbc	-11.8044
trun	-11.805
▁Targets	-11.8055
_5	-11.8055
▁mystream	-11.8057
▁forever	-11.8057
▁php	-11.8065
▁2.0.2	-11.8068
▁talend	-11.8073
InvalidRows	-11.8076
verify	-11.8076
▁Dura	-11.8078
▁4.1.0	-11.8078
▁EI	-11.8079
;}	-11.808
:119	-11.8084
flux	-11.8084
▁cassandra	-11.809
contributed	-11.8092
▁locks	-11.8092
bug	-11.8095
▁corrupt	-11.8096
▁Functional	-11.8099
sWith	-11.8105
lum	-11.8106
OLE	-11.8106
▁hits	-11.8109
spi	-11.811
IdG	-11.811
▁waits	-11.8117
▁Element	-11.8118
Keeper	-11.812
▁Sign	-11.8122
:28	-11.8134
▁bindings	-11.8135
▁Mode	-11.8135
coded	-11.8136
2015,	-11.8137
1",	-11.8139
▁subscribe	-11.8139
JobRepository	-11.8139
tail	-11.8142
econciler	-11.8148
strings	-11.8148
TestService	-11.8149
▁dm	-11.8153
▁3:	-11.8156
▁PSFs	-11.8162
▁2.0.0.	-11.8168
PROCESS	-11.8168
/2015	-11.8169
▁[{	-11.8169
688	-11.8169
gg	-11.8172
mon	-11.8173
▁Session	-11.8174
▁301	-11.8178
▁presentation	-11.818
▁animations	-11.8181
▁facebook	-11.8186
correctly	-11.8189
▁mirror	-11.8192
:180	-11.8194
Hadoop	-11.8197
codec	-11.8205
fi	-11.8207
7:	-11.8211
▁slaveId	-11.8211
▁tail	-11.8216
94)	-11.8217
Executable	-11.8223
▁she	-11.8227
:32	-11.8229
▁ordered	-11.8231
▁restarts	-11.8234
reakdown	-11.8238
▁SpringXD	-11.8241
oL	-11.8244
▁3.0.1	-11.8244
iqu	-11.8246
ship	-11.825
could	-11.8252
▁libs	-11.8255
tp	-11.8255
?>	-11.8268
():	-11.8272
ProgressManager	-11.8273
aG	-11.8275
-9-	-11.8278
▁specifications	-11.8282
Catalog	-11.8283
ObjectStore	-11.8283
:107	-11.8283
///////////////	-11.8287
runs	-11.8291
▁scopes	-11.8308
Url	-11.8309
leV	-11.831
=10	-11.8311
ny	-11.8313
▁en	-11.8317
week	-11.8323
▁img	-11.8325
29)	-11.8328
editable	-11.833
mask	-11.8331
▁lang	-11.8331
Bridge	-11.8332
under	-11.8334
0429	-11.834
▁Coffee	-11.834
▁0.1	-11.8342
▁weight	-11.8343
40,	-11.8345
adapter	-11.8345
▁#0	-11.8348
NTO	-11.8353
▁thumbnail	-11.8353
Title	-11.8354
▁tar	-11.8356
Screen	-11.8357
▁'-'	-11.836
ROW	-11.8362
512	-11.8365
▁0)	-11.8366
▁computation	-11.8374
:79	-11.8376
Doc	-11.8376
:200	-11.8378
sequence	-11.838
BuildContext	-11.8381
keep	-11.8381
/*.	-11.8383
NOTIFICATION	-11.8385
Root	-11.8389
DATA	-11.8395
WSDL	-11.8395
EX	-11.8395
JIRA	-11.8395
469	-11.8395
MacOS	-11.8396
Acceptance	-11.8396
grails	-11.8397
:229	-11.8399
Finish	-11.84
VideoPlayer	-11.84
parallel	-11.8401
TIMESTAMP	-11.8401
Success	-11.8401
second	-11.8402
clone	-11.8403
sdcard	-11.8404
License	-11.8404
horizontal	-11.8404
statusUpdate	-11.8404
Additional	-11.8406
Touch	-11.8406
boolean	-11.8407
Frequency	-11.8407
Software	-11.8407
demand	-11.8407
isolation	-11.8408
rabbitmq	-11.8408
DefinitionReader	-11.8409
integrity	-11.8409
prepare	-11.841
manage	-11.841
BAM	-11.8411
Repro	-11.8411
NPM	-11.8411
terminating	-11.8413
Getting	-11.8414
retry	-11.8415
Installation	-11.8417
Direct	-11.8417
Splash	-11.8419
Improve	-11.842
Rabbit	-11.8421
monitoring	-11.8422
textfield	-11.8426
abc	-11.8428
Alert	-11.8433
flags	-11.8434
especially	-11.8435
SL	-11.8435
arguments	-11.8439
mm	-11.8443
▁3.1.0	-11.8447
echo	-11.8454
tDataBuilderImpl	-11.8455
focused	-11.8455
ChannelRegistry	-11.8459
▁imports	-11.846
Requested	-11.846
press	-11.8468
Migrate	-11.8472
141	-11.8473
rely	-11.8479
ia	-11.8482
▁semicolon	-11.8483
removed	-11.8484
conditions	-11.849
NU	-11.849
ces	-11.8495
[[	-11.8496
396	-11.8496
Double	-11.8499
dx	-11.8501
!'	-11.8504
▁bank	-11.851
windowslib	-11.8513
UPS	-11.8516
MethodI	-11.8517
+1	-11.8521
---	-11.8521
▁col	-11.8521
20)	-11.8526
installed	-11.8528
Have	-11.8532
Flags	-11.8533
Hover	-11.8533
:160	-11.8534
▁head	-11.8535
Starting	-11.8536
hoc	-11.8546
BE	-11.8548
▁360	-11.8549
:64	-11.8549
MobileSDK	-11.8553
executions	-11.8555
ether	-11.8555
▁admins	-11.8555
Latest	-11.856
▁equation	-11.8564
▁po	-11.8566
Override	-11.8567
Coding	-11.8569
:141	-11.8569
<<	-11.8574
▁Clarif	-11.8575
▁10:3	-11.8575
Activator	-11.8579
/2	-11.8583
▁annotate	-11.8585
Stripe	-11.8587
6]	-11.8589
\{	-11.8601
56)	-11.8601
▁guarantee	-11.8604
▁fragment	-11.8605
was	-11.8605
▁wh	-11.8607
▁complain	-11.8607
handlers	-11.8613
▁err	-11.8617
route	-11.8622
Volume	-11.8622
Category	-11.8623
_201502/	-11.8624
▁Mgmt	-11.8624
▁Mozilla	-11.8624
-1196121930-	-11.8624
OPTS	-11.8624
▁PLplot	-11.8624
▁denied	-11.8624
▁pagination	-11.8624
▁sketch	-11.8624
▁sporadic	-11.8624
ReportFileAction	-11.8624
heisenberg	-11.8624
▁iPod	-11.8624
▁firefox	-11.8624
▁'30%'	-11.8624
LIBRARY	-11.8624
captcha	-11.8625
▁Hyperic	-11.8625
-6992].	-11.8625
▁Staging	-11.8625
▁coordination	-11.8625
KrollRuntime	-11.8625
▁stretch	-11.8625
▁DevKit	-11.8625
▁sybase	-11.8625
▁propagation	-11.8625
▁inheritance	-11.8625
▁Below	-11.8625
retryMessage	-11.8625
▁10.10.4	-11.8625
boutigny	-11.8626
▁Telescope	-11.8626
▁happy	-11.8626
▁smart	-11.8626
Scatter	-11.8626
▁Answered	-11.8626
▁existence	-11.8626
PHPBuiltins	-11.8626
moz	-11.8626
EmbedConnection	-11.8626
DATABASES	-11.8627
▁perfectly	-11.8627
▁study	-11.8627
sessionId	-11.8627
0.20.1	-11.8627
▁Collect	-11.8627
▁essentially	-11.8628
lauren	-11.8628
setuptools	-11.8628
Capable	-11.8628
▁POM	-11.8628
▁reusable	-11.8628
:724)	-11.8628
▁Mather	-11.8629
▁expiry	-11.8629
po	-11.8629
▁rotating	-11.863
ActionBar	-11.8631
▁room	-11.8631
:679)	-11.8632
▁forth	-11.8632
TableTreeViewer	-11.8633
sonar	-11.8633
▁manipulation	-11.8633
Reorganization	-11.8633
▁passwords	-11.8634
Buildbot	-11.8634
tableName	-11.8634
▁wonder	-11.8635
▁drawn	-11.8636
-0.26.0/_	-11.8637
Galaxy	-11.8638
▁PYTHON	-11.8638
▁vSphere	-11.8639
▁HATEOAS	-11.8639
jdt	-11.8639
▁Provenance	-11.8639
▁Infrastructure	-11.8639
▁AttributeError	-11.8639
▁Priority	-11.8639
▁opposite	-11.8639
▁Atlassian	-11.8639
▁Libprocess	-11.8639
▁Yarn	-11.864
▁defect	-11.864
▁ICD	-11.8641
▁heavy	-11.8641
▁2.1.1	-11.8642
▁Built	-11.8643
▁expectations	-11.8644
:234)	-11.8644
▁reached	-11.8644
tainerRegistrar	-11.8646
MessageReceiver	-11.8646
▁Nook	-11.8647
▁sizing	-11.8648
▁alongside	-11.8649
▁Soap	-11.8649
taps	-11.865
2015+	-11.8651
Autowire	-11.8653
/2.1.0	-11.8653
-16	-11.8653
▁partitioner	-11.8654
libmesos	-11.8655
▁20%	-11.8655
▁Community	-11.8657
contentOffset	-11.8658
▁NaN	-11.8658
▁PARENT	-11.8659
▁JSLint	-11.8659
▁histogram	-11.8659
▁enrich	-11.8659
▁Tele	-11.8659
▁borderWidth	-11.8659
Gradient	-11.866
▁readme	-11.866
▁cool	-11.866
NMENT	-11.8662
▁bbox	-11.8662
▁ContainerInfo	-11.8662
ol	-11.8665
WINDOW	-11.8666
defaultunit	-11.8667
pAdapter	-11.8667
▁userLocation	-11.8667
▁MyClass	-11.8667
▁express	-11.8668
gmail	-11.867
▁deactivated	-11.8672
▁recovered	-11.8672
▁regards	-11.8673
▁floating	-11.8674
▁[{"	-11.8674
▁Suggestions	-11.8674
▁XDContainer	-11.8675
Perform	-11.8676
▁Ratio	-11.8677
786	-11.8677
getInstance	-11.8678
▁"${	-11.8678
TiHTTPClient	-11.8679
▁hierarchical	-11.868
▁Examin	-11.868
▁HSQL	-11.868
Packet	-11.8681
ServiceRequest	-11.8681
▁Subprocess	-11.8683
Kroll	-11.8684
▁months	-11.8684
▁(0	-11.8684
Targets	-11.8685
▁externally	-11.8685
na	-11.8686
2664)	-11.8686
▁getters	-11.8687
SERT	-11.8688
▁mtime	-11.8689
▁3.2	-11.8691
:88	-11.8693
▁director	-11.8694
▁headerView	-11.8697
▁enrolment	-11.8697
▁MVEL	-11.87
▁Grades	-11.8701
▁training	-11.8703
▁timezone	-11.8704
compat	-11.8705
▁differentiat	-11.8707
SOCK	-11.8708
▁fq	-11.8709
inputType	-11.871
▁Visual	-11.8711
▁SO	-11.8711
▁evaluated	-11.8712
▁SAL	-11.8715
requests	-11.8717
Globals	-11.8719
Multi	-11.872
▁cookies	-11.872
▁Sets	-11.8721
▁compression	-11.8722
▁SSH	-11.8723
▁Requirements	-11.8724
▁optimizations	-11.8724
newInstance	-11.8724
▁keyspace	-11.8731
▁uuid	-11.8732
Templates	-11.8732
▁Failing	-11.8737
▁Cgroups	-11.874
httptest	-11.8741
▁avoided	-11.8744
:\\	-11.8745
HDP	-11.8748
▁2010	-11.8749
Measure	-11.8749
▁Dependency	-11.8749
▁twitterstream	-11.8749
IS	-11.8753
▁TextArea	-11.8754
▁Mock	-11.8756
▁THE	-11.8757
▁im	-11.8757
direction	-11.8757
▁=====	-11.8759
▁feed	-11.8761
:196	-11.8761
▁participants	-11.8762
:63	-11.8763
▁borderRadius	-11.8764
▁Compare	-11.8764
:129	-11.8764
ging	-11.8764
2109	-11.8768
updates	-11.877
▁forked	-11.8771
Boolean	-11.8772
▁yui	-11.8772
▁rotates	-11.8773
Du	-11.8775
▁Sometimes	-11.8777
Validate	-11.8777
@0	-11.8778
▁abstractions	-11.8783
▁GaussianFlux	-11.8785
▁Jolokia	-11.8785
moodleform	-11.8791
55)	-11.8793
▁08-2	-11.8796
...'	-11.8796
5-15	-11.8796
▁Nov	-11.8801
QueueManager	-11.8801
▁mqtt	-11.8804
▁closer	-11.8804
▁promise	-11.8804
:286	-11.8805
neo	-11.8808
:157	-11.8809
="@	-11.8809
▁2014-	-11.8811
▁pointers	-11.8811
ldm	-11.8816
Val	-11.8816
▁2010-09-0	-11.8817
spago	-11.8818
undleContextImpl	-11.8825
lassicProject	-11.883
▁undo	-11.8832
▁arrows	-11.8835
262)	-11.8835
appended	-11.8841
▁checker	-11.8842
nz	-11.8842
▁Frequency	-11.8847
▁increment	-11.8852
▁introduces	-11.8853
▁JobRepository	-11.8854
▁synchronized	-11.8856
▁Actions	-11.8861
▁Remain	-11.8863
▁st	-11.8864
Frameworks	-11.8868
aka	-11.8872
:213	-11.8874
:56	-11.8874
▁Marker	-11.8875
▁Developers	-11.8881
coce	-11.8885
ushNotifications	-11.8886
▁sa	-11.8888
▁secret	-11.8888
Null	-11.8892
/13	-11.8892
▁logout	-11.8893
nimationStyle	-11.8895
▁natures	-11.8899
uci	-11.8899
▁Break	-11.8902
58)	-11.8903
specially	-11.8903
IfxS	-11.8903
▁reply	-11.8905
:108)	-11.8907
▁Required	-11.8909
123"	-11.8909
▁weeks	-11.8912
▁amq	-11.8912
▁SH	-11.8916
▁Count	-11.8919
()->	-11.892
▁Dockerfile	-11.892
Different	-11.8925
▁hides	-11.8928
▁Box	-11.8929
▁continu	-11.8931
accessing	-11.8932
TiProxy	-11.8933
1.5.1	-11.8934
setData	-11.8936
▁extent	-11.8939
64-	-11.8942
ProblemReporter	-11.8944
▁Size	-11.8945
▁masters	-11.8947
"}	-11.8948
:117	-11.8955
Dao	-11.8956
HR	-11.8958
mentSupervisor	-11.8963
▁nebula	-11.8969
▁inference	-11.8973
8]	-11.8973
▁fontFamily	-11.8974
Fill	-11.8974
▁listview	-11.8975
Generic	-11.8976
▁Variables	-11.8982
▁circula	-11.8988
1317	-11.8989
-93	-11.899
MessageChannel	-11.899
▁fil	-11.8999
Snippets	-11.8999
driven	-11.9002
▁0.7	-11.9004
SA	-11.9007
▁saves	-11.9008
▁Input	-11.9009
153	-11.9016
Archive	-11.9024
pear	-11.9025
covering	-11.9029
:11)	-11.9031
HE	-11.9036
erious	-11.9037
▁Integer	-11.9038
mportant	-11.9039
Delta	-11.904
Story	-11.9052
JDBC	-11.9057
:108	-11.9058
▁3.2.3	-11.906
RS	-11.9067
▁Reports	-11.9068
:53	-11.9075
iton	-11.9076
:126	-11.9078
▁TRACE	-11.9079
valid	-11.9087
▁Tasks	-11.9087
CON	-11.9088
keyboard	-11.9092
hand	-11.9093
▁-----	-11.9094
Icon	-11.9098
-436	-11.9098
▁ajax	-11.9101
ROCESS	-11.9103
▁clash	-11.9106
▁sensitive	-11.9109
ataFormat	-11.911
▁quotas	-11.9113
xtranet	-11.9114
▁infer	-11.9115
▁xxx	-11.9119
Child	-11.9129
loaded	-11.9131
vnd	-11.9134
;)	-11.9134
▁corrected	-11.9136
cw	-11.9136
positoryWorkUnit	-11.9147
________________	-11.915
SP	-11.9151
qli	-11.9152
▁numer	-11.9155
onica	-11.9161
ER	-11.9163
="808	-11.9164
Sub	-11.9169
bg	-11.917
:49	-11.917
Reload	-11.9174
4\	-11.9178
dialog	-11.918
▁Transaction	-11.9182
/2005/0	-11.9183
▁Hello	-11.9196
eng	-11.9198
▁Cache	-11.9198
▁namely	-11.9199
9090	-11.9204
Stage	-11.921
ha	-11.9224
▁En	-11.9226
ture	-11.9232
▁assumption	-11.9235
locking	-11.9241
END	-11.9242
▁Driver	-11.9243
1024	-11.9244
▁edu	-11.9247
:118	-11.9248
sl	-11.9253
:239	-11.9254
:17)	-11.9258
versions	-11.9268
▁traces	-11.927
741	-11.9278
-22	-11.9279
>.<	-11.928
Ou	-11.9284
qa	-11.9291
about	-11.9292
▁2011	-11.9294
Step	-11.9294
ho	-11.9295
ttpURLConnection	-11.9297
Mongo	-11.9299
117	-11.9299
ISTI	-11.9302
9]	-11.9302
weak	-11.9302
SAM	-11.9303
▁her	-11.9303
bindings	-11.9307
▁duracloud	-11.9309
▁pthread	-11.932
manual	-11.9322
machine	-11.9322
Receiver	-11.9323
615)	-11.9326
Plan	-11.9328
imulatorLaunch	-11.9328
10;	-11.9335
=".*	-11.9336
Pull	-11.9337
sServiceImpl	-11.9342
dn	-11.9345
▁spot	-11.9346
RB	-11.9351
▁defer	-11.9351
But	-11.9353
▁screencast	-11.9357
Closing	-11.936
sigar	-11.9363
IndexRequestJob	-11.9366
Activate	-11.9366
parseInt	-11.9367
ew	-11.9369
queries	-11.937
components	-11.9371
Flux	-11.9374
cached	-11.9377
ensible	-11.9382
statement	-11.9383
COLUMN	-11.9385
future	-11.9385
small	-11.9387
expand	-11.9388
▁Trac	-11.9388
Clear	-11.9388
pos	-11.9388
instrument	-11.9389
Replication	-11.9392
DuraCloud	-11.9393
MDM	-11.9394
Short	-11.9394
construct	-11.9395
▁autocorrect	-11.9397
Enter	-11.9398
shift	-11.94
Jul	-11.94
println	-11.9401
Preference	-11.9401
wcs	-11.9401
PhotoCal	-11.9402
Apache	-11.9402
duradmin	-11.9402
parameterized	-11.9404
Portal	-11.9405
lifecycle	-11.9406
Planning	-11.9406
OptionDialog	-11.9406
Chrome	-11.9406
3598	-11.9406
README	-11.9407
pax	-11.9407
Reason	-11.9407
Camera	-11.9407
SimpleModule	-11.9407
AndroidManifest	-11.9408
Facebook	-11.9408
multipart	-11.9408
Libraries	-11.9408
▁Expression	-11.9409
sdss	-11.941
declaration	-11.9411
filepicker	-11.9411
unused	-11.9411
weekly	-11.9412
synchronized	-11.9412
▁hop	-11.9412
sched	-11.9413
▁translation	-11.9414
▁Graph	-11.9416
concept	-11.9417
Customer	-11.9419
pathIn	-11.942
687	-11.9422
NE	-11.9423
READ	-11.9424
tableView	-11.9424
tracking	-11.9429
>)	-11.943
delegate	-11.9437
bi	-11.9438
28)	-11.9444
realm	-11.9444
▁destructor	-11.9446
Two	-11.9446
nle	-11.9446
AF	-11.9447
selector	-11.9448
ccqserv	-11.9451
fast	-11.9455
providers	-11.9455
0826	-11.946
%7	-11.9468
Json	-11.9468
doClick	-11.9468
:76	-11.9471
hash	-11.9471
NK	-11.9473
reader	-11.9476
creating	-11.9483
-44	-11.9484
Static	-11.9488
▁PS	-11.9489
▁partners	-11.9491
href	-11.9492
▁hour	-11.9493
ADD	-11.9497
AM	-11.9501
▁scalar	-11.9502
120	-11.951
3.3.3	-11.9511
AbstractRe	-11.9512
pop	-11.9512
▁simulation	-11.9514
▁Types	-11.9514
RED	-11.9519
topics	-11.9523
later	-11.9524
:106	-11.9524
:31	-11.9529
▁linking	-11.953
▁geo	-11.9532
▁ssl	-11.9535
Rest	-11.9536
:306	-11.954
5:	-11.9542
ify	-11.9544
▁arrive	-11.9546
Samples	-11.9547
▁eth	-11.9548
reset	-11.9548
tic	-11.955
▁draw	-11.9551
▁USER	-11.9553
▁1.4	-11.9556
▁injection	-11.9557
:93	-11.9558
ay	-11.956
utoRedirect	-11.956
80]	-11.9561
adding	-11.9561
ping	-11.9562
▁reject	-11.9562
232:	-11.9563
▁Quiz	-11.9563
▁neighbor	-11.9565
▁'-	-11.9567
▁primitive	-11.9569
▁consideration	-11.9569
▁determin	-11.957
Streams	-11.957
/**	-11.9574
Comment	-11.9575
178)	-11.9577
cgi	-11.958
▁2.0.	-11.958
1202	-11.9582
▁clarif	-11.9595
Objects	-11.9597
://127.0.0.1	-11.9597
▁timing	-11.9599
▁Thu	-11.9603
▁standardize	-11.9608
▁react	-11.9608
▁JH	-11.9608
▁agree	-11.9615
▁encrypt	-11.9618
:148	-11.962
▁Permissions	-11.962
CUSTOM	-11.9621
QuickForm	-11.9623
mjuric	-11.9624
Laguna	-11.9624
plausible	-11.9624
VIEW	-11.9624
:2158:35)	-11.9624
FREEFORM	-11.9624
OTHER	-11.9624
ROUNDED	-11.9624
xrdsvc	-11.9624
▁ESCAPE	-11.9624
▁GalSim	-11.9624
▁Hudson	-11.9624
▁fashion	-11.9624
▁tXMLMap	-11.9624
/&#64;	-11.9624
TABGROUP	-11.9624
▁registries	-11.9624
JSStyleValidator	-11.9624
VolumeFromHost	-11.9624
issuetabpanels	-11.9624
▁Hyperloop	-11.9624
CLMVNONE	-11.9624
▁SysML	-11.9624
Modified	-11.9624
▁MetaServ	-11.9624
imsenterprise	-11.9625
▁MIME	-11.9625
AudioPlayer	-11.9625
▁budget	-11.9625
ProgressBar	-11.9625
▁TOWG	-11.9625
Xtentis	-11.9625
▁latitudeDelta	-11.9625
▁longitudeDelta	-11.9625
RetrieverTest	-11.9625
MongoTemplate	-11.9625
TiAppSDKSection	-11.9625
▁undeclared	-11.9625
BoundsException	-11.9625
CheckFatal	-11.9625
▁Agreement	-11.9625
courseorid	-11.9625
▁agreement	-11.9625
workbench	-11.9625
AllocatorProcess	-11.9625
OptionsEditor	-11.9625
EditorInput	-11.9625
▁Price	-11.9625
ADMIN	-11.9625
32\3.1.0.	-11.9625
cakeframework	-11.9625
▁rotation	-11.9625
20150107091442\	-11.9625
▁HSQLDB	-11.9625
OutOf	-11.9625
exclusion	-11.9625
sqlexplorer	-11.9625
▁Obviously	-11.9625
Fullscreen	-11.9625
Amqp	-11.9626
▁Dims	-11.9626
riangle	-11.9626
▁EMC	-11.9626
▁assistance	-11.9626
▁Eventually	-11.9626
▁startAnimation	-11.9626
▁Inconsistent	-11.9627
▁Shifter	-11.9627
NET	-11.9627
▁enumerated	-11.9627
▁PoC	-11.9627
ReservationInfo	-11.9628
▁stale	-11.9628
20150604094312\	-11.9628
▁StoreClient	-11.9628
▁plotting	-11.9628
▁million	-11.9628
▁synctool	-11.9628
tabpanel	-11.9628
▁rejection	-11.9629
shelf	-11.9629
▁quoting	-11.9629
htdocs	-11.963
createAnnotation	-11.963
▁Likely	-11.963
Miscellaneous	-11.963
▁suppress	-11.9631
SHOW	-11.9631
makeUnique	-11.9631
swinbank	-11.9632
▁Cron	-11.9632
:449	-11.9632
▁serious	-11.9633
▁datamapper	-11.9633
▁respectively	-11.9634
$11.	-11.9635
78&	-11.9635
coursecat	-11.9636
=535	-11.9636
▁...)	-11.9636
AssertionError	-11.9636
:728)	-11.9636
Visualization	-11.9637
▁busy	-11.9637
TiActivity	-11.9637
ngmix	-11.9639
▁exceeded	-11.9639
2003	-11.9639
▁aspect	-11.964
▁latency	-11.964
▁preserved	-11.964
▁Rhino	-11.964
▁Derby	-11.964
▁UIUC	-11.964
HandlerMethod	-11.964
▁kerberos	-11.964
▁Landscape	-11.964
▁LCR	-11.964
:172)	-11.964
▁SpanRegion	-11.964
▁DEVELOPER	-11.964
▁crosstalk	-11.964
ibm	-11.964
▁brackets	-11.9641
▁scanning	-11.9641
▁Elastic	-11.9642
▁GTEST	-11.9642
▁unchanged	-11.9642
Remember	-11.9643
foobar	-11.9643
▁subpackages	-11.9644
▁afterwards	-11.9644
▁Limited	-11.9644
▁30%	-11.9644
servicesource	-11.9644
▁markup	-11.9645
Dependencies	-11.9646
▁increasing	-11.9646
▁everytime	-11.9646
=56	-11.9647
-1135	-11.9647
▁tear	-11.9647
responseText	-11.9649
▁abnormal	-11.965
\]}}	-11.965
unction	-11.965
erry	-11.965
Scale	-11.9651
▁claim	-11.9651
:193	-11.9651
▁Labs	-11.9651
▁handy	-11.9652
octo	-11.9652
eature	-11.9654
▁Navigat	-11.9655
AttributedString	-11.9655
▁releasing	-11.9655
▁visually	-11.9655
▁CAC	-11.9656
▁June	-11.9657
rhl	-11.9657
applyProperties	-11.9658
Scrum	-11.9658
connections	-11.9659
cloudpush	-11.9659
4:37.	-11.966
▁cProcessor	-11.9661
▁wmgr	-11.9661
FragmentManager	-11.9661
▁branding	-11.9661
▁reliable	-11.9661
▁spinner	-11.9662
▁varchar	-11.9662
▁shadow	-11.9662
▁Broken	-11.9663
▁synonym	-11.9663
▁writable	-11.9664
▁maxLength	-11.9665
RE	-11.9665
Parameterized	-11.9665
▁blah	-11.9665
')"	-11.9666
▁firing	-11.9667
▁packets	-11.9668
ConfigParser	-11.9668
▁draggable	-11.9669
▁bands	-11.9669
▁XPath	-11.9671
▁braces	-11.9671
coverageRecorder	-11.9672
Panel	-11.9673
▁strong	-11.9675
sasl	-11.9675
▁'');	-11.9676
()+'	-11.9677
adAnd	-11.9678
▁"+	-11.9678
SSLSocketImpl	-11.968
CpuIsolatorTest	-11.9681
▁Reuna	-11.9682
sqre	-11.9684
\4.1.0-	-11.9685
▁HAWQ	-11.9685
▁GPL	-11.9685
▁Japanese	-11.9686
▁Goal	-11.9686
ick	-11.9688
▁appearance	-11.9688
▁Begin	-11.9688
:5000/	-11.9689
▁deblender	-11.969
AbstractD	-11.969
▁49	-11.9691
:104)	-11.9692
referred	-11.9693
▁resized	-11.9693
▁Discussions	-11.9693
▁ongoing	-11.9695
▁Ran	-11.9696
▁tweaks	-11.9696
▁overload	-11.97
currentActivity	-11.9702
▁NSF	-11.9703
pick	-11.9703
▁Persist	-11.9707
▁2008	-11.9707
▁IsrTask	-11.9708
Discovery	-11.9708
▁UTC	-11.9708
Notifier	-11.9708
▁Separate	-11.9708
▁ScriptDoc	-11.9709
▁Rotate	-11.971
▁hopefully	-11.9711
▁docgen	-11.9714
▁deploytype	-11.9714
▁libtool	-11.9715
▁TDI	-11.9715
▁underscores	-11.9715
▁viable	-11.9718
▁invisible	-11.9718
▁xsi	-11.972
▁proceeding	-11.9721
▁xcodebuild	-11.9721
▁responding	-11.9721
▁Meeting	-11.9723
▁StatusUpdate	-11.9723
ear	-11.9725
729	-11.9726
documents	-11.9727
▁protect	-11.9727
▁associate	-11.973
NOT	-11.9731
▁NEW	-11.9731
▁JobPlugin	-11.9735
▁Hi	-11.9739
▁unreserved	-11.974
:411	-11.9741
▁TiAPI	-11.9742
▁switches	-11.9743
▁unset	-11.9743
▁inactive	-11.9745
ProcessManager	-11.9745
▁escape	-11.9746
▁Give	-11.9748
▁diagrams	-11.975
▁bootstrapp	-11.9752
▁Fri	-11.9753
▁0.12	-11.9753
-0000	-11.9754
▁scans	-11.9754
transitive	-11.9754
▁Welcome	-11.9755
▁3.0.3.	-11.9756
▁Student	-11.9757
▁Scenario	-11.9757
▁sum	-11.9758
▁throttled	-11.9758
▁la	-11.9761
▁Steve	-11.9764
▁evaluat	-11.9765
▁mflow	-11.9767
▁reduced	-11.9769
▁freed	-11.9771
Authorizer	-11.9775
:85)	-11.9777
▁WVGA	-11.9778
▁kazoo	-11.9778
▁Architecture	-11.9779
▁Today	-11.978
▁Jar	-11.978
statusbar	-11.9784
nf	-11.9784
▁5000	-11.9785
▁Payload	-11.9789
▁ball	-11.9794
------------	-11.9795
119	-11.9798
jm	-11.9798
$8.	-11.98
▁Ka	-11.9801
/${	-11.9801
▁overlaps	-11.9801
▁urls	-11.9802
▁misc	-11.9802
▁LV	-11.9803
▁Gather	-11.9803
▁visualize	-11.9804
▁SQLite	-11.9804
▁specialize	-11.9804
PackageManager	-11.9808
▁XP	-11.9808
▁ping	-11.981
pixel	-11.981
86_64-	-11.9811
Binder	-11.9811
inst	-11.9812
112)	-11.9812
▁Popover	-11.9813
testsources	-11.9813
term	-11.9814
▁hdfsjdbc	-11.9814
▁Domain	-11.982
▁decouple	-11.9821
▁begins	-11.9822
:204	-11.9823
Management	-11.9825
▁18:36:	-11.9826
▁urlSession	-11.9827
▁vice	-11.9827
▁inter	-11.9827
▁Toggle	-11.9827
▁reserve	-11.9832
▁1.8.1	-11.9832
onChild	-11.9832
998	-11.9832
:40,	-11.9834
:227:	-11.9835
▁minimize	-11.9838
dns	-11.9839
Apples	-11.9839
▁Header	-11.984
▁protocols	-11.9843
jo	-11.9843
:134:	-11.9846
▁persists	-11.9848
▁OptionDialog	-11.9849
▁Planning	-11.9849
ci	-11.9849
▁activation	-11.9849
CoverageRecorder	-11.9851
:123	-11.9853
till	-11.9855
her	-11.9858
sourcepath	-11.9864
▁union	-11.9869
▁sho	-11.987
▁borders	-11.9871
1000	-11.9872
numeric	-11.9873
▁translate	-11.9874
7]	-11.9875
258)	-11.9875
Names	-11.9875
UIApplication	-11.9877
cr	-11.9878
(0	-11.9878
80)	-11.9882
▁comparisons	-11.9884
ssd	-11.9887
▁CP	-11.9889
ANNO	-11.9891
▁0.4	-11.9897
▁ScrollView	-11.9897
//	-11.9897
185	-11.9898
Coverage	-11.9899
activator	-11.9901
▁sims	-11.9906
▁XSL	-11.9907
Stop	-11.9914
-12	-11.9915
▁phpunit	-11.9918
spect	-11.9919
▁pertain	-11.9922
▁ranges	-11.9929
exist	-11.9929
KB	-11.993
ports	-11.9936
▁Section	-11.9937
▁inserts	-11.9937
moteNotification	-11.9938
▁linker	-11.994
▁jolokia	-11.9941
:415	-11.9944
45)	-11.9946
:168	-11.9948
▁faults	-11.9948
295	-11.995
▁programs	-11.9961
HTTPService	-11.9962
▁obfuscate	-11.9962
▁Did	-11.9963
▁ease	-11.9964
="5"	-11.9969
0-20	-11.9971
240	-11.9971
▁Formatter	-11.9971
SocketChannel	-11.998
▁colon	-11.9981
178	-11.9982
tolerance	-11.9985
ja	-11.9986
9779	-11.9987
▁Your	-11.9987
▁}]	-11.9994
0_	-11.9996
▁URIs	-11.9996
303	-11.9998
▁LIBP	-11.9999
TF	-12.0002
Created	-12.0008
▁NONE	-12.0016
4_	-12.0017
▁testdata	-12.0019
▁Footprints	-12.0026
▁Fit	-12.0028
▁linear	-12.0029
▁fac	-12.0031
▁Viewer	-12.0035
▁2013-07-2	-12.0043
▁Ma	-12.005
5;	-12.0054
inherited	-12.0055
registerFor	-12.0055
▁Min	-12.0057
31)	-12.0061
703	-12.0063
rm	-12.0063
▁Patterns	-12.0065
▁Bean	-12.0071
need	-12.0073
front	-12.0075
_2	-12.0076
=12	-12.0077
9}}	-12.0083
▁Ex	-12.0085
robably	-12.0085
89)	-12.0085
▁Opened	-12.0087
▁4.0.0	-12.0087
bcc	-12.0088
CA	-12.0088
tested	-12.009
▁74	-12.0092
▁sockets	-12.0092
▁Relaunch	-12.0094
Parent	-12.0099
2000	-12.01
PI	-12.01
▁Row	-12.0102
+=	-12.0102
Rights	-12.0105
orm	-12.011
filepoll	-12.011
-8,	-12.0112
▁Indicator	-12.0118
Browser	-12.0119
▁pain	-12.0119
▁#<	-12.0121
ImportWriter	-12.0125
▁oppos	-12.0132
▁{{$	-12.0137
Max	-12.0137
▁automate	-12.0138
▁di	-12.0139
=...	-12.0141
:273	-12.0146
▁Filesystem	-12.0147
OT	-12.0148
val	-12.015
4-8	-12.0152
UIJob	-12.0154
▁3.6.0	-12.016
▁ndk	-12.0161
Identity	-12.0162
▁timeouts	-12.0164
Transfer	-12.0164
Switching	-12.0165
MT	-12.0166
▁deep	-12.0168
▁tape	-12.0168
ise	-12.0171
▁ahead	-12.0171
▁resolves	-12.0172
▁5.0.2	-12.0174
▁div	-12.0175
:228	-12.0179
ssistant	-12.0179
counters	-12.0182
pen	-12.0183
-02-12	-12.0193
12_	-12.0199
MIN	-12.0202
▁WebView	-12.0206
▁band	-12.0213
999'	-12.0216
▁administrative	-12.0218
▁2.0.0	-12.022
▁promote	-12.0221
dexer	-12.023
Factor	-12.0231
▁Done	-12.0239
ModuleRegistry	-12.0241
▁ev	-12.025
122)	-12.0257
▁ij	-12.0259
▁mappings	-12.026
▁compiles	-12.026
▁rare	-12.0261
Descriptor	-12.0275
Dq	-12.0277
eda	-12.0277
▁Narr	-12.0278
ConsoleManager	-12.028
Interface	-12.0287
'#000',	-12.0292
400	-12.0294
:216	-12.0296
:132	-12.0296
▁appender	-12.0296
77)	-12.03
:487	-12.0304
AB	-12.0313
verything	-12.0313
"},	-12.0315
▁3.1.2	-12.0317
576	-12.0318
▁Tabs	-12.0318
Publishing	-12.0346
itemid	-12.035
▁carrie	-12.0355
Accessor	-12.0366
acc	-12.0375
UN	-12.0391
deb	-12.0392
▁fo	-12.0394
ound	-12.04
321	-12.04
Range	-12.0403
rename	-12.0405
HTTPClient	-12.0409
ServiceResource	-12.041
corrected	-12.0411
pic	-12.0413
ops	-12.0413
384	-12.0417
▁dep	-12.0421
Produce	-12.0422
▁dhyde	-12.0424
:241	-12.0424
flag	-12.0424
▁22-	-12.0425
MS	-12.0429
▁'20	-12.0431
▁"/"	-12.0433
ModulePackage	-12.0439
aspec	-12.0441
grant	-12.0445
:290	-12.0448
997	-12.045
Popover	-12.0453
"/"	-12.0454
"}}	-12.0456
nodes	-12.0457
his	-12.0457
found	-12.0458
Psf	-12.0459
:145	-12.0463
scope	-12.0467
Section	-12.0469
▁Tables	-12.0472
▁manifests	-12.0472
▁02	-12.0473
jni	-12.0474
dbeauregard	-12.0476
RUNNING	-12.0477
-865	-12.0478
libev	-12.0478
fix	-12.0478
696	-12.0479
switch	-12.0484
NON	-12.0486
Moodle	-12.0486
Limit	-12.0488
unreserve	-12.049
LIG	-12.049
baz	-12.0491
publisher	-12.0491
▁prove	-12.0494
cs	-12.0494
UNKNOWN	-12.0495
Repo	-12.0497
flat	-12.0498
methodReturnType	-12.0499
ApertureFlux	-12.05
Firefly	-12.05
Unsupported	-12.0503
flush	-12.0503
Picker	-12.0504
timob	-12.0505
mapper	-12.0505
medium	-12.0506
camera	-12.0506
TestStub	-12.0506
Pop	-12.0508
splash	-12.0509
reload	-12.051
FAILURE	-12.0511
span	-12.0512
Span	-12.0512
holding	-12.0513
PARAM	-12.0513
readthedocs	-12.0513
Toggle	-12.0514
virtual	-12.0515
TESB	-12.0515
148)	-12.0515
visualization	-12.0516
cActiveMQ	-12.0516
jobName	-12.0516
elasticsearch	-12.0516
hierarchy	-12.0516
Missing	-12.0516
Astrometry	-12.0517
Order	-12.0517
urlSession	-12.0518
preferences	-12.0518
priority	-12.0518
CREATE	-12.0518
REQ	-12.0518
doxygen	-12.0519
Virtual	-12.0519
mqtt	-12.0519
Exchange	-12.052
GUID	-12.0521
2014-07-1	-12.0521
Consider	-12.0522
Scenario	-12.0522
reactor	-12.0522
ConnectionImpl	-12.0522
navbar	-12.0522
3.0.0.	-12.0522
float	-12.0522
ctrl	-12.0523
CCD	-12.0523
described	-12.0524
trunk	-12.0525
:49)	-12.0528
About	-12.0529
Site	-12.0529
▁csv	-12.0531
▁1.7.	-12.0532
100)	-12.0532
Improvements	-12.0532
dump	-12.0532
jet	-12.0532
contrib	-12.0534
Both	-12.0539
puller	-12.0539
.1.4	-12.0541
▁2.0.1.	-12.0541
ka	-12.0542
logcat	-12.0543
Rule	-12.0544
▁5:	-12.0546
mapview	-12.0549
/10.1-	-12.0554
animated	-12.0556
partitioning	-12.0557
▁0.9	-12.0563
uploaded	-12.0566
changed	-12.0569
what	-12.0569
▁Alternative	-12.057
734	-12.057
20140829184521	-12.0571
median	-12.0572
▁li	-12.0573
143)	-12.0574
etter	-12.0576
called	-12.058
posix	-12.0586
930	-12.0588
attributes	-12.0596
/15	-12.0598
▁191	-12.06
environ	-12.0607
▁schedules	-12.0608
'})	-12.061
:45	-12.0612
Analytics	-12.0614
▁VS	-12.0615
011	-12.0616
▁Layout	-12.0619
icons	-12.0631
▁globals	-12.0633
logout	-12.0635
▁routine	-12.0637
▁personal	-12.064
online	-12.0642
heading	-12.0643
ocketInputStream	-12.0644
Boot	-12.0648
Dependency	-12.0649
myhttp	-12.0651
glog	-12.0655
-78	-12.0655
Would	-12.0656
1848	-12.0656
CHA	-12.0656
▁Bee	-12.066
ish	-12.066
▁regard	-12.0661
eadership	-12.0663
▁clon	-12.0667
:251	-12.0667
▁{{1	-12.0668
PASS	-12.0668
=\"	-12.067
Matches	-12.0672
,"	-12.0672
▁6.0	-12.0675
▁challenge	-12.0677
▁violation	-12.0678
:9393	-12.0679
asks	-12.0679
▁AL	-12.0679
2.0.1.	-12.0683
▁versioning	-12.0688
▁brace	-12.0688
▁month	-12.0692
ose	-12.0695
introducing	-12.0696
modulename	-12.07
▁subtask	-12.0701
UME	-12.0708
▁cert	-12.0709
-26	-12.071
▁provision	-12.0714
▁conf	-12.0716
▁confuse	-12.0719
=2,	-12.0719
3.6.0.	-12.072
▁Confirm	-12.0721
Pr	-12.0721
suspend	-12.0723
4;	-12.0723
▁ultimate	-12.0725
▁sequential	-12.0732
▁graphical	-12.0732
plus	-12.0733
▁initiate	-12.0733
[31000-32000	-12.0735
MEM	-12.0735
ILITY	-12.0735
▁robust	-12.0735
hudson	-12.0735
Identifier	-12.0736
SCRIPT	-12.0736
20130320145648	-12.0736
IndexMigrator	-12.0736
sumpat	-12.0736
▁Gallery	-12.0736
▁Middleware	-12.0736
NUMBER	-12.0736
Suspend	-12.0736
▁2014-05-0	-12.0736
▁Ciao	-12.0736
▁Gelman	-12.0736
▁Histogram	-12.0736
▁Krughoff	-12.0736
▁families	-12.0736
▁malformed	-12.0736
▁tRecordMatching	-12.0736
CONTAINER	-12.0736
▁Elliot	-12.0736
▁definitely	-12.0736
▁2013-05-2	-12.0736
▁Nagios	-12.0736
▁mathjax	-12.0736
20121013142429	-12.0736
▁reliably	-12.0736
AnyHierarchyWith	-12.0736
TRANSPORT	-12.0736
▁FitsRead	-12.0736
▁hscPipe	-12.0736
▁instantly	-12.0736
Gbps	-12.0736
MessageSequence	-12.0736
ModuleRedeployer	-12.0736
▁destructive	-12.0736
$200(	-12.0736
BAMBOO	-12.0736
▁immutable	-12.0736
magento	-12.0736
▁indentation	-12.0736
smtp	-12.0736
▁coaddition	-12.0736
▁jaxb	-12.0736
DelimitedFile	-12.0736
▁bandwidth	-12.0736
▁interpolation	-12.0736
▁August	-12.0736
▁Renat	-12.0736
Rectangle	-12.0736
modelfit	-12.0736
▁PWD	-12.0736
▁facility	-12.0736
▁extensible	-12.0736
▁clarification	-12.0736
kitchensink	-12.0736
extract	-12.0736
deepSourceId	-12.0736
▁concurrency	-12.0736
Walke	-12.0736
▁pluggable	-12.0736
platformHeight	-12.0736
TalendDataSource	-12.0736
73227	-12.0736
▁thinning	-12.0736
▁bigger	-12.0737
▁emailDialog	-12.0737
▁trimmed	-12.0737
▁credit	-12.0737
dropbox	-12.0737
▁3.1.1.	-12.0737
▁inspection	-12.0737
spock	-12.0737
▁testbed	-12.0737
▁indented	-12.0737
:744)	-12.0737
yyyy	-12.0737
▁rewritten	-12.0738
▁SDSC	-12.0738
▁08:45:	-12.0738
▁camelContext	-12.0738
FactoryBean	-12.0738
▁analytic	-12.0738
▁mono	-12.0738
▁Race	-12.0739
/1.2/	-12.0739
Transacted	-12.0739
fieldByName	-12.0739
ProcessBuilder	-12.0739
ScannerImpl	-12.0739
▁Assumptions	-12.074
▁alphabetically	-12.0741
wmq	-12.0741
▁worse	-12.0742
CodeVisitor	-12.0742
▁slashes	-12.0742
▁honored	-12.0742
Expiry	-12.0742
sims	-12.0743
▁efficiently	-12.0744
csj	-12.0745
ResourceManager	-12.0746
gitignore	-12.0746
4/	-12.0747
▁CloudPush	-12.0747
SendTo	-12.0747
▁friends	-12.0748
▁queryKey	-12.0748
▁Adapter	-12.0748
opera	-12.0748
READY	-12.0749
rossie	-12.075
▁Avro	-12.0752
▁radius	-12.0753
▁Sonar	-12.0753
Anonymous	-12.0753
▁Chinese	-12.0753
▁subclasses	-12.0753
▁False	-12.0753
taniumSDKUpdater	-12.0753
▁unnecessarily	-12.0753
▁navButton	-12.0753
▁translated	-12.0753
▁devkit	-12.0753
▁SCM	-12.0754
nonexistent	-12.0754
dataLoader	-12.0754
▁deferred	-12.0756
▁conference	-12.0756
ixty	-12.0757
▁Workflow	-12.0757
Undeploy	-12.0758
AR	-12.0758
MobileModule	-12.0758
hashCode	-12.0758
▁Connectivity	-12.0759
▁superuser	-12.0759
▁styleguide	-12.0759
:215)	-12.076
Standardize	-12.0761
:61616	-12.0761
▁realized	-12.0761
▁guaranteed	-12.0761
▁rack	-12.0761
▁brand	-12.0762
▁RCP	-12.0762
surefire	-12.0762
Copy	-12.0764
MSBuild	-12.0767
doBuild	-12.0768
▁isolate	-12.0768
+8/	-12.0769
▁reopened	-12.0769
▁stdClass	-12.077
▁slash	-12.077
▁10.04	-12.0772
ExceptionHandler	-12.0772
▁splitter	-12.0772
▁essential	-12.0773
▁Though	-12.0774
▁readability	-12.0777
▁'50%'	-12.0777
FetcherTest	-12.0777
▁cConfig	-12.0777
▁ANTLR	-12.0778
▁elapsed	-12.0778
ended	-12.0778
▁DataCat	-12.0778
▁Activities	-12.0778
▁repeatCount	-12.0778
▁programming	-12.0779
▁DHT	-12.0779
▁exclusive	-12.078
▁14:36:15,18	-12.078
▁UsernameToken	-12.078
▁"*"	-12.078
▁disappeared	-12.0781
testDb	-12.0781
▁materials	-12.0781
▁overloaded	-12.0781
▁4.1.2	-12.0783
xbf	-12.0784
Keystore	-12.0784
▁centered	-12.0785
▁extraction	-12.0787
instcal	-12.0787
▁Initially	-12.0788
▁brew	-12.0789
▁ingestion	-12.079
▁Openstack	-12.079
▁sampling	-12.079
▁disconnect	-12.0791
Isolator	-12.0791
supergroup	-12.0795
:247	-12.0795
LVL	-12.0795
▁sky	-12.0796
fileset	-12.0799
▁wrapping	-12.08
12181	-12.0801
▁Prod	-12.0801
▁nicely	-12.0802
▁qana	-12.0803
▁HDF	-12.0803
▁FYI	-12.0803
▁\[	-12.0803
▁fetched	-12.0803
▁DH	-12.0803
▁Audit	-12.0803
ISOM	-12.0803
▁mgmt	-12.0803
▁armeabi	-12.0804
▁Explore	-12.0804
▁boundary	-12.0804
▁WatchKit	-12.0804
▁DocumentViewer	-12.0805
▁rootWin	-12.0806
▁Decide	-12.0807
Intercepting	-12.0809
▁rowtitle	-12.081
86\	-12.081
▁Arrow	-12.081
▁descriptors	-12.0811
▁commandBar	-12.0812
▁conflicting	-12.0812
▁mockups	-12.0813
▁timers	-12.0815
▁keyboardType	-12.0816
.2	-12.0817
▁nova	-12.0818
▁Kill	-12.0819
clicked	-12.0821
▁positioned	-12.0822
USE	-12.0823
_0.1.	-12.0824
CastException	-12.0826
▁sphinx	-12.0829
Initializer	-12.0829
▁density	-12.083
▁compressed	-12.083
▁CoaddPsf	-12.083
▁TaskStatus	-12.0831
▁footprints	-12.0831
▁indices	-12.0832
▁Accepted	-12.0835
▁computed	-12.0837
5.0-	-12.0842
disabling	-12.0844
▁accessors	-12.0844
▁costs	-12.0845
▁rebuilding	-12.0846
Non	-12.0847
▁varying	-12.0849
:102	-12.0852
▁Approximat	-12.0852
RIM	-12.0853
▁YES	-12.0855
▁sqlite	-12.0856
▁postgresql	-12.0856
IG	-12.0859
▁StreamPlugin	-12.0859
(&	-12.0864
▁Pipeline	-12.0864
:"#	-12.0868
▁FileSink	-12.0869
▁overwrit	-12.087
▁SAS	-12.0873
▁measured	-12.0873
once	-12.0874
▁5.1.0	-12.0874
▁hosted	-12.0874
▁AppC	-12.0878
1242	-12.088
▁asciidoctor	-12.0882
▁revise	-12.0882
▁Standalone	-12.0882
ine	-12.0885
Take	-12.0886
tokens	-12.0886
Logs	-12.089
Labels	-12.0891
▁AM	-12.0896
▁trick	-12.0897
▁Launcher	-12.09
▁him	-12.0901
▁urn	-12.0903
928	-12.0903
▁ModuleRegistry	-12.0904
initializing	-12.0905
1.0	-12.0907
▁Optional	-12.0908
▁Configured	-12.0908
▁grows	-12.0908
:191)	-12.0909
2|	-12.0909
▁asciidoc	-12.091
▁qproc	-12.0911
Suggest	-12.0912
experimental	-12.0913
▁semicolons	-12.0913
lv	-12.0921
▁commas	-12.0923
reporting	-12.0926
138)	-12.0928
ConnectionPool	-12.0934
packaged	-12.0938
▁recovering	-12.0939
:175	-12.0939
▁Fiber	-12.0939
▁crashed	-12.0941
▁computers	-12.0941
▁'\	-12.0941
validation	-12.0944
DeploymentsPath	-12.0944
▁targeted	-12.0946
902	-12.0946
▁Restrict	-12.0948
▁reconnection	-12.0948
▁MBeans	-12.0949
▁Man	-12.0952
Sources	-12.0953
▁responsibilit	-12.0953
Faster	-12.0957
▁increases	-12.0957
4%	-12.0961
▁Algorithm	-12.0961
▁semantic	-12.0962
CMake	-12.0963
▁plots	-12.0964
▁Transfer	-12.0967
▁PARAM	-12.0968
:98)	-12.0969
▁nec	-12.0976
eign	-12.0979
▁[0.0	-12.0981
FK	-12.0981
▁...............	-12.0983
ization	-12.0983
▁Inbound	-12.0985
▁Less	-12.0985
▁SimpleModule	-12.099
▁Keys	-12.0991
▁consult	-12.0992
▁alternatives	-12.0994
▁Outbound	-12.0994
jobserver	-12.0994
▁ApertureFlux	-12.0995
▁choices	-12.0995
:302	-12.0998
▁syncing	-12.1005
checked	-12.1005
apm	-12.1006
cy	-12.1008
▁':'	-12.1009
#/	-12.1011
▁Touch	-12.1014
▁baz	-12.1019
375	-12.102
10-13	-12.102
Edge	-12.1021
▁44	-12.1022
▁grant	-12.1024
suffix	-12.1028
▁Calls	-12.1029
DES	-12.1031
2.0	-12.1031
▁Figur	-12.1037
▁stages	-12.105
▁edges	-12.1054
MI	-12.1055
64,	-12.1061
hil	-12.1064
▁marks	-12.1065
▁ModuleOptions	-12.1068
▁inclusion	-12.1068
deploying	-12.107
▁stor	-12.1071
▁Static	-12.1075
▁blur	-12.1078
▁Too	-12.108
NCT	-12.1081
▁reside	-12.1084
▁Spec	-12.1084
▁hints	-12.109
▁emulat	-12.1091
edList	-12.1092
▁land	-12.1092
JobIn	-12.1095
▁6,	-12.1097
Flu	-12.1103
▁Deleted	-12.1103
erverApplication	-12.1105
▁publisher	-12.1105
runTask	-12.111
▁die	-12.1111
decoder	-12.1117
▁Font	-12.112
>;	-12.1121
▁Contacts	-12.1126
:#5	-12.1131
les	-12.1133
FutureI	-12.1135
gressIndicator	-12.1138
▁periods	-12.1141
▁Fields	-12.1143
1218	-12.1143
▁References	-12.1145
IDLE	-12.1148
▁RFCs	-12.1148
▁integers	-12.1151
▁3.5.0-	-12.1151
▁soft	-12.1153
▁efforts	-12.1156
▁1"	-12.1157
Ready	-12.1157
MD	-12.116
▁locators	-12.1161
▁mv	-12.1168
▁structured	-12.1169
▁Implemented	-12.1171
▁wildcard	-12.1171
▁Top	-12.1172
▁cname	-12.1173
▁fb	-12.1174
StepExecution	-12.1174
round	-12.1175
][	-12.1177
90)	-12.1178
▁4.8	-12.1182
:69	-12.1185
Progress	-12.1186
ssh	-12.1187
eph	-12.1193
▁tracker	-12.1195
appstore	-12.1202
28/	-12.1206
Load	-12.1208
Apps	-12.1215
Lists	-12.122
▁usages	-12.122
gp	-12.1221
Disk	-12.1222
▁commandline	-12.1222
12]	-12.1224
TO	-12.1229
▁esb	-12.123
▁Components	-12.1232
!!!	-12.1232
422)	-12.1234
np	-12.1238
olumnAnalysisSql	-12.1239
▁IR	-12.1242
▁MacOS	-12.1245
▁118	-12.1246
:130	-12.1252
▁inferencing	-12.1254
ke	-12.1258
MO	-12.1258
assum	-12.1261
▁manipulate	-12.1262
▁----------	-12.1264
▁filesystems	-12.1266
[5	-12.1268
ence	-12.127
AP	-12.1271
PR	-12.1275
Over	-12.1277
▁generat	-12.1286
9,	-12.1286
Distributed	-12.1298
ni	-12.1298
:164	-12.13
lbl	-12.1308
▁categorize	-12.131
Bu	-12.1311
▁arm	-12.1312
Single	-12.1313
-29	-12.1315
▁45	-12.1316
▁Listener	-12.1321
▁82	-12.1321
mClass	-12.1324
-230	-12.1329
▁FS	-12.133
metric	-12.1331
DropAdapter	-12.1331
▁videos	-12.1332
1008	-12.1345
▁epics	-12.1349
veToPhotoGallery	-12.1355
ctor	-12.1357
ctivityForResult	-12.1361
▁onerror	-12.1364
refs	-12.1365
▁demonstrat	-12.1369
Distribute	-12.137
▁delegates	-12.1373
qs	-12.1378
spit	-12.1382
▁lo	-12.1383
EP	-12.1383
argument	-12.1386
▁onload	-12.1388
0-8	-12.1389
▁te	-12.1392
...</	-12.1399
▁jersey	-12.1405
Startup	-12.1407
▁exp	-12.1409
doesn	-12.1409
unit	-12.1413
▁cons	-12.1416
▁egg	-12.1418
▁0.10	-12.1419
▁Sort	-12.142
ingException	-12.1421
Back	-12.1425
===============	-12.1425
Results	-12.1431
Connections	-12.1435
Be	-12.144
▁spend	-12.1441
_<	-12.1454
:139	-12.1458
MesosTest	-12.146
1126	-12.1462
▁asset	-12.1463
turns	-12.1465
act	-12.1467
DataBuilderImpl	-12.1467
Other	-12.1468
75)	-12.1469
nypoint	-12.1473
▁Potential	-12.1474
:62	-12.1477
▁reregister	-12.148
incoming	-12.1482
#!/	-12.1501
▁vary	-12.1501
:243	-12.1502
Region	-12.1505
▁distribut	-12.151
22-	-12.1511
▁car	-12.1514
dca	-12.1519
badges	-12.152
RT	-12.1526
▁partner	-12.1529
1234	-12.1529
927	-12.1532
▁determines	-12.1533
1">	-12.1535
Supervisor	-12.1538
lz	-12.1541
cts	-12.1542
Errors	-12.1549
▁ui	-12.1549
▁3.0.2.	-12.1555
▁derby	-12.1556
-41	-12.1558
problem	-12.1559
▁dismiss	-12.1562
???	-12.1562
:72	-12.1564
CN	-12.1565
▁Kindl	-12.1565
-47	-12.1568
▁Callback	-12.1571
▁contextid	-12.1574
DS	-12.1587
▁sci	-12.1587
▁Resolv	-12.1589
583	-12.1593
fixed	-12.1596
▁Wu	-12.1596
560	-12.1603
visible	-12.1605
pa	-12.1606
Meta	-12.1607
▁manipulat	-12.161
▁bi	-12.1611
▁6.1	-12.1611
ible	-12.1613
selection	-12.1617
idiom	-12.1619
bound	-12.1627
assigning	-12.163
\"	-12.1637
Inside	-12.1639
sURLConnection	-12.1643
initial	-12.1648
SET	-12.1648
indexer	-12.167
getName	-12.1671
entity	-12.1675
Includes	-12.168
animation	-12.1686
lets	-12.1688
▁usergrid	-12.1692
520	-12.1692
aving	-12.1693
▁apple	-12.1693
textField	-12.1693
generator	-12.1694
break	-12.1696
Manage	-12.1696
COM	-12.17
always	-12.17
XXXX	-12.17
__.	-12.1703
XYTransform	-12.1704
offer	-12.1705
relations	-12.1706
Course	-12.1709
//////////////	-12.1709
cannot	-12.171
bl	-12.1711
suite	-12.1713
▁dash	-12.1714
Extend	-12.1714
aM	-12.1714
regression	-12.1715
._	-12.1715
DefaultList	-12.1718
ory	-12.1719
CpEntityManager	-12.1724
SchedulerDriver	-12.1725
jointcal	-12.1725
real	-12.1729
warning	-12.1731
03)	-12.1732
learn	-12.1734
Cookie	-12.1734
wrong	-12.1734
CCS	-12.1735
▁Theme	-12.1735
embed	-12.1735
syntax	-12.1738
rather	-12.174
instances	-12.1742
typedefs	-12.1743
Down	-12.1743
graph	-12.1743
LY	-12.1744
(__	-12.1744
authorize	-12.1744
TitaniumSDK	-12.1747
JLine	-12.1747
Emulator	-12.1747
NCSA	-12.1748
stat	-12.1749
Top	-12.1749
abort	-12.175
chain	-12.1754
Router	-12.1754
blank	-12.1754
notice	-12.1755
optimistic	-12.1756
MDL	-12.1756
equiv	-12.1757
transformations	-12.1758
Tizen	-12.1758
unexpected	-12.1758
Fiber	-12.176
touchEnabled	-12.176
paypal	-12.1761
bootstrapbase	-12.1761
filterName	-12.1761
829	-12.1761
lookup	-12.1762
FLUX	-12.1764
▁qualifier	-12.1764
SyntaxError	-12.1764
Iterator	-12.1764
delimited	-12.1764
identical	-12.1764
Jolokia	-12.1764
picojson	-12.1765
svnkit	-12.1765
Gather	-12.1765
Validation	-12.1765
refactoring	-12.1766
OAuth	-12.1766
GaussianFlux	-12.1766
slider	-12.1766
Enterprise	-12.1766
ArrayList	-12.1767
durastore	-12.1767
Wrap	-12.1767
EXPECTED	-12.1768
Domain	-12.1768
polygon	-12.1768
random	-12.1768
OpenShift	-12.1768
SQLite	-12.1768
SSLTest	-12.1769
sheets	-12.1769
scatter	-12.177
▁deploys	-12.1771
xy	-12.1773
Permissions	-12.1773
exposure	-12.1774
keyspace	-12.1774
hdfsjdbc	-12.1774
▁Met	-12.1775
Failure	-12.1775
TCP	-12.1777
Evaluate	-12.1777
-17	-12.1778
free	-12.1779
appicon	-12.1779
unicode	-12.178
stdout	-12.178
SS	-12.1782
Sometimes	-12.1782
▁-@	-12.1784
FC	-12.1787
drawing	-12.1788
separated	-12.1788
combo	-12.1789
Distribution	-12.1789
▁3.0.3.133	-12.179
Pipeline	-12.179
modal	-12.1793
Instrumentation	-12.1794
qproc	-12.1794
Demo	-12.1797
ideally	-12.1797
dated	-12.1798
▁forget	-12.1798
they	-12.18
slot	-12.1801
FI	-12.1801
:641	-12.1802
Like	-12.1805
Animation	-12.1813
problems	-12.1814
warnings	-12.1817
pportunity	-12.1824
pix	-12.1826
▁operational	-12.1826
cycles	-12.1827
<(	-12.1827
CmdLineTask	-12.1828
Chunk	-12.1836
▁additions	-12.1837
▁osx	-12.1838
ht	-12.1839
ClassN	-12.1839
37)	-12.1841
▁Strings	-12.1842
BPM	-12.1842
Placeholder	-12.1844
▁guard	-12.1845
dead	-12.1846
AndroidS	-12.1848
mflow	-12.185
sop	-12.1852
linker	-12.1854
logged	-12.1855
▁Se	-12.1856
Ifx	-12.1859
drag	-12.186
working	-12.1863
sibility	-12.1864
look	-12.1865
Compile	-12.1866
ioslib	-12.187
TestClass	-12.1873
collections	-12.1875
:77	-12.1878
dict	-12.188
9|	-12.188
Pre	-12.1885
▁dbserv	-12.1888
-49	-12.1891
Mo	-12.1894
Installed	-12.1895
▁flicker	-12.19
▁Topic	-12.1902
▁Fetcher	-12.1907
13,	-12.1908
▁320	-12.191
SsiSession	-12.1912
SAX	-12.1915
▁Improvement	-12.1917
▁testcase	-12.1918
products	-12.1919
▁improv	-12.1923
edia	-12.1925
},	-12.1927
▁24,	-12.1931
▁recommendation	-12.1931
Sasl	-12.1937
35,	-12.1942
▁principle	-12.1942
dax	-12.1943
▁technique	-12.1948
artifacts	-12.1948
180	-12.1949
▁backward	-12.1951
.|	-12.1956
Completion	-12.196
▁Warn	-12.1962
▁anticipate	-12.1963
▁Commit	-12.1966
secs	-12.1966
Streaming	-12.1966
▁styl	-12.1966
▁Retrieval	-12.1968
▁SIG	-12.1968
▁rerun	-12.197
Detector	-12.197
▁160	-12.197
gdb	-12.1971
▁114	-12.1971
▁popula	-12.1972
00)	-12.1972
007	-12.1974
attaching	-12.1975
=127.0.0.1	-12.1976
3.2.1.	-12.1976
letter	-12.1978
▁clic	-12.1984
Fatal	-12.1984
▁Orienta	-12.1985
OwnedINS	-12.1985
ContainerEEEEERK	-12.1985
PromiseINS	-12.1985
Deblend	-12.1985
EncPLDatabase	-12.1985
PHOTO	-12.1985
testIsContains	-12.1985
Handshake	-12.1986
ProtectionDomain	-12.1986
201410281	-12.1986
DocMarkupPlugin	-12.1986
Significant	-12.1986
▁FUNCTION	-12.1986
('####	-12.1986
DISABLED	-12.1986
Distinct	-12.1986
coremotion	-12.1986
lucene	-12.1986
photometryKron	-12.1986
▁Anvil	-12.1986
▁Headquarters	-12.1986
▁NumPy	-12.1986
▁RDBMS	-12.1986
▁bisect	-12.1986
▁cyber	-12.1986
▁division	-12.1986
▁sectionVeg	-12.1986
▁unreachable	-12.1986
++/4.9/	-12.1986
Favorite	-12.1986
entroidExtractor	-12.1986
▁Eigen	-12.1986
Balloon	-12.1986
SERVER	-12.1986
▁boundaries	-12.1986
▁xrdssi	-12.1986
ENCODING	-12.1986
ProgressMonitor	-12.1986
SaveableHelper	-12.1986
Xaml	-12.1986
oleSorter	-12.1986
▁Likewise	-12.1986
▁consumption	-12.1986
▁{{\-\-	-12.1986
00000001022	-12.1986
VIDEO	-12.1986
▁Forbidden	-12.1986
▁umbrella	-12.1986
takeScreenshot	-12.1986
▁JPEG	-12.1986
DropTarget	-12.1986
SimpleJobTask	-12.1986
semver	-12.1986
busybox	-12.1986
▁scrum	-12.1986
battery	-12.1986
▁altogether	-12.1986
CENTER	-12.1986
PARSE	-12.1986
▁'1	-12.1986
amd	-12.1986
getElementById	-12.1986
=8081	-12.1986
JTreeMap	-12.1986
▁EditPDF	-12.1986
=64000	-12.1986
▁heav	-12.1986
▁convey	-12.1986
▁interim	-12.1986
apigee	-12.1986
▁specialization	-12.1986
▁possibilities	-12.1986
NNNN	-12.1986
bula	-12.1986
DatabaseMetaData	-12.1986
FTPClient	-12.1986
▁experiencing	-12.1986
ydeMBP	-12.1987
ProcessImageTask	-12.1987
GetProperty	-12.1987
onAnyI	-12.1987
reviewbot	-12.1987
'=>$	-12.1987
▁VALUES	-12.1987
▁Moreover	-12.1987
Jasper	-12.1987
Xmx	-12.1987
▁datestr	-12.1987
pilot	-12.1987
0.000+0000']	-12.1988
gvfs	-12.1988
SHARED	-12.1988
jpmml	-12.1988
xjc	-12.1988
mapreduce	-12.1988
customerservice	-12.1988
▁docViewer	-12.1988
defineClass	-12.1989
▁loose	-12.1989
nativePath	-12.1989
▁naturally	-12.1989
Continuous	-12.1989
▁allowEditing	-12.1989
DOCTYPE	-12.1989
▁accomplished	-12.1989
ContainerMatcher	-12.199
▁Various	-12.199
EGL	-12.199
ProjectPlugin	-12.199
gtk	-12.199
BundleLoadJob	-12.199
▁Roby	-12.199
▁Unix	-12.1992
▁barImage	-12.1992
▁Organizer	-12.1992
wordpress	-12.1992
JSIndex	-12.1993
uary	-12.1993
▁externalized	-12.1993
▁meantime	-12.1993
▁accurately	-12.1993
QuotaInfo	-12.1994
openInputStream	-12.1994
▁CommandInfo	-12.1994
PING	-12.1995
JY	-12.1995
▁MPI	-12.1996
▁provisioned	-12.1996
▁notebook	-12.1996
appendRow	-12.1996
▁CloverPro	-12.1997
▁restoring	-12.1998
▁compact	-12.1998
"{	-12.1998
▁RESULTS	-12.1999
getChildren	-12.1999
()'	-12.1999
":"","	-12.1999
WHEN	-12.2
▁suffer	-12.2
Compilation	-12.2001
Eric	-12.2001
▁extensive	-12.2001
erro	-12.2001
▁eviction	-12.2002
▁Agree	-12.2002
▁spacing	-12.2002
Leadership	-12.2003
noshade	-12.2004
windowsphone	-12.2004
▁Skipped	-12.2004
▁CVS	-12.2004
▁syntactical	-12.2004
2-54-2	-12.2005
DownloadManager	-12.2005
▁SIGTERM	-12.2005
▁derivatives	-12.2005
▁Consistency	-12.2005
▁MariaDB	-12.2005
▁Retina	-12.2005
▁CameraGeom	-12.2005
▁PHD	-12.2005
▁scrollableView	-12.2005
▁ADG	-12.2005
LIPS	-12.2005
elescope	-12.2005
▁okay	-12.2005
▁omitted	-12.2006
▁Later	-12.2006
▁29	-12.2006
▁technically	-12.2007
ContainerLogger	-12.2008
nual	-12.2008
▁DESC	-12.2009
▁monthly	-12.2009
▁RTL	-12.201
▁webpage	-12.201
▁afwTable	-12.201
▁seperate	-12.2011
▁Unify	-12.2011
▁MapModule	-12.2011
▁collector	-12.2012
▁outliers	-12.2012
▁gathered	-12.2012
Travel	-12.2012
2014_09.0	-12.2012
▁readonly	-12.2013
▁dumped	-12.2013
▁Typically	-12.2013
MediaModule	-12.2014
pertest	-12.2015
Article	-12.2015
orientations	-12.2015
▁regenerated	-12.2015
▁optimize	-12.2015
TIL	-12.2015
▁inefficient	-12.2016
336699	-12.2016
▁1.3.1	-12.2018
▁wcontrol	-12.2018
haml	-12.2018
▁redeployed	-12.2019
▁flush	-12.202
dinger	-12.202
▁reproducing	-12.202
trisberg	-12.2021
codel	-12.2021
sSome	-12.2021
▁readout	-12.2021
erCacheHttpTest	-12.2022
SourceCatalog	-12.2022
:244	-12.2022
▁shorter	-12.2022
▁instruct	-12.2023
▁37	-12.2023
▁87	-12.2024
▁spawn	-12.2025
▁inconsistency	-12.2025
▁leaked	-12.2026
▁decode	-12.2027
Specific	-12.2027
▁0%)	-12.2028
-191	-12.2028
▁Regard	-12.2028
:140)	-12.2029
▁monitored	-12.2029
▁ACTIV	-12.2029
lert	-12.203
▁Demonstrate	-12.2031
▁UG	-12.2033
▁ndarray	-12.2033
CAM	-12.2033
▁salesforce	-12.2033
▁thousand	-12.2034
▁English	-12.2034
▁Profiling	-12.2034
▁tDqReportRun	-12.2034
▁battLevel	-12.2034
▁NSUserActivity	-12.2034
▁hintText	-12.2034
▁unlimited	-12.2034
▁JCC	-12.2035
▁mimetype	-12.2036
▁ingested	-12.2036
▁packet	-12.2036
▁forgot	-12.2037
setuplib	-12.2038
▁carry	-12.2038
▁loan	-12.2038
▁depth	-12.2039
▁unzipped	-12.2039
Coordinate	-12.2041
▁MVC	-12.2041
▁Scala	-12.2042
▁SlaveID	-12.2043
Aggregator	-12.2044
▁Unicode	-12.2045
/16	-12.2046
▁typo	-12.2046
▁discarded	-12.2047
▁complication	-12.2047
26-18	-12.2048
▁rightButton	-12.2048
▁parties	-12.2048
99/	-12.2048
ightweight	-12.2049
▁Sequence	-12.2049
01/	-12.205
2.6	-12.205
▁136	-12.2051
▁reconfigure	-12.2052
▁Metrics	-12.2054
▁kick	-12.2054
Props	-12.2055
loglive	-12.2056
9393	-12.2056
▁capitalization	-12.2057
▁Ju	-12.2058
WorkbenchWindow	-12.2058
▁arrives	-12.2058
▁rollover	-12.206
▁1.1.2	-12.206
▁mflows	-12.206
▁NODE	-12.2061
aggregate	-12.2063
▁trap	-12.2063
▁adhoc	-12.2063
sales	-12.2063
▁PROVIDER	-12.2063
:176	-12.2063
▁DeepSource	-12.2063
▁fontWeight	-12.2063
rfc	-12.2064
909	-12.2064
▁3.4.2	-12.2064
▁Demand	-12.2065
▁padding	-12.2065
▁Stout	-12.2066
TitaniumLaunch	-12.2071
ImageCaptcha	-12.2072
▁square	-12.2073
▁Calibration	-12.2075
usable	-12.2075
▁ACCS	-12.2075
▁Raw	-12.2075
ncaught	-12.2078
▁HA	-12.2079
▁Valid	-12.2079
▁Todo	-12.2082
cleansing	-12.2084
▁tracked	-12.2085
▁5.0.1	-12.2085
timer	-12.209
▁malloc	-12.209
DiskIn	-12.209
▁accommodate	-12.2092
▁Czar	-12.2092
▁lua	-12.2093
▁MASTER	-12.2093
▁material	-12.2093
▁Why	-12.2098
mac	-12.2099
▁Snapshot	-12.21
▁openWindow	-12.2103
HttpResponse	-12.2103
}/{	-12.2103
+'-	-12.2106
▁CRMService	-12.2107
PT	-12.211
▁Record	-12.211
Transactional	-12.2111
▁TIS	-12.2112
▁08:4	-12.2112
LS	-12.2113
▁degrees	-12.2113
▁Ly	-12.2115
▁kv	-12.2115
fatal	-12.2118
▁illegal	-12.2119
:54	-12.212
127.0.0.1	-12.2121
▁axis	-12.2121
/4.0.0.	-12.2121
▁Allocator	-12.2122
CurrentPosition	-12.2123
▁distorted	-12.2123
NSt	-12.2124
▁RGraph	-12.2124
getResource	-12.2124
▁FrameworkID	-12.2129
configurations	-12.2129
IMAP	-12.2134
▁MY	-12.2134
20140915175720/	-12.2135
ndexContainerJob	-12.214
▁edition	-12.2141
lAl	-12.2141
▁differs	-12.2143
▁Require	-12.2143
108	-12.2143
▁interfere	-12.2143
▁assignmentid	-12.2145
▁3.2.2	-12.2146
▁+++	-12.2147
tHours	-12.2147
likely	-12.2149
73)	-12.2151
▁evalJS	-12.2151
▁rightNavButton	-12.2153
▁JAX	-12.2154
▁dispatcher	-12.2154
▁IMO	-12.2156
▁summarize	-12.2156
▁(_	-12.2158
▁searches	-12.216
▁40%	-12.2161
SISTENT	-12.2162
137	-12.2166
EF	-12.2167
req	-12.2169
StreamServer	-12.217
2012	-12.217
nominal	-12.2172
▁Psfs	-12.2172
▁Quick	-12.2174
VersionInfo	-12.2174
▁attr	-12.2174
21)	-12.2174
CAST	-12.2175
BIT	-12.2176
▁closure	-12.2177
▁Redirect	-12.2178
▁fringe	-12.2179
▁Instances	-12.2179
▁TiContext	-12.218
▁Maintenance	-12.218
1.15	-12.2181
▁UPID	-12.2182
▁drain	-12.2185
-95	-12.2185
sax	-12.2186
12.0	-12.2187
646	-12.2188
▁Who	-12.2188
▁ingress	-12.2188
▁Gate	-12.2189
▁joins	-12.219
Visible	-12.2191
NC	-12.2193
▁regexp	-12.2194
▁Big	-12.2196
▁Calling	-12.22
▁Success	-12.2201
bob	-12.2202
orphaned	-12.2206
▁17:05:2	-12.2208
▁exiting	-12.2208
▁svnkit	-12.2212
▁picojson	-12.2212
(1);	-12.2216
▁processFile	-12.2217
cmid	-12.2217
▁mysqld	-12.2218
▁Parent	-12.2227
Reconcil	-12.2229
▁unlike	-12.2231
▁Writ	-12.2232
▁springxd	-12.2236
0-5	-12.2239
▁elasticsearch	-12.2241
ace	-12.2241
▁prefs	-12.2242
▁administrators	-12.2242
dbName	-12.2243
-56	-12.2243
unAnalysisAction	-12.2244
▁Streams	-12.2246
▁Groups	-12.2249
239	-12.2249
Counter	-12.2254
forced	-12.2257
▁matters	-12.2257
QS	-12.2259
TiCore	-12.226
earchBar	-12.2265
HibernateAccess	-12.2267
▁shapes	-12.2268
▁logcat	-12.2272
▁enums	-12.2272
▁signing	-12.2277
44)	-12.2277
▁parameterized	-12.2278
stores	-12.2279
731	-12.2281
▁sched	-12.2284
ompound	-12.2285
▁Expect	-12.2292
▁dtype	-12.2293
updateLabel	-12.2295
▁coadds	-12.2303
▁hub	-12.2304
▁coord	-12.231
▁grouped	-12.2316
▁GN	-12.2317
:252	-12.2319
""	-12.2319
:75	-12.2322
AWT	-12.2322
751	-12.2328
▁equals	-12.2329
7.	-12.2331
▁labeled	-12.2332
lastRow	-12.2333
▁func	-12.2336
onStart	-12.2338
▁transactional	-12.2341
1),	-12.2344
Aware	-12.2346
▁flat	-12.2348
Gz	-12.235
▁pack	-12.2351
▁{0}	-12.2354
▁4.0.1	-12.2357
▁//$	-12.2359
▁pk	-12.236
Persister	-12.2362
▁Shut	-12.2364
:205	-12.2364
32)	-12.2366
Such	-12.2366
have	-12.2366
▁participate	-12.2367
getData	-12.2368
SUI	-12.2368
766	-12.2369
TestSupport	-12.2373
▁1.7.5	-12.2373
desp	-12.2374
▁scoped	-12.2375
▁Plans	-12.2379
▁pids	-12.2385
▁price	-12.2386
▁lives	-12.2387
▁[12:1	-12.2387
yui	-12.2403
▁Bus	-12.2403
▁jvm	-12.2404
▁Mov	-12.2405
earer	-12.2406
433	-12.2407
▁2.2.	-12.2412
_*	-12.2412
StoreException	-12.2415
Platforms	-12.2422
Xi	-12.2422
Graph	-12.2424
▁invocations	-12.2425
▁Receive	-12.2426
aximum	-12.2429
emulators	-12.243
cal	-12.2432
▁Engine	-12.2433
▁frames	-12.2433
▁enterprise	-12.2435
▁chains	-12.244
▁serialize	-12.2446
-------+--------	-12.2447
mt	-12.2448
▁Su	-12.245
Po	-12.2451
48,	-12.2453
-2015	-12.2455
▁pos	-12.2455
▁book	-12.2456
▁prepend	-12.2457
▁keyboardToolbar	-12.2458
:136	-12.2462
\\\\	-12.2466
▁expert	-12.2469
176)	-12.2471
devtools	-12.2472
cent	-12.2473
▁intend	-12.2474
1.5	-12.248
▁Small	-12.2481
▁Successful	-12.2481
BackgroundColor	-12.2484
:808	-12.2485
▁2000	-12.2485
▁vendor	-12.249
▁Possibl	-12.2491
▁4.0.	-12.2499
▁survey	-12.2499
----	-12.2501
▁thinks	-12.2502
360	-12.2508
:161	-12.2514
▁Normal	-12.2516
▁moments	-12.252
Reply	-12.252
ltered	-12.252
▁146	-12.2523
0000"	-12.2523
TextView	-12.2526
connected	-12.2526
/6	-12.2529
0000/	-12.2535
▁bb	-12.2535
nq	-12.2541
▁3.5.	-12.2545
-35	-12.2552
▁0.26.0	-12.2554
▁remov	-12.2556
105)	-12.2557
SaveOrUpdate	-12.2558
jr	-12.2559
▁Chain	-12.2562
▁visits	-12.2562
assembled	-12.2564
ww	-12.2569
▁JavaDoc	-12.2575
extrane	-12.2576
low	-12.2579
▁Jdbc	-12.2586
904	-12.2588
ChangeRoot	-12.259
ConsumerJob	-12.2592
▁skipp	-12.2597
:181	-12.2599
[...]
